<unk>
<pad>
..
▁이
▁그
▁아
▁하
▁사
▁정
▁대
▁나
ᄏᄏ
...
▁지
▁,
▁한
▁있
으로
▁자
▁.
▁안
하는
▁국
▁문
▁일
▁다
!!
들이
▁가
하고
니다
▁보
▁조
▁어
▁없
▁기
??
에서
▁말
▁개
~~
▁저
▁ᄏᄏ
는데
▁무
▁해
▁수
▁인
▁우
▁전
▁시
▁국민
▁모
▁진
....
▁미
▁공
다고
▁중
▁아니
이다
▁못
라고
▁부
들은
▁더
▁내
▁여
▁잘
▁사람
▁생
▁만
▁주
▁세
▁문재
▁제
▁왜
▁거
▁나라
▁너
▁니
는거
▁일본
▁당
▁바
▁것
▁경
▁우리
▁마
으면
▁민
▁같
▁뭐
▁되
▁살
▁비
▁알
▁고
하면
해서
▁않
▁오
▁소
▁위
▁생각
▁유
▁남
▁이런
▁많
▁할
까지
이라
통령
다는
▁북
▁진짜
▁문재인
나라
▁좋
▁불
▁중국
▁한국
▁반
▁선
▁하는
▁신
하지
들어
▁도
니까
▁의
세요
렇게
이나
리고
▁쓰
하게
▁지금
한다
▁조국
▁죽
▁상
대로
▁돈
▁좌
▁누
▁노
▁검
하다
▁받
▁입
▁구
▁집
▁대통령
▁박
▁대한
▁애
지만
▁참
인데
▁빨
▁-
에게
▁재
▁장
▁"
▁북한
▁좀
▁민주
▁김
▁그냥
▁감
해라
해야
▁맞
▁했
민국
한테
네요
합니다
,,
▁정치
▁또
▁(
▁언
▁역
▁서
▁원
▁동
▁때
▁최
레기
▁'
면서
▁적
구나
▁있는
라도
▁ᄏᄏᄏ
▁처
▁차
▁법
▁년
이고
▁얼
같은
▁정부
▁방
▁인간
▁청
▁문제
▁친
▁대한민국
▁하고
▁분
보다
!!!
부터
▁이제
▁성
는게
▁모르
습니다
▁강
▁현
댓글
▁물
▁정신
▁교
▁아닌
들아
▁그래
▁실
주의
▁결
▁발
사람
▁외
▁정말
▁검찰
▁배
려고
▁새
▁무슨
▁같은
▁올
야지
▁그런
▁달
▁망
이지
▁관
▁댓글
적으로
▁먹
▁정권
▁연
▁미국
▁욕
▁돌
▁명
▁너무
소리
▁그러
겠다
▁힘
▁경제
▁영
으니
▁피
이냐
▁추
▁지지
▁민주당
▁본
입니다
▁넘
▁기사
인가
▁총
▁치
▁건
▁하나
▁단
▁계
▁난
▁근
▁통
리는
한당
▁문재앙
▁손
처럼
어서
▁놈
▁저런
!!!!
▁뭔
???
것도
라는
갱이
돼지
들의
▁몰
▁자기
▁매
ᄍᄍ
들을
▁양
하네
▁우리나라
▁하지
▁심
▁아무
▁막
▁독
적인
▁잡
는지
자가
이가
▁들
지고
▁세금
이라고
▁없는
이네
▁두
▁자한당
된다
겠지
▁들어
▁국가
▁좌파
▁걸
▁간
▁얼마
▁싶
들도
▁평
▁쓰레기
ᄒᄒ
▁눈
아서
▁요
▁이게
놓고
▁머
▁따
가리
▁확
▁있다
▁어떻
문에
▁그렇게
잖아
말고
▁죄
▁종
▁천
▁행
▁어디
▁안되
▁후
▁예
봐라
~~~
▁없다
▁한다
▁임
▁야
▁아직
▁잘못
▁자유
▁절
▁ᄏ
▁앞
▁스
▁등
인이
▁쳐
▁끝
▁그리고
국민
정부
하냐
▁화
지도
▁어떻게
▁코
▁판
▁당신
▁다른
▁아니라
▁줄
이야
▁제발
▁파
▁누가
정권
▁과
▁)
▁열
▁버
▁싸
▁투
▁빨갱이
▁믿
▁똑
▁군
▁드
근혜
▁나오
인지
해도
▁토
다가
의원
하나
▁속
▁조선
▁목
▁학
▁벌
없는
.....
▁에
한거
▁언론
하는거
▁많이
▁이렇게
▁직
가는
어야
▁악
▁광
시다
자들
▁필
더니
▁억
▁답
있는
▁웃
▁싫
뉴스
▁그만
▁국회
▁사회
▁특
▁그럼
시키
▁엄
▁똥
▁소리
▁뒤
▁친일
에는
거리
▁얼마나
▁이상
▁태
지는
▁삼
▁몇
▁탄
어요
이는
보고
스크
기는
▁수준
▁타
▁살아
▁표
▁보고
▁설
▁운
▁사람이
▁이번
▁게
▁권
▁공산
어도
가서
▁떠
▁증
▁얘
ᄏᄏᄏ
▁황
는다
정은
하는데
을까
▁폭
▁아니고
▁와
▁여자
▁수사
▁될
천지
▁편
▁박근혜
범죄
▁%
▁..
와대
▁국민들
었다
▁윤
▁제대로
▁보수
▁온
▁뭘
▁거짓
▁변
▁선동
▁호
▁해야
는건
에도
▁필요
▁사실
▁나라가
정도
▁응
▁짓
????
▁세상
▁날
▁완
▁느
▁뽑
▁만들
▁네
▁월
▁작
▁여기
주고
^^
겠네
구만
▁쪽
▁출
▁떨
▁논
▁ᅳ
이면
로나
▁조작
리가
▁갈
▁이해
새끼
▁꼴
▁다시
했다
▁마스크
밖에
▁회
▁내가
▁이미
▁아베
▁말고
▁먼
▁니가
나요
▁만들어
▁돌아
▁하면
▁좋아
▁모든
마라
▁허
하기
▁개돼지
다니
▁책
▁?
아니
▁청와대
▁정의
▁철
▁계속
하자
▁아닌가
▁근데
▁찍
▁모두
▁초
▁놀
▁아직도
▁합
▁틀
▁...
가지
이랑
▁미친
▁피해
▁ᄍᄍ
▁보면
▁조사
▁니들
▁좋은
▁존
▁아이
러운
▁취
▁탄핵
▁:
▁포
없이
▁큰
이라도
▁이건
--
▁누구
깨문
▁~
▁해라
▁이유
▁팔
▁좌빨
▁말이
▁꼭
아야
~~~~
▁신천지
▁함
하니
▁백
▁아주
같이
시켜
하라
▁한번
▁알고
하면서
▁서울
▁프
▁까
▁사람들
▁ᄒᄒ
▁많은
▁선거
텐데
▁새끼
자는
▁역시
▁빠
▁경찰
하시
거다
먹고
▁언제
▁짱
▁퍼
▁순
▁봐
▁병
▁코로나
기를
보면
▁한심
▁시간
던데
어나
▁당연
▁약
없다
▁된
▁범죄
이니
한다고
**
▁홍
▁대깨문
▁바로
▁금
▁그게
▁그래서
▁자식
는것
▁깨
하는게
기업
기에
어라
▁재앙
더라
인들
▁무능
▁국민이
▁기업
▁글
▁뭐가
▁그렇
▁별
▁환
▁전라도
▁책임
▁트
........
▁극
▁가족
대통령
▁가짜
▁토착
성이
수가
시민
치고
▁반대
▁절대
▁이러
▁없어
거지
▁총선
당이
▁김정은
ᅲᅲ
▁위해
▁딸
▁국회의원
기가
▁꼬
;;
와서
▁니들이
겠냐
▁탈
▁결국
주는
▁아니다
지않
▁완전
▁부모
이란
는거지
중에
주세요
▁때문에
▁국민들이
▁받아
▁대구
▁준
대체
▁산
▁자신
▁늘
▁나라를
▁국민을
▁빼
▁적폐
▁기자
▁정도
▁세계
▁핵
사가
▁빨리
▁같이
▁독재
▁달창
▁인정
▁장관
▁어떤
▁충
▁질
일보
▁번
▁여론
▁있는데
이상
왜구
고있
▁폐
거나
▁뻔
동안
것이
전에
▁보내
려라
▁패
지말고
민주
▁찾
▁떨어
▁권력
▁황교
▁딱
▁상황
▁남자
▁밝
스럽
장관
▁사기
▁요즘
걱정
▁이거
이라는
▁용
체가
▁뇌
운동
▁없고
▁이용
무원
시고
▁항
▁ᄉ
놈들
▁있었
▁세월
사는
것들
되는
치는
▁짜
▁혼
라이
▁도대체
아라
▁너희
▁합니다
▁사람들이
하여
지가
▁써
▁전부
때문에
▁보여
▁ᄌ
▁시작
▁()
▁다음
▁베
건데
▁더불
조건
▁멍
▁밥
자리
▁구속
▁귀
▁지들
▁마음
▁현실
▁거짓말
▁협
▁먼저
국가
▁아님
▁식
장이
▁어느
경원
▁데
▁시키
능력
다면
▁희
▁!
▁얘기
▁그래도
▁아니면
▁세월호
▁정상
▁응원
끼리
▁뉴스
▁국민의
하며
▁얼굴
▁토착왜구
▁길
가고
▁음
▁어쩌
▁대단
▁무조건
▁걱정
▁이젠
▁머리
개혁
▁/
▁법무
▁지역
려는
되면
생각
수처
대한
▁사과
기도
▁듣
▁하는데
하세요
▁못한
▁그리
▁갑
▁사고
한국
들에게
했는데
것이다
▁그걸
촛불
▁처벌
▁본인
리지
당은
▁공무원
▁점
해야지
▁다니
▁어찌
수있
▁나경원
▁외교
스로
▁모르는
▁안보
▁행동
▁있을
▁삼성
▁해도
▁압
경제
▁키
▁엄청
▁나도
보니
▁썩
▁문죄
▁기레기
건가
▁맘
▁지원
들고
▁역사
▁각
▁끌
▁솔
한데
▁내려
▁쇼
▁가능
▁지랄
▁정책
리면
▁아니냐
▁씨
▁하는거
려면
▁가지고
대가리
▁둘
▁것이
아먹
▁우리가
▁갖
▁앞으로
▁것이다
▁만원
▁카
......
겁니다
,,,
라지
▁가장
▁볼
▁대가리
▁시민
▁복
▁방송
조사
▁공수처
인간
▁사건
았다
▁대통령이
▁저렇게
럼프
▁궁
▁;
▁니네
▁넌
▁중요
▁급
▁은
남불
▁아무리
기고
▁터
▁되는
▁먹고
▁윤석
라면
하겠
로남불
▁촛불
▁전쟁
▁하루
▁일본이
하던
▁외국
▁황교안
▁승
▁가서
▁된다
▁지지율
팩트
▁형
▁꺼
▁ᄂ
▁난리
▁징
려서
▁개인
▁해결
▁입국
▁부끄
▁친일파
세먼
▁쓸
▁나쁜
르고
▁일베
▁높
▁문재인이
되고
▁찬
▁같다
▁밀
거야
▁일반
▁뿐
었는데
▁해서
ᅳᅳ
건지
라서
도록
▁오늘
조작
들만
▁진정
기사
▁메
나서
▁더불어
머니
▁리
▁창
▁검사
한게
▁이야
이버
▁풀
에서는
대는
▁증거
받고
▁이나라
정신
드는
▁반일
▁집단
▁없이
대표
▁헛
▁관심
▁무식
▁불법
간다
▁힘들
▁만든
▁최고
▁서민
▁팩트
▁트럼프
▁개소리
▁미래
수도
▁조국이
는거야
▁숨
▁나온
원이
아요
▁나는
▁침
▁개혁
자를
나오
▁못하는
▁암
▁매국
대가
▁울
▁능력
바리
▁찌
난다
▁교육
것들이
자들이
▁알바
드시
▁프로
▁골
▁있네
▁이래
해주
▁같은데
▁착
리를
▁부정
을때
▁불매
▁괜
▁진보
심히
▁붙
▁불쌍
내고
봐야
▁공개
인은
▁양심
문제
▁더러운
▁정부가
▁있나
▁여성
▁진실
▁있으면
▁넘어
마다
▁갔
▁챙
▁평화
▁사이
▁곳
▁정신차
▁가만
▁멍청
▁면
이러
지마라
할때
▁스스로
란다
보자
▁투표
일이
▁사는
▁확실
▁업
▁담
▁틀딱
▁미세먼
▁지켜
이들
됩니다
▁거지
▁무시
▁제일
▁있고
▁석
▁임명
▁잠
▁크
▁듯
▁털
▁애들
▁=
▁말을
▁채
▁해외
▁맞는
시간
▁대학
▁사형
▁바보
▁민주주의
▁위한
이팅
▁문제가
▁체
▁한국당
▁멀
▁몸
▁맨
명박
▁가짜뉴스
▁결과
▁축
▁사람은
▁공부
지면
▁솔직
▁페
▁전세
있다
▁뻔뻔
▁돼지
▁열심히
▁없애
마디
▁있어
▁안되는
보네
했다고
▁따라
▁살인
조선
동산
▁어디서
▁시켜
지지
▁인권
▁여러
던가
▁인생
▁내로남불
으면서
야한다
▁간첩
▁밝혀
▁조용
▁사퇴
차피
▁밖에
워서
▁ᄇ
▁그런데
는거다
부분
▁않는
▁지나
▁중국인
진다
▁젊
▁못하고
▁됐
▁이름
▁당장
▁국내
▁잡아
▁문빠
져라
▁짱깨
▁것도
수준
순실
아닌
▁않고
▁좃
적이
겠지만
▁ᅳᅳ
▁보다
만큼
▁쥐
▁디
▁그때
진짜
▁과거
린다
▁네이버
▁모르고
나는
▁로
상이
▁정신병
▁무서
들과
▁ᅲᅲ
력이
▁거기
▁하네
▁국민들은
▁끼
▁반성
▁결혼
▁윤석열
▁봐라
▁법무부
에서도
▁있냐
국이
▁대표
▁너네
라리
▁처음
스트
할수
식이
▁의원
▁커
은거
▁월급
▁색
▁뭐냐
▁나가
▁검찰개혁
고싶
▁대체
▁반드시
▁우한
▁다들
그러
▁보니
아치
무현
▁앉
▁탓
▁해야지
▁안하고
▁말도
시대
▁하면서
▁않았
▁공산당
▁이명박
▁궁금
▁인간이
▁술
▁것은
거라
거든
▁있으니
것을
▁일본은
▁알아
지를
그래
▁공산주의
▁사회주의
▁않은
▁어차피
▁택
일본
은이
같다
장을
것은
▁안된다
▁삶
▁혼자
▁안타
▁교수
▁유시민
▁격
▁부동산
해보
▁하시
국에
으니까
,,,,
▁모습
▁봤
▁마라
다는게
▁군대
▁올라
▁조금
단체
▁있지
가요
져야
▁원래
말이
▁솔직히
▁휴
선거
정치
▁감사
줘야
구요
▁최저
문재
기로
▁가지
▁생각이
▁평생
▁나이
▁걍
▁당연히
▁싫어
ᅮᅮ
려야
▁아는
▁서로
하라고
히려
▁사진
▁퇴
▁공정
랍니다
▁지가
들한테
놈이
▁조선일보
▁판단
▁종북
▁뒷
▁받고
해요
▁비교
▁ᄒ
▁광주
▁도와
▁어려
▁곧
없고
▁학교
인거
▁운동
▁인간들
정희
식으로
자나
이었
▁정치인
▁쓴
▁헌
는거냐
▁사람들은
▁읽
인다
▁잔
가지고
▁노무현
상도
▁자꾸
▁사라
▁차라리
▁애국
▁그러니
▁낫
문회
가면
▁싶다
했던
▁비판
▁진심
▁친구
▁하냐
이라면
님이
▁조선족
▁국민은
▁찾아
▁기본
하다고
▁미세먼지
▁이유가
어야지
▁니들은
하지만
▁쪽바리
르는
시아
우고
▁최순실
▁다르
▁겁
▁문죄인
명이
▁맨날
▁–
▁놈들
수사
▁오히려
로운
▁회사
▁지들이
▁없네
▁하지만
▁학생
▁알았
▁때문
▁빌
▁봉
▁문재인은
시키고
▁위해서
▁보는
공자
!!!!!!!!
▁사용
▁화이팅
▁야당
▁아냐
▁규
▁어린
▁매국노
▁넣
까요
▁내년
▁거의
▁그거
▁했는데
▁좋겠다
▁하는게
▁있다고
▁ᄋ
▁있습니다
▁나서
▁무엇
▁""
▁지키
▁멋
▁보이
▁한심한
▁싹
▁종교
▁그럴
하는건
▁뜻
자고
성을
나면
사람이
▁기억
▁장난
들이다
더만
▁기회
이러스
▁이기
▁독립
▁묻
▁사랑
에선
가족
▁한마디
던지
▁왔
▁아들
가라
한건
▁티
▁일부
한다는
금지
시장
▁저러
▁왕
▁변호
어버
▁집값
▁하여
▁신경
▁졸
▁정당
▁견
▁태극
▁땅
▁비리
▁항상
▁얻
▁ᆞ
지요
▁현재
▁대부분
▁한다고
노총
지마
▁자빠
▁노조
임금
▁고생
▁옳
나고
▁뿌
▁그동안
▁혹
시길
에요
군요
자기
▁없는데
▁낮
▁문통
▁닭
바로
▁존재
▁시장
▁국정
▁일이
▁자리
▁의료
▁자격
▁몰아
겠다고
▁드러
▁국제
되어
▁있음
▁감옥
▁가는
▁박정희
▁끝까지
▁일제
사일
▁심판
걸로
▁정부는
▁활
▁~~
▁나와
▁쉬
▁관련
▁괴
심이
▁개판
▁나왔
▁헛소리
인줄
▁나올
▁이야기
듯이
▁쉽
두환
봐도
▁깜
▁주변
▁너는
먹는
▁자살
▁그나
▁전혀
▁직접
도가
▁연예
사파
▁주둥
▁낙
▁지금은
줘라
▁분명
▁엄마
▁),
▁말하는
▁내용
▁도움
파트
▁물어
분이
총장
▁이제는
▁클
▁자체가
▁논리
▁민족
학생
▁그건
▁이재
지게
시는
▁무섭
▁한국인
▁되었
세금
▁인터
사건
▁청문회
했으면
▁남의
냐고
▁상관
▁선택
▁기다
▁것을
집단
주면
제로
선동
나게
▁사법
▁그랬
▁놓
----
▁똑같은
▁).
▁아닌데
▁응원합니다
▁어이
▁중국에
▁최악
▁양아치
▁최소
우는
▁함께
보는
▁....
▁훨
▁농
하지말고
!!!!!
▁여행
▁일단
▁전문
▁했다
때는
하는지
▁눈치
▁그것도
세력
정이
더라도
사회
▁위선
기만
좌파
이로
수록
▁돈이
▁슬
분들
▁맛
▁일을
▁혐
▁노력
▁주장
▁페미
이런
▁되어
▁목숨
만원
▁접
언론
아도
▁의사
거냐
▁방법
겹다
▁역대
▁검찰이
▁기술
▁가격
▁준비
업자
▁일본에
▁이정도
▁심각
▁광화
▁아닙
▁믿고
한국당
을텐데
▁더럽
교육
▁끌어
▁이해가
▁하니
▁흔
▁없음
▁대변
▁ᄀ
▁바뀌
부대
▁온갖
▁공감
▁의혹
돌아
▁잊
▁전세계
만이
▁우리는
▁쓰고
든지
▁는
많은
▁우파
▁것들이
▁무능한
▁대기업
당히
상을
▁싶은
자로
▁교회
▁처럼
▁너도
하네요
▁까지
지말
▁돈을
▁젊은
하니까
하려고
▁태극기
▁상식
▁힘내
▁입니다
▁전두환
▁혈
▁비난
습니까
▁재앙이
▁가만히
▁아마
내는
▁어쩔
▁사람을
느라
▁일자리
▁대응
온다
▁하늘
▁기대
여서
▁모른
놈들이
쩝쩝
▁알아서
▁부터
▁괜찮
▁말은
사고
안부
▁위험
▁늙
▁똑같
합시다
▁대책
▁대해
▁엉
▁감염
라니
▁수출
▁것들
▁사기꾼
▁나중에
▁누군
이라니
▁하다
▁확인
할까
져서
수를
쓰레기
▁원숭
▁뭔가
민주주의
쓰고
▁이것
▁확진
정을
▁북한에
공산
▁들이
▁하세요
▁철저
▁겨
▁밑
▁무너
▁바랍니다
▁보호
▁들고
▁그저
그네
▁재산
해야한다
▁치료
▁똑같이
▁그대로
▁하자
▁이럴
스럽다
▁말로
레임
위해
▁미국이
만에
▁칼
▁생각하는
▁오래
▁수준이
단다
▁시대
▁의미
▁통일
▁답답
▁남편
하고있
▁느그
트남
▁병원
▁덮
정책
검찰
▁세금으로
▁당신이
▁뭉
▁나베
▁이걸
중국
▁있다는
▁가라
▁되고
▁자랑
▁보기
▁몰랐
▁아닐
깝다
▁아니지
▁기생
▁생각해
지원
이트
▁의심
▁염
▁없었
▁많다
▁받을
▁청원
▁인사
▁건강
▁동네
우리
▁본다
▁기부
방송
중동
▁노동
▁이리
▁옹
▁표현
▁즉
▁깨끗
생활
겠나
▁아니라고
▁문재앙이
▁만들고
▁바이러스
졌네
▁그러면
▁판사
관계
만한
▁불매운동
▁짱개
▁더이상
▁최저임금
지금
▁사태
▁하나도
▁여기서
▁애초
어가
▁국개
▁택시
▁조용히
자들은
냄새
빨갱이
는가
▁주사파
조국
사람들
철수
할거
▁물론
▁억울
▁모자
▁막말
▁전화
▁가진
▁여당
▁대선
▁수도
▁악플
하러
▁진정한
▁깔
▁중국이
▁꿈
▁척
▁**
▁놈들이
▁집회
겠다는
인가요
물이
▁왜구
▁쓰는
▁ᅲ
▁라고
▁봐도
을듯
▁않는다
▁족
▁아무것도
▁영화
되지
을거
북한
▁{
▁특히
리네
▁포기
▁북한이
▁미사일
▁안전
이를
보수
▁피해자
▁투자
▁굴
▁고통
▁.%
▁위안부
한것
인의
▁ᄃ
고도
했네
▁되지
잖아요
▁관계
겠네요
보내
▁및
▁자국민
진국
▁낳
▁부끄럽
▁고소
▁운전
여행
팔이
▁출신
대한민국
▁설치
▁자영
▁집권
가가
▁한국은
▁보도
▁바꿔
▁아파트
진핑
▁힘든
▁뽑아
▁과연
▁상대
.......
▁옛
▁만드
▁지도
▁저지
▁범
하려
▁아예
가야
주도
▁".
받아
▁악마
▁이상한
▁강남
▁님
▁발전
슬람
두고
루킹
▁정은이
▁이익
머리
▁대놓고
▁지난
자식
력을
▁뭐라
▁베트남
▁분노
▁벌써
▁가져
▁ᄒᄒᄒ
▁발언
▁광화문
▁총장
으며
▁올려
당한
반도
▁이놈
▁생겼
▁치매
없어
민주당
▁없어서
▁사망
▁저게
▁에휴
▁없지
▁놈이
겠습니다
질이
▁기가
독재
▁옹호
▁딴
▁하지말고
▁극우
▁지금까지
▁대한민국을
지역
▁덜
▁웃기
▁뛰
▁좌좀
▁입장
▁사업
▁한테
▁하는짓
하겠다
▁떼
▁잃
▁잘못된
▁민주화
미애
인을
잡고
▁본인이
▁유튜
▁행복
▁민노총
▁굳
한번
▁할머니
시오
▁문씨
▁옆
▁그나마
▁대한민국의
자도
▁시위
▁러
나보네
인듯
▁신고
명을
▁할수
▁벗
▁에라이
▁미쳤
▁바꾸
▁주고
사를
▁아버
▁법을
겠죠
되었
▁이딴
▁생각을
▁훨씬
▁아가리
▁사이비
▁한국이
▁인간들이
▁저거
▁되면
▁투기
▁서울대
시켜라
▁바라
▁유공자
▁지금도
가능
▁지지하는
▁미통
▁아프
?!
▁두고
//
▁관리
▁돌아가
▁방사
으려고
▁해주
▁우선
▁갑자기
▁죽여
▁덕
▁집안
따위
▁그렇지
▁조중동
▁죄다
▁직원
▁제목
▁정확
▁조국은
학교
▁싫다
▁생긴
▁한심하다
는구나
▁늦
▁돼
▁호구
▁대한민국이
▁어휴
봅니다
자의
체를
달라고
▁부탁
제에
▁말씀
▁생산
▁^^
▁없으면
▁닥
▁살고
중권
▁이래서
했냐
줌마
▁말아
하는것
▁테
에만
▁중앙
▁ᄌᄅ
▁애초에
▁꼬라지
▁헐
혜택
▁잇
▁받았
▁개가
▁민주당이
▁때려
혜원
▁삭
하더니
▁소득
▁부산
인들이
▁못하게
▁법무부장관
▁강제
가락
▁짐
▁부족
▁빼고
▁기사를
짓을
▁ᄍᄍᄍ
▁압수
▁살아라
▁영원
시킨
위에
▁판결
▁라
였다
▁죽은
▁안나
▁원전
까봐
▁없다고
▁무식한
▁문제인
없네
같은데
땜에
▁구라
떨어
▁박원
이게
애들
▁제정신
▁똑바로
▁애들이
▁휘
싶다
좋은
그냥
▁유니
▁나라는
려나
서는
~!
폐렴
▁환경
레이
▁충분
▁쌍
지로
▁미개
▁!!
▁뜯
▁물러
▁미쳐
▁전에
▁단식
▁쪽팔
▁인민
▁놓고
▁든
▁칭
▁분열
▁남한
▁않나
▁수십
▁찬성
▁나오는
▁짓거리
했지
▁멍청한
▁있어야
▁범죄자
▁희생
▁육
니깐
▁단체
하신
▁비슷
수는
▁문정부
▁있을까
▁불러
말로
▁감성
▁많아
하지마라
▁기생충
▁금지
▁자기가
▁강력
▁시진핑
▁아닙니다
▁똘
▁짜증
었으면
▁있는지
▁집에
▁선동질
사태
▁나라냐
▁우리도
▁당선
▁따로
▁정권이
어준
립니다
▁진중권
▁자유한국당
클로
▁조심
받는
▁쪼
▁통합
간에
먹을
먹은
해봐라
화가
독교
▁품
미터
▁이번에
▁돌려
▁받는
조차
있냐
감정
▁걷
있고
▁경험
▁부르
▁지방
낙연
▁납
▁경제가
▁도둑
▁유치
폭행
지네
부로
▁불안
그런
▁방사능
기들
이든
대중
▁생활
일까
▁감정
▁맡
▁폭망
▁헬
▁국방
▁그래야
▁빈
▁들어가
▁쑈
▁어렵
검사
▁노인
구석
▁끊
▁알려
▁흐
▁승리
▁ᄍ
▁물타
▁못할
▁****
장에
▁이런거
▁쓰레기들
▁으
했고
▁빨아
구먼
▁대통령님
득권
▁한국에
치가
▁만드는
상에
▁을
▁당신은
▁저질
국민이
▁재판
▁청년
▁운영
▁핑
▁효
▁안된
▁."
▁당시
▁공격
▁조국을
▁북괴
▁있어서
▁게임
리자
나간
일을
▁명단
▁씨부
▁수입
▁요구
▁다행
▁맞다
▁드루킹
▁흘
▁주는
▁꼴통
▁점점
▁가면
▁새끼들
▁미안
▁줘
▁아닌가요
▁표창
▁인터넷
▁미군
▁하는지
▁뒤집
▁받은
었나
▁희망
▁장사
▁협박
▁아니야
▁국민들을
▁이러니
▁취급
▁비례
▁옷
▁하던
▁문정권
▁정보
하지않
▁처리
▁언제까지
▁자유민주주의
▁만명
이도
▁느낌
부모
하다가
▁민주당은
▁혹시
▁짖
▁없으니
▁송
▁유니클로
▁중국은
▁일어나
그리고
▁유지
▁적당히
▁관광
▁존나
▁이중
▁기준
▁어제
본다
▁바란다
▁추미애
▁숙
▁헌법
▁쩝쩝
새끼들
▁헤
▁러시아
▁광고
▁우리나라는
할듯
어리
▁{\
▁신뢰
▁세상이
문재인
▁일본의
당에
▁감방
심을
있네
아닌가
▁등등
▁의견
▁논문
▁손혜원
▁사람도
▁ᄉᄇ
보기
▁느끼
▁안가
어주
▁너같은
났다
들이나
리기
▁프레임
▁나라에서
▁소비
▁문대통령
▁돈벌
▁일어
수색
치를
▁십
▁쟤
님들
오는
▁!!!
사람은
여자
▁썩은
▁개발
▁지껄
재앙
대고
▁바른
말을
복을
▁몰라
????????
▁대통령은
▁저기
이제
▁매일
해주세요
도를
▁죽을
▁노예
▁뇌가
▁쉽게
하셨
보단
리게
▁좋아하는
▁가슴
졌다
▁있는거
),
▁인구
아버
러워
▁웃긴
▁고맙
▁특검
▁자존
▁성공
▁여자가
이네요
▁결정
▁발표
▁경우
▁",
공개
▁통계
▁유튜브
구리
▁뭔지
악한
▁이낙연
▁쉴
▁거리
▁입만
▁그러니까
▁일으
▁가르
▁일본을
렸다
▁남탓
입니까
바닥
▁저리
민족
놓은
▁하기
▁지구
▁확실히
▁굳이
▁답이다
이지만
지막
까운
보다는
▁만약
쯧쯧
▁무서운
한다면
▁즐
▁많네
▁발생
▁ᄅ
기관
▁ᄊ
겠어
▁이후
일뿐
만도
▁대통
길래
▁하지마라
▁나라에
▁(),
▁발악
▁옛날
▁교활
타령
▁자가
▁이민
▁ᅵ
▁대해서
▁믿을
▁됩니다
▁예전
투표
의를
▁문화
▁기득권
▁늘어
▁벌어
▁마세요
정말
한테는
▁변호사
▁싸움
으로서
▁고마
쳐서
▁살기
▁자한당은
▁똑똑
때문
도로
▁자신의
상황
집회
▁보자
▁물고
▁아나
▁보여주
겠어요
▁나라의
▁착각
때까지
부가
되서
▁훈
▁혜택
▁-,
사실
▁--
▁용서
있는데
▁달라
▁보인다
있나
라인
▁씹
▁냄새
▁나와서
장은
가를
우면
▁누굴
▁뽑은
▁많은데
이기
▁정치를
▁[
▁답이
▁레
때도
쟁이
▁다녀
▁힘을
▁모양
▁없나
▁없습니다
▁밝히
▁했던
상은
▁친중
▁이지
▁않을
▁나오면
▁바람
▁+
▁돈으로
▁정작
▁죄가
▁한거
▁안철수
▁자한당이
▁마찬
▁아줌마
▁문제는
신이
▁대한민국은
▁군사
▁동물
▁어이가
▁뭐라고
그리
▁빵
▁조직
▁신문
▁여론조사
받을
▁세상에
▁우습
▁존경
▁갖고
▁정경
▁비싸
하겠지
▁전국
누라
었네
▁압수수색
▁운운
▁말아먹
리냐
교수
▁한반도
잘못
적이고
▁없을
▁안돼
▁근거
보지
▁리얼
▁뜨
▁물타기
▁잘하고
▁개념
▁빚
▁격리
▁거다
안하고
맙시다
▁죽창
▁한다는
제품
▁대신
▁평등
청산
▁여러분
▁아무도
▁갖다
▁또라이
으라고
▁손해
▁생기
▁다를
▁엘
용이
▁이제와서
▁주식
▁입국금지
▁자빠졌네
▁풍
준다
▁떠나
했다는
?????
▁철저히
▁꾸
▁떡
▁삶은
▁지옥
▁없냐
십니다
▁시원
▁규제
비가
▁대단한
워라
일은
▁목사
저리
아니냐
▁경상도
▁무죄
▁타령
▁고발
▁국가가
▁가정
것들은
갔다
▁선생
▁문슬람
▁연구
나가
▁최소한
없음
준표
테니
▁반도
이래
씨가
▁폐지
시켜야
지어
짜리
▁ᅮᅮ
▁마약
▁쉴드
필요
▁안타깝
▁둘다
화를
▁ᄇᄉ
인도
▁어려운
하길
했나
▁기관
▁눈물
▁왠
미향
았는데
신도
▁원숭이
▁놔
▁기분
▁홍어
▁밀어
있으면
▁국민들의
▁했으면
▁맞지
▁도덕
▁빠져
▁힘들어
▁만나
▁첨
▁하긴
▁동원
▁아베가
▁필요한
프로
▁수구
▁참으로
공산당
▁마지막
▁한명
무시
▁ᄆ
경찰
조리
▁일은
성은
▁수가
▁취업
▁시절
▁철수
▁못해
▁소설
▁집에서
▁향
쓰는
거고
셔서
아님
거면
▁팬
로지
넘들
▁자기들
돈으로
짓거리
아니고
▁대처
▁우린
아니라
시절
▁대다
▁이루
▁개돼지들
▁합시다
▁등신
▁그러나
▁공짜
▁오르
▁방역
▁해체
도는
▁댓
▁법무장관
▁고민
▁좋다고
▁문제다
하다는
▁정치적
▁말만
버리고
▁움
원전
▁받아야
림픽
▁정신병자
한거지
▁도망
▁흑
▁역겨
▁한번도
좌빨
▁이념
▁좃선
누리
느냐
시키는
당하고
스러운
말은
▁외치
상으로
▁빙
▁문가
▁정신나간
▁가고
▁빡
노조
▁강간
▁크게
아냐
▁자동
▁개월
좋아
▁대깨문들
▁생각하고
▁한국의
금을
▁가해
시면
▁남북
었지
▁뺏
속에
▁기소
▁기독교
▁미국은
들에
이에
▁좋다
▁감싸
▁정권을
▁자위
▁물건
▁죽어
▁검찰은
아가
▁자본
▁대단하다
▁참여
운전
▁믿는
▁죄를
▁정유
▁뭐하는
▁법이
책임
▁소대가리
자유
권을
비리
▁진행
을까요
▁싸우
▁봐야
내가
년이
참에
▁겁니다
▁생각은
▁가야
▁마치
농단
▁공장
▁나쁘
▁나온다
니가
었다고
께서
는데도
~~~~~~~~
▁주세요
▁중요한
▁와서
▁유럽
..?
▁해봐라
▁통과
으나
▁꼼
은데
▁실망
▁우리나라가
▁짓을
놈들은
▁박원순
하긴
▁연예인
▁김일
▁동맹
출신
▁어리
▁세력
▁한국에서
받은
▁자녀
하고는
▁무기
▁후보
▁뭔데
▁??
꼴통
았네
▁힘내세요
▁를
▁여경
▁우리의
▁그지
▁마찬가지
▁거부
질을
위를
럽다
놈의
▁인물
▁대출
▁직업
▁올리
~!!
▁성폭행
▁일본과
▁더욱
▁단어
▁씌
▁홍준표
달라
▁워
▁있다면
▁났
하는구나
오면
▁설명
▁지능
▁후손
할것
▁주민
놈은
안이
▁아빠
▁유승
▁됨
세상
전쟁
▁우한폐렴
▁팔아
나라가
▁되는데
하는거지
▁윤미향
▁괜히
▁던
▁현대
▁짤
▁자주
▁창피
▁전염
통수
제발
되는데
▁몽
많이
모양
▁정의당
▁변명
▁정권의
▁간다
했는지
었냐
시기
▁눈에
▁합의
▁이것도
제가
▁히
사기
▁포함
▁쫌
▁구분
▁김대중
▁뭐하냐
정부가
▁한달
▁최악의
▁하나님
▁이유는
▁대변인
지에
너무
아이
▁한국을
▁위조
▁불편
▁단순
▁끌어내
▁실패
예요
▁제품
줘서
▁욕하는
▁짐승
물고
▁섬
분에
연금
으려
▁별로
▁소름
감이
되냐
▁숫
▁미리
▁옮
▁완전히
▁보복
▁#
이자
▁긴
▁한일
▁혐오
▁적극
▁전체
했을
빨리
제를
그만
었던
와라
▁무리
▁구조
덩어리
네들
▁초등
▁묵
▁벌레
든가
▁깡
▁몇년
스럽게
▁그런거
▁핑계
사람들이
▁저도
▁마누라
소득
쳐먹
▁나불
▁욕먹
▁진실을
벌레
위원
▁나타
▁부끄러운
▁먹는
겠니
로는
▁영원히
▁동의
청원
▁미통당
▁배우
라시
▁음주
▁오로지
▁빨갱
법을
▁득
이며
▁만들어서
시요
▁위에
아주
▁아웃
해놓고
▁또한
▁되냐
▁북한은
다운
▁챙겨
르게
▁상태
▁활동
치기
▁칭찬
▁고려
▁에서
▁좆
▁흥
있어
▁당연한
▁안될
▁원하는
▁확진자
▁합리
활동
▁썼
▁감사합니다
▁무지
▁되는거
해봐
▁임기
아지
친다
장에서
그럼
▁함부로
▁이혼
▁듣고
▁정권은
▁찬양
▁뇌물
▁자영업
▁순간
▁하라고
▁거기에
▁줬
나네
▁자연
회사
▁언론이
빠진
▁경쟁
▁나눠
▁내부
▁일본으로
▁역겹다
▁알지
▁총선에서
▁찢
▁달창들
정부는
▁정부의
▁두번
위기
▁으로
▁맘대로
▁전형
세를
▁팔아먹
겠는데
발이
에게는
▁버티
▁이성
▁있지만
▁낸
▁임금
▁한남
나도
꺼다
▁놀아
▁홍콩
▁쫄
수로
▁배신
▁맹
▁움직
정의
▁달려
기자
▁마이
▁흉
▁정은
▁시험
▁중소
▁정상적인
소년
▁선진국
▁하여간
쓴다
대를
거리는
▁국개의원
스가
다른
▁나머
▁캐
▁맞아
것만
▁푸
저런
▁이참에
▁안하는
▁않으면
▁화가
▁충분히
스런
디어
내서
▁중국에서
▁시급
치면
▁모르겠다
▁굶
▁너가
▁검색
▁불리
▁밤
▁만큼
▁잡고
▁김정은이
▁브
▁보상
▁책임을
▁이어
앞에
임을
잡아
발전
▁양반
으세요
▁봅니다
▁짝
마트
▁초딩
보세요
제도
그릇
▁영향
▁하게
▁있는게
▁대화
위가
방에
아리
▁문재인과
▁큰일
알바
국의
셔야
안에
▁비정
대의
▁질문
▁왜이
▁취소
▁산다
것같
▁저딴
였는데
▁재미
▁모를
▁없다는
▁대박
▁널
▁정부에서
간첩
기나
▁부패
▁소리를
▁거기서
▁당하고
줄알
▁했다고
▁뭐야
▁분들
▁근무
관이
즈아
▁대통령을
▁사실을
▁틀린
하려는
▁느껴
▁애비
▁세뇌
이유
드립니다
고있다
▁있어요
▁하더니
시에
▁죽음
는다고
▁이만
▁반도체
▁하야
다니엘
▁~~~
▁자체
원에서
▁왜곡
▁건물
▁살려
▁보유
하시는
▁찍어
따라
교조
▁하는구나
▁너나
원은
▁타고
▁좌빨들
지나
▁아깝다
▁내고
부는
있음
▁추종
▁—
▁총리
낭비
기전에
▁새로운
~~~~~
스템
▁갑질
▁말한
▁모른다
▁성장
▁영웅
▁보통
▁애들은
▁배달
▁경찰이
정당
위로
▁부정선거
재산
▁직장
의식
▁남자가
았으면
▁안해
하지마
른다
▁블
판에
▁사장
▁빨갱이들
▁좌파들
씨는
나온다
리라
▁미치
▁한두
▁일부러
▁부모가
이죠
▁지지합니다
▁고용
▁치고
▁하라
▁어른
▁불쌍한
▁국산
▁이해찬
▁몰려
▁다시는
▁떳
▁좀비
................
▁자존심
는건데
서야
▁나라꼴
▁닫
▁그만해라
▁전기
▁민심
▁정도로
정권이
▁개나
▁천안
일베
일에
▁의무
저기
▁보이는
▁주제에
석희
▁무뇌
▁당당
▁목소리
▁자유당
▁꺼져라
탄핵
▁지금의
는건가
▁북으로
▁머리가
▁훌
▁쌀
져도
대변
격이
▁갔다
▁추천
▁추경
타고
▁박그네
▁겨우
▁모조리
▁난다
가도
하거나
권력
▁같아
▁라는
꼰대
했음
▁경제는
보험
▁쌓
▁황교활
▁노래
▁속이
▁가득
ᄃᄃ
망신
▁풀어
남아
되는거
).
▁인증
▁남녀
쳐라
으로는
▁조만
▁박근혜가
곳에
▁증명
▁앞에서
▁퍼주
▁명예
리나
더냐
수의
자인
인들은
▁세금을
▁챙기
매국
상태
▁결론
▁의료진
▁주둥이
▁욕을
▁임대
▁조롱
;;;
라스
▁국민에게
▁천벌
▁삽
는건지
▁괴롭
자한당
▁입에
▁냉
빕니다
▁데려
▁이다
▁폭력
패스
▁아버지
▁ᅢ
▁고위
▁잘한다
▁이분
▁이용해
▁먹을
▁권력을
겨서
▁혁
▁수백
▁ᄉᄁ
▁밖
▁쿠
▁여자들
▁꿀
라마
▁여론조작
▁들아
만들
▁장학
▁탈원전
▁중에
죄로
▁실제
▁엄청난
▁운동권
▁하지말
▁재벌
▁망해
▁안다
무슨
▁문재앙은
▁생각하면
▁쳐먹
▁몰라도
▁그렇고
▁뻥
▁높은
정보
하시고
▁멸
▁졸라
▁않냐
▁é
▁만세
봐요
법이
만들어
총선
▁된다고
▁가지가지
새키
과는
▁사전
버리
▁녹
자연
▁언젠
▁심지어
▁윗
▁그만큼
▁식민
▁일도
▁동안
롭게
▁반박
신문
▁어째
▁사상
▁에이
반대
▁흔들
▁윤석렬
▁사죄
세로
무리
▁이전
국으로
▁대한민국에
▁김일성
동네
▁일하는
▁오지
한척
공화
▁하려고
▁튀
▁후회
▁인성
▁남은
▁이득
▁음식
르스
▁너거
▁장기
▁바닥
매매
여야
▁전국민
▁멀쩡
▁전문가
▁옳은
▁다니는
▁파악
▁민생
▁말이다
▁???
주가
▁이정도면
▁봉사
▁뒤집어
느니
▁낫다
▁이시
▁아침
▁폭행
추행
리아
▁맞고
▁마음이
▁계획
▁부들
시나
시마
님은
▁잘살
▁(,
▁저는
외교
▁놈들은
▁대중
▁안나오
!!!!!!
▁이쯤
▁겪
▁축하
▁지하
▁문재인을
▁버스
▁평소
이구나
▁않다
▁그렇다고
▁맞는말
학의
규직
성장
모르
▁박살
▁이명박근혜
▁폭동
▁겁나
▁시간이
음이
▁없어요
▁모두가
▁사드
▁적어도
원도
봤자
원에
▁아이고
개발
끼들
▁$
▁이슈
함을
▁정신차려라
▁절대로
▁김경
▁정리
소미
▁(.
▁뿐이다
▁생명
▁예산
▁죽이고
▁젤
▁비핵
▁년간
▁돈은
장난
▁차별
▁안달
내야
▁알게
▁데리고
▁통제
▁재수
▁공약
히고
▁국민세금
▁충성
▁참고
▁생각한다
으신
▁유일
▁그것
▁나대
▁한미
▁가자
▁예상
▁뛰어
▁상황이
▁산업
▁하며
▁중국몽
▁무섭다
▁첫
▁하지마
▁올림픽
▁해주세요
▁국민들에게
▁하여튼
▁너의
▁시끄
▁잘하는
이여
▁기도
다시
▁거야
었고
▁국익
대에
▁남성
▁영어
석이
해줄
▁꺼져
▁떳떳
하지도
▁보면서
▁위협
적폐
▁줄어
했어
▁두려
▁중소기업
▁년전
▁분이
▁모지
▁우려
▁설마
ᄍᄍᄍ
▁못하
하다니
▁찔
▁북한으로
▁고등
▁되나
▁행사
▁공천
▁개입
아들
▁중공
▁하니까
▁외국인
▁쓸데
▁전교조
래기
세계
차별
==
친일
주택
▁앉아
▁이런게
▁고유
바른
▁정치적으로
▁이란
오고
▁복지
통일
▁정경심
▁약속
▁훌륭
이터
▁쏘
▁징역
선을
▁조만간
▁김어준
통합
할수있
▁이재명
▁기사가
▁-.
▁유리
에겐
▁정치인들
이라서
▁케
▁꽃
럽게
▁적폐청산
재판
▁고작
▁이만희
되나
석은
▁재난
지못
건가요
▁적용
▁장제
▁리얼미터
해주고
만으로
▁매우
▁이라고
▁개돼지로
▁아닌지
부를
▁공급
입국
▁있어도
비스
▁북한과
▁동양
▁이언
▁지급
충들
한심
이니까
▁경제를
▁반미
▁쯧쯧
▁벌금
달창
펀드
▁이런데
의가
▁미개한
▁청산
▁많아서
▁썩어
▁알면서
▁죽일
▁폰
▁저건
리는데
기지
▁버리고
▁허위
문재앙
▁부자
▁해당
▁유명
전히
▁안되고
▁조작질
▁지네
▁버닝
▁생각합니다
▁한게
세가
▁달고
▁비싼
▁안됨
▁해야한다
려도
시죠
▁그만하고
해지
이건
▁코스
▁끄
▁능
기다
▁지겹다
근데
▁정신이
리도
▁신기
있지
▁통해
▁붕
▁올랐
▁해산
마니
▁데모
▁강다니엘
어디
▁김정
▁지령
으론
▁정의로운
할게
▁부추
▁여기저기
대응
▁빤
때마다
▁닮
▁장악
▁오직
▁때문이다
레스
가네
▁각종
▁아이들
▁깜빵
▁인간은
▁조장
▁지소미
▁하는건
▁떠나서
▁지적
▁죽이
▁살다
사람들은
▁스트
▁연봉
▁싼
점이
하나요
광훈
▁중국의
▁떠들
▁인상
업체
잡이
▁시키고
▁티비
바라
▁할말
한지
▁힘들게
▁이것이
리다
▁방해
▁인간들은
▁작년
▁자신이
▁쏟
▁기록
▁콩
?...
▁그러게
▁못한다
▁웃기는
▁입으로
▁키우
봅시다
▁제가
부들
▁피해를
대도
했으니
보복
▁하셨
▁마시고
▁아이가
당을
▁내놓
▁중도
할려고
관련
한가
▁차단
율이
▁삭발
▁우습게
지사
거임
▁앞에
▁하는것
었음
▁공공
위한
▁해놓고
▁🐕
정도로
▁문재인의
▁가치
▁저능
없으면
▁문제지
▁판매
▁트럼프가
▁안하면
▁특혜
▁군인
▁것들은
▁모르나
애들이
었어
▁년동안
틀딱
국회
을수
▁순실
시켰
가며
▁뼈
▁남아
됐다
▁작은
고있네
워야
▁명복을
구멍
도안
▁지지자
▁며
가자
▁민간
▁제외
래도
▁보소
리로
훠훠
아는
하죠
▁여자는
▁수많은
▁좋아요
원을
때가
르면
▁구매
그래도
시킬
▁안됩니다
▁맥
호사
▁인재
▁겉
는것이
▁말라
▁지지율이
▁무시하고
생이
▁주인
▁할줄
▁잣
일도
였으면
버려
▁ᄁ
▁돈도
함이
주지
▁손석희
▁같습니다
▁놀고
▁시청
엘라
▁연금
▁비행
하에
▁살아야
▁오늘도
▁엿
▁엮
▁건드
▁인도
▁불쌍하다
▁베네
▁고집
▁조센
쪽으로
▁기사는
하하
랑스
▁늙은
인드
내려
▁염병
▁너희들
▁경기
...?
▁힘이
있게
장으로
사퇴
▁있나요
▁가즈아
▁파업
▁성추행
▁빕니다
▁있게
▁불가능
▁플
▁지식
누가
▁할까
줘도
피해
▁맙시다
▁안들
▁부담
▁떠들어
▁원칙
~?
▁어떻게든
▁걸린
다는걸
▁잘못을
▁예수
▁이래도
마나
▁친북
▁끌고
▁무역
▁도로
▁남을
아니다
▁담배
시지
▁언급
처리
▁말자
▁도움이
처벌
▁못차
▁경호
▁같아요
▁때는
▁뭐니
▁독립운동
군이
었다면
로서
▁자본주의
후보
▁측
▁감히
결과
▁이승
▁수치
▁뻔뻔한
영웅
▁기자가
싶은
▁대가
💙💙
분열
▁살았
▁지시
▁자료
▁깊
답게
▁최대
▁꼰대
▁죽어나
▁영상
▁테러
▁어쩔수
▁입학
▁낼
▁역할
▁천만
▁보네
▁삼성이
▁실수
▁국정농단
▁핵심
▁싶어
▁상대로
▁해명
날이
▁손가락
▁신도
▁당신의
미국
▁참석
민이
▁죽인
▁땡
인으로
히는
정권은
▁년이
▁부분
인사
▁쌩
▁검증
▁특징
▁ᄌᄂ
하시길
▁가난
▁구역
▁최고의
▁것입니다
▁ᄋᄋ
자체가
▁효과
적을
장도
▁보수가
렸네
지키
하든
박이
▁더한
▁인터뷰
때부터
코로나
▁거냐
▁메르스
것다
센터
▁태양
▁엉망
내라
여라
▁장학금
고싶다
▁자격이
마냥
▁다가
빠리
자체
일세
▁버닝썬
만을
▁안쓰
▁특별
▁독재자
▁있구나
▁뜯어
▁찍소리
▁현정부
▁탈북
▁윤총장
는거임
▁들은
▁찌질
▁칠
적은
아니면
""
▁//
마스크
랜드
라라
싸움
다는건
▁국가를
▁방탄
▁망신
단이
▁이겨
▁못된
▁악질
▁추가
▁한나라
▁연기
▁냅
▁폐기
성애
▁진작
▁주면
▁보지
부장관
▁처먹
▁올해
유공자
개가
기면
▁장애
▁안한다
▁행태
제동
해봐야
▁태어나
▁패거리
▁되겠네
▁퇴출
▁미국에
▁전라
▁보이지
크로
선이
▁소신
도소
▁밟
▁자국
▁강요
빼고
▁정답
구로
▁많고
▁세대
▁하나같이
통이
▁봄
되어야
▁일당
▁후쿠
▁어울
▁제재
▁햇
▁동남아
▁바라는
다음
▁보세요
▁다른나라
▁해보
▁싹다
▁북한의
위는
▁써라
리세요
▁노릇
▁성범죄
없는데
▁찌라시
▁중국과
아베
걸레
▁().
인것
▁아닌듯
▁알아야
라며
프레
▁클럽
▁정치에
▁그네
가는데
▁근본
▁추방
▁개뿔
▁욕하고
▁내는
▁안좋
치지
그렇게
▁징징
들이랑
▁자영업자
▁건설
구속
▁갱
▁비핵화
중에도
▁불과
시설
▁생각도
하는거야
다리
▁집어
▁사회적
▁장자연
▁아닐까
인척
▁전략
▁민폐
▁삐
▁우리나라에
▁명이
기술
▁전광훈
안을
▁이미지
하던데
▁오른
▁출산
▁미국의
지니
▁유치원
▁조국의
▁.....
▁눈이
하지말
▁미래가
▁넘들
에다
▁세상을
▁궁금하다
▁대한민국에서
십시요
▁재앙아
▁업무
▁선전
▁어쩌고
국민들
▁이새끼
▁검찰을
▁성과
영상
사업
▁뭣
보도
▁열받
▁털어
못하는
걸고
.,
했습니다
▁자식들
은게
▁정유라
▁자동차
▁같음
비를
후에
치한
▁신상
▁논란
▁개인의
▁실제로
인게
인건
합니까
▁끼리
--------
맞고
사랑
▁같냐
미가
▁망하게
▁왕따
▁전형적인
▁평가
▁지금이
▁값
되니
▁가게
▁새키
▁어디로
친구
는거고
▁기업이
▁문죄앙
▁거래
▁위반
▁청와대가
▁망할
▁관종
훼손
▁어지
▁못살
▁계산
▁집행
취급
▁김학의
▁시킨
잔아
▁못하면
▁끌려
▁드라마
네ᄏᄏ
싫다
▁은행
▁벼
스타
▁있던
▁성매매
▁프랑스
▁갚
교회
▁보낸
▁한마디로
~^^
▁대북
▁기사에
▁실력
▁역대급
수석
▁비례대표
얼굴
▁ᄅᄋ
둬라
감을
▁진심으로
가나
▁뒤에
▁깡패
하는거냐
▁인데
ᄒᄒᄒ
▁그딴
▁모르냐
▁인해
이스
▁}
▁태어
▁중앙일보
하겠네
▁어떠
▁이번엔
러움
▁비상
▁재인
보소
데로
▁당신들
당의
▁하다가
▁누구나
경이
▁그러냐
▁화장
집에
▁밥그릇
▁역사를
▁덕분에
▁뻘
▁하네요
▁이사람
▁오죽
준다고
님의
▁이루어
저씨
▁동참
▁교통
으러
▁욕심
▁후쿠시마
▁죽어라
원봉
▁홍보
하더라
▁의전
았나
▁죄인
들이네
▁나서서
▁표창장
▁능력이
▁뿌리
▁맘에
혀서
▁족속
▁모아
여론
마저
▁수사를
▁배운
▁같네요
▁알았다
▁참나
▁퉤
▁음주운전
거라고
알고
▁환장
▁하겠지
▁니들도
겠습니까
한거다
▁일이다
가다
▁현실을
▁개같은
▁내세
모습
▁좋은데
나와
▁절반
▁신천
▁멈
▁경영
▁교사
▁경고
마음
▁할일
▁죄송
경욱
비는
▁객
?..
▁북한을
났네
▁했지
▁만만
▁압박
처먹
▁있어라
.........
▁걸레
▁발광
수있는
▁반대하는
▁서민들
거같
▁것으로
▁실업
▁끝나
였네
계가
▁막아
▁제의
▁국가의
▁할수있
▁이니
▁아니지만
▁했냐
▁일본에서
저히
▁어케
▁찍은
▁뒤에서
▁언제부터
▁늘어나
▁수고
▁보니까
▁의도
▁조원
▁앞뒤
▁청소
식을
사에
리스트
▁사실이
▁적화
했지만
▁진단
▁헬조선
▁일베충
말에
▁작작
▁모든게
▁감성팔이
▁지역구
▁총선때
그램
~!!!
만의
모두
▁않습니다
▁니네가
그래서
▁명분
▁핸
하자고
정권의
▁쉐
▁검찰의
▁경기도
▁상처
된다고
▁컴
▁개그
▁살아있는
가게
▁나오지
▁역겨운
▁필요하다
▁존중
보호
다니는
▁강화
가면서
▁놀러
▁위로
▁개학
▁그것이
▁갈수록
양반
▁아래
적이다
▁내일
버린
▁쏴
▁아무런
▁않아
▁대우
고생
▁주택
▁처음부터
▁반대로
리는게
▁이하
▁공직
시간에
▁녀
▁추잡
▁같네
▁소속
▁앵
▁나아
하려면
▁뭐지
▁전자
말도
▁웬
▁정책을
▁박사
▁,,
▁얻어
▁싫으면
▁끔
▁아는데
▁파렴
들이지
▁망언
을것
년은
서서
점을
▁올리고
등등
주의자
▁안정
▁도와주
▁갈등
▁이웃
법으로
좀해라
▁이런걸
▁시스템
▁국가에서
만하고
르기
없지
사진
되게
한테도
▁탐
▁포장
거는
▁입맛
▁일관
▁시민단체
▁문재인대통령
▁몰고
▁또는
으라
시가
▁적자
▁알아라
지기
▁네가
▁뒈
조가
들이야
▁이순
▁전염병
▁걔
▁이라
▁정도면
성공
▁청구
▁컨
▁정부를
▁상식적으로
▁지금이라도
새기
▁안되지
▁둘이
▁올린
▁필요가
▁과학
▁지소미아
▁바쁘
▁독도
▁대가리가
▁안하냐
▁안타깝다
▁건데
▁출마
할지
▁집중
시작
▁계약
무능
권이
관리
▁지들끼리
공감
▁했는지
▁머저리
한걸
▁좌우
살인
▁년에
▁라도
물에
▁그렇다
▁갈아
▁보험
▁혼란
답다
▁시켜라
당과
▁사법부
▁절라도
산업
▁한사람
▁스타
▁공평
드만
▁하겠다
▁세금이
자금
만하면
▁이재용
▁집구석
▁기어
▁쏟아
물을
십시오
쳐먹고
대학
▁흠
회견
격을
경북
▁온라인
▁한겨
못하고
▁뭐하나
▁호남
▁입고
▁그들이
쳐야
▁가족이
▁댓글이
▁목포
▁대충
▁고향
닫고
▁인간아
리니
▁휴가
대상
바뀌
▁할배
대변인
▁띄
구라
▁그정도
▁망가
▁대비
▁거짓말을
▁근로
보이
▁독일
▁거품
▁사람들도
▁이길
▁되어야
겠군
▁박수
주민
▁남이
▁쓰면
▁싸이
▁피의
▁싫은
ᄉᄁ
하노
▁앞장
▁수석
곳이
▁사라지
거품
▁이를
▁김제동
▁없어져야
지영
▁니는
▁허구
행위
▁유투
▁공산화
▁나가서
▁야이
하라는
수엘라
▁그러고
치네
▁지들은
▁죽어도
▁정의를
▁먼지
▁똥꼬
전문
▁빨간
▁자유대한민국
없다고
▁민경욱
▁경북
▁이런식으로
오지
▁개무시
국을
▁합법
비로
▁그들의
▁댓글을
미디
▁글을
나니
국은
▁시행
▁둔
▁서초
▁인지
▁대법
▁촉
▁날뛰
서도
▁상승
집니다
답니다
▁좌표
▁교도소
▁뭐하러
▁너무나
▁짜고
▁모욕
줄이
▁예전에
안되는
하는거다
▁않을까
▁의문
색히
▁말인가
▁사람의
이라는게
승리
▁부부
성에
▁명령
을거다
▁남자들
지않고
▁안맞
▁댓글들
▁댓글조작
진이
었는지
▁옥
▁한가
▁섹
▁환자
▁애플
▁저정도
▁끝이
▁애가
▁수천
있다고
▁석방
해주는
공무원
▁차려라
용으로
▁말이야
▁살면
▁마땅
여도
▁날이
앞에서
회에
▁안되면
▁힘들다
▁몇십
▁신천지가
제한
▁싶으면
▁나랏
▁언론에
▁저지른
▁뜬
얘기
▁매번
▁읽어
▁여태
▁다름
▁대상
수호
긴다
▁된다는
▁마련
겠지요
▁항의
▁길거리
▁감시
▁조폭
사도
▁마인드
쳐도
▁요즘은
박근혜
▁물가
▁분들이
▁빛
지다
▁조금만
▁선관
리에
▁좋았
성도
▁카드
▁바퀴
▁시켰
▁행정
▁간신
분들이
▁모르겠
▁오염
시네
평등
▁소중
▁분명히
▁하던데
▁추진
▁받아서
▁뭐든
▁파면
직원
▁위기
▁일본인
리는거
▁행동을
안보
▁위선자
▁스트레스
▁나라로
못한
▁다만
▁습
▁''
수저
▁다이
▁대만
▁맞네
▁민정
▁구린
평화
▁애기
병원
▁예배
부지
보다도
▁확산
▁문어
▁말라고
아직
▁미국과
▁틀딱들
▁나오고
님을
▁커녕
▁밝혀라
▁오만
▁년대
▁딸이
▁반응
▁토론
▁일본한테
▁새끼가
인간들
지랄
▁가능한
▁오지게
없어서
▁어딜
▁인가
서를
▁말하고
▁하늘을
▁아들이
하겠냐
▁소득주도
▁하려
▁어마
▁고대
▁더럽게
▁나머지
▁정권에
▁구역질
▁조센징
▁공기
▁악의
이라며
▁결과가
▁나라도
엄마
폭탄
당시
것처럼
가냐
▁말할
▁저걸
문화
▁돌대가리
▁너희들이
▁그쪽
▁장제원
▁건지
꼬라지
인생
사이
▁최근
▁주변에
▁나간
세대
▁유승민
▁반복
▁ᅮ
▁퍼트
자에
내용
▁후원
▁대형
으셨
▁사람들을
사로
총리
▁핵무
▁하는짓이
▁가관
▁김치
▁못하면서
마이
▁가까
▁시키는
▁수시
▁심각한
▁차기
▁큰소리
해야할
▁탁
▁국민청원
▁현금
;;;;
▁도시
인걸
▁파괴
였음
▁문제를
▁좌익
▁웃고
▁면상
▁소리가
시켜서
▁쭉
먼저
▁모지리
▁국민연금
▁않게
다는데
▁나라다
▁애쓴다
▁이쯤되면
마리
▁건가
하구
▁끔찍
▁어느나라
▁자식이
이란다
▁줘야
십니까
👍👍
▁기존
▁덤
▁뽑았
▁식민지
파악
▁감옥에
르신
▁당신들이
▁미래를
▁제주도
롯데
추고
▁안할
▁자유를
▁해봐
차가
▁양보
▁걸고
▁흡
▁말하면
▁인건
▁없네요
투기
▁지나가는
▁잔인
▁침략
▁목표
▁요청
▁망한다
누구
▁옹호하는
당신
▁보고도
내자
▁냄
▁유가족
우파
▁폭등
▁비용
▁한참
▁부끄럽다
▁순수
▁착한
▁억지
▁지는
▁특정
▁횡
▁대갈
▁검찰총장
▁미국에서
넘이
리카
▁클라스
▁요새
▁정수
▁박영
듣고
행동
▁않았다
하겠다고
갑니다
▁중국을
었을
▁신청
▁색히
▁공산국가
기네
였던
▁없었다
▁더듬
▁게다가
▁국민과
▁의해
▁당연한거
받아야
▁살게
▁모여
계를
▁와이
으로써
▁진상
▁황교안이
▁증거가
이들이
▁시국에
▁할때
▁놈은
▁자발
▁하수
▁협상
미친
▁달라고
▁부모님
므로
▁해석
▁하는거지
▁양심이
정에
▁제한
▁입시
▁타이
▁무능력
▁있었다
▁제조
노동
▁댓글에
▁진영
역시
▁부디
자에게
법은
▁결국은
겠구나
▁공식
겠는가
▁수령
로만
했다면
드라
▁몇명
▁그러면서
여러
▁환영
▁조선시대
지도않
▁이언주
지말자
▁임영웅
▁닥치고
▁정부에
니들
받았
▁이사
제는
▁어서
▁박근혜는
▁견찰
▁몰래
올라
▁넘게
▁여전히
▁것이고
▁투명
▁떨어진
▁빽
봤다
▁끝났
!!!!!!!!!!!!!!!!
▁멍멍
▁넘쳐
▁누군가
▁비슷한
▁파탄
중이
▁말해
▁어느정도
▁어디에
▁여야
▁돈만
▁받아라
들여
운데
페미
▁걸어
▁처단
▁일본도
겟다
▁살면서
▁사면
▁부들부들
▁꼼수
▁기자회견
▁할말이
▁들어오
▁인기
▁년도
있으니
▁조국과
▁베네수엘라
라는게
상공
▁잘해
▁부인
폭망
▁사시
▁쓰지
▁조민
▁투쟁
마자
어진
▁중간
걸까
▁자극
▁신경쓰
▁당사
▁일본여행
▁\
▁걸려
▁더럽고
정한
▁분위기
▁머리에
▁익
▁시체
▁웃긴다
▁대국민
▁한데
▁굽
▁드디어
된거
▁대통령도
겨라
{}
▁가려
우리나라
▁쫓
▁탈탈
이구만
▁후진국
▁좌파들은
▁옆에
새끼가
▁김경수
▁언론사
줘야지
▁기레기들
▁기초
순간
▁보내고
▁사무
▁누구를
▁늬
▁저래
▁이따위
▁무엇을
남자
▁아동
다녀
▁붙어
▁있었는데
▁무서워
▁민낯
▁사실상
리즘
야말로
뿐이다
▁귀족
▁인간의
▁것처럼
못해
놈아
▁아닌거
▁상상
의로
소년단
▁빠는
▁동성애
▁강경
▁대답
▁할것
▁말에
▁몇번
▁감당
▁특수
왔다
▁언제나
▁이모양
아버지
▁없애고
▁답변
▁비열
잖어
▁코미디
▁유전
드폰
▁상황에서
▁조건
▁없구나
써라
거짓
▁적이
수당
▁연락
행을
▁원인
▁죽는
▁왜이리
였어
꺼야
회담
▁모습을
▁놀랍
▁중국으로
▁노답
▁잘난
신천지
몰이
구가
▁맞춰
▁대통령의
질러
▁중대
종석
번에
▁사서
어죽
▁태극기부대
한미
▁않음
▁이유로
▁대다수
▁이유를
국민들이
▁현명
▁당한
적도
▁연합
▁수호
▁밑에
▁협조
▁모습이
▁먹여
종교
▁방향
해야함
▁혈세
주기
끼고
든다
▁방문
▁태양광
▁지하철
▁안락
률이
▁의식
▁동양대
▁우덜
▁공동
▁살지
▁북조선
▁역겹
▁먹고살
▁탈출
▁배려
▁수꼴
▁나라망
시위
▁낭비
▁벗어나
할텐데
▁개선
▁상황에
▁생각좀
▁명백
질은
시급
▁나무
진태
ᄌᄅ
▁정확히
▁이익을
▁든다
▁얼굴에
지마세요
▁무서워서
▁아닙니까
▁반일감정
▁올바른
애들은
▁제출
▁이넘
▁시간에
▁협력
을려고
▁ᄃᄃ
▁증가
▁일상
▁코스프레
리며
▁혀
▁문재앙과
▁보장
그렇
▁아이폰
내면
▁이끌
▁강제로
버렸
▁민식이
▁좌파는
▁떨어지
▁새벽
이란게
▁치우
▁이나라가
▁소리하고
자다
라지가
▁비하
▁없지만
▁편하게
▁차이나
긋지
▁들여
▁저런게
▁지지자들
▁쓰러
당하는
▁이나
아나
하느라
▁가족들
▁다같이
▁찐
최고
▁벤
▁죄값
▁롯데
▁물려
▁객관
조치
▁당대표
▁말로만
▁비서
버려라
▁어떨
▁중립
▁정체
▁서비스
거래
▁고인의
▁세금은
한거야
▁말아라
▁시켜야
▁폐쇄
▁박멸
▁악플러
▁슈
▁해먹
▁이나라는
혼자
▁동일
▁좌파가
▁개정은
▁전정권
웨이
▁차이
▁기레기야
▁자칭
▁광우
▁조치
▁공작
카페
▁질질
▁여기에
▁매달
▁한다면
▁입을
▁개돼지들이
그게
놈들아
▁상황을
▁기름
▁웃음
▁이용해서
▁깝
▁전범
운영
▁제거
▁받으면
하잖아
▁사는게
▁새누리
▁나경원이
▁서서
국에서
▁보냈
▁때가
연히
▁방위
는거죠
하는것도
▁웃기네
▁우리나라도
▁업체
개돼지
▁차지
▁일으키
산다
▁외면
▁못해서
!!!!!!!
@@
▁했나
놔라
▁선수
▁뉴
▁살인마
▁제도
와중에
▁여자들이
▁뒤로
▁편가
▁천안함
▁도저히
▁열면
▁새끼들이
▁소송
너스
가는구나
신을
벌이
▁견제
일듯
메라
까지는
일로
▁했네
▁국회의원이
들로
폭력
▁돌아다니
바이러스
▁한국당은
▁마트
▁속보
▁일제시대
▁아픈
▁그놈의
▁살자
▁말아야
▁배상
▁한국당이
하겠다는
▁몇개
만명
▁정치는
돈이
▁인식
▁가증
자들의
▁안된다고
▁폐렴
▁일자
▁이꼴
실히
아프
▁저것들
미래
▁공포
▁구입
▁아닥
▁중단
졌으면
강간
▁강한
동맹
▁무료
▁한글
▁중국인들
▁수술
▁샤
▁위장
▁지배
▁오는
나다
▁암튼
방이
▁보수는
▁불만
정하고
끼는
▁그러다
▁아시아
▁한녀
▁영혼
개입
▁바뀌면
▁코로나로
▁원내
린다고
힌다
갈등
▁나만
▁일주
▁고맙다
자와
▁아니네
,,,,,
징역
▁요금
모가
▁비롯
▁단속
▁기자들
▁엎
수준이
▁이럴때
▁키워
▁자리에
▁법대로
하루
▁조국딸
지르
기위해
구니
▁같으니
▁범법
▁이것들은
▁떨어지는
의도
▁애를
▁짜파
▁연결
▁왜냐
같네
▁장관이
살이
▁몰라서
하도록
▁왔다
어떻
드려
노릇
▁글로
▁어르신
드러
▁싶어서
▁맞는데
간이
▁기업들
서울
▁들어간
▁각오
▁부활
▁외치는
▁사유
▁아무나
▁되었다
▁정신을
▁발악을
▁박탈
▁기자야
▁먹은
▁식으로
▁있네요
해준
▁영업
▁재앙이가
▁있는가
▁매년
▁미국도
▁배웠
인권
▁정부와
▁막고
년들
▁그들은
▁보여주는
▁쳐다
▁정신좀
▁한쪽
▁인턴
▁믿어
장님
?.
▁그에
▁뱉
▁하지않
▁비하면
▁비호
▁치는
▁그런가
였고
▁구나
▁부대
▁지역감정
▁더불당
▁실험
항공
태우
▁수익
▁안들어
국민을
▁모르겠네
▁이런건
▁아녀
▁스마트
고기
▁보내라
에게도
▁할거
인멸
▁안믿
▁자기들이
▁사모
▁알았는데
이해
▁잘했다
▁샀
▁바다
선언
▁없애라
▁휴대
▁한표
▁국민들도
구하고
을지
▁일본제품
었으니
▁남자는
▁하도
▁대가리에
할래
사상
▁유학
▁말장난
중인
▁시대가
▁마녀
▁맞게
겁니까
▁마구
▁권력에
▁(–
▁문빠들
▁느낀
▁얼른
▁좋게
▁자제
▁시대에
▁인정하고
▁한걸레
▁나누
▁그러지
비용
▁정치권
▁시도
입고
▁정치하는
▁공정한
하구나
▁식당
▁커피
▁제시
▁비행기
▁발목
네가
집권
▁법은
▁소통
하고있네
▁어린이
▁왈
▁빠진
▁제공
▁편의
▁현정권
기레기
▁깍
▁취재
▁싸이코
▁슬프
▁근혜
▁맞다고
▁아우
근성
했어요
▁두둔
▁들먹
▁바퀴벌레
렸는데
▁극혐
▁북에
▁제대로된
인민
▁아름
▁사리
▁차명
나라도
▁학살
▁*
▁마음대로
▁내란
었습니다
차는
▁법적
인데도
▁대통령으로
▁해외여행
▁간단
▁자유한국
이거
▁젊은이
스러
진보
만해도
알아
▁갓
▁태풍
▁인류
기야
▁공지영
▁나오네
관광
▁빼앗
이지요
단을
겠구만
▁강력한
안되
▁좌파들이
▁성적
자들을
▁역사에
▁대학생
▁역적
▁잘못이
보여
▁말대로
리면서
▁루
~~!!
리오
▁비웃
??????
▁죽고
모든
▁어떡
▁이순신
점에
국당
▁안먹
▁된장
▁깨끗한
▁앞으로도
▁지경
▁주둥아리
▁낯
짜피
치게
▁젓
▁투기꾼
같으면
나지
까리
▁수작
▁홀
▁인천
토착
▁얘는
▁평균
부러
▁휘둘
살아
▁할려고
▁무엇이
▁김원봉
세월
불가
▁핸드폰
▁사회가
▁주도
▁그자리
▁진짜로
▁올리는
▁빨갱이가
▁끝날
▁작업
대통령이
지오
▁시기
▁똑같다
▁아니잖아
해야합니다
지들
▁저능아
비에
▁비겁
▁잘라
▁우리를
▁정직
▁하루빨리
▁권한
디언
▁수용
한것도
넣고
▁똑같네
대기
▁우리나라에서
▁멀쩡한
▁체포
▁죽이는
▁다는
▁없는거
▁꼴보기
차를
▁패스트
▁교체
▁중심
▁이지경
시네요
▁싫어하는
▁시발
▁국회에서
인간이
▁뒤통수
한거냐
▁열등
▁문어벙
공화국
어놓고
▁탄압
영화
세끼
사냥
▁비정상
▁모르면
▁통합당
▁사세요
▁이기적인
▁많음
주를
▁그림
량이
할꺼
▁강하게
▁기회에
▁짓이
▁똘마니
▁촌
▁좀더
격리
할줄
▁아쉽
▁베댓
▁여기가
▁양심도
▁울산
▁조상
▁들어서
▁인간을
▁정치가
▁금방
▁댓글부대
▁금융
시험
▁박영선
▁싸게
▁잡아서
▁더더
▁아부
성과
..........
맘대로
▁청와대에
긋지긋
▁능력도
어마
수밖에
▁주작
▁좋고
청와대
자만
곳에서
▁이승만
▁이러다
테고
▁꼬리
''
상관
사관
▁검찰에
▁불륜
으려는
이익
▁국적
으로만
▁어머니
▁시비
▁것인가
▁곳이
▁안보고
화자
▁어처
▁우롱
거리고
▁모르지
소가
▁고유정
▁자세
준비
▁마음에
▁민주당과
▁될까
라구
조직
▁김영
▁방탄소년단
옵니다
▁폭탄
점에서
▁새끼야
▁자진
소나
▁야당이
▁전라도는
동원
▁분리
▁김진태
▁콜
▁ᄎ
▁뭐고
▁있었던
▁천막
▁안되나
▁사회에
는거네
게이트
▁넘어가
▁웃기고
▁모독
▁좋지
▁모든걸
▁청와대는
▁천박
▁냄새가
▁문닫
▁랄
▁살아남
▁더러
▁단지
스럽고
▁학생들
▁한겨레
▁이완
하기도
서가
▁동생
충이
▁정권잡
랍시고
신고
▁일에
▁세워
개념
▁공짜로
플레이
찍고
▁일방
▁집을
통에
▁고개
▁천지
▁의미가
▁아저씨
▁하고싶
▁아쉬
눈물
▁훈련
발언
▁투입
▁증거인멸
▁천만원
▁지내
▁했으니
▁미친거
경영
▁좋으면
이크
▁내려와라
▁안해도
▁개검
▁멀리
▁부품
▁고스
▁병역
할거다
▁대강
부인
▁필요없다
▁보다는
▁안사
▁없는게
▁끝난
매국노
▁행위
▁전수
▁안간다
겟지
하는가
▁기자님
▁죽을때
▁낮은
어떻게
▁엉뚱
▁삶을
▁답답하다
▁광신도
논리
수있다
▁할듯
▁대접
▁걸리면
▁다스
▁문죄인이
▁법원
졌는데
▁어리석은
▁누가봐도
▁거기다
▁정확한
▁걸로
▁못믿
▁유족
조금
▁상속
▁대로
적이지
▁다를게
▁됬
하고도
▁변태
▁갈라
▁원자
분들은
▁지원금
▁온통
▁본인의
▁쪽발이
▁감빵
▁법치
.?
▁앉아서
한사람
▁침몰
▁정치검찰
구려
성공단
▁싸그리
▁적은
▁주범
▁일삼
▁심상
▁보게
▁없어도
▁선거법
▁슬슬
▁아니라는
▁자신을
점은
▁가해자
▁탑
는것은
▁현장
▁머가
▁어쩌다
면피
같아
▁인물이
▁딸은
▁쪽빠리
!?
▁빨갱이들이
▁그니까
▁말이냐
분은
▁법안
▁자들이
▁가능성이
▁애미
종북
▁좋겠습니다
▁돌아가는
기간
▁들을
▁정의가
였나
▁사례
▁어디까지
▁잘도
▁백수
▁넘는
목사
었다는
▁강행
▁내리
원합니다
메디
모로
▁문천지
▁동조
▁다죽
주냐
▁주한미
▁아까
았냐
▁문재인도
▁초기
▁까고
▁있잖아
▁당당하게
▁손잡고
▁전파
불매
▁새로
▁권리
▁세습
▁정말로
▁모르겠지만
▁질병
는것도
위해서
▁소릴
원들
▁너희들은
대구
▁엘지
▁재인이
▁정치인이
▁부칸
▁어쩌구
▁긴급
▁안되는데
지않은
▁확실한
▁싫어서
---
▁오면
▁훌륭한
상에서
공장
구조
▁방구석
거부
▁침묵
▁좋아서
▁꼴이
▁ᄆᄎ
▁이런기사
▁했을
▁이것들
▁가까운
▁줘라
▁수구꼴통
▁모여서
화자찬
린거
▁해줄
문서
▁따지
▁썩을
▁앞잡이
토록
간히
▁법으로
▁생겨
▁구경
▁자신들의
▁팍
▁아프리카
▁짜파구리
▁언론은
▁년만에
속에서
력으로
▁밥먹
▁한건
▁고만
시키면
▁전과
▁때도
▁본인은
▁위대한
▁맞습니다
▁배가
▁여군
▁해외로
▁공안
▁월세
것같다
▁땜에
▁한방
▁확실하게
데체
문이
지않나
▁성인
▁어짜피
놈을
▁엔
▁무장
▁있도록
▁충격
▁알겠다
준영
년도
▁안내
▁정도는
부정
▁민주주의를
국방
▁먹어
▁택배
▁했고
생겼
왔는데
▁여기는
▁뒤지
▁사전투표
자료
▁트집
대깨문
▁읽고
▁수장
▁아내
▁나라꼴이
이미
▁이대로
▁의학
▁이라는
▁만들어야
▁지진
줍시다
▁내려오
▁막아야
▁좋겠네요
▁행동이
▁페미니
▁하나만
거든요
▁나면
▁수도권
▁깽
▁쳐먹고
▁많았
▁며칠
▁이간
▁어쩌라고
희롱
갖고
▁당하는
▁망하는
▁끼리끼리
▁낫지
질에
ᆞᆞ
나라를
셔요
의사
▁진실이
,.
▁블랙
▁퍼뜨
▁살해
선생
▁한국인이
▁생색
주로
▁불가
효과
▁매장
▁훠훠
이름
▁유투브
이만
▁파헤
투자
▁못하냐
▁아직까지
▁졸업
산이
욕을
진당
판사
▁가입
▁무한
▁어용
고있는데
▁지긋지긋
▁아이들이
대갈
▁깨어
▁있겠지
▁감동
▁냈
▁잘한
▁저희
▁못함
▁엄벌
▁연애
김정은
▁마스크를
▁멋진
▁전원
▁표를
생긴
▁나름
▁눌
▁마냥
▁해요
▁도입
▁지속
같음
국민은
▁더불어민주당
▁만들어라
▁거덜
▁않나요
▁주장하는
꾸로
▁아니라면
▁원내대표
▁여가
▁목숨을
▁주지
민들
▁했다는
▁현실은
▁것만
께요
▁똥개
▁회복
아무
▁등급
▁수상
▁남편이
센트
불어
▁맞음
▁받지
달고
인에
▁허허
▁나빠
▁리더
▁ᅡ
서에
▁잡혀
▁공익
▁아니니
공부
▁문재인정부
이렇게
▁소재
▁휴대폰
어지
오르
아파트
▁이쁘
주자
▁날려
소를
대책
▁인간들아
▁방어
▁추악한
▁가야지
▁정신승리
▁징계
▁예의
▁미투
▁프로그램
▁끝나면
한텐
▁손을
량한
들면
▁해대
▁공항
없으니
▁신분
▁무기징역
▁신재
것네
대국
▁두렵
이요
▁년은
내지
투쟁
▁수단
▁너희가
▁공유
▁다양
▁다음에
▁뇬
▁출근
▁으이
▁캬
▁영국
▁박원숭
▁역시나
▁사냐
▁나오냐
파탄
박살
처먹고
짱깨
▁말이지
▁_
▁회담
▁무능하고
▁조카
▁써야
▁안하
▁매출
▁안받
치도
▁부끄러운줄
▁억지로
▁낙태
▁일반인
▁이시국에
현실
▁정규직
트랙
▁민좃
자라
비도
▁몰랐다
▁대구경북
이후
들이고
으로도
였지
▁미성
▁이땅
▁아베는
▁망쳐
▁무소
▁김종
▁멘
▁겸
▁전국민이
▁유사
▁방법이
이번
여러분
▁자화자찬
보내고
▁마음을
바꾸
들어서
▁안한
▁댓글알바
▁설득
했을까
▁카메라
의혹
▁신념
떨어진
▁이것들이
겠음
주니
짓은
▁까는
하자는
었지만
▁하다니
기와
양이
우지
남편
▁모름
▁사대
▁퍼주고
▁민정수석
▁뻔히
▁위원
▁평범
▁작전
▁이러면
▁있다가
▁답다
▁극복
추어
속으로
▁편파
것들아
▁중국한테
▁되니
▁카톡
해진
풀이
▁쓸데없는
▁최저시급
스를
해주면
▁이제야
▁!!!!
▁좌파의
하겠습니다
▁들어가서
▁우리나라를
▁아이를
징글
▁자금
▁범죄를
니들이
치료
▁차고
▁못하지
▁동영상
죄인
싫어
▁대대
▁일하고
▁학부모
▁하더라
▁눈치보
▁조사해서
▁조금이라도
선수
▁기다려
▁돈주고
▁너네가
▁어마어마
정으로
▁발견
▁잘못한
▁실천
▁관심이
▁못배
~~~~~~
▁사람에게
▁앙
▁주댕
▁연설
나온
▁됐다
에서만
살다
▁관심도
▁한전
▁보이는데
▁더블
▁대안
▁넘이
얼마나
▁하든
되었다
▁아마도
포기
▁팔고
▁일만
죄가
▁해골
아먹는
▁사는데
▁흘러
▁얼굴이
▁아깝
▁국가에
▁머가리
▁청와대에서
없나
▁통신
못차
▁사악한
▁걸러
▁막을
▁쩝쩝이
여성
았다고
▁되는지
거운
▁전면
▁다해
▁달러
▁인종
립시다
▁임대료
▁이단
없냐
▁싸가지
층이
야당
▁위험한
▁팽
혁명
봤는데
▁몬
▁결과는
▁삭제
▁민주화운동
▁쇠
▁오랜
▁에효
터리
드네
▁얘네
력은
▁있으니까
▁일개
▁개성공단
▁완벽
키들
▁학원
▁하락
▁이네
사람도
▁이뤄
▁소상공
▁공무원들
▁뚜
절한
▁긍
화는
▁김정숙
막고
▁맞나
▁부탁드립니다
▁출연
하실
▁날아
▁북한에서
▁문재인씨
▁차이가
소에
▁안남
간의
▁코로나가
ᄇᄃ
죄를
▁허용
▁추락
대해
▁이정부
▁공수처가
환경
나쁜
던거
▁제정신이
▁죽으면
▁명심
▁차량
▁조사해라
▁좌파들의
▁있어야지
▁구멍
▁몇백
▁대해서는
입학
▁갑니다
▁쑤
▁개돼지들은
일텐데
▁소주
받아서
집에서
납니다
났는데
자라고
."
▁기사로
▁생각하지
▁욕할
▁조차
▁유일한
▁균
▁국가와
▁없으면서
▁주한미군
▁짖어
▁하고는
▁수업
▁찍고
▁도데체
방해
▁이정권
가격
▁있으
언제
▁대깨문들은
리려고
▁관광객
▁냄비
▁문통이
▁곤
▁확보
사람을
▁콘
▁돈에
▁철저하게
▁구걸
▁천원
▁고문
사무
년에
▁나오는데
▁쉬운
양아치
▁들어갔
▁성희롱
▁안좋은
▁배급
▁철면피
곳은
봐서
▁본인들
▁망치
▁유포
▁특권
▁손바닥
▁고졸
보니까
인거지
소리를
▁나은
▁하겠냐
▁진작에
하진
▁주차
제재
▁기획
▁목적
▁있는것
▁한두번
▁만들면
▁우방
전라도
▁찌그러
▁최초
▁생겼네
▁저럴
▁ᅩ
국회의원
▁이자
▁누군지
▁상식이
수하고
▁안타까운
▁던져
▁문제야
▁입이
▁덮어
▁나갈
▁징글
▁국무
▁기가막
▁숫자
▁살길
망이
▁희망이
▁모자라
▁뜻을
간다고
▁야동
경제가
만은
기준
▁대권
둥이
할것이다
올려
▁개도
지않는
사항
▁다른데
▁라면
통을
▁무고
▁보이콧
▁근처
스터
?)
▁살아서
▁다닌
▁들어갈
▁글로벌
▁빼돌
규제
▁유출
▁말아먹고
▁하나요
▁정신차려
▁좃국
▁나발
그러니
▁내야
▁망치고
궁창
▁마녀사냥
▁즉각
▁맞냐
▁자빠졌
경우
▁피해자가
▁자기네
▁개독
▁같으면
▁남조선
▁꿈꾸
▁코메디
▁서초동
▁만나서
많다
▁찢어
▁드립
▁표현의
▁당신도
▁경찰은
▁사과를
사리
수작
▁최순실이
없애
▁것임
▁있긴
▁죽어야
▁하나로
▁소방
▁받게
▁지정
▁이탈
▁당신을
▁실질
▁뉴스에
티비
와도
▁편향
만들고
▁음모
▁순진
▁동급
하는걸
▁연관
▁통화
▁법적으로
대지
▁많아요
고만
▁성별
▁연장
해질
하의
▁금액
랑이
▁좌빨들은
▁문자
인양
▁못난
▁기어나
▁엄마가
▁밀고
번호
▁마이너스
▁사람들의
▁파기
부터가
▁대통령과
▁도발
▁후에
▁최소한의
리트
▁사람만
▁될듯
▁실체
▁쓰레기들이
▁시나
▁오해
▁가세요
▁눈깔
▁하다하다
지원금
▁공화
▁똥을
▁웅
▁먼저다
우기
▁상위
▁이놈의
▁그의
▁혐한
▁걸렸
▁종북좌파
▁부역
▁아시
자격
▁소용
▁년을
▁그때는
▁찍소리도
▁놓은
환자
뒤에
▁스마트폰
▁^
▁석탄
()
▁봤는데
▁넣어
▁울나라
▁잘했다고
▁방치
▁들어가는
릅니다
▁그만좀
▁춤
사냐
년아
▁도배
▁있기
져야지
래요
▁자체를
▁심판을
▁듣는
▁사생활
어쩌
차고
▁날라
▁만들지
▁인격
민당
▁거임
▁잡는
그런데
▁문화재
▁떨어질
▁쩔
버려야
▁새끼들은
▁파렴치한
▁윤지오
한줄
▁박지원
이란걸
▁언론의
남용
▁점령
▁입장에서
▁개는
▁길을
력도
▁평화를
주변
치다
▁까발
질로
드냐
▁개를
▁혹은
▁권력의
수에
이었다
▁민주당에
▁하는가
▁사퇴해라
▁끝나고
▁정준영
인지도
▁너를
▁안락사
으려면
▁오바
이들아
셨네
▁조씨
▁천재
내기
국민들은
▁거고
▁작살
▁조현
했겠지
▁토착왜구들
과의
▁대구시민
요금
▁지킬
▁피곤
▁어려움
▁잘해라
가진
맞아
▁나팔
▁비리가
▁분들은
▁정은이가
▁곳에
▁구속수사
▁앞세
▁한강
자빠
▁남들
이용
▁국민들한테
▁미성년
연구
노무
세는
▁때려잡
▁아니죠
▁만족
▁축구
▁전부다
▁마당에
▁기관총
이겠지
▁회사가
되네
▁댓글은
끼야
되길
▁합격
▁하던가
이드
▁빤스
이잖아
▁지랄을
▁장군
▁가치가
▁반역
▁하신
▁김성
미사일
▁선거때
▁오지네
▁물어뜯
▁생각해봐라
▁윤석열이
▁철회
▁아이디
돈을
▁이렇
▁고객
하고싶
▁진동
했다가
하기는
▁없던
▁법의
▁총장님
▁아는게
▁파는
임명
▁각자
▁유공
▁세기
▁지도자
▁탈을
부도
버리는
▁내보내
▁중국도
징용
▁일본가서
집안
치매
▁단체로
▁싶네
소에서
▁처먹고
고싶은
불쌍
▁또라
▁준다
▁철거
▁사라져야
▁하는거야
▁저항
▁마시
부끄
넘어
▁너그
▁김현
▁것이지
▁현실이
▁성향
▁사람이다
▁상품
프레임
▁총살
▁치킨
▁개돼지들아
▁수십년
▁즉시
▁의한
▁진실은
있는지
▁초등학생
카드
▁정수기
▁일본에게
두룩
▁박쥐
두면
▁어려울
▁정권바뀌
▁혁신
▁대리
▁알바들
▁다닐
집행
▁주위
..,
려구
▁이때
었구나
유지
판결
▁유승준
장애
▁걷어
▁다르다
▁채용
▁그대
일이다
▁죄인이
▁것에
방식
▁넘겨
나올
▁많습니다
▁듣기
▁사망자
▁공산당이
▁분석
하던가
▁트럼프는
넘들이
▁더듬어
▁극단
감염
▁숨어
나이
전부터
저분
대단
▁있죠
졌다고
▁다음은
▁노출
위반
▁터진
▁순실이
▁싶은데
▁최대한
▁삼가
▁결론은
▁소유
복지
▁아작
▁욱
▁그땐
▁누구는
우선
▁넘들이
안하면
거리가
▁지은
계속
▁사모펀드
▁걸려서
보인다
▁어디갔
바람
▁고마워
▁선동에
문을
쓰면
보유
▁좋을
공정
로써
빠는
▁개인이
▁수준의
거니
▁인한
▁여당이
전환
성향
만든
▁보건
가짜
▁나갔
▁공영
▁싫고
▁받는다
▁급여
▁똘똘
▁싶네요
새끼들이
▁믿지
▁즈
▁개혁을
▁처벌을
▁와중에
▁하시는
분을
▁세금도
▁웃겨
▁여유
로부터
▁더럽다
▁이용하는
▁저런거
놀이
아내
투리
▁제압
▁있겠냐
▁싶지
▁나몰
▁명확
▁빠른
▁증언
까진
정부패
▁중재
꺼면
일가
놈도
▁탄핵이
▁올릴
예산
▁따라서
시키자
▁퇴직
▁아들은
▁여자들은
▁시킬
▁새퀴
에대한
▁똑똑한
▁비밀
▁못받
순이
▁용기
▁썩어빠진
▁주제
▁물러나
▁작성
▁개거품
▁눈물이
▁정부탓
▁기념
▁쳐넣
▁정의롭
이젠
▁하나는
▁목숨걸고
▁백성
규모
▁대부분이
고가
▁안에
▁눈을
총장이
▁이번에는
▁정책이
▁누구냐
▁괴물
▁같고
또한
▁다니고
▁되서
걸이
▁자슥
▁믿음
냅시다
▁충청
▁정도껏
▁최강
국민의
▁버려
▁직권
실한
해보세요
▁사회에서
▁재인아
▁하려면
▁바보로
▁끝판
▁소리는
종일
▁국론
▁애국자
▁인건비
▁수요
▁등록
공격
▁전쟁을
▁민주당의
▁맘충
▁줄줄이
▁평양
스는
아래
▁슈퍼
▁지나가
▁야비
▁매도
▁뭐하고
개는
당으로
주사파
▁중국산
▁서울시
▁높아
▁주머니
국인
르지
▁무시하는
▁빨고
▁사이코
나봐
어버리고
구녕
서로
체크
▁맞아요
듭니다
▁싱
▁무관
▁드는
▁의혹이
새끼야
▁와이프
▁부끄러움
▁인성이
▁한마디도
▁의도가
▁잡을
안해
▁있는거지
▁화장실
▁항공
▁임신
▁가슴이
그라
▁과거에
▁경제도
▁종로
▁ᄇᄃ
▁바쁜
황교
▁종식
▁신천지는
▁이완용
▁못가
되는게
▁수두룩
▁못하니
아웃
▁채널
▁웃겠다
▁계신
▁했지만
▁위하는
▁기회를
▁책임은
▁자한당과
되야
미는
정상
▁생각함
▁내편
껀데
드니
해야된다
▁소수
▁떠나라
▁내용이
▁같지
▁이동
▁어때
것지
▁엄중
▁뭉가
▁그걸로
▁안찍
▁등에
▁알아야지
▁공기업
▁뒷통수
▁맞을
변호사
▁폐간
▁선진
▁전세계가
▁잘해서
▁하나가
있을
▁상대방
▁카페
▁필리
상식
▁시궁창
맞는
한민국
▁짜증난다
▁따뜻
▁쓰레기같은
위병
▁담당
▁이런데도
▁우울
지냐
▁비정규직
▁편히
▁안중에도
▁준다고
▁인공
공직
▁안함
도와
독립
▁된거
것이고
▁사랑하는
▁류
▁고쳐
▁문재앙의
▁알면
▁민주노총
▁군대가
어린
▁그려
▁아무말
▁골프
시원
정에서
▁해방
리들
▁시골
▁세금만
▁그날
▁정신못차
▁심한
▁명절
무식
색이
어로
▁허락
▁몰락
청장
라는데
▁피해가
좋다
.!
♥♥
▁싸워
요즘
▁그러고도
▁잘못은
▁직무
▁미래통합
▁자는
아직도
▁국군
▁사고를
▁평화가
▁출동
▁푼
▁중국발
형이
상승
▁남자들이
▁차리
보면서
▁차례
▁안되니
▁사람으로
▁맞는거
▁사건이
자들에게
▁험
▁보이냐
▁댓글로
▁바꿔라
▁만들려고
▁더불어공산당
▁영장
도한
▁광화문에
▁사건을
▁제작
절히
▁모르니
급한
▁싫어요
▁집값이
▁땐
▁글고
▁패스트트랙
▁입에서
▁미국을
더군요
▁허가
▁인생을
이군
사나
▁반납
▁맞추
▁좌빨들이
▁말든
있어서
▁선물
▁공중
▁무덤
▁아파
▁생각해서
▁주체
명은
▁일어난
▁걸리
▁들통
성으로
▁총선에
▁촛불집회
▁잡으면
입장
▁득실
▁국정원
▁되도
▁역사의
▁악랄
▁좋겠네
▁운전자
▁지금처럼
▁말과
▁역사가
▁기각
▁달리
부족
▁어려워
▁사재
▁웃을
▁힘들고
사들
▁폭락
▁숭
안한
생산
게임
▁검토
▁생각하냐
▁이나라를
▁죽게
▁후보자
▁깜방
▁언플
▁무상
▁어디다
봤냐
지라
▁먹으면
안된다
▁무책임
▁인간도
▁유시민이
▁지지한다
▁국회의원들
사의
취소
▁되게
▁좋냐
▁비해
▁시간을
감이다
▁옳고
만하는
▁내년에
것냐
▁눈감
데타
▁못잡
모르는
▁민주당을
▁교활한
▁망하고
▁손에
▁해야할
▁"",
▁펑
▁헌금
제대로
▁교묘
해서는
▁오리
했구나
▁쓰레기가
▁수능
~~^^
스러워
▁방법을
될듯
▁온다
▁안되냐
▁똥싸
님도
▁지롤
▁이번기
배는
▁독재정권
▁대법원
내내
▁한숨
▁킹
덕에
▁선관위
분립
노예
▁길이
▁참고로
▁타격
▁모르면서
▁합니까
▁뭔소리
▁해주고
쪽에
▁한자리
▁박근혜때
버는
명의
▁마스크도
▁꼬라지가
▁실컷
▁이러고
▁알수
▁너희는
▁인원
하는것이
▁이준
▁시설
▁떨거지
▁죄없는
▁순위
▁황대표
인상
▁기여
▁국민도
▁시각
▁봅시다
힘들
▁소리하네
▁하태
▁사과하고
인영
▁가끔
▁하느
▁시민들
▁분양
▁했음
▁희대의
▁폭발
받아라
▁있는건
디오
▁그릇
▁듣지
▁선거에
▁두려워
▁어릴
가니
▁잠깐
도없는
▁같아서
▁국민세금으로
▁수는
▁욕도
있는거
▁쎄
년을
세월호
▁뭘까
▁개똥
▁명품
주제에
▁많으니
▁뭐래
고로
으시
▁지켜야
하듯
▁탄생
▁잠재
▁이름으로
할머니
▁화웨이
▁깨진
▁민심을
한거고
▁여자를
▁되는게
...........
▁이름을
▁합리적
▁서울시장
▁선언
▁조로남불
에나
너희
▁무너뜨
▁나가는
▁한국도
▁끝내
해보지
▁이상하게
▁죽는다
▁봉쇄
려니
줬으면
▁저질러
드립
▁열어
▁않지만
▁뻔뻔하게
소서
럽고
아야지
혐의
▁경유
▁아닌것
들만의
하던지
▁저런걸
▁증거를
▁하늘이
▁자유가
겟네
▁안철
▁별거
▁후예
▁개정
▁세계가
▁세우
▁할텐데
▁국격
▁안뽑
▁하시고
▁결코
▁경남
▁소환
▁따지면
▁못하네
는걸
▁사표
토착왜구
▁계엄
까지도
부에
자마자
▁공범
하더만
▁오픈
▁다물
지는데
▁의전원
▁핵을
▁지키고
할때는
판을
▁유죄
▁알면서도
말종
자신
감은
▁물러나라
세력이
▁불구하고
▁개탄
이면서
▁바른말
▁입맛에
▁센
▁고통을
완전
▁막상
열면
▁대기
▁징글징글
까고
▁짓은
▁비율
▁가격이
파이
▁보낼
▁입다
▁액
▁종특
▁친문
시도
고발
▁안봐도
,,,,,,,,
▁일어날
▁모인
▁누구도
▁없잖아
▁작품
▁없애야
▁우와
▁정황
미로
▁연평
것입니다
▁그렇다면
▁저렴
▁만이
▁크다
▁추하다
▁많을
▁추구
▁그돈
▁삼성은
절대
결국
한건데
▁가는데
▁할머니들
▁본인들이
▁방위비
▁왜케
그러면
▁적와대
들끼리
어야한다
걸린
권은
진영
▁세상에서
▁어디가
와는
▁한계
▁등을
▁우기
▁이제부터
▁힘든데
▁언행
▁서류
▁한국인들
집어
▁동아
▁유통
▁싸지
▁일찍
▁조구
▁나경원은
전을
▁노란
▁버린
▁세계에서
▁실명
▁하이
▁정치인들이
가로
르노
▁인민재판
읍니다
▁이간질
▁메갈
▁신재민
일때
▁존경합니다
▁판사가
▁있다는게
사한
었을까
▁곡
▁놀라
▁천국
▁부정부패
▁뜬금
▁붕괴
세먼지
▁여름
믿고
세여
▁경향
▁개표
▁당이
려다
▁조국도
▁타다
▁주둔
▁개나소나
▁책임지고
버릴
▁망치는
나라로
▁국민혈
▁추모
▁공소
▁모임
가는거
▁ᄇᄃᄇᄃ
인정
▁했을까
▁국토
▁기사화
▁노동자
▁금수저
▁보수의
▁조국수호
▁댕
▁새기
조심
▁나와도
하기전에
▁노인네
▁제주
▁얘기를
▁부류
▁키우는
▁한대
▁뚝
식의
▁까불
▁네일베
▁폐업
▁워낙
▁지지하고
▁교수가
▁가까이
▁추한
▁색깔
였다고
▁어벙
▁책임이
한듯
▁광우병
▁제기
중인데
▁시나리오
▁대책을
▁돌아오
▁제로
▁실행
▁죽을때까지
동이
▁자라
나오네
▁말이되냐
나라에
▁등장
▁버리
연대
▁여자도
만하다
위조
▁써서
는지도
▁궁금하네
▁하던지
▁여긴
▁하루에
▁것과
▁사람들에게
▁숙청
▁생기면
▁맘카페
▁나라와
▁이번에도
▁북한도
▁......
▁생존
▁사고가
폐기
▁전환
자꾸
▁그러는
▁벙
▁결과를
▁은퇴
찬다
▁경제적
▁뒤질
테니까
▁직원들
▁나옴
▁노벨
사과
▁토나온다
▁안타깝네요
학규
▁불행
▁의견을
끼가
▁마니
▁안했
▁돌아간다
▁강력하게
▁모자란
▁시켜서
▁내용을
▁팍팍
어를
▁인생이
여기
▁지어
▁위치
▁노조가
▁사람한테
▁생각하니
▁미래는
그랬
▁신종
▁생각나네
▁기계
▁폭로
▁되야
어버린
▁황교안은
렸다고
세에
▁영원한
장군
▁그것을
▁시기에
▁안됐
▁넘은
▁입법
길이
▁뭐라도
▁팩트는
치는데
▁스티
렸으면
▁잘사는
▁언제고
▁줄이고
▁우익
모르고
▁잠시
▁화력
주라
▁피눈물
▁하더라도
▁많지
는것들이
▁우리나라의
▁했더니
▁생각만
개표
▁생길
유총
▁나중
▁안타까
▁모르게
▁지저분
▁잘먹고
헌날
애가
묻은
처분
▁토왜
▁뭘로
에휴
ᄅᄀ
▁없게
장사
▁왜놈
구는
할땐
▁죽었다
▁호주
▁나의
▁진술
전이
▁외모
바꿔
▁벤츠
▁있다니
▁보고싶
치냐
▁말하는거
파는
히면
▁마다
▁노인들
▁이와중에
도대체
거늘
▁수신
▁미국으로
가는게
▁개소리를
▁확진자가
▁이런일이
팔아
난리
배상
▁사태가
▁임종석
반하
▁배부
▁지나면
▁정의는
▁허위사실
로당
▁억울한
사회주의
▁한것
▁성역
업자득
▁목을
▁생겼다
▁정신차리고
행사
▁외고
▁생명을
▁넣고
답시고
▁태어난
▁하나라도
▁강아지
본데
▁왜이렇게
▁조공
았지
▁비리를
▁저러고
▁자식을
탄압
▁뭔지도
▁사주
▁아까운
▁할지
▁하는거다
스라
짓이
▁벗어
▁전달
화로
▁정신들
▁간섭
소대가리
공항
▁법조
▁권력이
▁감수
같지도
▁실업자
염병
▁광복
▁그들
시대에
▁비아
▁묘
▁수준으로
▁웃는다
▁대구시장
▁도박
▁솔까
▁개인적으로
출산
▁쓰냐
해지고
▁부러
▁되어서
▁거지같은
▁오죽하면
대에서
▁듣보
▁북돼지
▁않아요
▁수습
▁최종
▁다하고
▁이슬람
▁고정
▁수준을
▁양산
▁유행
▁사회를
▁세상은
▁난민
▁모르지만
▁증오
꾸라지
분별
째로
▁더더욱
▁느낌이
▁정도가
원숭
▁선동하는
집은
▁축제
▁언론에서
나라에서
▁깨달
▁얼마전
세훈
▁사태를
▁밑에서
▁쥐어
사오
할거면
실패
드나
▁경우가
▁노망
랄까봐
▁부도
▁압도
당해서
보게
다르
종자
지지율
▁분야
일만
이오
기때문에
법도
▁일산
▁일본이랑
▁건들
▁자들
▁그치
▁떨어져
▁낄
리지말고
없게
▁늠
▁보내야
▁오를
▁챙피
▁납득
법무
▁이것은
▁안나온다
▁할아버지
▁참가
▁차명진
▁한민족
▁북핵
▁훼손
▁일본차
▁휘두
▁은근
▁강제징용
▁입원
▁드럽게
▁문재인이가
안하는
▁한방에
▁입은
▁정의연
주는게
▁잘만
▁뻔뻔함
낸다
▁몰카
▁이렇게까지
▁법도
하지는
하시네
양심
▁나이가
▁조사를
▁폴
지켜
▁올려서
증거
▁굽신
▁골로
해줘야
▁다르게
▁사이트
▁원망
죽일
▁사법개혁
땜시
▁한통
▁사라질
▁유튜버
청구
▁국산화
▁당신들은
▁아이돌
▁전직
댄다
▁김무
▁떡검
▁숨기
리스
▁끝판왕
▁공통
▁이해를
▁틀니
▁재앙이다
▁떨고
▁하겠다고
▁북한군
게요
▁털어서
▁되길
▁실현
▁보여주기
는거랑
▁하라는
해결
▁니도
▁여론이
소릴
준거
문제는
▁짜장
▁숨겨
▁마스크가
▁오르고
▁통해서
▁평소에
리어
▁기울
▁양성
▁어쩌냐
▁사람인데
▁저러니
건강
▁매크로
▁싸고
▁넘어서
▁대한항공
▁빨개
▁군대도
였냐
▁역사는
▁건보
▁겨울
▁교주
▁은폐
안무
▁안그래도
▁하려는
▁박사모
나보다
카오
▁오마이
▁정권에서
▁산불
▁의지
교체
▁지키는
▁초등학교
▁아오
▁똥만
▁앉혀
문제가
▁지지를
▁불통
▁댓글달
▁부채
▁모가지
유럽
실이
임이
▁개누리
****
▁쓰래기
▁하나씩
▁없으니까
기전
신교
▁시선
할수있는
▁당할
히지
▁아침부터
▁치졸
▁최선을
▁이번기회에
▁아버지가
▁자가격리
▁이들이
잖은
관을
▁관여
▁놈들아
▁선거에서
▁보이네
▁취직
하고있다
되도
▁사건은
있습니다
통제
▁하나하나
▁공무원이
▁월에
▁내수
▁설레
멍청
▁되니까
▁더러워
▁올리면
차이
▁건너
▁실검
여당
▁대마
▁재앙이는
▁책임질
▁팩트를
몰라
▁엉뚱한
재가
▁군림
이유가
▁민주당도
새퀴
이라는데
질하는
▁정부도
▁싫지만
▁인당
▁했어야지
▁행동은
▁감추
된다는
▁쩌
▁살수
▁살림
▁어쩌면
▁죽여야
▁당연하지
▁적화통일
▁아휴
▁막장
▁간호사
왜란
배우
다니고
▁좌좀들
▁보는데
▁새끼들아
공작
▁멸망
▁살아온
▁가슴에
눈치
인증
못하게
▁정치판
▁여러가지
▁내기
들이냐
▁정당한
줄도
▁단단
▁우병
▁태국
르르
▁이는
대면
▁대깨
▁쳤
죽이고
▁교육을
▁편의점
쓰레기들
▁거꾸로
매한
▁색출
▁그런말
▁똥인지
▁오줌
▁언젠가
▁집합
러니
▁벌을
▁미워
▁올리지
▁모델
▁지자체
▁선조
더러운
▁성경
▁따져
▁일으킨
▁삼권
▁새삼
▁떠드는
▁덩
▁좃선일보
▁아베한테
▁부엉
▁관련된
▁깔끔
▁몇천
▁봐야지
할걸
▁손님
▁찐따
▁목적이
▁받아야지
????????????????
▁다행이다
▁쇼를
▁자식은
▁조국아
▁때까지
▁척결
▁이것들아
시리
▁대부분의
일당
▁백만
들하고
가에
▁잘돌아
▁이상황
▁다리
▁우리에게
▁전락
들갑
라나
더불어
신은
▁신중
▁제발좀
▁숨기고
▁청소년
나라는
▁문재앙을
값을
▁노후
▁손절
▁어렵게
▁제저
주인
▁{}
▁동시에
▁배워
하니깐
▁니미
하겠지만
▁쪼개
▁여적
났다고
▁게이트
더라고
▁법과
▁혜택을
▁중독
나베
대신
였구나
받지
!~
▁몇몇
▁내려와
▁좌파정권
▁묻고
근무
▁쳐맞
개를
▁달아
정도면
▁평범한
..!
요일
연합
▁안쓰고
▁미세먼지가
▁기간
▁대깨문들아
▁고급
▁잉
▁회장
▁역사상
주나
▁측근
매도
▁민좃당
갈이
▁감소
지길
▁청탁
▁멋대로
▁검사가
▁돈받고
▁당신같은
기부
▁의원직
▁김영삼
▁자기편
▁싶냐
▁줄서
월급
인지는
▁국회에
▁허구헌날
당해
▁서민들은
▁버리는
▁엄청나게
씩이나
▁골라
▁지금껏
▁정신차리
인해
애비
▁서울에
할수가
뭐냐
▁원조
▁텐데
▁택시기사
▁박통
▁나와야
안한다
▁논리가
▁하자고
국가가
▁콩밥
▁,,,
안다
▁의존
▁생각하나
▁틀어
▁나라경제
사용
▁입증
▁한유총
▁백번
▁드러운
무지
씨도
▁나를
▁아베의
▁닭그네
▁자기는
▁그당시
▁팔아서
저래
구를
태섭
▁몇달
오늘
▁문재인정권
▁살펴
▁모르네
▁새끼는
▁영입
▁계시
▁접근
▁퍼센트
▁홍위병
▁인스타
▁옆에서
▁간첩이
▁안심
▁장애인
재인
해야죠
▁민심이
▁했다면
▁ᄃᄉ
▁안걸
제목
가리고
▁펴
▁조선일보는
드로
▁의대
▁모를까
▁신상공개
▁호도
▁것들아
셨나
주에
나가는
▁현실이다
▁말해라
▁협의
실을
자본
▁생각해라
▁말종
중의
속이
문빠
▁힘으로
▁생각없이
쯔쯔
됐네
보가
우한
▁전투
레오
▁좋겠어요
▁부를
▁조사해
수출
신분
▁미화
▁아무튼
▁말하지
▁챙기는
▁손학규
▁그놈
▁걸릴
▁서서히
▁든든
▁검찰개혁을
▁지겨
달라는
▁;=
▁말도안되는
하냐고
▁문제지만
로도
어찌
의료
▁바꿀
▁역쉬
▁처형
하십니다
▁ᅳᅳᅳ
▁싸울
▁의사가
▁최후
▁귀찮
▁몸에
▁영구
선에서
▁이인영
▁정유라는
▁가난한
▁적반하
▁걱정이다
▁조국장관
▁학대
▁나몰라라
▁맛이
▁정신차릴
▁될것이다
자랑
할수도
▁브랜드
▁몽둥
▁말투
▁임진
▁이랬
▁종자들
아파
▁선생님
▁마무리
▁하겠다는
▁에혀
▁모아서
▁최선
▁검찰수사
▁침해
▁유학생
▁쓴다
▁주요
심은
▁구별
▁사실이라면
▁완성
의원이
▁국제사회
▁아기
▁힘없는
주네
했어야
아빠
집이
▁변화
원으로
인데요
만봐도
▁내면
화이팅
▁짤라
같은소리
정신차
▁안통
▁서해
▁잘한다고
는것들
친일파
▁실화
▁판에
▁때리고
▁하태경
▁너만
나오는
훈련
▁공영방송
▁기자는
▁자업자득
일으
음을
잖냐
겠고
▁청렴
▁고사
▁애들도
서민
▁늦게
강산
나갈
▁박정희가
▁차가
▁확대
속도로
▁남았
▁채워
병이
▁반성하고
▁모순
라는걸
회장
▁수사권
▁뽑아서
▁나쁜놈
전자
▁믿음이
▁애는
▁면허
▁이쁜
▁다른건
▁문쩝쩝
▁기사라고
▁자리에서
▁학생들이
ᅳᅳᅳ
일까요
▁공개해라
▁개웃
▁일본산
넘은
▁스포
▁펑펑
▁짜증나
▁그리도
▁선량한
시키들
▁모범
▁자산
▁그립
▁억이
▁말한마디
▁만든다
▁개혁이
▁유도
써서
▁우리국민
▁저것들은
▁보나
스럽네
▁소름끼
▁소위
▁있던데
▁눌러
덩이
▁하는거냐
동생
▁성격
▁대학교
평가
▁저놈
▁하나의
▁하루종일
질하고
▁패스
▁했어
장악
실험
▁줘도
▁따른
▁떨어지고
법에
▁명의
▁정치꾼
나와서
▁수준이다
▁사실은
▁안된다는
무서
▁비싸게
무가
▁꺼내
▁따위
▁살리
대출
▁낯짝
▁끈
라면서
▁비참
▁보입니다
▁전수조사
값이
▁명백한
료를
▁기사도
더라구요
▁정도의
▁대는
▁해봐야
▁못하나
▁소식
▁판을
역사
▁하시길
▁앞서
▁어이없다
데기
▁개망신
▁반성해라
▁활용
▁---
▁시원하게
시키지
상의
패거리
없어요
▁의원들
공수처
▁문제냐
▁애도
~~!!!
▁정확하게
▁설쳐
▁할수있는
▁쓰레기는
지는게
▁확정
했을때
▁치밀
▁많으면
▁선전선동
▁층
▁회의
그로
더러
청문회
▁공적
▁하지도
▁구글
▁공수처는
된게
치않
좀비
▁숨쉬
▁천벌을
도없고
▁들어와서
조기
쪽바리
▁그래요
▁들어온
▁저자
▁형편
▁몇일
▁빡대가리
▁가지가지한다
▁심상정
▁다주택
넘게
▁기업은
놨네
생각을
가야지
▁뽕
라우
중요
▁하겠네
▁속이고
▁호들갑
▁무엇인지
▁신발
▁여권
▁귀족노조
▁안팔
▁이중성
▁생각으로
▁호구로
▁필수
▁또다시
도에
▁경제에
▁강조
▁것인지
▁차리고
▁가는게
▁이상하다
인거야
▁정보를
▁분위
아무리
▁북한이랑
▁주말
▁선동하고
별로
▁버릇
▁빌려
▁기억이
어떤
(?)
뿐만
표가
면제
▁중고
▁부럽
이들은
▁속아
▁잘하면
▁국민에
해달라고
잔치
▁국뽕
위터
~~!
▁유엔
모를
▁잡은
▁비열한
▁구체
▁부작
모독
소수
▁발사
일자리
물어
▁믿는다
▁조정
▁다르지
보로
▁골라서
새끼들은
▁자한당의
소리가
▁안하지
▁않는데
▁장하
▁친박
▁파이팅
▁개소리야
트롤
▁개수작
▁고등학생
금이
▁봐주
심으로
▁보임
질이나
▁단독
▁일주일
▁짱께
▁개고생
▁나가라
▁자식들이
▁노트
▁정권바뀌면
▁방송에서
▁렉
▁죄지
▁기본적인
▁유독
▁의원님
사기꾼
▁도움을
바랍니다
채로
스라엘
▁오세훈
▁만들어놓고
설치
▁따까리
▁비유
▁축소
방에서
블릿
▁[]
▁탕
보네요
ᄋᄋ
▁것인데
듯한
▁하는건지
배가
▁무지한
▁신속
▁주문
▁세월호는
▁버는
▁전체가
당께
했잖아
▁열일
▁후안무
▁문대통령님
▁않을까요
▁역풍
인에게
▁기업을
달러
▁집단이
유치
논문
▁시민들이
▁총장이
▁위하여
▁사안
하시면
의미
▁지럴
아닌가요
딩이
▁네이버는
▁명을
사장
▁다루
안하냐
▁섭
▁적게
▁신뢰가
▁환경단체
▁머리는
▁사람이냐
▁(-
▁쇄
▁철도
▁인정하는
같은거
▁소리만
▁작가
▁임마
▁대상이
었어요
▁이스라엘
정부의
▁의심이
▁일자리가
▁찰
새끼는
였다면
▁쓰레기들아
▁배워라
메달
▁물리
▁거짓으로
되어서
기냐
릴수
▁수갑
▁열등감
▁누구한테
▁안좋아
▁쓸모
번째
▁소득주도성장
공동
▁쩝
▁느그들
▁미련
▁이면
▁조선일보가
나오면
▁없다면
▁해줘야
▁손바닥으로
위원회
아줌마
▁이들은
그대로
진게
입으로
▁기능
시스템
▁빌붙
▁독재를
▁보일
올림픽
당도
무새
▁틀림
광덕
질만
▁문제로
▁피가
받는다
▁북한한테
▁사퇴하고
당할
▁조두
▁반일선동
▁집착
▁못사
▁여론을
리는건
▁동원해서
개소리
▁욕하면
▁남자들은
말아
▁하실
▁치가
당에서
▁다수
말만
▁호텔
오게
▁편가르기
▁호소
아니야
▁꼬봉
▁적폐로
우니
돈은
줄께
▁갑시다
▁뉴스를
▁뽑는
▁닫고
뻔뻔
많네
▁빌어
▁만드네
▁전두환이
▁가시
아비
▁마스크는
이긴
▁끝장
▁못사는
▁되는거지
받으면
▁외교를
▁논리로
▁게이
▁여론몰이
유예
▁올인
될까
▁않았나
거네
▁기타
▁사탄
▁단합
▁되잖아
듣는
조선족
구장
다닐
▁"-
▁공산주의자
사라
계는
▁배치
의원님
▁받아들
도시
안함
▁바꾸고
▁인권을
▁연예인들
▁하고싶은
▁내내
고대
▁붙여
▁안하나
▁튀어나
이는데
위선
▁고기
▁머리를
▁차려
▁사회의
▁수석대변인
▁사회악
택시
성화
증이
▁읍
▁감독
▁배불
▁아니겠지
바다
▁수행
내로남불
것임
▁댓글다는
내요
▁주가
▁건가요
▁끝났다
▁약국
▁칼을
▁많다고
형을
▁형사
잡는
차에
동물
됩니까
▁안가고
▁위법
▁이전에
▁보이고
▁아마추어
▁단기
▁북한만
대비
▁개박살
▁신의
▁예비
▁니네들
▁악용
▁할게
▁국가는
▁우동
▁김성태
▁금태섭
▁한개
▁인구가
차례
전한
해줬
▁좆선
쪽은
▁가족을
▁떠들고
▁재정
▁반발
▁영감
▁자손
▁개돼지가
탱이
올리고
▁창출
▁교육감
한마디
버리면
하기를
▁교수님
▁보며
▁가수
한심한
▁저주
▁검찰과
▁바꿔야
▁떨어뜨
ᄀᄏ
▁단순히
▁있었나
▁그분
이탈
▁부끄럽지
▁수수
▁싫다고
▁북미
▁되는것
▁욕만
산물
▁한국사람
이던
▁당해
해진다
▁않네
▁다른게
운운
▁방식
▁전역
▁밖에서
▁중국인이
▁편법
▁영향을
경기
▁똥줄
?....
결혼
▁안하는데
▁발상
▁봤다
▁참모
▁마음으로
▁.,
▁전남
▁아닐까요
▁정부야
▁국민성
▁밀어붙
▁했어야
▁바보가
▁아랫
▁하수인
▁사라져라
경쟁
다닌
▁눈에는
▁보좌
▁고위공직
는거는
▁머냐
▁상관없이
▁문죄인은
▁쳐박
이야기
장히
▁유권
▁청와대와
▁괜찮은
▁해준
▁만원씩
▁못하는데
나경원
▁밝히고
돌이
▁만들었
▁외신
▁싸우고
▁짓밟
스럽습니다
▁짝이
▁완장
▁쓰나
▁안에서
안에서
▁향해
돌려
으라는
▁훠훠훠
앞으로
▁민주주의가
▁집이
▁기준이
케이
▁팀
▁날조
▁설리
▁있겠지만
수지
▁외국에서
▁늙은이
기차
연예
▁우째
▁있니
연이
▁내뱉
▁보수를
▁있었으면
▁풍년
▁한국경제
자야
▁못들어
대통
▁잡아야
▁씌우
따구로
▁인간말종
들이라
▁문통은
▁프리
▁길게
▁가리
홍어
▁인신
▁현혹
▁대폭
▁하필
회의
했어야지
▁어렵다
▁둘러
▁정시
▁시바
▁될거
▁촉새
증상
▁근대
▁노는
▁추잡한
▁달창들은
▁곳에서
원수
▁어설
▁여기도
▁이기주의
▁부럽다
▁일가
하다면
▁이성윤
보이는
정도는
세금으로
저나
▁살려고
▁부족한
▁국익을
만으로도
▁올려라
▁무소불
인격
▁남겨
▁백퍼
목숨
▁죄는
▁정신병자들
▁압승
말대로
▁나발이고
이에요
호식
▁징용
▁어떠한
▁없었으면
마시고
내에
▁뇌피
▁황제
▁트위터
▁있을때
▁이제서야
▁온국민이
말든
▁박수를
국적
▁대량
▁수학
▁기분이
교통
▁살다가
▁죽어서
하는건데
하더라도
▁전라도가
▁저지르고
▁~~~~
기총
갔는데
▁이런말
▁취임
...!
트로
▁공정하게
해줘
▁잃은
???????
▁나팔수
▁응징
▁심하게
▁이러한
▁임진왜란
시적
▁빨갱이는
들임
최악
▁안고
▁있을까요
▁현직
거리며
~.
많아
▁팩트체크
▁멋지다
▁나가면
▁아니랄까봐
치자
▁보유세
냅니다
▁있는거다
나라냐
▁내놓고
녀가
▁만천
▁한가지
▁장난하냐
▁두고보자
▁얘기가
▁경제폭망
▁말입니다
▁냉정
어느
▁삼권분립
도아니고
▁지킨
▁찾아서
▁할매
▁조원진
하곤
틀러
리니까
▁본인도
▁될수
▁명예훼손
▁계좌
▁놀아나는
▁기반
▁개신교
▁있구만
▁삼청
▁알고나
책을
▁쪽발
▁일본놈들
▁대깨문들이
▁약한
기록
▁닭대가리
▁일본보다
▁에게
▁그런게
▁복수
▁벽
▁젠
▁사이다
랑께
▁바미
한다는게
▁김여
▁월일
▁형평
는건가요
▁로또
해지는
▁있으면서
▁긍정
▁대상으로
특히
▁국민들만
▁친구가
▁피해는
▁없어질
▁놈을
▁지들도
▁꼬박
▁한편
▁만들자
▁대통령이란
▁이고
▁주적
▁짱깨들
겄다
▁거시기
▁예측
▁광화문에서
▁자주국방
▁가도
▁뻔한
▁일등
▁상당히
되는지
▁고마해라
들에게는
▁간절히
▁정신차리지
▁잊지
▁우리집
▁꼴을
▁모르쇠
▁앞뒤가
보며
▁신이
▁윤총장님
인다고
실에
▁깨닫
것인가
같지
▁설레발
보를
▁구제
▁대표가
▁카카오
돼서
▁쉽지
▁펀드
▁혈안이
▁어처구니
분간
▁오버
고있는
보드
원의
▁따르
▁중산
▁(:
자들도
▁어지간히
▁여기까지
▁접촉
지않아
▁그돈으로
▁조작이
▁경찰에
▁알고있
국가에서
자너
▁기부금
▁백날
▁유착
▁세종
▁지겹
▁들어야
▁나한테
▁디지
▁세무
▁만명이
▁혐의
▁지능이
▁그런데도
▁분노가
▁의원이
▁깔아
▁백두
▁속에
함에
▁사지
셨으면
량을
▁못하겠
▁쓸어버
▁글쎄
▁저번
▁소각
▁저것도
▁저소득
▁배고
▁스토
▁치사
▁가져다
▁길로
▁여성이
화된
때문이다
▁거라고
▁아산
▁정으니
▁관심을
▁버릴
▁모자랄
▁검찰개혁은
▁소중한
▁중요한게
▁골빈
▁원본
▁핵무기
▁할것이다
▁걱정된다
▁쫓아
▁문희
▁없죠
져야한다
▁골수
▁안간
들인데
▁제조업
▁반영
건만
▁인력
▁그들을
▁왜들
▁확신
▁그간
주는데
▁나라망신
▁서리
비어
개월
▁찍을
▁가로
▁응답
▁현충
▁고등학교
▁그래놓고
▁밥은
구야
뭐가
▁입만열면
인과
이야말로
▁할말은
▁다니면서
▁발끈
▁흐름
▁역할을
▁조성
▁강도
▁천명
▁해고
링크
▁법에
▁부적
▁퍼줄
▁수사는
쪽에서
▁실시간
선택
대니
▁삶이
▁모르는데
진거
회찬
▁개구리
▁정상이
▁일으켜
▁한나라당
▁들어가면
없습니다
▁얘기는
구역
▁보내는
연한
전부
▁경제보복
다며
았어
빨갱
▁살다살다
였습니다
▁조선이
▁혁명
▁쿠데타
쓰네
▁속지
▁자한당을
스도
▁등교
▁적극적으로
부부
▁아니란
▁ᄋᄌᄅ
▁많은지
받게
바란다
▁답답한
▁화이트
▁이름이
런지
▁여가부
도못
▁엄한
▁다시한번
색을
▁진보가
▁맹목
▁추측
▁된다면
▁찌그러져
부동산
▁페미니즘
계에
그럴
▁대책이
세다
▁가벼
▁정체가
두로
▁외치고
▁어이없네
▁죽창들고
되기
▁덕에
▁형제
▁주둥이로
반일
데요
았던
▁손으로
랑은
▁많냐
▁한미일
▁사항
▁주광덕
▁했습니다
▁다른사람
궁금
▁두개
라는거
기생
▁다니냐
▁어거지
년간
▁당을
▁기준으로
비아
▁검새
나왔
▁탱
▁바꾼
▁소문
▁고로
▁나머지는
▁동료
▁라이
방제
▁총알
▁부모는
▁넘기
▁세력이
▁텅
▁땅에
▁오늘은
가보네
▁ᅲᅲᅲ
▁일이나
▁본질을
▁자발적으로
망정
▁압력
{}}
대통령은
소는
▁표정
▁잘하세요
▁자신들이
▁감방에
당장
▁김문
▁무력
▁모른척
▁사립
▁짓거리를
▁학교에서
단에
▁터트
호가
▁임명한
▁쳐들어
▁싸다
▁뿐만
▁시국
▁아가
에라이
▁뽑아준
치면서
▁디자인
▁그따위
▁살어
▁발언을
▁쟤네
▁쪼다
▁국고
▁우병우
해야하는
▁살아가는
▁다운
▁살인자
이하
▁단단히
▁기업들이
▁절라
새기들
감도
혐오
▁그런다고
▁흥분
좋게
▁외부
하셨습니다
하지마세요
▁소나
////
▁자들은
▁구성
군데
되니까
▁우리민족
▁("
▁범죄자가
▁감찰
하시오
환이
▁전쟁나면
세상에
▁되나요
▁고의
▁김재
▁난리를
▁앞으로는
▁번역
▁장담
꺼냐
말이다
▁좌빨들의
무기
▁맞지만
평생
▁자식들은
............
▁전통
▁지켜보고
▁했겠지
국가로
▁남로당
우리가
▁출입
하기가
▁거리는
▁아니에요
▁세균
▁아따
▁고민정
▁들어도
그걸
▁교과
▁언론과
▁쾌
셔야죠
래미
▁돌리고
▁미쳤다
파괴
▁주위에
▁터질
▁그밥
▁저질렀
▁달창들아
▁받으
▁추악
▁되겠다
▁멋지
▁둘째
▁시민이
▁사퇴하라
▁꾸준
▁개한민국
움을
린게
▁내지
▁불리하면
▁감염자
▁이준석
중독
▁행동으로
▁초반
치는거
▁먹고사는
▁올라가
▁속도
▁ᄉᄏ
▁공권력
뜨고
▁망친
청정
감사
▁말고는
▁이제라도
▁공인
없다는
▁"".
▁까라
▁세계적으로
▁토착빨갱이
▁주의
▁예약
▁너네는
이라면서
▁이인간
▁강용
▁자영업자들
▁선심
▁다신
💙💙💙💙
케팅
협회
▁먹여살
▁올렸
▁실시
해져
호구
▁사냥
▁폭도
물로
▁바가지
▁챙기고
▁킹크
▁댓가를
▁소리냐
▁전재산
생각이
방법
▁우리한테
▁필요합니다
오냐
▁불쌍타
▁원흉
스쿨
▁깨끗한척
▁본질
▁방법은
▁이국
▁많구나
▁단어를
있어요
▁꼬투리
▁없는지
▁지고
▁배우고
▁퇴근
▁쌍욕
일수도
▁자폭
▁그런지
▁조사하고
▁자한
도없이
수없는
▁문제임
소린
▁줄여
이라곤
럭시
▁밝혀야
▁겪어
▁]
걸리
읍시다
▁거짓과
▁양파
▁내로남불의
에다가
▁또다른
▁털고
▁이나라에
▁보이나
▁알겠지
키는
▁쓰레기야
▁이냐
거죠
먹어
했니
▁의심스럽다
▁속은
▁얼굴을
▁소설을
▁정책은
▁만날
▁에라
촉새
▁가능성
▁버려라
▁아름다운
▁검찰개혁이
무사
▁망한
▁반면
것에
▁민주당에서
▁수밖에
▁교활이
▁무개념
▁왠지
▁다르냐
▁할줄아
▁한심하고
▁해도해도
만나
▁일할
▁게시
▁느끼는
▁대통령이라고
▁무사
▁상종
▁ᄃᄃᄃ
▁한명도
▁저들이
겠다는데
▁눈먼
▁유발
▁도둑질
▁복귀
▁씨를
▁투표용
▁받아들이
▁이주
▁튼
▁댓글도
▁맞은
▁대구는
▁언론들
▁기다리고
▁이왕
▁찍는
▁수준하고는
부담
▁부끄러워
▁통수
발광
심판
▁비방
▁나왔다
▁님이
▁에어
조장
▁구한
일반
이냐고
▁언론을
등을
능력이
▁한푼
▁울고
▁여지
▁마귀
▁지휘
▁불의
▁예를
▁놈아
▁촛불을
▁거주
▁일본하고
집을
니까요
포함
▁식구
▁남에게
▁찌질이
▁법인
노인
만세
본인
집값
찾아
▁촛불로
소한
▁민족의
▁가관이다
자리에
현이
확인
간을
면허
▁죄송합니다
▁적으로
했더니
▁증말
▁가냐
▁언젠가는
심에
너지
았고
단체가
▁허접
▁이기사
란히
▁농담
▁창피하다
▁굶어죽
아이가
▁현대차
할까요
▁이탈리아
▁개미
▁떨어졌
▁불법을
▁나고
▁깐
릴려고
쳤다
▁깨시민
윤석
▁극치
▁만난
기업이
▁굶어
▁채우
말씀
▁하더만
▁끼고
▁자중
꺼리
▁자리가
▁이야기를
았으니
▁알지도
경화
▁미쳤네
▁스포츠
▁유급
▁국회의
▁경험해보지
해가
교사
▁사정
▁듣보잡
====
후손
▁정숙
넘들은
질않
▁와라
▁지지율은
▁발로
▁당당히
▁찔러
▁고스톱
▁광주시민
▁말이나
오니
▁시장경제
▁언어
대냐
▁퍼주기
▁상징
가족이
▁만개
▁현명한
여자가
▁뽑아야
▁합리적인
▁낙선
▁느낀다
▁정치인들은
▁엄격
▁사학
다나
테타
▁가스
▁검은
할까봐
▁사형시켜라
▁놔두
▁생각해도
▁곳은
▁보여주고
수입
▁답없다
하는것은
노맹
하는건지
시게
▁말라는
뜯어
▁한기총
짱개
▁떨어진다
▁좋아하네
▁타협
▁불러서
▁원자력
▁저랬
저러
▁불교
하단
▁외교부
▁쌓아
▁기사만
▁한국으로
▁싶습니다
전화
자동
▁거론
▁멈추
무를
사유
야지요
▁키운
▁이용한
▁나왔는데
▁포기하고
▁유일하게
▁믿냐
▁않도록
대네
이라고는
▁후배
나네요
▁하나님이
▁껴
▁현상
▁너무하네
답답
위의
▁직시
▁종료
▁반대를
▁처벌해야
함께
부탁
▁사회생활
▁패배
▁맞서
▁고려대
▁자격도
▁바랄
▁자리를
▁부끄럽지도
악질
았음
▁예쁘
등에
▁이거지
▁졌
두각
그러냐
▁후려
▁빨갱이들은
왜곡
▁심각하다
먹기
▁보는게
▁중요하지
트가
▁호의
▁그런건
▁삼청교육
안타
▁프로가
▁거죠
물론
▁아갈
▁뚱
▁치면
▁벌벌
▁공사
무섭
▁허수
으냐
▁안했다
▁믿습니다
▁안속
▁알겠네
▁경험하지
▁생각보다
▁강원도
많고
권도
목으로
▁될것
▁검찰조사
시켜야한다
▁글구
▁천황
▁철저한
▁민주당만
▁해보자
쪽이
▁미군철수
등신
판단
▁확률
▁전시
▁쪽바리들
개인
▁질본
▁하루하루
▁면제
살고
나는데
▁즈그
드리
▁알겠냐
됐다고
▁쓰네
대선
▁없나요
아닙
▁된장인지
▁하잖아
▁내리고
▁조선은
▁않았는데
까는
▁바둑
▁작정
▁들어라
▁알겠는데
만큼은
시라
▁하는것도
▁조두순
명단
▁내년총선
▁감정적으로
▁떠넘
▁까도
되겠네
▁선출
중이다
▁금강산
▁불량
▁어이없는
▁뻘짓
▁사과는
▁위해서는
▁있는거야
▁좋은거
▁간다고
▁인종차별
▁권영
▁임시
▁주옥
▁놈의
▁심심
▁싸구려
▁거절
는것을
▁부르짖
▁일인데
▁뜻이
▁그다음
급여
▁안되네
▁조국사태
보낸
▁제명
▁표본
직을
바지
그것도
삼성
▁넘어갈
노무현
어이
들이여
▁이나라의
▁뒤로는
▁가중
▁문제인이
▁백배
란게
▁안다고
▁정책으로
기까지
▁잘못하면
▁직권남용
▁저쩌
▁혼자서
급이
▁영토
▁너부터
▁미국한테
▁한결
▁기를
▁판단을
▁안죽
▁음성
▁규정
해줘라
▁가는구나
보상
▁ᄊᄅᄀ
봤으면
▁국민한테
▁뒤져라
▁생각했는데
▁고립
▁남한테
▁소리나
▁안일
▁떨어지면
▁정당이
편향
▁어리석
▁네이버에
▁속으로
▁전세계에
▁가동
▁잠잠
▁첩
▁이라도
▁증여
들어가
▁수정
▁안희
지않게
▁하고있네
▁우짜
▁체크
▁각성
▁공수처법
▁지나가던
▁체제
▁후원금
시나요
줄은
미달
▁종자
▁남발
▁몰표
▁파렴치
혀라
▁이상이
▁세운
인물
화수
▁언제는
▁행복하게
면서도
▁안한다고
▁부엉이
▁방송에
▁차릴
찬성
▁상실
▁부르는
▁포기한
▁보단
▁하나님의
▁억압
손손
▁아나운
▁진압
▁저따위
▁해주는
▁바른미래
▁사람들만
▁돌리
▁뿌려
▁국민만
▁집으로
▁망상
▁니들끼리
▁엉터리
▁소린
▁먹어라
▁아이러니
▁세입
으로부터
▁모자이크
아닌데
인거다
▁나오나
▁줄이
▁당해도
▁지금부터
무죄
퇴근
씨를
▁악화
▁머릿
▁이놈은
▁안되서
▁언론도
니들은
▁꼴페미
준용
▁조가
▁옮겨
▁할일이
▁않지
▁될텐데
▁놨
일지
▁욕은
▁모른다고
한적
▁사재기
▁보석
▁으이구
▁내라
▁그랬냐
▁시키면
▁분단
보지도
▁퇴진
▁줄서서
▁아빠가
했어도
▁인간이다
▁뭐해
▁방송국
▁원수
비판
▁되겠냐
▁푸하하
▁미친듯이
▁총선은
▁소독
▁감옥에서
년전
▁촛불들고
▁버렸
▁안철수가
▁깜짝
혜원이
▁뒷북
▁데이터
가봐
▁천억
..!!
▁자유한국당은
아침
▁자한당에
개로
▁다까
▁금메달
▁이빨
▁내용은
▁무기고
함은
▁맥주
▁아이들을
▁백신
▁와우
▁많다는
할건
▁귀를
▁군부
▁가르치
▁경계
▁두들
▁터지
▁정상이냐
▁개만도
▁배울
따구
▁탈취
스스로
▁거짓말로
▁조국이가
겟냐
▁추종하는
▁귀신
버리네
▁들어와
▁생각해보
음에
▁저들은
▁검찰에서
▁뉴스가
하겠나
하는거임
▁계란
살아라
▁버려야
▁말좀
▁전라디언
개판
▁진보는
▁혈세로
▁못보
▁지지자들이
실에서
태극
▁막가
▁수령님
▁용감
▁공수처를
▁애비가
▁찬양하는
실장
▁건강보험
했구만
차로
▁아재
▁얼마든지
▁의료보험
▁소대가리가
계약
극우
▁대고
▁집행유예
▁부처
▁늘려
▁며느
▁같은거
▁설치는
▁종이
▁종족
▁가둬
▁보라
▁있는거냐
▁통치
▁너네들
빨아
트럼프
사에서
하산
▁수사해라
▁괜찮고
▁기원합니다
▁죽었
▁사유재산
둘이
▁"'
▁비공
▁항명
▁힘드
▁기껏
이라는걸
▁도둑놈
▁숨어서
▁사나
▁지상
▁피를
손으로
정책을
▁지성
▁달인
하구만
▁허리
게이
▁알고도
▁몸이
기싫
▁보태
글을
▁횡령
▁감싸고
▁중국이나
▁반중
▁우주
▁왕창
▁응원하고
~~~~~~~~~~~~~~~~
들인
▁범죄가
사서
곳으로
▁인간이냐
가루
있던
▁나치
▁해줬
▁병원에
▁오고
▁비롯한
▁미안하다
약한
▁한미동맹
▁무식하고
광고
▁개인정보
▁지껄이는
은행
▁춘
▁이리도
▁쪽팔린다
▁뒤져
▁삶은소대가리
▁예정
▁청화
▁창원
영표
▁예방
▁이걸로
▁빼박
▁장모
▁질투
▁하청
▁잘한거
배로
▁주먹
▁소멸
▁저사람
▁욱일
또라이
▁노무현이
▁기술이
▁수사가
▁회계
▁잠재적
▁디스
▁아무렇
▁고생이
▁보기엔
장의
▁심히
▁욕나온다
대요
▁은혜
▁강성
▁한복
조국이
▁허경영
사법
안해도
찌라시
▁생기는
▁중요하다
▁',
▁자를
▁획
▁줄어들
클럽
수수
▁자위대
새끼들아
▁번째
포로
▁워마
▁폭파
▁국립
을까봐
▁악수
▁적어
▁유시민은
▁주접
▁니네는
영장
학과
꼬박
모델
▁누구보다
▁이상은
▁부천
▁열폭
▁빼면
▁싸질러
▁달창들이
▁가르쳐
▁쓰는데
▁박근혜를
▁부모도
▁인권이
▁돌아가신
생들
▁황당
▁나오니
▁저것들이
▁싸우는
▁중요한건
▁막는
▁쓸어
▁느낄
이었으면
▁사실이면
▁하고있
아픈
▁뭐든지
▁후퇴
트를
▁명박
▁적대
▁신호
▁통째로
같으니
▁대구에
▁친일파가
▁될지
▁예능
지말라고
주길
▁해야함
하시네요
자살
해보면
▁종전
▁이후로
층은
▁조금씩
위에서
지르고
▁한통속
▁굴러
▁징그
▁꺼지
▁쓰세요
▁범죄자를
몰랑
▁유리한
▁수준에
▁임산
열이
▁어그로
라는건
▁빙신
▁가족은
고시
미를
▁있는듯
▁해쳐먹
▁잠수
▁볼수
길을
▁용돈
▁첨부터
▁비아냥
▁소상공인
▁블랙리스트
정권을
바이
▁야당은
▁아무래도
치며
▁시작해서
리만
▁사상이
불러
▁문씨가
▁시키들
신청
▁안들면
오줌
팔아먹
▁암살
▁진료
▁거울
했네요
말아먹
▁될거다
▁개헌
▁이틀
▁개그맨
▁돌아갈
▁얼굴도
덜이
▁공시
▁안해서
▁잘못한거
▁지랄도
▁노회찬
▁미쳤구나
고집
▁김무성
면이
▁만들기
▁지원을
▁딜
토막
▁뭐만
▁자원
당초
▁책임지
을걸
▁가식
▁슬프다
▁당원
▁기가찬다
▁양도
것들을
▁있을텐데
속까지
▁타이틀
▁백종
▁윈
해야하는데
중앙
▁의혹을
▁일해서
▁애낳
생각은
해산
▁기만
▁하죠
▁나와라
▁안되는거
합의
해체
▁모르겠고
▁얼만
▁유명한
▁아사
벌어
▁녹취
▁매매
안됨
▁평생을
체이탈
하시죠
사는데
▁해외에서
▁만도
▁월북
던게
분야
▁한마리
▁소녀
▁큰일이다
▁추적
▁빨대
▁국정운영
▁내린
황교안
▁경찰서
▁줄도
▁해주면
▁홍준표가
▁동포
▁정신과
발표
선은
줄게
발전소
▁뭔가요
불법
조차도
▁캐나다
▁둥
기사는
▁섬나라
▁정치적인
▁외교는
▁바이러스가
셨어요
▁경제성장
쓰냐
체제
▁다양한
▁거는
▁거대
▁전쟁이
▁비판하는
▁어버
▁꼭두각
▁남았다
▁효과가
대전
투사
▁조국같은
▁사실이다
▁억울하게
은거냐
▁중국이랑
▁잘하는게
▁서리풀
▁망하면
관계가
▁조국에
▁사살
나가서
타는
단말
조를
▁일정
드는데
자녀
▁장관님
▁전국에
관심
▁니들의
▁정권이다
강도
치로
아니지
▁쳐도
이거나
▁납니다
▁대일
관계를
▁쟁
▁무작
▁이긴
▁뉴스는
▁수소
▁놈이다
상품
악을
난다고
사이트
▁남경
▁뻔하다
구에
▁그만두
▁저승
▁전체를
ᄀᄀ
▁그지같은
▁이런일
▁주둥이만
▁희한
셔도
▁니나
▁외노
▁건보료
▁정의와
시장이
인디
▁죠
▁뻔뻔하고
세포
일뿐이다
▁신용
▁욕심이
▁작작해라
난거
▁심하다
들한테는
▁봐서
▁바래
▁그전에
▁자멸
▁족속들
힘든
▁이들
▁관대
▁상대가
▁욕하지
▁보내서
▁문베
좋겠다
▁내놔
▁뭐임
▁치자
▁기회가
지처
▁국민여러분
▁자존심도
▁직전
▁태영
▁좋지만
▁최우선
쳐먹는
더기
로가
▁투명하게
▁개꿀
▁최신
▁아베를
▁텐
▁풀어주
▁기가차
▁나부
사형
관은
▁어이구
▁해야합니다
▁국내에서
류가
▁만약에
▁시장이
단계
다니면서
▁보안
▁생각없는
감으로
▁자율
지는건
▁시부
▁들었
한다는데
재난
▁조종
입국금지
▁눈가리고
▁노골
▁선포
▁천박한
▁기본적으로
차라리
▁일본군
▁않아도
▁이새
▁맘이
주는거
▁낳고
▁지혜
▁조치를
이틀
▁않은가
▁구독
▁지극
토론
▁받으면서
▁동정
▁종합
▁좋네
상한
▁부풀
▁치워
▁김정은의
▁자세히
▁놈들이다
▁달라지
~~~~~~~
▁범인
재단
▁오르면
▁직무유
▁아니었
▁있었고
▁싸이코패스
져요
▁복잡
▁그나저나
▁정권과
▁이년
▁세탁
쪽팔
▁경비
▁이가
▁상당
▁화를
오네
▁꿈도
머리가
▁죄앙
▁이에
▁고맙습니다
▁법률
▁말아야지
걸려
도둑
▁타도
▁벌고
짓고
▁작년에
▁댓글러
오염
▁꼴갑
▁컨트롤
▁정신상태
타임
▁거잖아
▁말인데
▁핑계로
▁높다
다들
위원장
▁거짓선동
▁외출
▁쇼핑
,,,,,,
▁끝은
▁맡겨
어디서
▁지만원
▁기다려라
죄는
▁주어
수고
작업
전문가
났으면
▁누군데
무역
▁단계
▁쪽바
▁입국금
게하고
통은
그래야
▁길이다
▁강의
잡아서
▁도시락
폐지
▁못배운
을것이다
▁오리발
▁쥐새끼
▁가족들이
▁어디가서
▁더욱더
정권에
는대
줄까
▁부산대
▁무법
▁할인
봐야지
버스
▁돌아서
▁노력을
..??
▁어따
▁가능하다
▁하는걸
방위
▁않으니
감독
광주
▁정당화
▁가지말
▁탄핵을
통과
▁발급
▁김씨
▁묻은
▁저인간
금은
수술
▁망해라
보냐
▁딱히
▁죽음을
▁최고다
▁한번씩
건이
▁이상해
▁분탕
구도
▁친척
증명
인대
▁꼴깝
차원에서
▁부정하는
▁이국종
▁끼어
▁놔두고
하고있는
▁딱봐도
▁렉서
▁주는게
꼴이
▁가질
▁국가로
▁부패한
▁쓰라고
선에
▁못하는게
▁사노맹
지않는다
꼬리
▁집도
니네
▁똥칠
▁마음은
있는게
▁기래기
벗고
▁걱정이
▁안그래
너는
▁순식
입은
▁배제
▁인권은
▁위에서
▁가치를
▁우상
▁개념이
요청
▁수십억
보라
▁도태
▁였
출마
▁겸손
것이지
▁구석
▁ᄋᄌ
▁공개하고
▁박근혜대통령
▁총동원
한심하다
폭동
딸이
▁살만
▁자민당
스테
ᄉᄇ
▁빠르게
▁생각난다
▁자유한국당이
▁비극
▁우물
색기
▁갔는데
▁따르는
▁단교
▁육아
▁타는
▁세끼
짜증
견이
와의
하는거고
▁비자
▁안하는게
▁우기는
▁만들었다
▁부분이
▁움직이는
▁저런것들이
▁여혐
▁있었네
아니라고
▁지긋지긋하다
▁후진
▁넘들은
▁보냐
▁태평
▁한달에
국주의
식은
▁골목
▁필요도
뿐이
모음
터진
▁따지고
▁잔치
▁사이에
▁림
▁삶의
▁말로는
▁말려
▁깊은
내에서
▁돌리는
▁받았다
▁지인
멋대로
사모
안돼
▁실체를
▁죄값을
자들만
▁검사를
▁방가
▁조지
▁다를바
▁슬픈
▁차를
대사
▁분은
▁목적으로
지에서
등이
▁먹지
▁맞죠
▁당하지
▁지지자들은
▁보여준
▁위대
▁미루
▁시전
▁역사적
팔고
▁깊이
▁뽑고
▁서양
▁사진을
▁검찰도
▁외압
▁나쁘다
공산주의
▁지불
▁수신료
▁맞아야
▁이중인격
있어야
년동안
▁해달라고
▁공무
▁지식인
▁조사해야
▁나타나
▁부메
▁우릴
질도
▁대항
▁조져
▁건물주
▁모셔
▁장관을
▁건강한
▁현재의
저도
▁착취
▁년전에
▁주디
것으로
▁스쿨
▁글쓴
▁형님
▁밀어부
구마
▁이정부는
▁거들
▁쓰레기를
▁못쓰
들에겐
▁않아서
▁국제적
▁했다가
▁명은
▁해줘라
일수
▁선택을
▁교통사고
▁페북
▁종북좌빨
▁정신줄
▁말던
구장창
활용
▁문슬람들
▁수사하라
▁칼로
▁메르스때
▁내주
가기
▁쌍판
박정희
▁주인이
▁망해도
▁있겠나
챙기
▁독점
▁전부터
버리자
▁약자
할건데
▁월급은
▁유체이탈
▁비굴
▁즐기
▁군인들
▁무효
▁고마운
미세먼지
되네요
그때
망상
▁관계가
▁쓸데없이
정신병
싶네
하는건가
할일
▁거두
▁;;
놓으면
▁주시간
▁써도
거짓말
▁지랄들
▁히틀러
▁나이에
▁진정성
▁행복한
비율
자로서
▁일본기업
워요
▁지능순
경을
죽이
햇다
▁공부를
▁정의의
▁원인이
▁국익에
▁사랑합니다
▁낙하산
금으로
하지않고
▁개솔
구니가
전으로
물은
토화
▁일왕
▁선정
▁잃고
▁말했다
▁없겠지
▁욕설
▁경기가
▁버젓
▁번방
▁혼밥
▁끝이다
등록
지않냐
개들
합리
있어도
▁입다물고
▁속국
▁업적
▁판결을
배를
▁덩어리
▁저정도면
박고
▁군대를
트는
▁기자들이
▁자유롭게
▁만나면
▁사람이라면
있어라
▁시다
▁상속세
▁죽어가
▁방법으로
같냐
▁말았
갑시다
▁머라
들어라
적으로는
▁안막
▁일좀
▁생각할
외로
▁수사해서
▁좋을듯
는거잖아
▁필요없고
▁자처
▁까면
일본이
▁살리는
▁과잉
명도
▁지켜보
▁진중권이
인간들이
▁국민분열
▁가성
어차피
▁이끌어
▁모르겠네요
▁전체주의
▁가봐라
전은
▁탐욕
▁둔갑
는것이다
▁양심은
▁최악이다
▁비겁한
▁의석
▁똑같아
▁계속해서
▁맞춤
▁위해서라도
▁쯧
▁몽땅
▁할거면
▁안가는
▁이러니까
▁설사
▁강경화
세연
▁해소
▁죽었는데
▁자발적
가세요
▁문정부는
재앙이
▁노예로
▁하는것이
▁주기
▁토착왜구당
▁써먹
▁퇴임
원칙
행이
.............
▁올라서
편이
▁침뱉
▁시끄럽게
▁좌표찍고
▁선동해서
▁신천지에
▁생계
▁문준용
대다
▁불공
▁불법으로
출동
▁있습니까
▁북송
▁처넣
▁대단해
▁우리만
▁희망을
▁우스
▁주일
▁정계
여자는
됐는데
▁원한다
화에
▁겁니까
▁못했다
▁극좌
▁할래
숙한
▁굴욕
▁몰라요
▁져
볼까
▁유신
해지면
▁사이코패스
서니
수있게
진다고
검증
▁번호
민은
이신
▁사이비종교
표현
지경
▁노친
수한
기사가
▁경찰들
재철
▁딸도
▁잡아라
▁언론플레이
파가
▁애쓰
▁피의자
대왕
▁압색
▁이러면서
어려
언이
▁밥맛
▁망가뜨
▁아침에
▁내밀
▁있는건지
▁나가고
금의
부장
함과
▁내돈
▁발전이
▁때부터
▁살고있
▁깨어나
▁비상식
▁그야말로
▁하는건데
▁다수의
구절
▁연루
하듯이
▁편집
▁유재
▁탈세
▁한국과
불능
▁있을지
▁안오
▁이지랄
▁예전부터
대접
선다
▁군복
더니만
들인가
▁일반인이
▁독립운동가
▁분노를
▁불화수
▁국회의원은
▁태워
같고
대며
나옴
태를
당하게
▁싶어도
▁뇌에
▁무마
▁남침
▁신라
주면서
▁집은
십쇼
▁봤냐
갈때
▁웃긴게
▁쓰레기네
▁죽기
▁장례
건설
▁지켜라
▁찌질한
▁유기
▁조회
▁외국으로
아녀
지않다
목이
▁으휴
소로
다하고
▁위태
▁국무총리
▁존나게
▁핵폭탄
짓만
목을
▁그럼에도
▁방관
▁쓰면서
▁쓰는게
▁불렀
~??
▁선거철
▁북한하고
▁시대의
▁납치
▁우파가
▁안하무
▁공기청정
형으로
생을
▁검열
▁정치인은
!!!!!!!!!
▁작자가
쓰기
▁***
▁에구
▁랑
▁들어오는
▁붕어
실하게
▁처벌이
지진
키고
▁누구의
▁아베야
국대
▁중간에
▁코로나는
약을
되는건
▁있는데도
▁????
▁주구장창
▁예쁜
▁아니니까
▁이정도로
기회
정치인
들보다
락으로
놓는
▁카풀
그림
왔네
▁어깨
최순실
해보자
▁개혁은
▁반려
▁심리
쟁이들
▁용접
▁사로
▁체육
▁국방부
죽은
▁안전을
▁재산을
▁귀걸이
▁하길
들까지
▁아니가
▁막아라
▁찾는
▁대다수가
▁만한
▁반공
주시
▁수법
▁못알아
▁이태
상조
유시민
▁문제라고
▁일로
▁외치던
▁등골
▁괴롭히
▁이양반
▁터지면
▁눈과
▁신천지를
▁돈많은
▁똥은
▁양쪽
간거
▁멍멍이
▁왔는데
▁외제
코스
▁사람입니다
▁그런걸
▁농락
▁무엇인가
급으로
나불
▁무식하면
▁깨끗하게
모아
▁제목만
▁억원
고요
못할
학원
▁술먹고
▁세무조사
▁자유민주주의를
범이
▁비닐
▁놀랍다
▁여론조
▁조국가족
독한
않는
▁맞나요
경제는
먹으면
잡을
▁내버려
▁신뢰를
▁헛소리를
데이
불매운동
▁윤석열은
▁일방적으로
▁동사무
▁학력
▁계엄령
▁꾸준히
▁때마다
▁망해야
고를
란걸
▁받는게
▁뿐이지
▁말하는게
때매
세키
▁살아갈
▁사라지고
종이
▁아프다
▁해결책
물러
▁조구기
▁되기
▁수사하고
▁객관적으로
심도
▁누드
공동체
▁한거지
놔서
하늘
▁짝짝
▁정부다
▁꼴랑
을때는
▁용납
▁적폐가
▁과반
강점
오래
떼기
▁순수한
▁빨갱이라고
직에
▁분의
서비스
▁내릴
▁수준은
부품
▁없는듯
▁이유도
▁대깨문이
▁깽판
▁기상
▁하드
▁욕먹을
▁난독
▁태도
▁민간인
웠다
▁예술
좋고
▁신체
▁문서
▁쓰는거
▁어떤지
▁추석
▁아웅
▁그렇지만
▁차리세요
▁안써
식에
줘요
▁영양
▁우리보다
셨네요
▁니같은
만이라도
▁참전
직전
물건
▁꼴도
▁문다
▁할려면
▁약점
""""
▁억짜리
태가
▁패널
들처럼
거같은데
▁쓰지마라
▁신앙
갑다
해졌
연기
▁진핑
길로
▁출국
▁한번이라도
▁중산층
▁오너
▁인정하지
▁있으나
▁지도자가
소리는
▁민심은
▁존재하는
▁잘들
느낌
▁편안
비서
▁낳은
리는구나
?"
▁불리한
▁자르고
▁보고싶다
▁이명박이
▁비난하는
▁선배
▁성능
일본은
▁주장을
▁조심해라
▁한걸
▁윤총
가만
거리지
▁정상적으로
님께
시를
세상이
재는
▁소굴
▁무례
▁공부좀
▁형량
▁이석
나오게
▁핵개발
▁감정이
거릴
▁기웃
▁등이
끝까지
▁뽑을
전략
▁명문
▁보는거
왔던
▁헌신
▁직원이
금도
▁차원에서
▁.)
▁다하네
마세요
분도
▁져야
애국
▁개념없는
▁군대는
▁유촉새
▁하러
▁로스쿨
값도
▁덮으려고
▁민좆
답이다
당하지
▁난리치
▁발정
▁찍어서
▁일보
▁없구만
▁몰수
▁각하
▁뜨고
▁메인
▁볼만
▁소년
▁민족주의
▁잘못했다고
갔네
마는
▁가짜뉴스로
▁등돌
▁진리
▁명단공개
▁균형
지들이
▁통일을
재를
나오고
▁김연
▁당분간
▁일본놈
▁딸을
▁역사적으로
▁배는
▁이론
▁공안검사
▁출생
▁닭근혜
▁댓글보니
▁싹쓸
가스
동강
▁잘하네
▁하지마세요
▁힘내라
▁자식도
료가
▁검사들
▁자한당도
과거
었겠지
▁사는거
##
보안
▁도라이
▁증거도
▁공평하게
학적
▁독재가
▁전정부
셨나요
▁유감
분의
▁대선때
일어나
▁세우고
▁애들을
▁이겼
얼마
화점
▁전세계에서
▁양심을
▁너무너무
주교
▁다물고
▁문정부가
▁손해배상
▁모으
▁이명박그네
▁외쳐
늦게
한테만
▁공매도
▁그렇게도
▁잡아먹
핑계
▁없어지
담회
▁문빠들은
학대
▁충청도
▁가네
▁참담
▁교육부
▁인간쓰레기
▁도전
▁아놔
▁똑똑히
▁쯤
▁돈과
▁윤리
▁씹어
▁아이구
▁정의당은
열심히
▁파란
▁갱상도
▁문치매
▁이적
▁찾고
▁짱개들
▁국가원수
익을
▁때리
▁개독교
▁일삼는
리지마라
▁대표적인
의겸
▁답은
▁한때
▁그가
▁세비
무는
봐주
피아
이와
▁지극히
▁박지
문제로
아마
▁결국엔
테러
▁가구
라니까
▁공개하라
▁선거조작
▁고양
교육을
▁밖으로
▁중동
▁넷
▁그토록
방을
없네요
▁헐뜯
{\
위험
저것
▁저들의
▁떳떳하게
▁검경
▁빵에
▁됐네
▁국회가
▁표가
▁버티고
▁살살
▁승인
▁안녕
할려면
▁쓰레기들은
▁죽였
삼아
▁친미
줄알고
▁명박이
▁처참
는디
명한
▁민망
▁총선이
▁막말로
▁옛날에
아닐
▁답글
빠지게
이명박
▁조작으로
▁에고
▁멀어
대서
▁놀이터
▁청년들
▁욕하면서
비례
▁지금이나
▁독립군
마가
▁집값은
감정을
드리고
▁북한가서
조정
다보니
▁니네들이
▁조아
민주화
한거임
▁뭘해도
▁시체팔이
▁재난지원금
▁시진핑이
▁안잡
▁웃는
이상이
들게
▁부하
▁소비자
▁바라고
▁예외
이러니
사자
▁팔아먹는
▁휴전
▁초토화
▁초기에
웃음
▁됐고
▁파산
▁이름도
▁내려라
----------------
▁이익이
▁어머
▁요리
▁대단하네
▁유능
병으로
▁안했는데
▁수시로
발로
▁절차
▁사람과
보임
▁가나
▁그것은
▁얻은
▁여전
▁표창원
▁년후
문죄인
▁믿을수
▁순진한
▁깨어있는
한태
▁먹어야
▁안민
▁이용하고
▁가기
▁오십
▁연예인이
▁땅을
키우
▁불로
▁나가야
▁억을
▁맞는지
▁없었던
▁저런것들
▁편협
▁구호
▁경찰을
▁나라야
▁워마드
▁지금보다
했었는데
▁대깨문은
▁문재앙아
에서나
▁보조금
▁정권교체
▁중학생
▁세계에
▁편드는
▁주로
▁뽑으면
▁부여
▁사니
교수님
▁소리야
▁삽질
▁안보이냐
세우
▁구상
▁해보고
▁새누리당
자식이
▁결혼을
▁미래통합당
▁할거다
▁천년
▁대해선
▁장관은
▁됐지
하기에
▁날리고
▁챙겨라
▁제보
▁대통령이냐
종양
협정
▁사용하는
▁이런것도
▁매입
▁대규모
▁시달
▁권영진
▁만에
않고
▁현실적으로
▁거짖
▁떳떳하면
인구
▁수색
▁보관
▁소가
▁어린이집
찍어
▁넘어가는
▁닥쳐라
▁스쿨존
▁스타일
▁죽여도
▁하자는
스럽네요
▁무얼
▁쪽팔려서
▁청문회에서
행위를
▁배신자
▁키울
▁몰살
▁빠지
▁있었지
차반
▁안보는
는거보면
▁청와
▁일들이
▁뿌린
▁실어
지금은
총장님
▁사악
마을
▁재발
▁생각하는데
와야
▁인용
▁하노
한다며
▁못받고
▁미쳐도
▁저기서
▁기사제목
▁상장
▁황씨
▁덜떨어진
▁책임져야
▁기레기들이
▁과거사
▁독재국가
너도
하믄
▁회피
▁행태를
▁토막
▁민중
▁싫은데
▁시계
내역
인가보네
▁봉사활동
죽여
▁마시길
▁삼성을
▁에이즈
▁우한에서
상대로
▁사리분별
▁했잖아
▁똥물
▁양념
▁짜리
없지만
검찰개혁
▁사라져
물며
신경
▁틀린말
▁힘들지
을거고
▁물갈이
▁이거는
▁남자도
▁꼬박꼬박
▁보냅니다
▁보여줘야
▁사람들한테
꺼라
▁힘들다고
롭다
의견
히게
▁여러번
▁처벌해라
▁봤나
군대
▁이재용이
연봉
▁패싱
▁키우고
▁이낙연이
▁빨갱이를
▁집사
▁터지고
만드는
할라고
▁짓이다
된다면
▁부추기는
어휴
▁옳다고
▁남에
▁말야
▁외국에
없는거
▁괜찮아
▁목소리를
직한
행정
▁레이
버릇
▁뭐여
질이냐
▁한번에
▁관심없다
▁살릴
▁진지
본적
▁배후
▁철판
▁드러난
▁칭송
▁하고도
보는데
말던
▁의견이
▁둘중
▁이득을
▁있더라
거에요
▁됐는데
▁입으로만
▁어린애
▁말아먹는
▁굴복
▁전복
▁국가적
▁비판을
▁조현병
▁짜고치는
▁한국인은
▁아들도
각이
▁선거운동
편을
▁되도록
▁들여다
▁기재
▁그때도
▁거긴
▁부부가
▁도를
자들과
▁인정한다
▁지지층
▁괜찮다
드려요
▁사고방식
기능
취업
▁좋다는
찬양
▁화나요
계획
지옥
▁말안
▁누리고
▁거네
▁디질
문제를
▁시원찮
▁역겨워
▁회사에서
바보
▁종부
▁북한처럼
의원들
▁속시원
▁짜장면
▁어르신들
▁그외
▁욕이
때려
▁본토
▁철새
▁사이버
▁종교가
▁매춘
▁보내면
▁나라다운
속히
프라
▁아네
▁문을
것같은데
▁콧
족을
▁없을듯
▁하시지
▁가는거
▁무슨죄
자들이다
▁정신차리세요
이리
이니깐
치나
▁출세
▁대통령이라는
▁안타깝습니다
등급
▁문제의
▁꼭두각시
▁무너지고
▁야비한
▁눈으로
▁아닥하고
▁불평
▁총기
▁해킹
을수도
▁이상의
▁멘탈
적이네
▁되돌아
▁디자
▁심정
▁유언
▁궁금해서
▁놀이
▁물에
▁미꾸라지
▁논의
▁살짝
▁유흥
▁미통당이
불통
▁암울
▁서민들이
될지
엇다
떨고
키트
▁느끼고
▁없어야
▁장식
▁출발
▁잘알
수다
▁멍충
▁않았으면
.!!
▁미쳐돌아
▁정신적
좌좀
▁기회주의자
동의
▁좌지
▁문재앙이가
▁애써
▁장기집권
▁문프
어는
▁바글
▁훈장
▁사장이
같아요
▁뿐인데
심한
▁아몰랑
▁배송
▁주거
▁파견
▁부인이
▁매국노들
▁박근혜도
▁생겼는데
ᄅᄋ
▁국내에
▁녀석
▁악성
▁보내자
▁볼때
▁원숭아
▁음모론
▁책임져라
▁도덕적
사님
▁너한테
음식
▁바보냐
▁권리를
싶어
▁성형
▁드러나
할배
▁귀한
▁뻔뻔하다
▁단어가
▁나씨
▁애들한테
▁설문
▁교회가
▁출산율
하군
▁정의로운척
▁떠드
▁않은데
그나
경제를
▁민변
▁국론분열
▁응원한다
▁재건
줬는데
▁아베와
협박
있다는
▁마케팅
문재인이
뽑아
▁쉬쉬
▁창조
▁발전을
▁급식
▁논리는
▁앞장서
▁혜
한대
▁박대통령
▁살아야지
불안
잇는
교수가
▁공화국
▁오지마라
무조건
만들어서
▁속셈
으니깐
하시지
▁고딩
▁삭감
▁토해
▁재단
전두환
▁할까요
▁기레기가
▁씨부리
▁국가유공자
▁연대
▁쓰지말고
▁중국공산당
▁아직은
▁죽창으로
▁다른거
▁과도한
바가지
▁저것
나쁘
▁될것을
▁안돌아
▁경우는
외과
▁아껴
▁다니지
▁통일이
▁허수아비
치니
쳐먹은
초에
근로
▁주소
▁나오게
▁볼모로
▁왔다갔다
버림
▁겁박
▁안주
▁파고
▁잡았
▁받아도
▁하는말
▁윗대가리
▁이사람은
고싶어
▁그들만의
네는
스에
▁부른
▁버젓이
이나하고
▁$.
▁줘야지
줬다
▁승차
기라도
부패
▁투표로
▁댓글들이
▁얘기하는
▁그러는데
▁젊은이들
▁너무한다
질환
▁년째
▁치명
▁무단
?!!
거리네
▁판국에
▁철밥
▁운영하는
▁어처구니가
리지도
고에
▁알수가
▁천하의
시키려고
▁조장하는
▁현장에서
수령
▁태어나서
▁장관으로
▁총리가
▁쓰레기다
먹지
▁벌써부터
왕따
▁두들겨
▁대하여
▁안하니
▁논리적으로
확진
▁부르고
▁흔들어
랐다
하는데도
▁같다고
▁자초
▁행정부
▁부모의
정치를
▁잡아넣
▁주특
더라면
▁경제나
▁생각에
부터는
▁대장
▁새해
묵고
▁손실
▁커서
▁우파는
▁없었는데
는지는
▁간신배
▁보편
대면서
▁과거의
▁난리네
▁암덩어리
ᄐᄐ
▁ᄂᄂ
▁알바비
▁앞날이
▁적폐다
▁케이스
▁선택적
▁숫자가
지말라
▁군인이
▁심재철
▁시급하다
자한
지난
▁괴뢰
▁사야
▁이북
레기들
▁손혜원이
수구
🐕🐕
▁도와주는
▁서울시민
데도
▁공주
▁코리아
▁그름
▁대구에서
권력을
자나요
▁쪽팔린
▁살리고
질이야
▁최강욱
하네ᄏᄏ
▁속에서
모는
▁돼지로
그러나
▁노태우
▁비공감
이념
▁강용석
▁뭐했냐
▁끼워
해보고
▁이따위로
▁여경이
따리
감에
데리고
▁붙어서
빨고
▁대책도
▁저새끼
꺼고
▁강연
▁오빠
▁안되는게
▁그는
▁이외
▁되는거야
편에
▁수사하는
▁조국이나
▁무언
▁기자양반
▁아세요
도의
▁일본만
▁사리사
▁귀국
▁튼튼
▁재검
▁좌파독재
▁반성은
민주당은
▁본적이
▁의지가
▁맞잖아
▁몇푼
유학
▁도지사
과학
성의
들지
▁한것도
▁왜냐면
▁엄연히
▁공무원은
▁같은데요
▁서민을
▁조국이랑
▁날씨
▁때문이지
년들이
▁미필
▁원가
▁미사일을
듣지
▁꿈꾸는
아이들
▁개천
?~
르네
친거
▁하겠
▁좋습니다
규명
▁해대는
엄청
해온
사건은
인들에게
▁매수
▁년놈들
두기
▁망나니
▁물량
▁뜨거운
▁대기업이
▁경력
▁공직자
제공
▁보이면
▁알텐데
▁방향으로
▁사단
▁간만에
망을
뽑은
▁준표
러시아
▁댓글모음
▁안했으면
▁해찬
고있고
▁구구절
기억
▁당황
▁되네
억씩
영업
때처럼
이었던
▁한심해
▁가깝
▁이때다
▁설립
▁(..
▁다하는
▁딴나라
▁귀가
▁미세먼지는
데가
할뿐
▁너랑
▁한발
면서요
▁이러다가
▁조국처럼
▁개판으로
▁무고한
▁부작용
▁마디
▁지들만
지처참
민을
▁그를
▁들으면
▁한말
먹어라
▁문제고
▁번이나
방으로
오는데
▁무혐의
봤나
군다나
▁이여자
▁집어넣
▁청문회를
▁바꿔서
소연
▁줄을
▁하하
▁좋아라
대처
▁글이
이었고
▁총사퇴
▁팩트다
났어
▁못할망정
▁뿐입니다
식구
절로
같아서
▁강대국
▁아이는
의식이
▁여당은
▁누구에게
▁해결할
거리면서
▁거짓말이
▁확인하고
이라는거
창출
▁관료
화하고
▁억씩
▁이래라
값은
유착
▁개인적인
놔야
▁응원하는
▁누구든
▁변호사가
▁토착왜구들이
꾼들
▁배로
▁어쩌나
▁김정은이가
안고
▁인재가
▁둬
▁많네요
▁향후
▁근거로
▁과정
마누라
▁나올까
하거라
▁수준이네
▁싶고
▁할짓
▁만드는데
▁입장에서는
한놈
▁앞에서는
▁경제적으로
권에
나나
▁잡아다
▁선거개입
▁광우뻥
▁셈
▁뭉개
▁연일
하거든
▁행위를
보내라
▁앞장서서
▁바람에
▁구속하라
주장
말하는
▁지잡
▁실패한
▁이런글
유공
▁민주주의의
넘아
단지
▁등의
▁한번만
▁중국인들이
한채
▁구원
▁마리
▁한다는게
▁베이
▁죄냐
▁돌아가라
렸나
▁약간
▁하위
▁ᄀᄀ
▁지키기
▁생긴대로
▁걱정하는
▁못한다고
▁별걸
▁원인은
천히
▁친절
▁입국을
언론이
▁문제인데
▁초대
▁헤어
▁되겠지
▁고양이
▁나랏돈
쇼핑
▁속상
보이지
▁손해보
▁단결
▁떠벌
거려
▁시키지
▁피해의식
▁김문수
▁나오는지
성한
▁경제파탄
낫다
▁나오는거
▁미성년자
▁상태에서
▁말살
▁주워
▁품격
군사
면에서
때나
▁아이들은
종의
인거냐
▁팩트로
▁부자들
▁실화냐
▁노인네들
▁비리는
잘하는
▁지구상에서
▁점심
인들의
▁잔머리
▁민주주의는
남은
▁입도
▁함박
▁과장
▁앵무새
▁벗고
▁일본이나
▁입맛대로
건은
▁다녀라
▁그러니깐
▁주댕이
▁카더라
▁생각하는게
▁친한
든말든
▁우월
▁장비
▁빈부
이한
태극기
▁홍영표
파리
▁연속
▁법무부장관이
주당
▁많으
▁몇이나
▁북쪽
▁이해할
▁일입니다
▁저년
▁환수
▁전용
▁애국심
▁안보인다
▁변경
▁멈춰
▁색기
▁노조는
대회
당하면
▁밤에
님께서
▁강남에
▁알고보니
될거
▁만드냐
▁활성화
대나
조용
아야한다
▁문씨는
▁편을
▁운운하는
▁기세
▁드러내
▁벌레들
▁헛발
▁감기
▁물어봐라
▁안되니까
▁대통령에게
▁자국민을
▁쥐고
▁개탄스럽다
▁않는가
▁오랜만에
눈에
▁뒷돈
▁진보의
사망
솔직
▁소개
▁사는지
생명
에이
▁대다수의
▁좌지우지
▁혹시나
.~
▁개차반
았습니다
남이
졌고
▁똥오줌
▁만드는게
▁가운데
▁사고로
▁조작을
▁뜬금없이
▁공정하고
▁어긋
▁영변
▁흉악
자리가
▁마누라가
석탄
▁흡연
▁무섭고
▁페이스
주빈
▁선을
내세요
▁저출산
▁그런식으로
썩은
▁돈좀
▁기업에
세습
▁자빠져
브라
유의
자니
하지요
▁사기를
성해
했죠
▁내보
▁짓고
▁추접
식민
▁명분이
맞은
▁민감
▁팩
▁포용
저렇게
▁친인척
▁보지도
▁써야지
따로
▁했구만
조선일보
▁악플러들
늘어
플레
▁부려
▁서명
거기
▁먹어서
▁살아도
▁대대손손
▁외치면서
▁장하성
▁광주사태
▁끝을
▁취득
▁못해도
▁있을듯
▁확률이
▁고령
▁안올
▁미국이나
기본
▁화재
▁내정
▁김태우
▁아나운서
▁수리
▁케이
▁좌빨들아
▁가리고
스코
▁더큰
갔냐
▁문희상
▁수수료
국이다
밑에
애미
곳도
▁언제쯤
▁사회주의자
에게만
▁미군이
▁정답이다
▁성찰
▁시점
비교
▁되려
▁싱가
▁입대
▁부끄러
▁마찬가지다
▁죽이기
▁죄질이
▁조사하면
▁안하면서
가튼
▁적반하장
▁오냐
▁있었냐
싸고
▁안지키
▁방송을
정지
▁들러
다는것
▁놈이네
▁가방
▁멸종
드릴
▁부정입학
▁법정
▁김현미
▁사과도
무니
▁ᄉᄁ들
▁죽겠다
▁전라도에
▁좋아하고
▁돌이
보라고
▁똥구멍
▁비교가
▁멀었다
▁안전한
▁지명
하셔
▁못하겠다
이었음
▁바뀌고
▁앞두고
드가
매일
▁주진
▁되었으면
▁거짓을
▁물어야
박한
직업
질까
던데요
▁교묘하게
▁들어올
한일
▁났다
▁출퇴근
▁구라미터
일수록
인한
▁역활
,..
▁독선
▁불쾌
▁치루
▁피같은
▁친일매국노
▁우울증
▁그자리에
▁잘못한게
▁제야당
▁답이없다
렸냐
▁지랄하고
▁맞으면
▁유입
▁일인가
축제
유출
▁경찰도
▁술집
왔으면
▁으이그
▁이상하네
순위
▁동결
보려고
▁국민투표
▁그런거지
▁진정으로
▁민식이법
▁거북
▁골때
거잖아
님들이
▁나아가
▁구속시켜라
쇼를
사기단
▁법대
▁격려
▁적폐세력
▁시대를
::
▁째
악마
▁낮춰
▁비위
계의
▁경쟁력
▁고맙다고
▁앞잡
▁이와
▁앞세워
▁교류
▁알려주
값에
▁말던가
면을
▁개의
▁입장을
▁벼슬
▁해임
▁기다리
▁터져
가보다
하든지
공사
▁그짝
▁일제강점
▁제정신인가
졌냐
▁이런것들이
▁반토막
▁누가보면
▁무료로
할때가
▁더하면
▁엄벌에
▁안타깝지만
옹호
▁전에는
▁만일
▁무대
해주지
친북
▁정은아
%%
▁호의호식
▁레알
▁김정은은
▁대통령이다
족이
▁$,
▁치를
▁악랄한
▁살이
▁합작
▁구구절절
▁팔면
하셔서
▁소련
▁그사람
▁사고는
▁심각하게
▁연합뉴스
있나요
▁놈도
▁주말에
▁하는구만
▁끊임
다니며
하면서도
경은
▁파티
▁남들이
▁욕먹고
경험
해를
▁개망
▁있다는걸
▁화합
▁미국인
▁보는것
▁등으로
▁팔아먹고
▁원천
▁가리지
▁재활용
계층
부채
을땐
▁시집
▁한테는
새키들
이라더니
▁지지하지
자면
▁야합
▁하는건가
태는
▁석유
▁넘어가면
▁!!!!!
▁건방
▁옳다
▁알아보고
▁이상하지
▁공부하고
▁않니
분들도
▁살라고
▁엘리트
끼들아
▁감금
▁뇌없는
▁얘들아
▁발의
▁생각안
시키는게
안은
▁간호
▁급격
▁출시
대표가
▁말아먹은
공약
르다
을라고
▁개국
▁얘들은
▁두꺼
▁본격
▁이리저리
▁핑크
▁쓰게
▁삽시다
▁다르면
▁언론들이
▁경유차
▁순공감
▁시장에
///
▁우매한
다오
▁긴장
하기로
▁돈벌어
▁딸랑
협력
▁부리는
▁미터
▁일치
▁상상도
▁빨아대는
하기만
▁먹고살기
▁재수없는
▁새벽에
▁대거
▁개떡
▁조합
▁막가파
▁친구들
▁차이나게이트
▁숭배
▁망했다
▁입니까
▁들어가고
▁육갑
▁목사가
▁다르다고
▁직인
▁알았지
▁닌
사지
치에
▁,"
▁낮추
▁맛을
▁김의겸
▁무작정
▁거라
▁실종
▁품질
▁과거를
▁나왔네
김에
▁체력
▁여편
는다는
▁뭐다
▁환장한
▁이것저것
▁망조
▁사건에
▁벌어서
▁비교를
▁어울리는
한들
▁이놈아
▁선한
을뿐
▁대응을
▁저래도
겄네
해제
치는게
▁태영호
▁개방
▁가득한
▁일상생활
히네
▁음악
▁결단
▁안갈
움이
▁부지
▁여성단체
▁껄
▁문제도
마저도
▁시작이다
▁피부
▁흠집
편은
▁난리인데
▁줘서
허가
▁리스트
▁자숙
▁성전환
▁인과
정은이
▁능지처참
키야
탈출
한다니
▁보이네요
▁대립
▁이들의
인선
▁밝혔
▁이해는
▁조국이는
▁그중
▁마비
▁양극
",
정부에서
▁년만
▁좋음
▁아니라서
▁올려놓고
원지
▁계집
▁고추
▁해야죠
▁댓글만
▁마땅하다
▁노숙
▁본능
▁솔로
▁정경심이
▁씩
남의
▁마음의
논리로
▁당신들의
란을
▁생각해봐
집단이
▁감싸는
▁순서
▁불법이
▁잘못이지
▁피해자는
▁어떨까
▁악마같은
▁우르르
▁치워라
▁부실
▁집합소
찍은
▁따뜻한
▁찍으면
▁영부인
처음
▁문대통령이
마진
요구
바닥에
▁현지
▁나온게
▁살던
▁성공한
▁년생
▁장외
도하고
▁해결될
▁도무지
▁정신이상
▁능력을
▁증거는
강행
▁묵묵
▁사형이
▁날로
▁수당
▁서울에서
▁납품
▁이성을
▁깔끔하게
▁통한
▁정상인
▁늘리고
▁법위에
▁빼고는
▁우동사리
▁오천
▁망해가는
끌어
▁정세
관에
긴데
역할
▁ᆞᆞ
▁조작미터
▁조문
▁능력은
▁렉서스
바글
▁떠오
▁천천히
할께
▁닭년
▁좌천
맞다
▁생겨서
▁모르는게
스레
▁동감
▁연동
▁말지
▁임산부
▁여튼
▁아이디어
조원
대라
▁치부
면에
▁말한다
커녕
▁증인
▁개처럼
▁답을
그동안
문제다
▁화이팅입니다
▁산다고
▁아닐텐데
▁그나물에
야할
▁자고
▁조선의
▁해서는
▁털면
▁성폭력
▁좌빨이
하기위해
▁지만
▁연평도
▁조선족들
▁자유민주
소송
▁것들을
▁들었다
이제는
▁북에서
▁확실하다
▁몸으로
▁침투
차게
▁몰빵
▁신나게
▁문정권은
▁네티
▁쯔쯔
있다면
▁떨어져서
▁안티
▁이게나라냐
가져
▁이은
▁욕먹는
▁요양
▁잣대로
▁폭격
▁년이상
▁자기들은
▁–,
▁더블어
▁결사
▁촛불이
▁세계적인
▁징글징글하다
지마시고
▁투자를
▁얘들
▁일자리를
▁모르겠는데
▁돼지가
▁있겠다
▁합리화
식도
자체를
▁이분은
▁꼴값
▁착용
▁두달
▁발병
▁싶은거
▁아닌게
내미
▁만원이
나무
▁옴
▁하차
▁저런식으로
러스
잖니
▁사람이면
레임덕
▁빨갱이로
▁동맹국
▁식량
▁저쪽
해달라
▁다른가
▁국채
▁두려운
▁재산이
달아
▁신천지와
▁아무말도
▁문다혜
야함
▁나네
▁상가
▁분명하다
모가지
▁주는데
▁직업이
▁양육
▁학생이
세워
은혜
정부를
▁꼬우면
▁모양이네
▁연령
자동차
▁우체
못한다
소리냐
▁기사네
▁신경써
▁왜이러
▁선고
▁그랬다
▁막았
▁먹어도
▁문정권이
▁친일이
▁몰아내자
▁이러고도
하란
기생충
고있으니
▁실드
▁전공
▁돌파
▁안하네
▁몰랐다고
▁버림
▁효율
동아
쓰지
ᅲᅲᅲ
▁뿌리고
▁찾아가서
▁처박
▁자연스럽게
▁대입
▁너희들의
부르
▁빨갱이라
▁걱
▁꼴에
▁여지껏
▁믿을수가
▁과대
▁죽여라
▁서슴
▁한국남
▁하고있다
▁딸년
▁느그들이
했나요
▁기원
▁좋은일
▁잘한게
▁싸돌아
▁멍청아
▁못생긴
▁있지요
신들
▁몸을
▁본질은
▁언론인
▁오랫
▁안가면
▁알아봤다
▁나랑
같은게
▁끔찍하다
▁보기싫
▁중국에게
교활
▁좃불
▁잘되
▁줄줄
세탁
▁문제앙
▁괜찮다고
발을
▁노무
두리
▁거듭
▁구혜
티비씨
▁이런것
▁새기들
▁싫음
▁광주는
▁높이
▁논다
▁변하지
차단
▁고가
▁자전
▁남탓만
▁주옥순
▁학습
▁선거를
▁빠져서
▁반대한다
▁천주교
방문
▁이정
▁잇는
▁조기
▁지겨워
▁이재명이
▁대구가
▁이런식
▁이정도는
그건
될것이다
▁코로나에
▁고스란히
▁할꺼
▁반으로
▁김건
▁것보다
▁이해불가
▁진즉
▁차는
최저
▁혈압
병을
인트
▁좌빠
▁사로잡
할때까지
▁소명
▁보여주세요
버리지
▁근거가
군을
▁개잡
▁단순한
▁나두
▁니놈
줄아나
▁다음엔
▁페미니스트
사면
▁링크
▁유병
▁상식적인
▁낄낄
▁동영
▁불구속
▁잔인한
▁출처
어울
▁성립
▁열린
▁이영
표를
▁조주빈
▁관계를
▁왜자꾸
▁억대
부대가
▁흔들고
▁아니잖아요
▁연방제
▁아니란다
▁님은
▁심어
버렸다
영향
▁항복
보고도
▁광복절
▁됩니까
~!!!!
새가
어머니
▁이말
▁이모
▁나이도
▁구속해라
▁입금
▁권력은
▁도와줄
▁쿨
▁좋아할
현재
▁종양
고있냐
▁궁금해
▁제정신이냐
▁가짜뉴스라고
▁미통당은
▁주시
▁하루이틀
▁대변인이
존재
▁.......
▁기본이
▁살인을
▁문재인아
빨간
▁먹는다
▁잘하지
▁일가족
▁넣어라
▁선동으로
시효
▁돈벌이
▁중증
▁편한
하는짓
▁머지
닥치고
▁말던지
▁부정하고
▁옹호하고
▁참수
▁문재인에게
▁연예계
▁쪽으로
▁국민혈세
력에
▁암만
가짜뉴스
천국
친중
▁반대하고
왕조
▁알권
▁크고
시킨다
▁탈북자
👍👍👍👍
▁중국놈들
버둥
▁달래
물도
전사
▁급급
▁분류
▁오류
▁이하도
▁않네요
▁청와대로
장비
정부에
▁왜놈들
▁소원
치우고
▁지껄이
거리냐
▁너처럼
▁여자들도
▁애완
기는게
▁정책에
▁기사나
▁당해봐야
▁추미애가
내년
▁남는
돈도
타도
▁바로잡
▁성조기
운이
▁따름
▁밥도
▁냉정하게
▁본보
▁일회
▁가치도
▁새키들
산을
▁눈치만
▁선거는
▁흉내
▁꼼짝
▁벼락
▁일어났
▁사드보복
종자들
▁없도록
▁증상
▁집단이다
롭고
자네
▁관한
▁노가다
밝혀
살기
▁구축
▁모시고
▁시다바리
▁덮고
▁눈감고
▁입장에선
▁잘하는거
우려
▁상황은
▁하느라
뿐인
었네요
하시나요
▁배를
안되면
해준다
▁못하다
▁장난질
▁이성적으로
▁만들어진
▁순시리
▁궁금하네요
▁던지
▁출석
상황에
▁고고
했을텐데
낮은
주권
▁양키
맞추
▁유린
▁시간은
▁판치는
정권에서
▁이럴줄
▁있었다면
▁난무
▁이것을
기의
신가
고는
세도
▁더민주
▁논리면
▁사고방
▁생기고
▁보기싫다
진창
마시
방사
▁사찰
▁알수있
참여
▁인가요
▁무려
▁부르지
겠노
▁갖다바
▁이만큼
그거
▁스카
금액
라네
▁입장이
▁했어도
해야하는거
부리
▁말하는데
▁도적
▁선거가
명령
▁받는데
▁교회는
▁아무데
▁테스트
▁만행
보나
▁악법
▁내려놓고
▁정상회담
▁거짓말쟁이
갔으면
▁일자리는
~^
군은
▁깽깽
▁만장
▁의미를
의전
재팬
▁접속
▁백만원
▁양심에
▁뻔한데
▁마누
▁교육이
▁롤
생에
▁달린
▁말이죠
해야하나
국정
▁우유
럽네
▁판결이
는거보니
▁앗
▁뜻대로
▁스럽다
▁호황
나가고
▁빚내서
▁있었음
▁정쟁
▁자신은
▁사실인데
▁늘리
▁뽑지
▁미쳤나
린데
▁다알
▁정권도
이었는데
▁사명
▁저지르
지능
유학생
▁약탈
▁되는거냐
진실
▁자행
▁편들
▁델
▁(.%
▁몇시간
동포
▁해줘
▁나라인데
▁생각과
댕이
▁견주
▁일본인이
▁주냐
더구만
되었다고
말의
▁조작하고
줄아냐
▁한국만
▁안지
▁강력히
기기
!.
판매
▁흡수
▁(–)
▁이놈들
▁이름만
▁프로는
▁정은이한테
▁노비
▁태블릿
반성
▁만든다고
▁경제정책
▁적페
▁조국씨
단식
입장에서
▁내다
▁나서야
▁몰아가는
▁경원
▁친일매국
못하면
▁들어오면
▁하루라도
▁여자의
버린다
▁한나라의
▁위기를
▁범죄자들
▁책임도
▁끊어
▁이들을
▁짐승만도
..............
느끼
▁판단이
▁미치겠다
▁슬퍼
자식들
▁국정을
랜다
▁변질
네이버
▁안희정
▁잘돌아간다
▁한수
▁집주
많은데
리는대로
대상이
▁미친개
▁아닌건
▁부과
풀어
▁보수꼴통
▁도요
업을
길만
▁가장한
▁기레기들아
되요
▁안듣
▁잔당
▁대표님
유튜
넘의
▁모아놓고
▁월급이
▁다니면
▁나지
▁고등어
떨어지는
▁자부
▁배워서
▁뭐만하면
▁쿠테타
제일
원들이
▁어렵고
내냐
전도
▁대화를
▁평화경제
▁바치
졌어
▁틀딱들이
자슥
윤석열
▁이건뭐
▁국제적으로
중단
까지만
▁웃기다
장과
▁근성
▁실세
딸은
다르크
자빠졌네
▁처음으로
▁간부
▁당첨
▁일이지
▁빨갱이들아
▁수록
라고는
▁코로나를
아아
▁자작
▁기업의
▁조직적으로
대화
▁문가야
수급
▁허술
▁기어들어
하고있는데
▁밀어주
▁예언
▁그만해
▁밥먹고
▁지네들
▁표현을
▁아이들에게
로워
▁디져라
▁사건의
▁먹었
▁소득이
지방
해봤자
▁작금의
▁일한
▁사업을
하는듯
▁늙어서
▁더러워서
진심
▁수영
▁필터
▁국어
▁당근
▁어우
동을
▁동해
▁만나고
▁키보드
하야
~~?
▁비꼬
▁살처분
▁소시오
▁할수가
▁핵시설
부턴
▁전화해서
▁면죄
있다가
▁나옵니다
▁있기에
▁남자를
▁공개적으로
▁우발
▁국민으로
중근
▁유투버
▁거세
▁세계의
▁들면
▁한장
▁논란이
▁말해도
▁약속을
▁하루가
▁냐
▁했구나
년대
중심
하는군
▁답없는
▁내서
▁영광
▁신천지랑
▁자국민은
▁그보다
▁대책은
▁독도는
▁못차리고
아침에
▁대학원
▁회사는
▁후안무치
이었지
▁배아파
▁있을수
▁잖아
▁더구나
▁출신이
구조가
▁생명이
▁반대하면
▁북유럽
▁영세
▁않습니까
▁적폐를
▁총출동
렸어
▁이글
정권때
이성
▁낭
맛을
▁기승
▁민노총이
▁오후
▁광주에
▁문의
▁대결
▁문빨
▁한판
신아
▁못하도록
까도
▁박정희는
▁가라고
▁돈이나
신다
진않
▁낳아
▁억천
▁참여연대
▁일본인들
▁사전에
▁무게
▁조국에게
ᄉᄏ
▁너보다
▁그러게요
▁명도
▁헌법을
제의
▁한놈
긴한데
▁트라우
▁가계
▁이땅에
▁사라진
▁민낯을
▁묵시적
▁서민은
▁지난번
▁장사꾼
론하고
▁없어지면
이었네
▁수출규제
▁상호
거같다
▁날뛰는
▁얻을
▁각본
▁다르고
▁프레임을
침해
▁참패
▁바라보는
인냥
▁않겠다
▁퉤퉤
겨야
▁가라앉
당아
▁되는거다
▁날리
▁년차
▁상황인데
▁갔다가
▁시점에
▁팔아먹은
▁생각해보면
용품
범죄자
▁나베는
▁이후에
▁하늘에서
▁목에
▁의협
▁황금
▁없는것
등으로
도덕
▁꼴통들
▁당하면
▁배출
▁철학
▁안되요
▁시세
▁대가리를
▁패륜
부의
▁사람이네
해선
한것이
슬림
▁단일
▁우리땅
▁적절한
산에
▁초딩도
▁음흉
할때도
▁줍
체류
▁싸운
▁알았네
▁레임덕
▁씨부리는
안가
▁거리가
▁쉴드치는
▁논리를
▁무능의
▁쇼하고
▁상관없는
▁현역
▁인식이
▁북한주민
▁구만
퍼주고
할수록
▁돈버는
▁물을
버렸네
대장
▁물가가
▁짓이냐
▁사건도
▁없는거지
▁결집
▁속고
▁사회주의로
▁팬티
▁웃기지
▁사죄하고
▁못이
지는거
▁아사히
▁여성의
▁조중동이
▁알지만
▁옆집
▁우리나
▁빨개이
▁개소리냐
▁시인
▁완전한
▁부당
기사를
기라
▁태반
▁자유망
소니
▁교민
화해서
▁수사에
▁도대체가
말이냐
▁아우성
▁고장
▁안감
▁중화
프트
▁바짝
▁조또
▁올라갈
▁적임
내로
▁비공개
▁무책임한
▁그러다가
▁니들이나
안전
▁적응
▁통역
스러움
▁안보를
▁용인
솔직히
자식은
▁김정일
▁잡혔
노래
사니
▁도우
▁말이네
▁베스트
▁저소득층
▁고래
▁국격이
▁발버둥
▁상대를
▁아내가
▁주휴
▁내려야
▁하겠나
▁되는구나
▁볼때마다
▁아메
▁일년
▁설령
▁바르게
▁말같지도
▁목줄
▁(/
▁가격을
▁내려놓
▁철밥통
▁문빠들이
▁원숭이들
▁되었는데
▁선처
▁뇌는
▁이나라에서
▁실무
▁중국가서
▁동북
▁보아
▁순식간에
토리
우니까
▁성욕
▁한줄
지못한
이럴
▁속을
▁여의도
날에
반역
소름
▁미중
▁사기극
▁못하는거
▁그자체
▁고액
▁몽골
▁달창이
▁뭔상관
무장
▁하물며
▁옵
▁스티브
▁물러가라
적이라
▁불공정
▁대를
진행
▁뒷전
에대해
해야됨
▁상관없다
▁곤란
전형
▁과감
▁얼어죽
원인
▁말해서
주시길
하십니까
▁싶음
이상은
▁만만한
▁하는일
들좀
접대
께서는
▁한계가
석아
▁미처
▁끔찍한
▁낫다고
국개
▁해본
우리는
▁살고싶
적자
하였
▁방지
는데요
▁중심으로
▁올바
▁뇌종양
▁싶을
스러울
▁밝혀진
▁봤으면
▁지구를
▁찍어준
파티
부리는
▁도려
까이
ᄀᄏᄏ
▁남편은
직으로
▁검찰청
▁집단들
▁")
참사
▁텅텅
▁알았냐
▁올려야
▁김정은과
▁아니더라도
공신
▁해보세요
▁운명
시하는
▁저급한
▁청와대를
살자
▁딸래미
▁추가요
▁공연
▁양승
▁잡아다가
올린
진은
▁형성
▁깨져도
▁(–),
▁이기는
▁할때는
ᄇᄉ
▁국회는
▁마스크나
발생
▁지워
▁깜도
▁못막
▁미세
▁트럼프도
▁싶어요
▁해야하나
▁실업률
▁일기
시간이
▁넘는다
▁끼들
▁당연하다
▁불이익
▁몽둥이가
▁끌어내려야
구름
▁덕분
같아도
▁돌아가고
▁일어나는
▁면접
▁교안
▁..,
▁문가놈
▁세치
물질
▁잊고
▁하아
▁오세요
▁인간이네
▁미래의
▁무엇보다
▁악마의
▁밑바닥
▁앉았네
▁페이스북
▁너네들이
보는게
▁반칙
▁가족도
▁너무도
▁반반
▁세상이다
하시나
▁불을
하는사람
하리
될거다
▁주면서
보러
친다고
드라마
▁개정은이
애액
놓은거
시키려
▁성지
여자들
정신이
▁방씨
▁중에서
아깝다
▁한명이
강간당
래기들
▁듭니다
▁있으며
▁지랄하네
▁닥쳐
▁도와준
죽음
놈들도
▁곳곳에
▁잠복
▁중졸
▁퍼다
수준으로
▁상납
▁일일이
장기
▁해볼
▁가격은
▁나쁜짓
▁짤라라
▁짓거리가
아들이
▁조작하는
거에
▁똥이
▁거대한
변호
▁습관
▁미디어
▁사귀
셨다
▁공간
▁연습
▁있는건가
▁특기
듯하다
겄냐
▁콜라
▁토지
지는구나
군의
원숭이
▁추구하는
끼다
▁문구라
습니
▁발광을
▁세계최고
▁김기
▁바지
▁앵커
▁비율이
▁안받고
▁남의나라
▁못살겠다
▁없어지고
▁니편
온다고
업계
▁화폐
▁쇼는
▁년이나
▁했어요
▁나오는게
▁당선된
▁무증상
▁느껴진다
▁치욕
▁신도시
▁개들
▁뻔하지
맞네
▁한채
무능한
하자면
▁낙인
▁보여주기식
력과
▁하도록
▁모든것을
▁때린
이어
는거여
되는것
▁아시죠
▁자신들
▁어른들이
▁한거냐
▁드러나는
▁신천지로
▁실업급여
▁절망
퀴들
▁곳으로
▁나라꼬라지
거도
▁자의
▁저렇
▁회사에
▁치료비
▁돌고
▁차원이
▁이게다
판이
르텔
졌음
▁두드러
▁루저
▁돈없는
한답시고
▁따질
▁근본적인
▁선택한
▁화난다
▁또또
귀를
▁바다에
▁결혼해서
▁너무나도
못함
▁정년
▁형이
▁난리야
▁범죄는
▁선동질에
▁알만하다
▁오토
▁언젠데
▁떠는
▁문제입니다
프다
있을까
▁만든게
▁러시아가
▁어쩌니
▁국방장관
▁아니면서
려다가
▁구한말
▁논문을
▁똑같음
▁땡깡
▁죽지
▁해야하는데
▁정서
▁믿으면
▁고위공직자
▁남쪽
시기에
▁바미당
▁이야기가
▁수급
경협
우스
▁바글바글
▁당은
했다는데
▁제외한
비하
▁지돈
민노총
▁ᄌ같은
자위
▁주권
▁말씀이
▁용서가
▁한없이
질구
전에서
맞지
▁신봉
▁학교에
▁모금
▁못내
▁때문입니다
▁생각한다면
▁도덕성
▁잘가라
▁중요하냐
겠소
▁톡
▁더군다나
주둥
치산
▁때리는
답네
일어
한거는
한건지
▁개콘
▁등신들
▁문재앙도
▁주둥이를
▁삼청교육대
넘들아
주니까
▁넘으면
병에
▁개구라
▁침범
털어
▁인수
의원은
▁환자가
지않으면
인공
▁의무를
▁공부해서
▁심사
▁감형
▁실력이
▁언능
▁하겠지만
▁권위
▁언주
▁터뜨
▁역겹고
▁행동하는
바타
청년
▁그닥
▁한숨만
▁국회의원도
▁불구
▁김연철
▁모두다
▁행세
▁똑같냐
▁에너지
거로
▁무너진
▁양준
▁까발려
▁고정간첩
하느
▁바램
▁야근
한것은
▁부리고
미화
복이
▁우호
▁고소득
대통령님
▁체감
▁공공기관
▁난리냐
은건
▁설치고
▁막지
▁별개
▁문죄인과
▁낮짝
▁일조
▁전세계적으로
▁단호
해야한다고
▁놀아나
▁성소수
▁실체가
▁들어왔
▁눈치를
소리도
▁물건너
민주당이
▁부끄러움을
겁게
▁축하합니다
▁탈당
차도
베트남
▁찍는다
▁하시죠
▁되어버
▁성질
▁가득찬
▁말인지
수없다
▁불안해
▁저런건
끝나면
...!!!
▁신경도
▁하든지
▁현행
다구
전파
▁물가는
▁하야해라
식당
리학
▁바탕
▁없더라
▁뒤가
▁화학
사건건
▁감성팔
소설
▁원숭이가
령이
끝나고
차량
▁공갈
▁밀려
인건가
▁못합니다
갖다
부산
이재
▁비추
▁문이
▁유공자가
▁패거리들
▁간접
▁대안을
▁법치주의
세기
▁적을
임ᄏᄏ
▁국회를
문재인은
떠는
▁그전
▁니덜
▁꼬라
▁기대합니다
▁나설
▁쪽팔려
▁잊혀
똑바로
▁막말을
때를
실수
들여서
▁냄비근성
▁일본과의
가치
▁줄여라
▁두둔하는
▁국회의원을
▁빌붙어
▁계급
▁원에
▁자력
가는건
▁신문사
▁말그대로
▁조언
▁똘아이
▁암것도
▁지대로
지지자
튀기
반응
교육이
▁기술을
▁줄고
▁감추고
▁집안이
흘려
▁매주
체로
▁말바꾸
▁보지말고
▁못참
▁투표권
▁손잡
▁키웠
덕분에
냈다
▁경우도
▁낮아
▁반란
▁보증
▁뺏어
▁기사쓰
바위
▁메이
▁내몰
▁미래에
결정
점으로
만큼도
▁많이들
▁부도덕
▁않았을
▁무능력한
▁탓을
▁방식으로
갑네
▁모습은
▁거슬
▁마주
▁헬기
▁도와주고
꼴라
화폐
▁바꾸면
▁최순실은
▁황교활이
포먼
▁좀만
▁공무원들이
▁낙마
▁나게
▁오라
▁저딴게
▁만원짜리
텐츠
▁쓰레
일거다
저지
하는척
렁이
대는데
이유는
곳을
▁눈빛
방지
살림
▁기밀
▁비디오
대우
맨날
▁같지도
▁알고있다
▁나을
▁흑인
같네요
▁폐기물
▁총을
▁목숨이
▁발언은
▁완벽한
▁하는일이
▁할줄아는게
▁늙어
부에서
▁교수는
▁이러는
▁가벼운
▁처음에
▁아니었나
▁아베에게
▁해야하는
▁불참
▁공소시효
냄새가
▁문제에
▁갖은
고루
▁불만이
▁억울하면
▁공감합니다
▁기사좀
▁대통이
세력들
▁발휘
▁감정을
장구
챙겨
헌법
네들이
만드
▁충견
▁국가보안
▁이해한다
발의
▁국경
▁막대한
▁고속도로
겼다
깡패
▁세계를
▁깔고
▁브라
으시고
▁가성비
▁미쳤다고
론을
▁접수
▁쓸모없는
▁석열
▁시에
▁실형
▁떨린다
간섭
▁분별
▁사탕
도다
▁비트
▁신경안
니티
마련
본인이
▁구역질난다
▁시키자
국제
▁동등
▁처음엔
▁주무
▁회수
는거에
▁낫겠다
▁핵포기
▁사망자가
▁진정성이
▁개개
없어도
▁하나를
꼬라지가
▁수억
▁세월호때
▁인제
▁흑자
▁소방관
▁사법농단
▁해야된다
▁간에
▁퍼주는
▁대통령에
응원합니다
▁원장
▁밝히면
▁고위직
▁운운하며
죽을
▁달성
▁이랑
▁난리가
▁뭉쳐
▁사람인가
▁해온
코스프레
▁애초부터
▁이정권은
▁문재인대통령님
해외
▁타락
▁한적
▁넘치는
▁붙잡고
▁유전자
▁하구
▁결혼은
든다고
▁흔드는
▁정말이지
.!!!
▁아이콘
▁챙길
지네요
▁보존
▁미국처럼
▁주장이
▁냅둬
해야하고
끼들이
▁ᄒᄃᄃ
▁드립니다
▁국민들아
▁뉴스에서
▁묻지마
렸지
수들
없는게
▁ᄉᄀ
▁생활비
▁얼굴은
▁양반이
▁표현이
로로
▁박근
▁살아가
▁첫번째
뿐이지
▁알어
유치원
▁머리로
▁쓰잘
▁세계적
▁한국땅
▁얻고
▁그랬어
~~~!!!
네들은
졌나
▁규모
▁먹으면서
▁빨강
잘못을
▁현실에
한다는건
천이
▁최하
▁인생은
▁행동에
▁엉망진창
▁지맘대로
▁인간적으로
▁들지
▁기득권을
▁불가능한
▁늬들
▁머니
▁투표를
부림
▁일베들
씨의
▁장난하나
!!!!!!!!!!
▁신혼
명으로
▁나네요
대표님
▁손자
▁중권
품을
▁공수
▁도끼
▁엉덩이
▁집유
▁해군
한이
▁백프로
▁월급을
▁헌법재판
봉사
실업
▁주적은
주소
▁원하지
청탁
▁구분도
두지
로울
하내
았구나
▁받은거
▁뽑아라
▁시작한
▁적절
짜고
▁,.
▁죽어가는
기구
▁위원장
단속
▁지향
▁대가리는
▁배민
▁집회는
▁규탄
▁무주택
▁정통
▁정권때
좋아하는
▁대사관
▁말하네
▁달게
▁개판이다
▁갔으면
▁시간도
줄이야
▁"-"
▁이러지
▁일이냐
힘을
▁초래
시켜야지
▁기다리는
불이
재로
▁당해서
▁책임지는
기소
연장
고있어
▁나을듯
잇다
▁식사
▁딴소리
▁김정은을
개찐
▁발목잡
▁소수의
▁외국인들
▁라인
▁먹칠
▁시작된
▁군사독재
▁되었네
▁범법자
▁클라
▁검사는
▁미친짓
▁안되나요
▁처분
▁대화가
▁얼굴공개
미리
폭등
지니까
▁널리
▁근거를
▁어쩔건데
▁고인
▁잠이나
▁명이나
▁개로
▁위인
▁유분
▁가짜뉴스를
▁스스로가
▁기회는
구멍으로
▁하지말자
하겠어
슬쩍
▁영탁
▁나베가
▁파리
석을
▁신변
▁중국입국
▁토착왜구가
▁시녀
▁실수로
▁진출
주차
▁뇌를
▁놈들도
▁살수있
▁자유는
▁섹스
▁뭣도
▁권리가
▁싫어도
더블
▁눈도
▁전기세
▁공산주의가
▁주사
수만
▁지리
교주
▁데려다
▁불화수소
▁자랑스러운
▁실상은
▁분들도
▁하거나
▁불매운동은
▁찌끄
침을
▁니들만
▁통하는
▁바보들
▁착한척
▁문재인한테
▁얼만데
인배
▁필요없는
▁기사들
▁어려울때
▁견디
중대
▁도찐
▁잘한건
▁꼬락
▁님들
을때도
▁편들어
▁개돼
인것을
인원
▁포항
▁지역에
▁경제발전
▁잘못한건
▁변호인
▁옷을
든데
잃고
▁저급
▁김종인
▁정치질
▁거짓뉴스
수나
▁자원봉
▁한국산
▁젊은이들이
▁켜
▁주민들
▁한마
▁사실로
▁오르는
▁적폐는
▁가해자가
▁불어
▁술취
▁다니네
▁불쌍해
가능한
▁인신공격
▁받기
머리를
▁지출
▁북이
▁연명
▁한남들
.%
옆에
▁쓴다고
▁능력없는
▁감사드립니다
드루킹
▁다니는데
▁주는거
▁~%
▁떠들어라
청소
▁속아서
▁위기에
▁바빠
▁당나라
▁동아일보
▁종교의
▁기회주의
▁계기로
▁알기나
▁청정
하든가
▁미국이랑
▁궁금합니다
사람만
▁그놈이
사람들도
▁받으려고
때기
▁처음이다
맥주
▁한정
▁애들아
넘는
▁반대만
▁안중근
▁어디갔냐
▁막무가
▁물어보고
▁국민으로서
전복
▁쥐박이
러지
비자
▁사돈
아는데
▁걸리고
▁지금와서
례가
▁자르
▁보좌관
▁하찮
▁어디있냐
알지
▁생긴거
▁운동을
▁우리동네
▁걸려도
▁수괴
▁한치
▁드네요
욕에
▁특허
부리고
▁물이
▁그로
▁지름
작전
▁샤오
시대의
▁정당하게
바퀴
▁나온거
▁정의당이
영이
▁안재
▁있는걸
▁정신병원
방역
실망
▁쓰리
▁환호
수준의
▁백종원
▁부모들
▁자유대한민국을
▁외치며
▁제목이
거리로
되는거지
이걸
▁나락으로
리본
▁저번에
▁대선후보
더미
▁해봤
▁몰상식
▁하고있는
▁의도적으로
▁깡통
▁벗겨
▁영웅이
▁꿈을
상황이
▁세상의
▁잡힌
고있음
▁참내
▁그많은
▁수준도
▁보수우파
▁이새끼는
▁목사님
▁지속적으로
밖으로
▁불태
▁주관
▁끝나는
▁양아치들
났고
탓을
▁사기치고
▁한국인들은
▁반증
▁만들어낸
피는
▁남용
▁없는거야
구매
▁안가네
하는거랑
▁그만하자
었죠
▁종사
▁소리도
▁한국보다
빨갱이들
▁모릅니다
▁아니구나
▁혈안
▁소리지
▁여기저기서
대통령을
족속
타워
한날
치던
▁태평양
▁정치판에
중에서
▁합쳐
살면
▁낙제
▁시절에
▁뿐이
▁팔이
▁주목
▁됐다고
▁한건데
릴까
▁나는데
▁시정
▁오른다
▁정부나
조절
▁발달
▁빌빌
▁전가
▁포토
맛에
시하고
▁야기
▁진천
간다는
▁일본편
쉽게
▁구치
오리
응원
▁사스
▁거르는
▁막힌다
▁'.
▁먼가
▁최고로
▁하시네
▁모든것이
▁좆국
▁구하라
철회
▁정녕
사구
▁닮아
▁걷어서
까짓
▁마눌
▁쟤는
그렇지
▁능력있는
▁또라이들
▁신세
▁전향
▁학폭
▁국회로
▁밟아
▁자괴
▁먹히
▁돌아올
▁대표하는
▁보살
가즈아
앞잡이
▁달창아
▁재앙을
대가리는
▁사대주의
▁울산시장
▁비록
▁돈버
▁문과
▁백인
▁김정은에게
▁르노
▁차리자
▁약을
▁있단
필요한
▁그들에게
▁열고
▁버리지
▁주제파악
▁패션
▁다안다
▁맥락
▁것이라고
▁대국
▁논리도
▁않다고
메이
▁마포
▁질이
길이다
▁대수
▁며느리
나야
▁등은
려요
▁내리는
▁누구인지
▁조사도
▁화풀이
▁앞으론
말라
▁부러워
▁하기사
▁지옥으로
주행
▁발암
▁우두
▁화해
▁나라팔아먹
▁가거라
▁저러는
겄지
▁자기만
▁자살한
심각
함의
▁있었는지
니는
밥그릇
아저씨
시청
품이
▁병원에서
▁입국제한
▁정의롭고
▁하니깐
▁그래봤자
▁한심하네
관광객
▁배부른
▁집회를
▁방구석에서
햇는데
▁나불대
▁일주일에
▁상식을
▁안해주
▁된게
▁지키지
▁커버
시키네
▁검사도
없을
▁두산
▁되는건
▁이슈화
▁사사건건
렀다
▁동반
▁띄워
▁신입
보다가
▁애잔
▁이땅에서
▁방호
법안
라곤
모임
▁못했
▁국민정
▁청화대
▁답게
▁여성을
▁자기도
▁상습
▁할수도
▁재혼
▁하향
▁화웨
▁만원에
▁환율
▁두번째
▁사람이라고
회복
발정
부수
▁떠받
▁오락
부모가
주려고
▁싸지르
▁조사가
▁불과하다
▁알릴
거를
▁메뉴
▁주입
▁지면
▁일반시민
▁단죄
▁외계
▁인도적
비싸
일제
일치
▁입당
색히들
▁찬성하는
개도
▁박힌
▁신사
▁죄인아
▁뭉쳐서
끌고
▁보다도
▁스파이
▁공기청정기
▁부탁합니다
▁도장
▁웃음이
▁나이를
▁명심해라
▁자극적인
강한
▁만주
임대
침략
▁핵폐기
길에
진을
▁사람죽
▁제도를
▁알겠
▁특혜를
▁거랑
▁군면제
▁빈부격
▁늘어나고
▁안하무인
▁코드
▁오늘날
문은
사정
▁누릴
위안부
▁번도
▁되지만
▁깨끗하고
▁팔아먹을
▁얘도
후보자
▁준비나
▁문제인지
코인
하이
보이는데
▁인간으로
▁이룩
▁거짓말에
▁좋아하지
▁천벌받을
▁위생
▁쳐맞고
▁조작이라고
▁민원
▁연말
없구나
▁죄책
강남
신한
▁도가
▁연출
▁방송사
▁아는척
▁자유와
했는데도
▁내놔라
▁청와대의
▁너거들
장한
▁못찾
▁보급
▁빼액
하지않는
▁노무현때
▁부친
▁파시
▁외제차
▁씨가
▁서버
▁다르네
▁그러는거
왔냐
▁없어져야할
배기
중계
▁선별
나라의
▁혈세를
두는
▁똥묻은
▁벌어진
된건
문죄
조로
▁딴지
▁이색
고한
▁보라고
▁두번다시
▁체험
사건이
▁묻고싶다
▁갖추
▁고치
드시고
▁개고기
▁쯧쯧쯧
▁조중동은
▁전반
▁최후의
깨진
니스
대기업
▁사상을
▁국민이다
손에
▁메세
▁전국적으로
▁고백
▁졸개
보이고
하나는
해야겠다
▁구출
▁수순
▁재료
▁같던데
올리
▁유아
▁재고
내리고
▁보상금
기사에
었잖아
▁교과서
민의
세이
국가를
▁필요는
▁아끼
▁노벨상
▁안보여
▁집에가서
▁사먹
▁서울은
생기
중공
▁녹음
할겁니다
▁천문
▁이용만
▁제품을
▁일본처럼
▁현정부가
당선
▁화가난다
▁세게
▁자백
하셨어요
▁되겠네요
▁아가리를
▁하는군
정책으로
▁가짜뉴스에
단은
▁이윤
▁가족의
▁사문서
▁사진찍
▁웅앵
사는게
누굴
▁전술
검찰이
▁있을거
반드시
▁당하고도
▁있는건데
그저
하는구만
▁화이트리스트
나냐
▁노골적으로
군인
제기
피고
▁야구
▁걸까
▁살아있
▁오지마
▁존경하는
준호
놈이다
▁안내고
▁느끼게
▁조국한테
가슴
날을
▁신났네
박스
▁메달
▁피로
▁강아
서트
▁몸통
▁배워야
▁한짓
▁대갈통
▁고영
▁이야기는
열을
잘하고
되었는데
▁종교를
▁낫네
▁사러
도없다
받는게
▁공시지가
▁조리
▁갖다붙
자루
▁재대로
▁김일성이
애는
▁귀에
▁국가간
▁성과급
▁골든
▁새겨
부끄럽
▁이거야
▁박혀
▁안산
▁압니다
▁안철수는
▁정지
었니
▁되는건가
▁본적
▁장관에
대박
▁반만
▁전라도에서
하려나
▁색깔론
할수밖에
▁주민센터
▁없기
▁부모를
▁세월호가
변을
▁팩트가
▁외국인이
▁중국처럼
▁내통
역대
는다면
▁민족을
▁경제활동
▁밥먹듯이
▁부자가
▁말이라고
▁촛불은
▁않고서야
앉아
▁없으
▁씨부려
▁퍼포먼
▁요구하는
수용
▁없을까
▁핵보유
▁강남좌파
의심
▁훈훈
▁핵심은
집도
!...
▁모시
▁수탈
▁응급
▁자란
▁따르면
상종
▁플레이
▁이천
▁이중잣
▁있는한
▁조국보다
▁들린다
강다니엘
▁유유
시대가
▁왜이래
▁하하하
▁과도
인거고
▁진단서
▁방패
▁년이면
▁문제인은
▁법원이
였는지
▁저런인간
▁거면
▁득표
는데는
방향
▁종편
줬다고
외국
▁차원
▁색히들
집으로
▁국민들과
▁후손들이
.(
▁막걸리
▁충실
아닙니다
▁인맥
▁썩었다
▁흘려
▁수사도
▁보여줄
▁불평등
▁늦은
▁사건으로
▁놀아라
▁아베랑
▁있음을
▁사과해라
▁누나
▁나같으면
▁이럴땐
익이
직도
▁시시
▁치매가
화법
▁가래
▁거역
기엔
박사
표창
자냐
▁아비
▁다음날
▁무리들
▁받았다고
▁보러
▁비난을
▁아는가
▁빠뜨
▁허허허
▁끊임없이
▁들어가야
▁공중파
▁보수도
▁일반화
▁언제적
▁머리속에
그제
▁되었는지
▁필요하다고
▁신규
사건을
▁멍청이
▁비슷하게
▁그이상
▁인지도
▁문베충
▁미쳐서
▁경협
▁읽는
▁왔으면
▁개판이네
▁돼지새끼
과정
업이
▁하루아침에
▁밤새
▁댓글보면
▁교훈
▁차에
더라고요
▁식의
▁분열을
해서라도
소속
▁지지도
▁하기야
지급
▁배척
▁태클
▁통곡
▁관심없고
▁위안부할머니
▁기냥
▁뒤를
▁떠오르
▁수준인데
▁착각하고
▁코로나바이러스
안되고
▁가족들은
필요가
▁기본도
▁세계위
▁불로소득
▁이러냐
▁아프네요
▁운행
▁추정
되나요
▁회사를
견을
▁치뤄
다는거
▁갈기
▁묻어
▁봐주고
▁보신
▁선동꾼
▁선동을
▁부족해서
▁최태
▁났는데
▁다물라
▁용서를
공급
등은
▁통장
▁받았는데
▁어려운데
▁이찬
▁치안
▁테이
▁풀려
▁바보야
생도
▁수첩
▁무당
▁처신
▁대안이
▁어지럽
게시
▁어떨지
▁들어가라
▁슬쩍
범은
▁그만두고
례를
뭐야
▁죽자
▁증권
▁프레임으로
▁전전
▁되는줄
▁중국에는
▁기생충들
▁유튜브에
.^^
▁내게
▁박찬
하겠죠
시켜놓고
모으
▁권력형
▁평화는
의무
▁퍼부
▁잊은
▁문재인이나
▁속이는
▁사형시켜야
▁생긴게
한다면서
▁개소리는
▁이번선거
▁세기에
▁삽살
들인지
▁됐냐
▁불체
▁패망
▁가릴
처먹는
▁꼬라지를
▁국격을
▁조사는
▁악플다는
▁이해하고
▁윤석열을
▁호칭
▁댓글창
▁삽니다
▁일반적인
▁등재
▁추억
시기를
중국인
▁성인이
▁아니까
부자
▁와도
질한
▁짐작
▁이사태
▁재건축
미나
▁무인
사실을
▁사람에
▁남기
▁든게
시국에
▁폐지해라
▁청춘
▁편가르
▁한거야
▁인정을
보군
이의
▁더는
▁원인을
▁재조사
▁하는짓거리
키가
▁두명
▁자국의
▁최성해
▁현기차
것과
▁자기를
적이라고
▁노력해서
▁들었는데
▁예민
▁거른다
▁경인선
▁상처를
▁이거냐
▁아닌척
▁아시는
▁개최
다가는
▁하냐고
▁있는것도
▁막론하고
▁대전
범으로
▁나대지
▁많지만
수기
시끼
업무
▁안민석
셨는데
▁성실히
▁수없이
▁년뒤
▁트롯
한거네
▁구하기
▁표시
▁하다못해
▁애매
▁내용도
▁불편한
▁우덜식
▁저여자
▁전화를
중한
였다는
▁인터넷에
▁한국인들이
▁강사
상이다
할만한
▁빨아라
시키려는
▁봐요
만하지
다간
▁감축
▁무신
▁자랑스런
▁승진
▁이런걸로
▁입사
▁수사방해
▁항일
▁골고루
배치
▁언제든
▁보내지
▁어때서
님과
▁위선과
▁의해서
▁상황파악
▁웃김
▁말씀을
▁성차별
외고
▁개털
▁높게
조센
▁착각하는
▁대사
가라고
하자나
▁무리한
▁보네요
▁앞에선
▁정상화
이었어
▁뉴스도
▁얘가
▁같은게
▁종부세
▁이르
전체
▁저지르는
▁호로
▁생각한
▁나왔으면
온나
혜교
▁이제까지
▁지껄이고
국내
▁학년
▁이행
▁잘못해서
▁제외하고
▁누리
▁생김
▁대표로
▁법이다
양간
▁경상
떤다
특검
화학
권력이
▁개재앙
▁자기의
▁모자라서
▁오늘부터
▁대통령한테
▁속는
▁정치도
▁제저자
젊은
▁결혼하고
▁열라
▁북한이나
▁평창
▁뿌리는
▁단절
바라기
▁그것만
▁얼빠진
▁거둬
▁반은
분명
▁노답이다
▁국민적
하셔야
먼지
약이
함도
▁인간들도
▁우리나라만
▁예견
▁나불나불
▁우리공화
문가
▁이벤
터지게
▁몰아내고
▁힘써
▁안주고
됐고
▁문디
▁못따라
▁서민이
▁풀고
▁향한
▁때문이
▁통계청
▁실망이다
왔고
▁덤비
▁탄핵은
정의당
▁돈있는
▁되지도
▁쫓겨
▁눈높
▁왜냐하면
▁신경써라
▁않는다고
▁묵묵히
▁박근혜보다
▁짓만
▁늦었다
▁이라니
▁신기하다
하리라
▁위성
▁있기는
▁진단키트
빠져
▁쥐닭
▁중국인은
▁받으며
▁안되죠
▁비판하면
▁심장
▁기네
▁독도를
▁있단다
말이야
쳐먹을
▁무섭네
▁계십니다
▁없다는게
▁없었고
▁해처먹
▁국밥
▁것이냐
▁놀랍지도
▁경찰의
▁대중교통
▁조양
비씨
▁짱깨가
▁바라보고
▁잃어버린
는지요
▁친하게
▁구질구
▁텐트
▁할머니가
.)
탓으로
▁외교가
부다
▁강대
▁공익제
▁반성도
▁이마트
▁면역
▁흑우
▁뒤늦게
▁마이크
▁성관계
▁날짜
▁사료
▁천하에
너가
워도
▁뜻이다
▁사자
결과가
눈엔
▁삼성도
▁무전
▁신선
▁지원해
오른
할꼬
▁빼라
▁릴
▁거르
휴가
▁연쇄
▁당한다
봉쇄
성폭행
소환
▁글에
▁봐줄
▁부리
▁해제
던가요
▁소비자가
계좌
▁두배
▁비틀
▁전후
▁힘들어서
▁아니길
▁입이라고
▁어두
▁걸림
▁빨아먹
▁영향이
▁사람들아
▁않는다는
▁부모님이
▁솔직하게
▁꼬붕
▁무슨짓을
랑캐
▁누른
▁갈아치
▁보고만
▁이기회에
기미
▁좀비들
▁사람이나
조카
▁문젠
▁땅에서
렸다는
정책이
▁윤미향이
▁쥐뿔
꺼라고
민들이
▁단군
▁신천지도
▁조심해야
때보다
▁개보다
▁넣어야
▁종자들이
▁어마어마한
▁비난하고
르장
▁관제
순간에
▁탈퇴
할테니
▁끝났어
▁기상청
▁안되게
▁장악한
▁맘껏
▁납득이
▁혜택은
▁공산독재
▁잘했
▁왜구들
▁집값을
겠단
▁잘난척
▁학생들은
▁주변에서
▁일인
▁활개
▁이해안
소유
▁경찰관
▁그럴까
▁그런소리
▁자국민이
▁헛짓거리
▁발작
▁아쉽다
▁자한당에서
영교
▁나베야
▁누군가는
감옥
소도
오를
▁중요하지만
라고요
▁우려먹
▁이해찬이
▁총칼
▁동지
▁터졌
▁아니구
▁싫어합니다
위도
하락
▁하셔
하고자
▁안보이
▁만든거
가고인의
▁전도
치지말고
▁다행입니다
▁억은
▁파헤쳐
사카
▁김용
▁빚을
투성이
▁퀴
인터
읽고
▁간판
▁미안해
▁늬들이
▁도찐개찐
▁하나님을
▁많던데
▁역으로
말자
▁누워
티브
▁의인
▁명예를
▁잘해야
▁킬
▁네이
적인데
▁자해
▁잡지
키우는
받아야지
▁미달
▁아멘
이래서
▁얼마전에
▁이상한거
▁정치검사
▁관세
▁현장에
▁한쪽으로
▁광화문으로
▁영역
▁잘되는
▁대남
▁한영
는소리
애들도
놓구
형에
▁자수
▁자질
▁소시오패스
▁국민일보
▁맡기
▁창업
▁맞는듯
▁당해야
▁무역전쟁
▁지저분한
▁선제
▁절단
▁사진은
▁가관이네
▁정국
사회가
▁우습다
▁바꿔치기
▁어여
▁차로
나하고
▁비교하면
상위
▁생긴다
아주고
▁주인공
▁헌법에
▁세월호를
유죄
생기고
▁냅둬라
▁부모들이
▁적패
▁결정을
▁민좆당
밀고
▁해대고
▁한국당을
▁못먹
희가
▁가산
▁오타
▁저격
▁넘어간
▁삼성전자
▁죽음으로
▁상담
▁모두들
▁않으면서
질듯
▁그린
▁틀리
왔다고
▁빠지고
▁가중처벌
▁무너지는
▁내신
▁기생하는
▁단두
▁가졌
▁아지
떠나
▁하는짓은
▁대북제재
▁노력하는
지금도
▁상관이
▁이석기
동에
▁부메랑
▁있었다고
▁빼먹
▁기업과
▁술을
▁정착
▁결과다
▁합당한
개정
▁경악
▁급하게
▁권력으로
권자
▁전멸
상황에서
련다
▁어디냐
▁한순간
}}
▁받으세요
▁나뿐
▁물어보
▁특수부
▁위험하다
▁하겠습니다
원래
▁정형
▁잘가
불로
▁냄새나는
매장
형님
▁총으로
시니
▁노리는
린다는
귀신
▁천사
▁호위
▁주특기
▁맞벌이
높은
▁그랬지
▁틀딱들아
탈을
▁뛰어난
▁맞춰서
▁기피
인간아
지역에
▁공감순
▁벙어리
▁조오
▁살기좋은
시절에
시키냐
▁안본다
▁짱꼴라
벌을
▁정화
마인드
▁림종석
▁탄핵당
▁우찌
해전
▁대외
▁추운
▁못살게
▁쟤들은
둘러
▁맞어
▁비호감
▁자유시장
소재
....?
▁법원에서
▁지랄발광
▁반성을
▁시청률
정경
▁부유
대는거
▁비싸서
고사
▁시청료
갔다가
▁책임감
▁처음본다
▁짝사랑
▁여대
▁단국대
▁아쉬운
▁통진당
▁맞는거지
▁잘못이다
▁공정과
▁손가락질
▁없애자
▁저절로
▁인권변호사
...............
분해
▁뉴스로
학살
▁말구
▁조선인
▁쌩쑈
▁쟤들
무식한
▁이미지가
▁조국일가
허다
히들
▁복무
▁어설픈
▁정치보복
▁사람들이다
▁알까
▁원정
▁개들이
▁하든가
▁안남았다
▁미세먼지로
▁가지마라
▁세금내
▁야만
▁통일은
게도
▁일하기
▁틀딱들은
▁뜻은
▁가면서
▁타격이
▁의료진들
▁대똥
▁생선
▁기성
▁목적을
▁찾을
았을
▁가혹
▁말들이
▁취급하는
갔다고
▁석고대
▁판사들
▁케어
▁없어진
실로
애기
좃선
거지로
▁결혼도
▁아니여
▁그와중에
▁내세워
▁말할수
▁차관
▁생각이나
위협
차기
오세요
▁치우고
▁행위는
석방
▁대처를
▁자슥아
▁조선족이
시대로
▁토착왜구는
뭔데
▁글은
▁만났
▁저기요
▁먹이
사구팽
하나도
▁망해서
▁살인미
▁진입
▁%,
▁엿먹
▁기자도
온거
▁내팽
할거냐
대협
조는
▁송중
▁개같이
짐승
비난
▁퇴보
▁시장을
▁저래라
▁대부분은
▁기승전
통신
줬더니
▁일어나서
?.....
▁수만
▁않겠지
▁대마도
▁나라인가
▁귀여
▁뽑아놓고
두렁
▁정식
▁진지하게
▁죄도
되었고
▁한번더
▁장병
▁기준을
▁백화점
▁부분은
▁세계최
▁죽도록
▁기대된다
▁지켰
시당초
▁좌빨의
기득권
▁불신
▁수감
@@@@
▁이슈가
렸고
▁여경은
▁그짓
▁기대를
▁믿으라고
▁신경쓰지
▁잘하고있
대던
하여야
▁미칠
사이비
▁잘살고
▁추장관
학력
라가
▁욕하던
▁끌어내려
▁피해자를
쓰는거
비에스
▁보다가
▁있었지만
!"
괴뢰
할거야
▁가지도
▁뭔죄
▁당사자
▁모이는
▁국민앞에
체계
▁질러
총장을
놈들의
▁박원순이
▁신천지나
▁회원
▁중학교
▁한국당에
▁늘고
▁소주성
개선
쳐넣
▁거짓이
▁집회에
▁정신병원에
▁장면
▁문정권의
못해서
▁비판하고
저거
▁붙이고
▁월급도
▁가정을
▁초중
▁구속하고
▁아가리에
▁밥이
▁선호
한국은
▁문가가
▁암적인
▁이길수
▁주체사상
▁둘로
▁형태
▁남한에
올리는
▁나가지
▁저러면
내는구나
▁어쩌다가
▁첨단
하느냐
▁중지
▁권력과
▁뭔짓을
▁준비하고
▁평상
▁왜그러
직이
▁인줄
갱생
▁한화
는것들은
장이나
밑에서
시키야
▁나간다
다보면
▁스스로를
▁쓰던
놈들을
▁위해선
▁미국가서
▁뿔
▁지꺼
▁싶다고
▁얘기만
▁필요해
▁해먹고
장학
▁니돈
▁시민들은
▁알겠지만
▁저들
▁가고싶
▁할아버
▁우리끼리
▁인간들이다
▁말해봐라
▁엄마는
▁웃기지도
▁힐
무엇
저라
카락
▁–.
▁보인
받으면서
▁망국
▁사대강
▁얘기하면
긋다
▁밥을
▁인내
▁좃국이
▁차리지
▁하시면
등의
애를
페인
▁절로
오히려
▁의뢰
▁재선
지검
▁심해
▁밝혀지면
랄까
다가도
▁국정조사
▁명목으로
맞게
^^^^
▁순실이가
이네ᄏᄏ
질의
▁개혁의
▁군데
건물
지식
뿐인데
▁모르겠음
정리
▁대들
▁대모
▁입마
붙어
이득
▁아바타
하는거보면
강화
눈깔
▁존엄
▁걸리는
▁무뇌아
▁사실에
▁악마가
▁정우
더이상
▁나같은
주식
논리에
▁독립유공자
▁아무데나
말까
▁본색을
▁자질이
▁잘못됐
▁누군가의
▁김지
보장
▁할머
▁돈이면
▁밝혀질
▁공산당은
눈에는
▁민주당이나
본다고
▁오라고
상황을
세력의
▁당당한
▁소리로
▁시간만
▁어찌됐
▁옛날부터
▁그자리에서
▁분란
▁저분
▁같다는
▁탄핵하고
▁란
해볼
▁웃긴건
▁보유국
▁안타깝고
▁방한
임에도
한단다
▁똥고집
▁우선이다
터지고
▁기사냐
▁된거지
▁투표용지
▁죽이지
▁갔냐
▁드네
▁명중
▁허세
▁혀를
▁공동체
손혜원
▁얼마를
▁미사
▁손이
▁한잔
까라
▁바둑이
하지말자
소리야
▁관상
한테나
▁추하게
▁노망난
▁모냐
▁사도
▁외에
는거니
▁앵벌이
▁영공
우가
▁점유
▁증세
광화
▁저지랄
▁종교는
미만
진정
▁교인
▁보기에
▁불안해서
▁중계
▁ᄋᄏ
▁몰려와서
▁별짓을
▁싸잡아
경호
▁두손
▁분산
지말아라
▁얼굴만
▁쳐먹는
▁니들을
▁일베가
▁제목을
▁하시오
▁가재
▁똘똘뭉
▁보도를
이라던데
▁겉으로는
▁이런것들
증가
았다는
▁기업들은
▁어떠냐
▁천지네
늠들
▁아버지는
▁국회의원들이
▁남이하면
▁해결해라
명예
▁심하네
할매
자들아
▁모습에
▁알리
▁강간당
그들
▁내역
람프
▁하이에
잔어
▁전력
▁인정해
▁무능하다
▁보여주네
▁돼서
▁언론통제
나중에
▁돈벌고
▁동조하는
▁정신적으로
▁당일
▁책을
▁넣어서
▁세번
▁휘발
▁총선을
마귀
전술
▁까먹
▁의원은
▁되기를
▁너들
▁농단
▁중대한
▁마감
▁분도
▁나가리
▁받아먹
▁보고싶은
▁외양간
▁제안
놨는데
▁따위가
▁자녀들
▁탓으로
재벌
▁시위를
▁만은
▁쉬고
▁기자의
▁달라는
▁발생한
▁차도
▁노리고
▁시간동안
▁정상으로
▁특성
▁돌려서
▁뛰어나
▁어디에도
갔나
▁할복
▁메인에
▁삼류
데모
▁너와
▁좌빨은
▁심신
▁갈등을
가의
협상
!..
▁맞는것
▁막은
▁열불
▁우겨
▁북한에게
▁없을텐데
▁하는거고
▁여친
▁내복
▁회개
▁시민을
▁♥
▁맞짱
▁국개들
▁뭐하노
▁문재인보다
▁따지는
▁가족과
▁오진다
▁폐지하고
▁공식적으로
그려
▁대의
▁일베충들
베이터
▁이산
▁지역은
죄다
▁미만
▁피우
▁시기가
글이
▁끝도
▁놀고있네
▁역사왜곡
▁이제껏
꼴을
역적
▁날치기
▁추미애는
▁공개하면
▁문재인이랑
▁드리
나가면
었다가
▁,,,,
▁무식하게
▁그말
▁근로자
▁외교적
줘야한다
▁안했다고
▁자위당
▁일으키고
▁조작해서
▁절친
▁역겹네
▁건다
▁둘은
▁여태까지
▁이놈들아
▁미치광
▁자료를
▁목적은
▁종전선언
났지
▁몸매
▁지오
민주당만
내도
▁명명
▁하루도
리야
▁추태
▁나대는
▁저런데
▁명칭
이나마
▁똥꾸
▁줄은
당신이
▁이세상
▁쓰기
▁한창
▁이기고
▁기자들은
▁문빠들아
▁심보
▁단정
총선에서
▁물어보면
▁해골찬
▁애국보수
▁재수없다
▁안바
충들이
▁최근에
으란
▁우리편
▁이런사람이
표는
▁마저
▁장재
▁단체가
▁치졸한
▁하는것은
▁거기다가
▁장악하고
푼이
▁많어
리즈
▁병이
▁뭐하는짓
▁먼데
▁옮기
▁넘었다
사회에서
▁아무생각
준게
▁슨
▁끊고
??!!
▁가세연
▁직무유기
▁대단히
▁저쩌고
법무부장관
벌고
▁수백만
▁북한이냐
▁박아
기관이
▁가려고
다행
내려고
▁김돼지
".
류의
▁주자
방망이
▁대우를
▁종신
▁유은혜
▁참사
세계가
▁딴따라
▁반정부
살지
유천
▁취약
▁부동산투기
▁줄여야
▁만천하에
▁그곳
▁뇌물현
▁윤석렬이
▁양심없는
▁던지고
열한
▁빠가
▁주둥아
▁개새
시민들
아니네
▁있겠네
▁안속는다
들이니
족들
▁발행
▁감정에
▁언론개혁
극혐
▁물건을
▁해달라
▁해외에
▁눈알
▁명령이다
))
것인지
▁예전엔
▁런
▁눈앞에
▁우물안
▁안낳
▁조절
▁편향된
▁언젠간
▁쓰레기통
▁이상으로
▁무섭긴
▁대단합니다
북한이
▁조사하라
▁마찬가지로
범을
▁어준
▁한국기업
기위한
갈기
▁기적
▁방구
▁위선자들
▁말처럼
▁----
▁이토록
▁꼰
▁누르
될텐데
▁빌미로
▁아들을
▁문재인이는
겠냐고
이이
▁이래놓고
▁선봉
▁폭력을
▁대동
경찰이
▁더했지
▁못봐주
▁적국
▁모가
▁실실
▁육군
▁구체적으로
▁정신차리자
졌지
정도의
▁몰아내야
▁실제로는
▁농업
▁원도
▁월드
▁쳐라
▁미제
▁언니
지시
▁되지않
▁부당한
▁빨갱이들의
분양
▁이보다
한자
▁밑으로
▁승리는
드신
▁자치
저게
▁배짱
▁전북
▁호흡
▁일처리
속도
증을
▁극히
▁올랐다
▁니들한테
▁안되겠다
▁실정
▁우좀
과도
▁명단을
▁네이버에서
▁);
▁온몸
연예인
▁안나올
지부지
▁일어나지
▁주딩
▁대깨문아
▁불법체류
▁승차거부
▁기도합니다
힘들어
짓거리를
자이
▁퍼나
▁짱깨는
치우
▁기사의
▁김재규
▁겹
됬다
▁쓰렉
▁업고
얼굴에
▁보이니
▁무식해서
▁받았으면
▁평등하게
내리
▁사실대로
▁얘기하고
대사관
▁정직하게
▁하야하라
▁일본놈들이
▁그럴거면
▁여자랑
▁일이고
▁변함
▁로맨
▁그릇이
▁모두를
능후
한것처럼
체적
▁고교
▁늘어날
▁마사오
▁세대가
▁등신들아
,...
녀는
▁순방
▁일해라
인가보다
죽고
▁도주
▁난리도
▁없는것들이
특혜
▁비혼
▁송혜교
▁똥이나
▁늘어놓
▁세월이
▁보여줍시다
▁가담
▁경험해
▁욕이나
▁일본꺼
연하게
덩어
▁악취
▁거품물고
증명서
▁착하게
▁충분한
▁혐의가
▁사법부가
▁사형을
▁바이러스를
▁수를
▁이세
▁취향
▁스트레
...??
▁만화
▁그따위로
▁갈아엎
▁안맞는
▁논평
▁되돌
▁장교
긴다고
▁하느님
▁백제
▁독립을
▁터진다
더나
▁뜯고
▁시작도
중입니다
▁만원으로
▁살고있는
▁아니라도
검색
▁없는가
분히
만하네
▁바래요
▁특별한
▁절실
질않나
▁모두에게
,?
당한다
주의에
▁철없는
세력들이
리핑
▁사형제
기념
▁다닌다
▁내주변
▁반일을
속은
직은
▁힘도
▁지켜주
▁사라지는
▁뉴욕
▁될까요
▁조옷
▁수장이
회가
▁무방
▁주간
내어
터져
▁못봤
있지만
▁원전을
▁적합
▁포털
▁되었나
▁지네가
매고
▁찬다
일인데
대로라면
근처
▁많은거
▁죄지은
시민단체
▁죽여놓고
파서
▁좌빠리
▁오만방
▁일안하고
▁시대는
▁대통령이라니
되면서
▁일이라고
▁돼지들
▁망하지
것들도
▁합법화
▁눈치보고
박탈
▁적도
문서답
▁거리고
▁경제의
▁있었을
하는것들
▁알아요
▁힘들면
▁다이어
▁주변국
▁들어간다
▁어쩔수없이
▁부각
▁몇십년
▁필요함
▁잔인하게
▁아줌마가
죽인
▁가보
▁산으로
▁외에는
▁사회적으로
일단
짓는
▁아이의
▁일으키는
▁우기고
▁바보같은
포를
여대
▁가는지
▁떠나고
▁세금이나
빨이
▁증거다
▁있잖아요
▁탈출은
▁말기
▁참에
▁희한한
▁되었습니다
▁소모
▁지금쯤
기피
뇌가
입을
▁전무
▁문간첩
▁이딴거
▁융
유린
던말던
▁즐기는
▁극치를
▁아니구만
생은
▁없니
▁이만희가
▁좌좀들은
▁고개를
▁미쳤냐
▁버르장
▁관계자
▁황당한
▁납부
▁더부러
▁말해봐
▁한일전
로다
진압
▁탁월
어이가
크리트
▁사기업
와이
▁자자
▁네이버가
▁탄핵에
마당에
내야한다
명사
▁일시
▁간거
▁출소
▁찍어주
▁탄핵하자
보냈
줄을
▁내시
▁실리
년들은
세력은
점도
학생들
▁여자한테
존엄
화장
▁가관이
▁상태로
▁이상도
▁검찰총장이
▁압도적으로
속을
시스
▁나참
▁총경
▁진보를
▁내부고발
▁하시네요
▁문제네
▁있노
무서운
▁문가는
비행
▁들쑤
▁분담
▁쥐도
▁탈락
▁덮어씌
▁지발
대해서
▁기고만
▁못받는
업소
통계
▁씌워
▁염치
▁첫째
▁핵무장
▁보수라고
▁논쟁
▁불순
▁내세우
▁답답하네
▁있군
▁한심스럽다
▁문정
▁여자만
책이
▁해가
▁부끄럽고
운다
하려다
▁규제를
▁누워서
▁기회다
▁없지요
▁조작의
▁사람인지
한번도
▁무서웠
▁구제불능
▁건국
▁현기
만보고
▁다수가
▁(..,
▁밑밥
▁어릴때
▁고생하는
▁반일운동
▁당파
▁어디든
▁시작하면
▁사람으로서
페이
▁발언이
▁타격을
▁이쪽
▁문닫고
▁어버버
▁이름은
▁토사구팽
불편
▁남북경협
▁안보이나
란한
▁미혼
▁남한을
▁저기에
▁귀화
▁없에
▁먹는거
▁정권잡고
▁잡종
세우고
▁군인권
▁징그럽다
▁민초
▁용어
▁끄집어
▁머하냐
▁전기료
▁조작은
감각
▁양현
▁옵션
▁밥이나
▁자유당이
▁난독증
▁짜르고
▁이종
▁해병
▁비서실장
▁분리수
▁발을
조국은
▁아까워
될것
▁것이라
▁명백히
▁너두
정철
▁조차도
▁부글
▁망각
▁친일파들
▁한국남자
▁국세
▁초청
▁허접한
▁공격하는
임승
▁어째서
▁일말의
▁할건데
▁따로없네
▁목소리가
고용
살을
▁도착
▁티가
▁인정한
▁아니었으면
폐쇄
▁욕해
▁생기지
▁길거리에
▁노무현은
▁보건복지
▁저가
해주길
▁다니며
▁김대중이
▁남지
▁담보로
▁소리다
▁광주에서
▁사법고시
▁악한
▁재능
▁멍청하고
▁입좀
▁협정
▁됐으면
▁손모가지
▁분쟁
▁집단으로
부정선거
▁아줌마들
▁추종자들
▁공과
▁지나친
▁한국말
▁살길이다
▁수사해야
▁좋으
걸려서
▁애시당초
▁없겠지만
▁이럴거면
▁염려
▁키로
▁넘어가지
▁최순실보다
잘해
?^^
였지만
▁나온다고
▁속히
▁환불
일이나
▁그럴수도
▁무너질
▁싹쓸이
▁열받아
▁대책없이
▁안믿는다
생아
▁질문에
부와
상규
하겟
항쟁
▁못구
▁이대
▁에어컨
▁여실히
▁개인적
▁의혹만
▁광화문광
▁모자랄판에
▁베충
▁연동형
▁현대판
▁허무
▁대해서도
▁유분수지
▁믿기
▁다까끼
▁시국이
당이나
팔아서
▁진중권은
연의
▁감이
▁너도나도
강제
처가
▁한해
사들이
▁싸워라
▁여자로
▁모르겠냐
▁불매운동을
▁무릅
▁해상
달창들
▁실수를
▁장학금을
▁되네요
▁신도들
▁얻는
...!!
▁빨갱이다
▁지지한다고
▁하지말라고
항상
세력을
우한폐렴
▁알았더니
▁얼어죽을
▁길거리에서
▁우수
거니까
인것처럼
▁여적죄로
▁도덕적으로
▁안그러면
▁임명하고
▁인륜
▁안전하게
▁바이
▁말이되나
▁반민
▁이래저래
하는것들은
▁구속이
▁올라가는
▁땜시
▁압류
▁퇴직금
▁대대로
크게
▁왈왈
▁화려
총리가
▁알았으면
고있지
▁다녀온
▁당했다
▁독감
▁권력도
▁너때문에
▁정무
그만하고
▁창의
▁소문이
시키는데
무너
상대
▁외쳤
▁과정에서
▁청년들이
▁트라우마
▁공수처설치
▁넘길
다니냐
언정
▁넘을
놈이네
▁너같이
▁어른이
▁올랐다고
추미애
판에서
▁남기고
▁지지할
▁유언비어
▁높고
▁손목
▁판문
▁개한당
.'
노답
▁밝히는
▁놀랐
▁봉급
▁실질적으로
▁맞이
주의가
▁그래봐야
▁모양인데
▁힘내시고
▁아구
처먹은
▁바꾸는
▁사기친
▁있을것
▁몇억
▁잡히
▁욕해도
▁좌편향
쇼쇼
합격
▁겁먹은
▁누군가가
▁막으면
▁보험료
▁드루킹이
질서
▁주니
▁후반
▁지방선거
▁않는다면
▁인간들을
시계
어주고
▁외교도
▁쑈를
▁알라
쳐놓고
▁권한을
▁보상을
낀데
▁코스피
▁구형
▁시민의
▁했나요
▁망명
▁저축
▁이중국
▁죽이려고
▁측은
▁도둑이
▁@
위치
▁허탈
▁도망갈
▁머리도
억울
재료
▁거짓말은
▁극단적인
▁안볼
▁시민의식
▁휘청
내면서
사이에
▁ᄏᄏ진짜
철도
▁개이버
▁단어는
▁중인데
▁내리면
▁시절이
▁알았어
▁마인드가
불고
▁조를
▁품위
▁뜬구름
▁범죄집단
올랐
▁색희
내는게
▁놈들을
▁보낸다
주지말고
해보인다
석에
지하
▁지민
▁화면
▁환자들
▁위선적인
종을
▁빠지면
▁닥치
▁집안에
▁선진국이
▁싹싹
▁사무실
▁싸움을
▁평화의
▁교활아
▁구상권
▁상태가
▁장사가
▁찾아볼
▁판사는
▁탄핵해야
▁부서
▁할망
시키기
▁부정적인
▁잘못했다
저쩌
▁빨아주는
▁대면
어야죠
▁떨거지들
▁주류
함으로
▁근거도
▁대변하는
▁이유없이
▁초기대응
갔지
▁노통
▁생물
▁존재가
▁성범죄자
욕이
▁전액
살인마
▁것들도
▁늘어난
▁경제와
▁떨어지니
▁-----
▁당의
▁받는거
▁악마다
잔데
▁복사
▁빵빵
▁안보이는
많아서
▁국제법
▁저리가
▁같으니라고
▁같어
▁간첩들
기독교
나오지
▁틀딱이
로그
발찌
▁기강
▁자작극
▁한반도에
만약
▁당에
▁촉구
따위가
수사권
▁건전한
▁뭔지는
▁제자리
▁불이
▁이익만
모리
▁방금
▁만행을
좋은데
...,
▁손해를
▁선동당한
▁성금
▁좌파들아
▁성도
▁기술력
▁엄마부대
부동
어렵
▁김구
▁강압
▁어지간
▁이긴다
▁거기가
▁이념에
입니
▁사단이
그지
▁말길
▁참을
▁풍년이다
▁될수도
▁해봤자
▁자빠졌다
▁독박
▁교수들
▁웃으면서
▁별의
▁호박
끼들은
▁무소불위의
▁장례식
▁티비에
▁작정하고
놨다
▁대응이
▁페미들
▁내로남불이
녀들
▁상생
준다는
▁어떻고
▁하지요
▁한심하기
▁승객
▁경제학
▁정상적
▁머리카락
▁미세먼지에
타기
인민공화국
싸게
▁사회는
▁기사내용
▁삼가고인의
▁이지경까지
어른
당해도
▁자전거
▁집단은
▁결제
세무
채용
테크
▁멀지
▁실적
▁몇명이나
사격
▁권고
▁금수
▁일간
▁점수
▁처먹는
▁있다는데
▁자유당은
▁ᄐ
주머니
▁알려주세요
▁무소불위
▁자진사퇴
단총
때만
려놓고
▁안달난
▁온다고
▁문대통령은
▁분배
▁지나도
▁댓글이나
▁놈현
▁친일파들이
▁신빙
▁선거로
할게요
▁먹튀
▁시신
▁때려라
네ᄏᄏᄏ
다만
용지
▁영화를
▁모지리들
담배
한명
▁위임
▁피해자의
▁생각이란걸
거리를
터진당
▁왈가
▁정세균
▁당연한거지
▁마셔
▁보조
▁살았으면
스맨
자비
줄래
아가리
▁최대의
▁고무
라더니
정책은
▁추가로
▁투기가
▁은근슬쩍
과연
착취
▁대세
▁클린
▁푼돈
▁독재의
▁양준일
▁포함해서
▁지갑
▁인과응
▁유리하게
▁땜
▁죄로
놈이나
이라구
▁자한당이나
▁그후
나오냐
기대
▁히트
내는데
만원씩
남북
득실
가동
하가
호는
▁한탄
받는데
▁바뀌지
▁하나에
하였다
로우
타서
▁뭐하니
▁쑤셔
▁쓴거
얻어
▁개지
▁유교
▁공감이
▁영상을
▁생각하세요
▁하거라
▁같애
▁쉬는
열고
▁갖춰
▁발부
▁울부
정부와
불만
회를
▁동무
▁논두렁
▁인사를
딱지
▁후련
▁인프라
▁감방에서
▁있다는거
▁모자를
▁지역이
테이
▁써글
헛소리
▁중국하고
율은
▁편입
!~~
▁이끄
▁기업도
▁전두환은
받이
수사를
▁입는
▁차지하고
▁필요한데
남도
소굴
▁장갑
▁찾아봐라
설마
▁이언주의
프게
시장은
▁그렇치
▁무너지면
▁진상규명
구민
외에
▁별반
▁진화
집구석
▁극단적
▁올라오
▁일하면
▁전쟁은
▁솔선수
▁않는게
▁다음에는
▁소니
▁심판해야
▁이놈들은
▁생각해보세요
걸어
물림
사와
중이고
▁않았고
▁일제강점기
▁버렸다
덜은
▁있으신
▁오마이뉴스
▁민족이
▁물론이고
▁될걸
▁최전
▁고향이
▁미통닭
▁열받네
▁제도가
들에게도
▁되찾
▁희생양
▁숨길
출신이
▁///
이즈
▁부장
▁똥구녕
▁위험에
▁전남편
▁내렸
▁언론노조
▁초월
을건데
▁사격
정부야
지지자들
▁감옥으로
▁보는구나
▁받을것이다
▁댓통
▁뿌리를
▁동족
▁안망
▁군복무
▁채우고
▁각각
▁즐거
▁조작된
▁팩트만
▁집권하면
하누
▁무시한
▁위주로
▁답도
▁쳐서
▁한다는데
죽어
▁급한
▁보훈
으시길
▁지혼자
▁시스템이
▁재인이가
버티
설이
▁치마
할거고
▁세종대왕
▁장사하는
▁만불
▁과정은
▁살인죄
▁반문
단의
반미
인간은
▁꼴리는대로
▁덤벼
▁주동
▁방송이
▁조선아
프로그램
▁설계
▁유세
자인데
▁겁나게
창이
▁떠난
▁몽둥이로
유발
뭔가
▁뒷감
▁이도
▁차선
▁만나는
▁얼마안
▁하나다
들어가서
인식
▁다문화
▁번지르
▁감투
에게서
▁인간이길
▁남자만
▁법무장관이
▁오물
▁무너져
▁버리면
▁뿐이고
대단하다
▁불쌍하고
▁어이가없네
따박
▁땅이
나라다
▁기대해
보듯
▁걱정입니다
▁저모양
▁실질적인
받기
▁보완
감정이
▁깜빵에
▁꼬리자
▁차산업
건을
소비
▁추앙
가는지
▁내놓은
▁트럼프의
▁사교육
▁사진이
▁의사들
▁한국여자
▁공산주의로
수있나
▁세금걷
▁두눈
▁것이니
내지말고
▁달창은
▁비정상적인
라이트
▁사람들과
▁올랐는데
▁이뇬
▁개웃기네
▁만들어준
▁두면
▁우라
▁대통령님이
물가
수업
▁난장
시진핑
▁안받아
▁두고봐라
▁냅두
▁발라
▁한사람이
▁유치한
▁자력갱생
자유한국당
▁세컨
▁품절
좋다고
해주니
▁개판이
▁욱일기
▁국개의원들
▁행태가
▁힘들어도
▁텔
▁가지면
▁시키는대로
이라지만
▁만들려는
▁욕나오네
▁사회주의를
▁미스터
입에
▁날도
▁나중엔
▁했을때
같은것들
관도
있니
▁그런거야
▁흐지부지
해야만
▁내라고
▁놀면서
▁아프고
▁오픈북
▁다음으로
▁샤오미
▁얘네들
▁포함한
▁똑똑하고
▁공론
▁독재는
로를
으리
말고는
▁맡기고
▁한순간에
▁생각하는지
▁공부는
▁싫어한다
▁남여
▁로비
▁옷벗
▁이유다
▁늙은이들
▁외면하고
릴듯
▁받을수
▁없단다
싫은
▁선동과
공산당이
▁얘기해라
내야지
▁동일한
▁시장에서
▁괜한
▁달지
국가의
▁굳건
▁전사
▁민경욱이
▁김정은한테
▁계층
▁예수님
▁오래된
문자
▁야당의
▁일본인들이
전용
축하
하디
한잔
▁고시
▁자기들끼리
락치
▁피는
▁탱크
▁우체국
▁거리면서
전에는
▁촛불들
▁국민여론
▁그러려니
돌림
인건지
▁구혜선
▁년부터
▁립
선교
▁임명강행
▁소름끼친다
▁상판
▁보이는게
▁여성들이
혹시
해줄께
▁문빨갱이
문의
우나
▁학벌
자치
▁도피
▁장소
▁경제력
▁못해요
▁독립투사
▁디젤
▁조국만
▁가증스럽다
▁나에게
잘한다
▁석고대죄
▁더하네
▁저러지
한단
▁말했
▁몰두
▁잘보
▁공부도
▁동선
▁사지로
~~~^^
현장
▁방호복
거주
▁총선까지
▁한국인의
▁놈이나
▁망가지
건너
어져
▁대에
▁천인공
▁알고싶다
▁밝힐
▁맞춤법
▁진핑이
▁거짓말만
▁오래다
통화
▁고대로
▁와중에도
하는거보니
단절
▁정은이는
▁못보는
▁아베도
▁더해
▁부르면
▁성장률
▁동문서답
▁자존심을
▁씀
▁독재로
지지하는
▁있었다는
▁가소
▁기차
▁배포
▁거짓말도
▁임명하면
▁접어
기면서
▁주시길
▁눈엔
▁할배들
?????????
신지
진데
산은
해본
▁받음
역겹다
▁조립
▁국민성이
▁개떼
▁참견
▁특징이
▁사기꾼들
▁사실이고
흔들
▁방학
▁종북주사파
가입
▁합의를
▁끄덕
▁전철
▁정해진
▁구차
있네요
▁나서는
▁유전무죄
▁파워
▁나보다
▁한시간
▁정신으로
▁조국이다
▁허구한날
라기
▁찍지
▁되는가
▁나니
▁그러네
▁너네도
▁저질러도
▁생각좀하고
▁린
좌빨들
▁그럴싸
하십시요
조중동
▁벨
▁따박
▁편이
▁왜그리
자리에서
쯤은
▁금리
줍니다
▁국민은행
▁나쁜놈들
▁조국사퇴
더군
▁살만한
▁엄중한
▁이득이
▁고생한다
적임
▁김동
▁재개
는것보다
▁나오겠네
▁멍청하게
▁청문회는
▁탄핵으로
▁제정
▁탓만
▁수사하면
▁있나보네
이웃
▁세일
▁위정
▁모집
▁처맞
▁나라걱정
▁세웠
▁잘되면
하는거죠
▁똘마니들
▁하루만에
▁시방
▁역전
▁죽이면
▁현정부는
▁반대합니다
대행
▁자나
▁승리가
하지않나
▁고난
▁해결해
▁위협하는
▁피의사실
▁대도
때리고
▁없었음
▁모은
▁생각됩니다
▁쩍
▁식물
▁그들도
▁살인범
▁구속영장
▁장제원이
▁실효
▁했니
산으로
▁있냐고
▁머슴
▁쩔쩔
▁치러
한건가
▁기억안
▁고집불통
날까
▁극악
▁쪽쪽
없애고
틀딱들
▁잣대를
▁저런말
▁지나고
▁해보지
▁자동으로
낸다고
▁부추기고
▁일자리도
▁문은
▁지랄이야
▁골치
▁한몸
▁달아라
▁당신이나
▁망쳐놓고
미약
털고
▁터무니
▁흘리고
▁왜하냐
그만해라
▁세력들이
▁통계조작
!!!!!!!!!!!
▁그랬으면
▁보수정권
▁역행
▁한줌
▁두가지
▁남녀평등
▁사기치는
▁어림
▁인명
▁보기도
▁시끄러
▁격추
▁일년에
지도않고
▁지라
가림
기밀
▁드런
▁빈다
▁미국에게
▁쓰니
▁무제한
▁어린아이
▁갔네
▁비리와
▁좋네요
▁교회를
▁되겠나
▁되었고
▁바람직
▁온나라가
▁위헌
▁않겠냐
었을텐데
▁아니지요
▁일어나고
▁안본
▁최신순
생각으로
▁보수들
▁문죄인을
▁어리버리
▁하이에나
▁........
유가
▁몇배
▁날강도
▁무력화
▁바보들아
우익
▁도살
▁복직
▁투성이
되든
▁아니어도
▁능가
▁똑같지
어서는
▁빨치산
▁싸워야
▁없는거다
자라는
▁좀먹는
루즈
을게
지나면
▁뒤지게
▁반대가
▁아는지
▁세뇌된
▁집구석에서
민다
▁구라를
▁교회에
▁안나오네
▁장기적으로
님아
말인지
▁정치로
수준이다
▁아나보네
▁할머니들을
▁깔깔
▁유부
▁대통령까지
▁대한민국도
사회에
회사가
▁댓글다
선고
직장
▁사태에
릴때
▁가상
▁알기
▁자식들도
▁한국전쟁
선전
▁구태
거여
▁리스크
▁선동이
▁여성은
▁임상
▁반민족
▁했었는데
삶은
▁위증
놓으니
▁없거든
▁없는건가
▁나오니까
▁습격
▁사태로
▁사퇴하세요
▁이병
▁유병언
▁일당들
▁청원이
▁없어지는
한것들
▁피해자들
주들
진단
해야되
▁마찬가지고
▁트럼프한테
▁밝힌
▁쳐묵
▁바닥을
▁친환경
▁촛불시위
하심
▁변절
▁억에
▁많으니까
▁의사협회
▁하는데도
▁마지막으로
빠이
▁얼렁
리는지
할때마다
▁사람이라
▁싶나
▁창문
년놈들
▁위가
자한테
▁매진
▁유유상종
▁제국주의
▁끼야
▁원상
▁의식이
▁질문을
▁오사카
▁본인들은
지구
▁쌍팔
나니까
시켰다
▁김건모
▁버티는
▁주휴수당
▁형사처벌
임에
▁백년
어야할
인가봐
▁알리고
▁못지
▁간첩들이
▁짓거리는
▁원하는대로
▁선장
▁박능후
▁순공감순
▁지나치게
왔나
충들아
▁트집잡
제국
▁집한채
돼지로
▁때리면
▁적나라
더불
의한
▁오호
줄려고
지못해
수야
▁왜구당
▁겠다
▁아에
인이면
▁못하니까
▁프레임에
임기
▁인하
죽이는
▁뻥튀기
▁서영교
▁아니요
▁중도층
이기도
▁유능한
▁멍청해서
급식
폐하
▁개작
▁완치
▁진절
지만도
▁가만있
▁말까
▁되풀이
언제까지
인간들은
▁상대적으로
▁한꺼
▁나쁘지
욕심
▁그라
▁풀어서
▁메크로
▁인민군
▁전적으로
▁속여
▁저러다
▁기관단총
운동을
▁적폐라고
▁정신좀차
▁대통령이나
▁뷰
▁루머
여론조사
▁그만하세요
▁노노
보이네
▁손혜원은
▁배째
▁나아지
▁되어도
▁쏘고
▁총질
▁보려고
▁죽었다고
▁통탄
▁재개발
▁힌
▁부양
▁악을
▁청주
▁별것도
차원
▁매력
▁영향력
▁영남
?!!!
▁잘했네
안정
형은
▁전주
순환
준화
▁성접대
▁받는다고
보디
적용
해야할듯
▁사람이고
▁가능하다고
▁망정
검사가
▁바른미래당
▁지껄여
정치에
▁시끄러운
조아
통일을
▁자살골
잇네
▁난동
계에서
▁양승태
▁쩔어
▁정형외과
다이
▁바치고
▁정치의
▁결혼하면
▁시작했다
고의
깨끗
론이
▁안드로
▁목격
나이에
▁그리스
▁내비
~~??
▁처벌하고
▁밟고
▁아부지
▁거리두기
▁세월호로
▁련
▁가져야
▁김상조
▁노트북
▁이분법
생각하는
▁빠져나갈
▁보답
▁까도까도
▁보수언론
▁이용하여
굽신
밀어
죽여야
▁한둘이
▁취미
▁계기가
개나
시로
▁도리
▁문산
냐ᄏᄏ
▁발동
▁배때
▁신념을
▁라디오
▁올라가고
▁제대
북괴
음모
탓만
▁넘기고
▁주진우
▁단식을
앗다
▁내란선동
유포
▁년들
레이드
▁그럴듯
▁명분을
마사오
▁아니었다
▁/,
▁차태
당신은
이나라
▁반응이
▁우한에
▁오랫동안
▁필요하면
란이
▁외칠
사업자
충들은
었구만
▁원합니다
대만
은퇴
자제
다니다
▁중이다
▁반하는
▁궁금한게
▁공표
▁모니
▁모함
▁법관
▁아는거
▁정정당
▁직원들이
너네
▁신경쓸
▁이라면
▁쳐먹은
셨습니다
▁내정간섭
미국이
▁가족사기단
▁조사해봐라
빠들
▁미운
▁변해
▁카르텔
먹을려고
▁이재정
▁취업자
▁답네
▁박원숭이
▁반기
▁여당의
▁엿같은
어지고
해줘서
주신
▁맞긴
▁정치와
땅에
새누리
▁무임승
▁가야한다
▁뉴질
▁발톱
▁멋있다
▁피해보
▁가증스런
▁세금낭비
▁정면
인거죠
통해
▁탁상
▁많은가
▁콘크리트
▁시점에서
▁정신병자들이
▁사케
▁무법천지
▁의구
▁패턴
▁어른들
▁조심하세요
▁쪽바리들이
남기
▁엄정
▁이수
넘어가
▁문화가
▁보니깐
▁청원에
팍한
▁달빛
▁두루킹
▁드세요
▁왜그래
권으로
▁강원
▁당시에
▁교황
▁급이
▁수백억
받음
▁배만
미세먼
▁안쓴다
전까지
▁반한
▁북의
▁이상황에
▁봤지
하에서
▁빠져나가
▁대한민국이다
건드
놀고
▁도요타
소리하고
▁전대통령
란드
▁나야
▁진성
였으니
▁도그
▁염병하네
▁원짜리
▁이새키
▁친일은
이구
회피
▁구더기
▁애들만
▁있는줄
▁사회주의가
▁아르
겨도
수준을
▁비리로
▁없던데
▁좋으니
▁질린다
▁무차별
되는구나
정도가
▁가격에
_{}
어버리
▁비용이
▁짝짝짝
포장
▁국방의
▁보았다
하게도
▁변명을
▁틀딱아
▁활동을
▁검사들이
▁부동산은
▁없나보네
▁바뀌는
▁박근혜와
처를
렸던
▁빚이
바에
봉투
▁요런
▁이개
달에
▁험한
것보다
▁감염자가
▁몰이
있구나
▁친일파는
▁학생들에게
▁실직
것같아
비슷
▁명시
▁대재앙
▁되는걸
▁갈때
▁충전
▁피자
▁언론장악
▁분열시키고
방은
▁부른다
▁외노자
▁전투기
▁새롭게
▁해주지
▁가짜뉴스는
부글
▁기억하고
▁사람보다
인력
했었다
▁처음에는
새들
허허
았는지
▁바꾸자
▁자식한테
▁전자발찌
여기서
▁입닫고
▁자존심이
▁만들어야지
감소
발에
ᄃᄃᄃ
▁년아
▁허나
▁그분들
하기까지
잃은
브랜드
연설
▁보육
정치는
▁여성부
▁공무원들은
트리
▁일일
나해라
▁조용한
설수
▁판단은
장수
▁표로
▁나오기
▁이딴게
▁주려고
▁찾아가
▁통합당이
▁해야하는거
시는지
페이지
▁나올때
▁내는데
▁수산물
해야겠네
▁이지경이
▁아군
▁녹취록
▁어렵다고
느껴
▁뭣이
▁화나
웃기네
▁실력으로
▁황교안을
▁아니고서야
▁명언
▁분기
▁한패
매는
▁재판을
▁용기있는
막말
▁개호
좌파들
▁지멋대로
강력
하나로
파고
▁자네
듭시다
▁조금은
▁엇
소식
▁달면
▁요번
▁베충이
주마
▁모텔
▁이념을
질문
오르고
▁문재인탄핵
▁가전
▁젠장
▁조는
▁세력들
▁줌
▁글러
▁년반
사고가
▁간단한
지않았다
▁무섭네요
함ᄏᄏ
▁여당과
▁정권유지
▁억이상
▁희생을
아네
▁ᄌᄅ을
▁간경화
▁당당하면
▁박근혜랑
▁먹기
▁자택
▁피고
▁_{}
▁나누어
▁좌파를
▁안합니다
▁사랑을
▁조상이
▁모른다는
▁현정권이
고싶냐
▁이순신장군
▁활보
▁가격도
▁웃음만
름이
은망
할수없는
안된
측근
▁%.
▁의도는
▁시간문제
▁잘살게
▁임금이
▁판검사
션이
속의
▁부탁한다
▁저런것들은
▁로맨스
▁바닥에
▁충분하다
였군
▁주저
▁충동
▁생각해야지
지령
▁친일청산
▁돌아이
▁생명과
한다더니
▁고유정이
▁파멸
방사능
▁음란
▁웅앵웅
▁직장인
▁최저임금이
▁환영합니다
▁제제
▁시스템을
▁간주
▁성숙
▁가져가
탈취
▁아가야
▁태어났
▁논리에
▁박근혜의
▁여러분들
▁쓰레기통에
새도
▁공조
▁몸소
▁제소
거면서
▁끝난다
▁돈많이
▁자격지
▁지지한
▁잘났다고
을꺼
▁인자
▁쉴드치
▁축내는
▁하늘에
▁올라간
▁윤총장이
▁기레기들은
지부
▁기침
▁신격
▁아프면
한거라고
▁보수라는
▁설문조사
▁묵인
▁태도가
▁모양이지
▁막히
▁관리를
▁그립다
▁십년
거라는
▁이찬원
▁ᄌ도
▁접대
했나보네
▁전라도로
서나
▁창피한
▁이중적인
부역
▁회식
맘에
▁딱딱
▁나올듯
▁쩝쩝아
▁부족하다
주의를
▁마음껏
저질
▁정보가
▁생긴것도
▁얘네들은
보수가
한가지
▁수십조
▁있지도
▁조그만
▁학교는
▁후보로
글에
▁업종
운동권
▁우글
▁무식이
힘내세요
▁잘못이냐
▁그런것
▁자기들의
▁경제공동체
천재
▁적당한
▁박그네가
▁해체하고
▁태세
▁안산다
▁그러는지
기반
놀음
지수
바기
▁미치지
▁생각이다
▁가르치는
불리
▁가축
▁막을수
▁애국당
▁쳐죽일
▁지원하는
▁감정적
▁가보자
▁인정할
전국
▁사치
▁있거든
▁적이다
▁홍어들
사대
▁못할까
▁주지마라
▁외교적으로
▁유난
▁재용
었어도
회에서
▁김여정
▁누구랑
▁많더라
▁취업률
▁팔아라
할수있다
▁모습이다
예수
했던거
▁갈수
▁강탈
▁없는건
쓰지말고
▁싸워서
▁저럴까
▁그럴수록
▁임명하는
▁마음도
▁갔나
▁지우
▁조선을
▁사라진다
▁여자라고
리안
▁빠질
▁재기
전교조
▁괴롭히고
욕하는
,,,,,,,
배달
▁계열
인줄알
피해자
▁자빠졌냐
문통
▁뇌구조
▁ᅲᅮ
▁바껴
▁휴지
하자마자
▁이때까지
미통
▁이지만
이전
▁시장님
▁있을거다
▁꽃길만
▁돌았나
▁쓰는지
▁진보라는
리티
▁속옷
▁아줌
▁어긴
▁일대
▁구린게
▁넘친다
▁아주머니
입시
▁쉬세요
▁인생에
▁객관적인
▁민주화를
▁저렴한
이나해라
이길
▁(-)
보죠
파업
▁놀아난
▁꼴좋다
▁내려서
▁민노총은
따윈
▁설훈
▁국보
▁인사가
▁수십년간
▁받냐
▁헤쳐
▁봉준호
추천
이랑께
▁올라온
▁군부독재
모자
지의
▁식약
▁계세요
▁치네
▁근간을
분노
것이며
사다
▁오게
▁한들
생기면
▁살려라
▁상관없
▁한일관계
▁스파
▁진다
▁쪽팔리게
이었나
되었으면
▁없는거냐
▁충성하는
▁심판하자
▁국민혈세로
본부
▁상한
단위로
▁잘못도
▁한꺼번에
▁두분
▁듯이
▁없는건지
▁이사가
▁희안한
우린
▁타인의
▁구질구질
디다
▁삐딱
▁초과
최악의
▁부지런
▁해결이
▁지원해주
▁결렬
▁").
▁따라가
▁못한게
▁반박을
▁잘라라
▁민심이다
▁무섭지
으면서도
▁누구하나
깔고
▁온상
▁공통점
▁의무가
밀리
▁작동
했다며
▁ᄀᄉᄁ
▁감염된
▁몇개월
▁소고기
맞춰
님들은
▁넘는데
▁절반이
야합니다
▁전문가가
▁검찰개혁의
▁되요
▁문똥
▁무거운
▁보나마나
시켜주세요
▁돌아다니는
▁기아
▁가려서
▁필요없
▁가니
되겠지
▁남성이
▁여편네
▁심각성을
▁-'
▁무슬림
▁내집
조각
▁취해
▁저놈은
▁없을거
▁국교
라구요
아들은
▁머라고
▁자들의
▁뽑자
▁지분
▁김종민
▁아오지
▁우리민족끼리
채널
▁끄나
▁쳐박혀
누군
▁죽인다
▁지잡대
▁꼬락서니
▁생각해야
▁어딜가나
▁전자개표
▁건강을
▁못봤다
▁적당히해라
압수
▁단톡
▁물품
들입니다
▁시원하다
▁너희도
▁잘지
▁인기가
▁늦지
▁헤아
▁시원찮을
▁없어진다
되어도
▁자랑질
▁절반은
▁좋은건
▁아이들의
터로
회로
전체가
제도를
▁말세다
▁이용당
▁신천지교
▁노란리본
▁약소
▁도망간
▁좌표찍
최저임금
▁미개하다
▁어찌보면
기자가
▁본인만
▁소리네
▁하기전에
실까
▁모래
▁고생많
그러니까
▁근거없는
넘을
될수
지않음
▁논점
▁다카
▁학교도
▁자식에게
▁학생들을
옛날
▁그랬는데
쳤는데
스컴
풍이
▁속내
▁협치
▁안타깝네
했군
▁임원
▁덮으려
▁동북아
▁우리와
▁생각해요
법한
▁양도세
▁인상이
으로서의
▁나경원도
▁야당을
짓도
▁넘아
▁간다는
무섭다
▁당사자가
▁남아서
▁혼자만
▁정신상태가
구현
▁백원
▁그런다
▁남한의
▁한다니
▁일좀해라
차지
▁환경을
▁사랑해요
타지
▁탄도
▁투성
▁기회로
▁치밀어
체는
▁우왕
▁영어로
▁결과적으로
수단
잔당
▁변기
▁자살을
▁쪽바리가
도도
▁공매
▁흥남
▁그때가
▁뭔소리야
지말구
▁살려야
▁헛발질
▁불쌍해서
비핵
최대
▁오락가락
많음
리네요
▁일들을
것같아요
오나
▁그리워
▁사내
▁건들지
▁반민특
▁선동당
▁사리사욕
추가
▁분신
▁좋겠
▁그니깐
날은
하신분
▁어쩌려고
사건도
생각하고
▁개무시하고
▁새삼스럽게
▁토착왜구들은
플루
▁내야지
이라는건
지도않은
당연히
▁수요가
▁개판인데
▁자격없다
▁농사
▁모기
▁대박나
▁여상규
▁일회용
▁좋아질
소리하네
▁집결
대더니
▁사이에서
▁가려라
기계
▁눈만
정치인들
▁미안하지만
렸음
▁잘하
▁이벤트
▁적당
▁필히
싶어서
▁문재앙이는
▁거에요
▁남들은
▁주장은
▁공뭔
▁구해
▁머지않아
기업들
▁범죄에
▁이상을
▁할거냐
▁너희들도
▁통합당은
▁울화
▁모시는
까페
▁수긍
▁말이되는
하마
▁우빨
▁초록
▁좋은게
▁지나서
▁답답하고
▁의학논문
▁자기나라
▁갱이
▁듯한
▁안찍는다
▁더런
▁스크
▁주적이
▁보여서
▁시끄럽
▁지원하고
▁비가
▁안듣고
▁얘길
대부분
▁가면을
된지
▁장려
것인데
소리만
오라고
이는게
▁구시대
▁사례가
허네
▁경제전쟁
더리
써도
▁기쁘
▁맞는다
▁해마다
가르
▁이씨
▁"),
▁경제지
▁먹이고
▁보따리
▁아파서
▁명분으로
린건
▁검색어
입대
▁이부
쳤네
벌레들
정권과
▁황대표님
배운
▁홀로
사하고
▁증상이
▁공감능력
▁수단으로
▁음주운전은
▁선동은
다지
처형
하랴
▁시국선언
▁득세
엇는데
▁토요일
▁지지율을
대원
▁궁리
▁대역
▁사위
▁간담회
▁고개숙
▁제재를
▁기고만장
▁치료제
문씨
검찰은
▁막말이
국민들을
▁씨부리고
▁확장
받으며
▁부분을
▁생각하며
▁나쁘다고
▁인터넷에서
▁이딴식으로
똑같은
▁같지만
▁방구야
작가
▁흔한
▁처벌하라
▁퍼트리고
▁높여
▁한경
▁이런댓글
받은거
▁비싸고
▁살겠다고
됐지
작은
한거죠
▁가이드
▁맘충들
▁없애면
줄알아라
▁타겟
▁요금제
중국에
▁여행을
▁우한코로나
▁닮은
▁체결
▁씌우고
▁사람새끼
천원
▁똥통
중국이
▁남양
▁실감
^^^
▁개빡
▁관련이
세의
▁겉과
▁뱉어
▁학종
려야지
생각만
▁몇년전
▁잘나가
▁너야말로
▁상황이다
▁없었다면
김대중
▁분양가
▁소리에
▁경각
▁터지는
▁대형마트
▁합법적으로
▁못읽
▁빡빡
▁숨은
는거나
문제인
▁아베나
벼락
▁출장
▁평등한
라는거야
▁도와달라고
▁구청
▁양정철
▁사라지면
▁아가리만
▁리얼미터는
▁소망
소린지
▁뻘갱이
▁벌면
▁엘리
▁닫아라
▁면상에
▁아웃이다
▁조장하고
▁지키려고
의해
▁즐겨
▁차마
스러웠
▁사태는
▁헌재
▁대하는
▁자랑스럽다
▁국가안보
모그
▁냉철
▁부역자
▁건강하게
▁생각하는거
▁유대
내놓고
되기를
지않을까
▁세금폭탄
▁퍼져
▁다이어트
형제
▁찍었
▁마루
▁잔재
▁피폭
▁장본인
제출
중국은
▁예전에는
뜯고
추종
▁두렵다
불을
여부를
▁정상이지
날듯
화도
▁빌딩
▁관대한
▁눈물을
▁동맹이
▁자신도
▁상황에서도
▁지위
햇다고
▁왜사냐
▁문제인가
▁중국한테는
▁수혜
당이다
▁역차별
▁점이
▁기네스
▁밝혀지
▁방식이
▁열받게
▁징하다
▁솔선수범
이상실
▁준비를
대가리가
국도
나이다
되겠다
▁안나오는
모씨
창피
▁남친
▁분간
발전에
잡은
▁배설
▁부가
▁안마
분위기
▁것이며
▁노력이
▁이념이
대지말고
추방
▁그랫
▁생일
▁자신감
▁기사에서
▁판단하고
▁애니
▁게거품
▁싶을까
▁현실적인
▁악덕
▁춘천
▁싱가폴
보겠다고
▁나같아도
월세
은망덕
판으로
▁공정을
▁대갈빡
▁예의를
▁단식투쟁
부네
▁볼턴
아프다
▁아들딸
▁지켜볼
▁비열하고
▁별짓
▁이른
▁표기
▁남북이
▁다니다
▁준다는
▁같으니까
세트
▁쪽박
등학교
▁순국
있는건
▁피디
▁매국노가
▁지껄이지
▁서방
쓰는데
▁삽살개
▁이용해먹
▁들의
▁교사가
▁부추기
▁윤총경
▁한이
▁고만해라
▁정정
▁좋긴
당연
▁타당
▁안보임
▁대책없는
는거에요
지않았
트리고
▁차려야
▁번영
▁가까워
긋네
병은
▁일련
쓴다고
▁됐는지
▁시작이네
▁간통
▁남아도
▁그입
▁세수
▁났네
▁특목
했겠냐
▁깨갱
북한에
놈들이다
▁원래부터
▁센터
▁전제
정당이
▁청문회때
▁훼
▁보람
▁비비
▁다아는
▁싸지른
▁풀어라
십년
▁가겠다
▁한다며
▁야당대표
피스
▁월남
▁딸의
다니지
식민지
▁알잖아
▁의문이
▁일종의
▁그정도는
였을
▁잇다
▁하질
▁객관적
또케
▁거겠지
버리고싶다
들어도
렸으니
▁망하기
▁왔다고
▁발악하는
▁답답합니다
러서
먹여
▁헤드
▁되었다고
▁문쩝쩝이
소문
진들
내용이
▁감사하고
▁앉아있네
▁한마디에
스탄
했기
▁급증
▁선비
▁다니니
▁지인들
▁한거다
▁거지근성
▁것들이다
▁집구석에
▁화력발전소
부처
▁무분별
▁있는거고
뿌리
▁서글
▁그나라
▁정숙이
▁축하드립니다
▁궁리만
▁독재에
▁마을
▁한중
하겠니
▁조회수
▁후보가
▁잘못하고
▁다냐
날뛰
▁복구
▁전까지
▁늘어나는
▁열받아서
대문
터는
▁쌓여
돼지가
▁불리는
▁자들을
▁죽였다
하지말라고
▁물어봐
▁알고는
거랑
▁아니든
▁전라도를
▁파악하고
▁음해
▁활짝
▁현실에서
▁돈받아
▁반대다
▁누구처럼
귀에
기들이
는데로
▁신고를
▁힘들어요
▁국회의원들은
유튜브
▁전에도
오빠
▁정신감정
▁감자
▁살포
▁척살
▁이노무
▁빈곤
▁서울역
▁그날까지
공간
싫으면
렸을
초딩
▁법칙
▁병자
▁생떼
▁학교가
▁아동학대
강사
야된다
▁만큼은
▁수개표
▁정상은
▁일어나면
▁갖춘
▁말들
▁에미
▁파도
됐으면
▁오만한
▁용기에
는것처럼
볼때
안다고
▁그래라
▁비판은
사람한테
▁다스려야
▁모질
싶네요
▁고의로
▁반듯이
▁일관성
▁작정을
학년
라니깐
▁년안에
▁여성들
▁여태껏
▁전국의
▁관행
▁국력
▁박스
▁수주
라지만
▁누르고
▁강성노조
▁되어있다
▁박근혜때는
▁생각안하고
야죠
▁시장은
▁국민이라면
법이다
시민이
▁가정이
▁은근히
▁못나오게
▁자한당아
▁죽어가는데
~~~!
▁아닌걸
▁우리들
▁치지
▁주인은
▁처벌받
용을
한겨
▁놓으면
▁확인도
▁협박하고
▁불황
▁이번정권
▁공산주의를
파도
▁때릴
▁봐봐
▁개노릇
▁말든지
▁우리모두
▁특검으로
갔어
율을
▁제사
▁생각들
▁수십만
랬다
▁쓰여
▁요약
야하는데
▁중국인들은
▁기막
▁오는데
▁필요하지
▁연수
게이츠
모른다
▁바라지
▁쪽팔리
▁김어준이
▁연평해전
백백
▁완료
▁망친다
▁날마다
▁당에서
▁배운게
▁이용수
♥♥♥♥
▁무척
정치가
지도록
▁난도
▁열광
▁여기서도
▁해줘야지
▁브리핑
▁핵미사일
▁군생활
▁수입이
▁엉망으로
▁낸다
▁누리는
▁후손들
늠이
▁빠졌
▁외친
▁편에
주엘라
▁만들수
떨어진다
▁이따구로
▁자랑스럽게
▁꼬라지하고는
날도
▁아저
▁잘된
▁줍시다
▁리그
▁표현은
▁때문이라고
▁깨끗이
▁보고서
▁오늘의
집단들
▁언제든지
▁나라입니다
내네
▁벌인
▁조직이
▁진보좌파
▁화력발전
▁대문
▁뭐를
▁경호원
▁도망가
▁사장님
▁무서운게
▁어떨까요
▁잘사
절하게
▁안재현
해져서
▁분명한
▁해결된다
뭔지
블리
지말아야
▁대박이다
▁되는거고
▁코로나도
주의로
거의
이던데
▁많이도
▁오프
▁진주
▁망해가고
러가
▁없애는
▁우리랑
밝히
타면
▁뒈지
▁애미애
되는거야
~~~~~~~~~
롭지
▁애교
▁일해
선동질
▁안돼요
~~~!!
▁선관위가
▁통보
통합당
▁나눠서
▁똑같은데
▁인사들
론은
▁우대
▁이명
▁쩌네
참으로
▁국적을
▁노예가
▁전기차
▁쓰레기로
▁잘못된거
일려고
백만
▁우회
▁웅동
▁사형제도
▁완화
걸리면
▁이랬다
▁사실관계
▁청문회가
▁곳을
▁않기를
▁월부터
▁모습으로
하도
▁댓가
▁신설
드세요
▁유튜브에서
▁무는
▁세울
자격이
▁자리는
▁조작과
▁한녀들
▁너네들은
▁이성적인
▁뭔짓
되도록
차이가
▁비싸다
▁지금에
▁차이는
▁다망
는것만
지ᄏᄏ
▁이렇게나
일본당
▁있기를
▁여유가
몰아
▁의심을
▁빤쓰
▁하란
▁답답해
▁빨아재
잡배
▁공장을
▁의혹은
▁반쪽
해야지요
혈통
▁좀해라
▁플라스
청래
▁전관
모습이
▁노래를
▁핵실험
▁입시비리
걸음
불량
▁선행
▁왕이
▁죽는게
▁이낙연은
알아서
할꺼다
▁대구를
▁찾아야
행복
▁바쁘고
▁안쓰럽다
귀족
대소
▁듣도
▁요란
▁질책
▁분탕질
▁답입니다
▁한국인을
이었습니다
환영
▁제왕
▁그모양
▁국민이고
▁귀막고
▁무리하게
붕괴
살려
▁말해주
▁자원봉사
▁전기요금
▁전문가들이
▁연휴
▁인질
▁일용
▁거지들
▁중립을
월드
▁죄국
▁임무
▁짓는
▁박근혜정부
비만
감성
▁불공평
▁중반
관념
▁고칠
▁소외
▁오신
▁아닌이상
▁아무리봐도
알려
▁삼아
▁합성
있을때
▁담마진
▁수천억
▁바탕으로
▁두목
저리게
▁많을텐데
▁꿀꿀
▁좋아한다
▁빌어먹을
▁시끼
에가서
▁볼수록
▁본래
▁협상을
▁남혐
경제에
▁계획이
▁못가고
▁합쳐서
▁억울하다
▁통계청장
셔틀
▁규명
▁전방
모아서
▁고구마
▁이놈이
▁자기돈
▁빠르
▁종업
▁청와대도
고있습니다
▁익숙
▁강간범
▁현정권의
▁표출
인들을
▁게임이
▁이자식
▁대선에서
▁일방적인
선진
▁쳐발
냐고요
▁정신나
▁하지않고
▁문통령
▁_{}}
▁심신미약
호의
▁빨갱아
▁아시안
▁인류의
▁새끼를
▁기레기는
서울대
안타깝
▁어마무시
▁베트남으로
▁거길
▁죄악
라하고
민들은
▁높은데
▁못보고
▁이런저런
▁뜻도
▁시의원
▁울부짖
말아먹고
▁제일먼저
▁나선
▁축적
▁무의미
▁총들고
▁위해서라면
오오
▁대머리
▁중국유학생
벌써
▁두루
지역은
▁나서지
▁안주면
▁탓하는
뇬이
▁아집
▁늙다리
▁은혜를
갑질
일이냐
▁생각된다
걸면
▁합심
문제도
▁명문대
각하
▁꾸역
▁내로
▁동창
▁책상
▁중국보다
▁치료를
실세
행세
▁믿겠다
▁세력을
▁불쌍하네
▁아니네요
치만
▁빛을
▁댓글단
▁무관심
▁컨텐츠
▁자유로운
현상
▁구리
▁자신과
▁자유도
▁옳지
▁표절
▁일반인들
▁개만
▁신라젠
▁먹게
▁안변
▁암담
▁차이를
▁휘발유
▁죽었으면
▁충돌
▁까놓고
▁밥줄
어버릴
▁대통령부터
▁댄
먹어서
▁둘이서
회는
▁엉덩
▁낙동강
▁틀닥
놈한테
▁통일부
▁손석희가
▁세치혀
▁사용하고
▁가보면
▁안그럼
▁웃으며
▁한푼도
▁듬
중간
되로
▁뭐죠
갔다온
▁바쁘네
▁여지가
▁아니거든
▁생생
다니깐
▁얘네는
▁이겨내
▁이러나
여부
언론은
▁의원들이
담을
역겨
▁걷고
었나요
▁걱정마
▁살려면
▁거기까지
▁치매걸린
▁한결같이
▁대중이
▁머하는
▁힘있는
▁늙으면
▁않았냐
▁재산세
▁우두머리
▁미쳤어
▁방법도
▁사지도
기분
▁곳도
▁광고를
덕지
보낼
수막
▁관련자
▁지랄한다
▁방송은
▁보수당
▁소녀상
▁이자슥
▁현재는
▁댓글에서
▁동사무소
▁이번정부
▁노선
▁얘기도
▁잘생각
▁공산당의
도우
입만
▁안쓰는
공갈
▁베풀
▁참말로
가정
▁살까
▁온국민
▁논리라면
특별
광화문
▁눈치나
▁오케이
▁일사
▁패고
욕하고
동은
▁사설
▁잠도
▁틀림없다
실은
▁인심
▁나쁘게
▁환경부
▁갈기갈기
▁빙시
▁장구
▁말고도
▁몰랐네
▁봤을때
▁뇌구조가
▁안봤으면
▁기저
▁내자식
▁되도않는
▁두고두고
▁개조
▁구미
국가는
드리는
▁들여서
▁무슨일이
▁뼈속까지
▁돈줄
소기업
▁포르노
▁적정
▁불러야
▁올림
▁짖는
▁노브라
▁강력처벌
▁선임
▁손님이
▁욕밖에
▁저러는거
계산
▁돈의
국가에
활동을
▁선택이
▁색출해서
정보를
▁한것이
▁나오네요
▁따박따박
▁정신병자가
▁거참
▁동상
소리나
▁드시고
지않나요
▁한반도의
▁가는건
▁무정부
▁고성
조용히
▁재검표
▁백색
▁송금
남을
똑똑
정숙
▁개별
▁편견
▁딸내미
▁맞다면
▁지방은
귀한
호도
▁니네들은
수성
자산
▁놀구
차이나
▁타령하는
맞냐
▁공을
▁깨우
▁밥값
▁성평등
▁촛불혁명
갔고
▁인근
좀하자
▁삼성의
▁거나
▁건축
▁방귀
하시기
▁잘했다는
스카
▁상의
▁정적
▁문통의
▁안달이
▁어디있
▁한국당의
교류
▁강지
▁나열
▁국적이
▁가오
▁형식
▁올해는
▁이건가
▁인생의
홍보
▁보았
▁영주권
▁쥐뿔도
▁인터넷으로
▁가튼
▁스카이
것나
보구
▁줬다
▁문재인에
싶으면
이란건
▁조국님
들이는
▁돈내고
▁범죄자는
김경
떠네
▁보는듯
▁의미없다
▁내로남불은
▁악어
시는게
▁분위기가
▁망칠
▁철퇴
▁애비는
▁원하면
▁독재자의
건도
명에
할려는
▁원한
해졌다
▁문세먼지
▁북한보다
싫고
▁김부
▁대치
▁달려들
▁영혼을
▁나라라고
▁가당
▁방안
때문이
알도
청이
▁수면
▁흑백
▁시어머니
▁사네
쓰면서
~???
▁만드는구나
쳤다고
▁구분이
▁주제를
체포
▁게시판
▁세금내고
놨으니
▁걱정은
▁거부하고
▁전국에서
▁들이다
▁혜택이
하면되지
▁비교하는
▁사기꾼이
▁동성
▁싶었는데
뒤집
름을
▁많아야
▁무자비
▁반성이
▁이구나
▁있었을까
▁디져
올려서
▁즐기고
▁이런사람
현대
▁세워야
고려
▁추신
▁무인도
▁소속사
▁나랏일
▁털어도
제거
▁누구라도
업에
▁미안한
▁줄이는
문제에
안해서
▁애한테
▁래
갈라
▁인형
▁근처에
▁명확히
▁나오겠지
느그
▁호응
▁여론은
거리는거
▁남자들도
▁달려드는
▁망한다고
▁검찰들
▁대표적
▁돈벌려고
ᅲᅮ
고소
녀석
▁전교
뿐입니다
▁있겠는가
▁한국당도
▁한반도를
▁이철
▁허울
살게
악플
▁신나
▁인멸
▁텔레
측에서
힘들다
▁결과로
▁하는거임
소용
▁되겠
거같냐
▁밖에는
▁철수해라
일쎄
▁싶은가
▁인원이
▁여론조사는
권한
▁넘들아
▁틀린말은
빼면
▁매출이
개돼지들
▁나왔다고
되지만
하기엔
▁교인들
▁대통령이라
느라고
▁동원해
▁죽창을
▁자신에게
불허
▁사다
치더니
▁의견은
▁저놈들
▁다주택자
▁중딩
▁화끈
▁다이빙
▁저러나
▁멋지십니다
▁하등
참나
층의
▁뒈질
▁임종
아닙니까
▁거짓말과
▁민주당아
금에
마약
▁거저
▁모는
▁.%,
▁알바가
▁여론몰
연수
▁점검
▁집권당
▁추종자
▁한선교
▁평화통일
둥절
박질
이사
▁저리도
▁대대적으로
뭐니
▁뿌리뽑
▁군대에서
▁현정부의
신데
한방
▁김태
▁운용
▁데이트
▁국가전복
▁못믿겠다
▁사람이야
▁입닥치고
▁상주
집회는
▁친구는
▁안되는거야
▁길에
▁내말이
▁뉴질랜드
고물
▁분통
갈수록
▁받아들여
용차
시지요
▁자사고
▁국민들께
▁후쿠시마산
고맙
서류
울게
우리도
▁대선에
때메
박그네
▁여자라서
노력
할껄
▁이불
▁이치
적에
▁살어라
▁압력을
할거라고
어쩔
▁유력
▁희안
으셨습니다
▁열을
▁나라들
▁조작도
▁자유주의
▁거짓말하고
▁방조
▁여초
▁저장
▁몰아가
▁쉴드쳐
▁있었구나
▁전쟁으로
▁팩폭
▁몇명이
▁국회의원으로
▁안아
▁뒤에는
▁명으로
▁화장품
▁진상조사
예배
▁쌍으로
▁조민이
▁이런자가
▁증거로
▁매너
부인이
생겼다
여론조작
▁대기업들
▁조작에
▁큰그림
▁본보기로
▁좌좀들이
공천
▁하셔야
..!!!
변이
▁넣은
▁찍힌
▁뭐냐고
▁이태원
▁명명백백
▁문정부의
▁집요
▁준비해라
죄도
▁쓰자
▁남는다
▁정도를
▁어거지로
수치
▁대표는
▁한건지
▁씨부려라
타이
▁단물
▁정해져
▁무너진다
▁자랑스럽
속엔
▁선생이
▁안가리고
▁제약
보기엔
▁선거도
▁친일을
▁호주머니
▁길은
▁번은
▁재수없게
문슬람
▁남자한테
▁조롱하고
▁손씨
▁아니였
▁생각나는
▁생각말고
▁의병
▁정직한
▁분을
▁양국
▁학기
정신을
▁안보가
▁시끄럽고
통치
▁깔려
▁기준은
▁문제삼
매체
확보
▁외무
▁당신과
▁줄어들고
배신
특징
▁코로
▁건강이
▁매각
▁연상
▁팔지
▁국가도
고마
!!~
▁고종
▁잡것들
▁비리의
▁회사도
하는걸로
▁없을거다
답이
털이
▁군대안
▁북치고
▁안되어
▁조지고
▁필요할
▁이명박은
▁치르
▁하늘의
▁하소연
▁어플
그나마
▁있겠죠
▁욕하는거
▁짱깨들이
▁여론조사를
▁일본인들은
열병
울까
▁칼춤
담이
▁거쳐
수사가
짓하고
▁했겠냐
봤지
▁인듯
들과는
▁유재수
▁부모한테
하래
자들한테
지금까지
천막
▁김명
▁수단과
하십시오
▁말이라도
▁부합
▁세키
▁원하는게
▁내각
▁드글
▁카악
▁포르
가치가
▁살기가
▁선택은
▁또라이가
▁필요하냐
받냐
~~.
▁사골
세끼들
▁안해요
▁임금을
▁언론조작
▁먹힐
▁산책
▁기부를
▁몸부림
▁가증스러운
▁쟤가
▁나올지
▁다녀야
▁한국어
▁나라말아먹
▁거니
▁경주
▁적고
▁정도다
▁일본한테는
▁종교인
간게
▁방통
▁남한은
▁살리기
▁이영훈
▁이꼬라지
▁해결하고
▁표적
▁주지말고
▁말아주세요
에서의
▁남았네
▁구조조정
▁전국민을
될때
▁거시
▁박고
▁악착
▁비양심
▁통하지
▁자진해서
▁압수수색을
▁미역
▁무슨일
▁안중에
유라
▁손발
▁거리에
▁설명좀
▁속마음
▁낀
뇌물
확실
▁갈취
▁피눈
▁하셨습니다
법원
▁신나서
엄한
▁불려
▁피아
입시다
▁되돌려
▁만원을
▁명확한
▁안사고
나오는데
법무장관
▁편법으로
▁명성
▁보전
온갖
선진국
이해찬
▁원칙을
▁죽이려
▁조국임명
▁?????
▁불법은
▁나오세요
▁빌게이츠
▁뺏지
▁의리
▁도움도
▁모르는척
▁맹신
▁종결
▁맞는말이
▁배은망덕
▁부자들이
▁풀어주고
졌다는
▁그러한
▁정의로
살면서
▁문통과
▁비교해
불성
▁통계를
▁이곳
▁내면서
▁누구인가
▁생리
▁스케
▁슨상
▁읽을
▁음식점
▁중국만
교과
▁내쫓
▁노약
다니면
;;;;;
고리
▁잊을
▁탑승
해줄게
▁거리로
▁힘듭니다
▁응원해
▁확인해
민심
스피
▁안될까
▁지구가
▁찌르는
▁머리에서
▁문죄인의
▁떠들지
▁배터리
▁가두
같은건
▁국민이냐
▁나중에는
▁이럴려고
▁창피한줄
공원
땡이
랄을
지대
▁빠지는
▁상상을
▁어떡해
▁만만하게
분한
신뢰
▁차대전
전기
▁매몰
▁거예요
▁판단할
남한
이라네
▁반박은
▁대학교수
▁매일매일
밀히
▁나라지
▁붙여서
▁지옥에
▁알릴레오
상실
차관
▁들려
▁대서
▁드나
▁이권
짓하는
▁거리를
▁살아왔
▁애플이
▁이분이
▁쥐어짜
고문
순방
▁호갱
▁성인지
▁했네요
▁관련해서
조합
▁되든
▁조용하네
▁그제
▁멘트
▁표준
▁이것만
▁공무원도
▁공신
▁횡단
▁쓴소리
▁세계일보
대한민국이
맹이
▁꺼지라
▁기다린다
▁불안하다
▁뼈저리게
금융
이는거
▁노력하고
▁만들었는데
파를
▁왕조
세대가
▁부글부글
▁글도
▁천인공노
▁낮다
▁얘긴
▁중이
▁짜져
▁뭔가를
▁본다고
▁어렵지
▁자녀가
▁총장은
▁사는거지
▁중요한데
▁꼴찌
▁여겨
▁국가다
▁주식시장
이것도
▁높다고
▁조사받
거가
▁젠더
▁찾기
엄마가
▁쌍팔년도
압박
▁청원은
▁했다는데
?,
▁들키
었을때
▁씌우는
▁가짜뉴스가
▁우연
사회의
▁조센징들
▁모양이다
▁일하는데
▁매니
하여간
▁맞대응
▁아이도
▁오랑캐
▁예전처럼
▁해체하라
산의
어벙
하나가
▁들어오고
에효
▁대께
▁여명
▁니놈이
▁콜라보
했으니까
건다
단위
▁편리
▁처먹은
▁저런것도
▁정치인을
▁짜빠
▁내려가
▁아파트가
수와
▁일진
수사는
▁막아서
▁대기업은
▁자기네들
군에
▁우려가
▁규칙
반도체
인지를
▁발전소
▁뻔뻔하네
정책에
▁비리에
▁임명을
▁불매운동이
▁지장
▁기다릴
▁돌아온
▁배아프
▁대단하십니다
▁갈까
▁결탁
▁안살
만나면
▁공개를
▁이제와
▁마지막에
▁잡으려고
▁서열
▁시사
▁문제죠
▁뿐이야
▁일으켰
한걸로
▁늘려서
▁사업자
▁안잡아
▁당연하고
▁말했는데
▁조국으로
걸요
▁오염된
▁누구보고
▁세상인데
▁조롱하는
개학
넣어
바엔
▁붙은
고있나
어가며
▁사촌
▁넘쳐나는
▁한영외고
기강
▁같은편
▁삼성에
▁지었으면
▁가짜유공자
▁애새끼
국장
▁처벌은
▁거짓말하는
▁기운
▁학점
▁경찰청
▁관심없
▁안돼는
▁없었다고
▁바이러스는
▁보이게
▁전문가들
▁미세먼지도
중을
▁이력
▁환원
▁최초로
으실
..."
▁신분증
▁잃었다
입장에선
▁배달비
▁사시는
▁회장이
하로
▁유트
좋으면
▁그렇죠
▁빤스목사
▁저런사람이
▁(""
▁보호를
▁이승만이
▁친일파로
▁~~~~~
▁강효
▁누명
먹는다
▁의도를
합니
▁말잘
지키는
▁성숙한
▁한번은
▁보고있다
▁세월호도
래야
키즈
▁부관
▁겁나서
▁욕쳐먹
▁기업인들
▁가속
▁도라
▁유지하고
▁주최
▁갔다고
▁눈치보느라
▁베플
▁화성
철이
희생
▁개에
▁챙겼
▁북괴가
▁고소고발
매국당
▁불출마
▁왜저러
▁지역에서
▁해야겠다
터가
▁외환
▁초상
▁탈북민
▁개돼지는
▁법치국가
민정
▁갔다온
▁근거는
▁내는게
▁왈가왈
▁친일로
▁그때가서
▁느낌이다
▁좆선일보
▁말았어야지
꺼임
피가
▁오징
▁알만한
▁저지를
▁털어라
▁기독교가
감과
우를
중도
▁일본이다
▁신종코로나
▁찬성합니다
원순
자존
▁김남
▁이여
▁가지는
▁사과할
▁휘두르
▁교회에서
▁맹목적으로
▁남자의
▁할라고
▁일벌
▁충성을
하지말라
▁이용하지
낼수
▁쇼만
▁숙명
▁사랑하고
▁떠날
▁리얼돌
▁아니예요
▁밤낮
안한다고
▁국회의장
▁김밥
마음이
▁본질이
▁선수들
▁이중잣대
주시고
▁못한다는
▁돼야
▁손주
▁알긴
▁빠지게
_-
몰랐
▁임용
▁먹었다
▁안하는거
▁인공지능
▁입학취소
하오
▁왔네
▁키트
적당히
하시요
▁이네요
▁초반에
▁언론들은
▁고등학생이
▁다뤄
▁망하길
▁추천합니다
렬히
▁건드리지
▁찬양하고
미경
챙기고
▁바뀌어야
▁왠만하면
▁고모
▁받자
▁붙이는
▁삶에
▁색휘
졌으니
주셔서
▁논문에
▁무장해제
▁어디에서
▁홍준표는
▁대통령인데
이라니까
▁보여준다
▁포토라인
▁땅콩
▁호화
사태가
직원들
▁놀라운
들한테도
구에서
▁나쁘고
▁남자랑
▁망국당
▁부터가
▁국가보안법
▁이모양이지
▁뭐했
될까봐
▁늘리는
정국
▁바란
말하면
▁도구로
▁얘기해
▁갈때까지
▁문재앙이랑
변화
▁자랐
애국당
▁의사는
▁절때
▁표만
▁세력은
▁인사권
▁좋았다
▁핵대중
맞음
▁깍아
된거지
▁자격증
두번
▁돌릴
▁정밀
▁그딴거
▁성과가
국민들의
▁동남아로
▁현금으로
▁그랜
▁만원도
▁박찬주
▁일본땅
▁두드러기
./
▁믿어야
▁발사체
▁취급을
▁만들겠다
호를
입이
그머니
판국에
하나보네
했다는게
▁묻혀
▁살래
▁당했다고
▁예산을
▁신성
▁교묘히
▁찾아보고
남들
믿는
▁사육
▁상도
김없이
▁승승
▁이시키
▁완벽하게
▁외교부장관
꾸역
졸업
▁기절
▁뭔들
▁승부
▁안되네요
▁주나
▁허덕
▁달라질
▁좌파에
▁노총
▁노조들
혼란
레이크
▁나머진
▁씨레기
▁줄여서
▁최저임금을
▁잠이
▁친노
▁행보
▁빨간색
▁이놈도
▁이사람이
▁과태
▁삼척
이번에
▁않을거
하셨네요
▁국민통합
▁저의
▁학창
사태를
주는건
이러스로
▁개천에서
▁이기적이고
▁동경
▁열사
볼려고
▁살았다
▁지상파
▁일등공신
기게
전과
▁정신못차리고
타운
▁인거
▁남미
떠나서
▁꼰대들
▁읽어라
▁여자지만
터지
▁엮어서
방탄
줬냐
할려
▁중인
▁한동안
▁가능하냐
▁의원들은
멍청한
▁뭐하자
▁시작은
▁지원은
▁아니자나
▁드러났
▁위장전
▁한심한것들
▁드러날
▁왜곡된
것도아니고
중임
▁근원
▁근친
▁외식
▁욕지
짓이다
▁배우는
해주시길
▁지지자가
▁한심합니다
▁자급
▁행위가
▁못하겠지
▁않기
하길래
▁안되지만
▁흔들리지
▁이와중에도
▁막기
▁동네북
▁본격적으로
예정
▁('
▁때를
▁재래
▁고려연
▁막말은
▁사형집행
▁투자해서
▁지지한다는
▁만달러
▁소신있는
▁인사청문회
좋네
▁크지
▁클래
▁비서관
▁상대적
하고있으니
고위
진아
▁틀려
▁그럴수
▁변명이
▁판사도
▁뒤에서는
▁솔찍
▁영수
▁한둘
가들
사전
제외
▁왔냐
▁월등
▁이라크
게는
생들이
▁법앞에
▁엘지는
기각
▁글케
▁정해
터진다
▁몰아서
▁부정한
▁이년아
▁있거나
▁행태는
▁그때부터
▁안따
▁디스플레이
둔다
▁대구시
▁이해할수
▁부끄럽습니다
터에
▁난리났
▁생활을
▁이기면
당원
질이네
▁민낯이
▁잘모르
▁대통령께서
▁정권잡으면
▁자랑스럽습니다
▁작태
하시는지
...???
내린
열어
▁낙연
▁매체
▁빼곤
▁수석대변
▁빨랑
모두가
가장
찐따
착오
▁위치에
▁알고있는
▁귀태
▁들락
▁입양
▁예배를
▁자유망국당
▁때만
혔다
▁새빨간
▁테블릿
▁하기는
▁희생자
▁않았을까
▁기사다
▁시키야
▁싶겠지
▁굽신굽신
▁맞는말인데
당함
▁동서
▁믿나
▁웃어
▁판명
▁평등을
아버리고
▁어설프게
▁이제그만
부름
▁똥싼
▁손도
▁법인세
▁문재인정부는
배송
▁못고
▁북중
▁몰랐던
▁싸우면
라는거지
▁부동산을
같은소리하네
▁아하
차이즈
치워라
▁쇼쇼쇼
▁잘생긴
▁모르는구나
▁네놈
▁맡길
▁촛
▁모양새
▁니딸
▁식품
▁쪼잔
▁맞네요
▁민생을
▁진즉에
▁절도
▁의미없는
▁잘못했네
▁~!
▁고노
▁총수
▁팔자
웠는데
▁김치녀
▁학교를
들어가는
▁우롱하는
갈까
▁질서
경상도
시켜도
▁좋았지
▁크루즈
▁뒤진
▁에잇
만하게
▁많아도
▁못차리는
명씩
▁호기
모습을
저건
▁생쇼
▁니말대로
▁봤습니다
▁쎄게
▁뉴스만
▁입다물
▁꼼꼼
▁양극화
▁투자한
▁노인들이
▁교양
▁왠만한
하겠는데
▁같았으면
▁무임승차
지리
끼네
데는
▁안겨
돌리고
▁전세기
▁준비가
▁젊고
▁벗어난
▁보복을
▁불매는
▁집에만
▁인간들의
▁행패
▁않았음
▁지뢰
▁타임
▁썩어서
▁김제동이
▁잔대가리
▁좌파놈들
▁광장
▁신났
▁위협을
▁의혹에
▁시원한
▁조작한
담당
마에
▁농협
▁바리
▁병진
▁애완견
사건으로
▁경제성장률
놔도
▁배댓
▁비선
▁지키자
▁짱개가
퇴출
인들도
▁간사한
▁대통령탓
▁말하지만
▁못하겠네
▁원칙대로
▁지켜야지
동영
▁상해
▁스레기
▁아무렇지
무효
보내는
▁소름이
▁실력도
▁종교에
▁퍼포먼스
▁알간
▁접고
만큼만
이로다
▁신적폐
▁책임자
하소
▁마자
▁앉히
▁앞을
▁무슨상관
▁보여주자
둬야
쉬고
▁이장
▁종일
행동을
▁혼란을
▁가능하지
▁되죠
▁핵이
▁차태현
▁찬성이
시코
▁박근헤
▁엄마도
▁의문이다
▁개고
▁않다는
▁저들을
▁원하는데
▁축하한다
▁놀랄
▁불난
▁싼똥
너같은
▁설명이
▁염병을
▁찍어야
▁상관이냐
▁해서라도
사례
▁줄이야
▁흉악범
▁본데
▁대만은
▁서울이
▁지켜보자
동지
트롯
▁축복
▁노친네
▁정체를
▁면마스크
▁좋아지고
▁아플
안으로
▁년도에
▁비자금
▁다행이지
▁조사받고
▁정신차려야
절에
하튼
▁주유
▁다른지
▁모이면
▁하는듯
▁미친정부
늙은
영원
▁편승
▁현실과
▁남한이
▁말해야
되는거다
▁생각밖에
▁여군으로
▁이정부가
▁조사해봐야
▁껀
거예요
▁별의별
▁실질적
▁한명이라도
▁극성
▁대지진
▁심판이
▁학위
▁존재감
사람인데
▁피해보상
대한민국을
거린
▁돈독
교도소
▁쓰지마
▁탄핵감
▁시켜야지
베이
▁미북
▁박씨
▁박일
▁질알
▁버티면
▁사망한
▁사는건
▁이사장
▁하듯이
라는건지
▁안되겠니
▁그녀
▁내냐
▁돈안
▁안내는
▁여기다
▁이익에
▁적폐의
▁공부하는
▁많았다
▁문죄앙이
▁언론탄압
((
▁조직을
▁박살내고
▁받아먹고
낀다
▁격노
▁극일
좋아요
줄테니
▁알았나
▁문주
▁공급이
어버리는
▁올라가면
▁주장하고
▁바칠
말인가
생겨서
▁니자식
▁하느냐
▁문재인이다
총독
.~~
▁희망사항
▁레벨
▁환상
안하나
웃기
▁반가
으시면
▁네이버댓글
쓰래기
▁이기적
▁말세
▁완수
이래도
통일이
▁불가피
▁실명제
▁어벙이
▁지구에서
달이
▁도는
드는게
들어간
▁시리즈
▁인천공항
소독
▁가야할
▁아름답
▁두려워서
▁했는데도
▁올바르게
▁타령이냐
▁길러
▁보수로
▁보시길
▁잘했어요
▁혼내
▁정의고
▁욕하는데
▁지켜주세요
소개
직접
▁지탄
▁추해
▁히히
▁마땅한
▁일방적
▁기사보고
▁비상식적인
버드
열에
▁드론
▁탕탕
▁더민당
▁발전에
▁봐야한다
▁고통스럽게
간담회
▁돌아가서
▁근본적으로
▁혈맹
하겠군
▁각자의
▁그만한
▁만들려
▁반일은
았지만
좀하고
▁꼴이라니
▁서민들만
▁위한다면
전인
▁없군
▁거북선
▁사려고
▁원폭
▁광주가
▁특히나
시킬려고
▁가는거지
▁바로선다
▁세계경제
▁풀발
이해가
▁백두산
▁조국딸은
시피
▁공장이
▁유공자로
▁퇴사
▁병이다
▁안보이고
▁장외투쟁
필귀
대학교
▁많을까
▁싶어하는
▁엘리베이터
몰수
바야
▁들딱
▁만원은
▁국방부장관
추진
▁독자
지겹다
▁대댓글
▁어이가없다
▁꿈깨
▁당연한거고
사회를
▁경제제재
▁이년은
돼야
뭐라
보수는
▁그시절
▁대가를
▁비교도
▁정당을
▁편협한
▁안가는게
이슈
▁갖게
기에만
몰라도
▁누굴까
▁못잡아
▁소식이
▁지령받고
▁짜증나네
했으나
▁손놓고
▁짓인지
▁곡소리
▁돌아댕
▁이렇다
받으려고
▁공중분해
▁싫어하고
하질
▁뒤쳐
▁본사
▁용역
▁한진
▁거의다
▁보시고
▁뒤집어씌
▁표창장이
▁동작
▁신은
▁입막
▁따라잡
▁미국산
▁여론에
▁정신은
▁정치색
복귀
▁다소
입에서
▁표창장을
전라
▁이회
▁독도가
▁산다는
투입
하를
▁김수
▁우길
상태로
▁아기가
▁정치권에
채우
▁못본
▁전업
▁죄파
주라고
▁이구만
▁잡는다
▁상대방이
둘다
홍콩
▁김상
▁내어
▁해왔
▁병원비
▁하지는
▁니돈으로
▁아직까지도
경찰서
▁이런짓
▁찾아라
▁특별히
▁많았는데
▁위의
▁경찰과
▁인민들
▁비슷하네
▁일어나야
시구요
어쩌고
▁맞아도
▁사람아
▁지오영
▁고혈
▁기지
▁색기들
▁성과를
▁재수사
▁계정
▁점을
님들아
들어야
보구나
▁성격이
▁부동산이
▁어이상실
▁어물
▁이번이
▁정체성
▁정유라가
알이
불쌍한
자리는
제도가
▁있는지도
▁길어
▁해괴
▁까지는
▁소신껏
▁쓰지도
니즘
가만히
▁찌질하게
나봐요
▁안해본
▁통신사
정신차려라
▁가요
▁억울해
▁가을
▁당명
▁국토부
▁뒤지고
▁뭉쳐야
▁장재원
▁좌파정부
▁입주
▁자다가
▁나라살림
▁방사능에
▁우한으로
보건
▁연봉이
▁의사를
▁지나간
남탓
▁찔끔
▁물귀신
▁키워서
▁혹세무
▁조사하자
포가
▁조동
▁편지
았어요
▁걱정을
▁소득세
▁대다나다
▁신속하게
▁알바들이
했단
▁불산
▁안풀
▁과정을
▁감지
으려나
하여튼
▁얘기다
▁국민들이여
▁심판합시다
▁넘사
일지도
하드만
▁놀다가
하고싶은
▁넘긴
▁저넘
▁꺼꾸로
▁있었어
▁사건이다
▁좋을텐데
었군
죽창
▁해쳐
▁똥싸고
▁삼국
거기에
클라스
▁북한식
▁성향이
▁우기면
▁저쩌구
필요없다
▁끌어내리고
감시
▁이로
▁고쳐야
▁노래방
▁명분도
▁욕처먹
▁사고나면
임은
치킨
▁네네
▁공부만
▁비용을
▁드러내는
▁온라인으로
▁상을
명복을
받는다고
▁거부하는
▁놀려
▁튀어
▁본인들의
맞을
▁대주
▁쓸때
▁이데
는지를
▁정당은
▁회초
▁무덤을
▁밝히지
▁보여야
▁안정화
▁입으면
비싼
유니
존나
▁어후
▁헛소리만
▁서훈
▁잘될
▁보시면
▁애당초
▁만들라고
▁언론이냐
▁싫어하지만
▁운운하면서
추는
▁여기고
▁편하고
▁베네주엘라
~"
오름
▁불상
▁국민위에
▁노동자들
▁물고늘어
▁잘나가는
▁태극기를
박혀
일부
▁꼴이다
▁생중계
▁불필요한
김일
▁국감
구멍에
할께요
▁모르는가
▁일본에는
꺼져
저는
▁폐원
되는걸
▁릴레이
▁니기미
▁지시를
같습니다
▁어용언론
누나
동무
▁예기
▁받으니
▁않겠나
▁조져야
이민
▁뿌리가
▁위선의
▁현실입니다
래가
쏘고
▁성을
▁자립
▁자민
▁눈뜨고
▁건드리면
▁조국수사
▁아무렇지도
개그
세용
▁게으
▁굴뚝
▁고통은
▁일본어
대한민국은
▁국기
▁처다
하는겨
▁사태의
▁좋겠는데
▁쳐넣어라
마로
부끄러운
▁볼까
▁해체해라
▁한국에서는
마크
짜장
▁상용
▁이늠
▁되었으니
▁분노하고
▁쪽이
▁패권
보디아
▁못쓰게
▁샀는데
▁않는한
▁지령을
▁폴더블
▁못잡아먹
되던
▁윗선
▁현시
▁외교로
▁이정권이
▁쯔
싱턴
▁같나
▁고수
▁집안은
공립
▁님의
줄알았다
현진
▁민생은
▁없겠다
▁기사거리
지않습니다
아닐까
▁나란
▁미용
▁배에
▁정성
내는거
▁상식과
보고싶다
▁멀다하고
▁사우
▁장인
거린다
▁프로도
▁공군
▁노리
▁조질
▁정청래
을때까지
▁년의
여당이
▁적폐들
▁좌우를
▁투기를
▁득실득실
▁후안무치한
자유민주주의
▁사랑해
▁성노예
▁왈가왈부
▁했을텐데
▁피빨
▁에너
▁아프다고
▁링
▁파트
▁다한다
▁선심성
▁깜깜
▁바랬
품으로
▁레이더
▁자격미달
마땅
▁사후
▁말거나
▁수입해서
▁깨문
▁불쏘
▁잘나
겟지만
▁파시즘
단어
▁와야
▁터져서
하되
▁골통
잘해라
▁박탈감
▁승무원
▁지자식
▁대통령보다
진건
새기야
▁나라네
▁살아요
▁알기를
▁현상이
▁모르쇠로
▁나음
▁어부지
고싶으면
▁살았는데
▁잘못했는지
쓰는게
하겠네요
믄서
▁머야
▁쉽다
할거라
▁결과물
단말인가
▁시작하자
▁최고존엄
미엄
▁스피
▁지났
▁개짓거리
▁지지하면
▁꾸미
▁만지
고싶네
다녀라
▁배우자
▁전라도만
끼를
▁감옥갈
것같네요
▁김원봉이
갈아
선비
▁식상
받아도
박아
▁쇼에
▁임은
가까이
▁착하고
▁탓이다
▁할수록
했으면서
▁슬그머니
치는건
▁깨져서
▁나올수
▁이넘은
될때까지
이었다고
▁넘어가고
놨더니
▁상식도
▁올리냐
감싸
▁더민
▁먹는게
▁부관참
▁미세먼지를
▁조달
▁신뢰도
▁머저리들
▁벌거
▁북은
선생님
짜리가
의학
▁쏟아부
▁쟤들이
▁저러냐
▁운전자가
북도
웃고
▁목욕
보다더
정경심
한거면
▁이민을
▁절대적으로
산지
해야될
▁만만치
▁증여세
▁빨아먹는
키워
▁망조가
▁북한군이
▁아니냐고
.,.
▁눈은
▁말의
▁야간
▁할땐
▁사진에
▁조국이를
▁우는
▁휴게
▁없다는데
▁문재인정부가
탄다
▁정치병
▁콘서트
▁미국하고
▁유니클로가
▁떨어짐
▁수준임
▁자식아
▁정리하고
▁그중에
▁사진도
▁안그런
▁달려들어
▁무능해서
하지마시고
▁석렬
▁못했던
▁싫다는
는줄
▁분발
▁작용
▁벗어나지
▁타면
▁드라이
▁주식을
▁국회의원이라고
▁적발
▁오르지
▁골든타임
▁이미지를
▁법무부장관을
▁변신
▁천지다
▁택시가
▁화염병
▁공수처로
▁몰랐는데
▁원숭이는
달래
호중
▁안쓰면
었어야지
▁시뻘
이낙연
▁발등에
▁하는겨
▁개혁해라
▁펀
잔재
정작
?~~
▁극에
▁쓰라
▁지역을
개의
호텔
독재자
자신이
▁먹으려고
▁피해망상
▁과격
▁담합
▁지연
뽑아서
▁법안을
▁여적죄
▁각오하고
▁찬성한다
▁거스
▁잣대
▁소프트
▁악마를
▁대단하네요
세게
▁엎드려
▁싶지만
▁의미로
▁그런것도
▁범죄자들이
코드
▁스웨
생각도
▁싸다고
▁양현석
▁경찰들이
▁그런거다
▁드러났다
▁돈많
▁불허
국이래
▁난리다
▁서울로
수준이네
데려
된것
▁맛집
▁쏘아
▁반역자
▁인정할건
간부
영토
▁노재팬
▁비참한
▁정경두
해야되는거
녀ᄂ
령을
무라
미도
중지
할라
▁의아
▁훈계
받는거
▁메뉴얼
▁봐주는
하고싶다
▁않을텐데
▁못되
▁시내
▁괴물이
▁극혐이다
국과
▁사직
국인데
▁버리자
▁양심있는
야동
목적
▁닭이
▁통영
▁계시는
▁맞아서
▁지방에
▁생각했다
▁끝없이
▁의무는
▁그러므로
대한민국의
리얼
거리에
▁모두의
▁싸우지
▁방해하는
▁술쳐먹고
▁이시기에
▁두꺼운
▁위기가
▁내보내고
게다
종족
▁필요하고
!!!!!!!!!!!!
줄알지
▁이자는
▁조치가
▁아무거나
▁주민들이
▁대략
▁똥개가
▁바치는
▁여야를
▁택시는
▁신천지만
▁없나보다
▁소형
▁심심하면
▁불친
똑같이
▁하려나
어가면서
▁유치원생
까면
▁성실
▁이기야
막이
▁개념도
▁구체적인
▁남녀갈등
▁법무부장관으로
▁몰아넣
▁얘기네
▁여행객
▁이상한데
▁매국노들이
친게
▁노령
못하면서
▁대단하다고
미치
▁제야
▁기대도
▁모였네
▁수치가
▁느그들은
글로
▁애먼
웃긴
▁처묵
▁모르는거
▁무섭습니다
▁설정
▁들었나
▁바라냐
차서
▁기습
▁도울
▁손톱
▁호국
▁홍석
▁무상으로
반복
값으로
▁이끌고
▁구할
▁현주소
▁나불거리
▁다름없다
공유
▁예비군
▁총맞아
도안되는
▁ᄇᄉ같은
전세계
▁가장큰
▁후손이
▁이러는거
▁정의롭게
어빠진
▁무능을
▁좋았는데
▁자랑스러워
령관
해먹
보시길
진정한
▁결혼한
▁엄연한
▁군사정권
션을
즈음
▁변화가
▁적자가
▁문어벙이
▁부모들은
▁지구상에
▁일뽕
문화가
조국을
▁하고싶은거
나빠
미개
▁밝은
▁중의
못하지
▁똥파리
▁얘들이
▁꾸역꾸역
▁의사들이
▁친일프레임
▁이명박근혜가
뿐이고
진다는
▁생화학
▁요구를
▁나경원을
계신
시끄
▁명만
▁인양
▁잔혹
나는거
▁걸어서
▁세워라
▁국민과의
▁대통령되면
▁남자로
▁쏟아져
▁투표한
▁환경이
아니가
▁기업인
▁많은게
▁없이는
▁벌어지고
▁만들어주세요
스의
▁송가
기업은
꺼져라
이랑은
▁가능함
▁죽어서도
▁스위
▁침공
답니까
만나서
치다가
▁경제부
▁벌어질
▁줬는데
▁선관위는
트에
▁시끄럽다
▁원이
▁우리나란
▁개명
반대로
조사가
▁원전은
▁처자식
▁뭐하는지
▁오토바이
▁법무부장관에
~,
▁그기
▁로그
▁화병
▁사소한
▁정치한다고
감증
방어
▁(%
안하지
▁하기도
▁비트코인
어야하는데
▁모르겠으나
▁잃어
▁찌르
자영업
▁줬으면
▁싸지르고
▁일반인은
웃겨
▁겪고
결과를
본적이
▁처벌도
▁드러나고
▁뭐하는거냐
기울
지키고
▁장군님
▁유시민씨
▁살짜리
▁하다고
▁가해자는
▁되어가는
▁대일본
자한당은
▁중요하고
논란
수행
한국이
▁더많이
▁자체도
▁입으로는
애도
▁냉장
▁독려
▁양아
▁극소수
▁않았다고
▁책임져야지
존경
▁부제
▁우버
▁주주
▁가방에
▁죽으라고
▁/.
▁괜찬
▁고통이
▁박유천
▁일으킬
▁년놈들이
▁전염병이
▁닮아가
▁밝혀서
또는
▁독제
▁묻는
▁안쓸
▁연극
▁중임
선으로
윤리
▁문신
▁군사력
▁신속히
었나보네
▁아니더냐
▁주라
▁의지를
▁좃선아
▁부의
▁오전
▁준거
▁없다니
▁큰일이
▁물가상승
길은
년의
▁체계
▁태생
효과가
▁겉으로
▁관리가
▁지독한
▁지원이
▁지네들이
▁목이
▁보던
▁되려고
▁알아듣
▁고마워요
▁북한과의
▁겨냥
▁살피
▁코가
▁너에게
▁쓰레기들을
▁동거
▁중복
느니라
▁깨져
▁재갈
초부터
▁바쁜데
▁이해도
▁타고난
▁오일
▁완존
▁말꼬리
마져
▁독한
▁서구
였어요
▁대보험
▁안전이
▁개누리당
시키세요
▁살아가지고
볼일
조성
켜서
▁고아
▁넘고
비리는
확진자
적화
건으로
▁공론화
책에
▁안난다
▁사람답게
▁거기는
▁살거라
료는
말해
▁노이즈
▁콩가루
▁조선족은
라야
▁오마
▁사기단
▁눈치보며
▁베트남이
▁속으로는
▁적나라하게
▁살에
▁양의
▁잉여
▁--,
▁인식을
▁중국인을
▁진정성을
망언
▁본성
미국은
침이
투어
▁개쪽
▁흔히
내리는
▁안믿어
▁될겁니다
▁배경
▁박살내
▁저런짓
▁첨본다
▁휘둘리지
폰은
▁성명
▁이럼
머리는
방법이
▁년이다
▁현수막
▁말하는건
▁이민가고
▁정상인가
배웠
▁물질
▁형량이
▁마누라는
▁일어난다
▁쌍도
▁중재자
▁부산의전
▁하고있으니
선물
주며
▁간이
▁미일
▁과정이
▁그곳에
▁따위로
▁할말을
▁띄우
▁아자
▁침을
▁하튼
▁될수있
▁한국서
하다보니
향이
기들아
▁더럽네
▁못할거
▁타지역
▁한국와서
▁사라져야할
▁대꾸
▁속출
▁여우
▁사퇴가
▁아님을
▁한테도
받았다
▁수치다
할때부터
▁악착같이
됐냐
좌왕
생활을
▁아메바
▁욕해라
▁노네
▁좌절
그들이
▁아지매
▁심각하네
▁우리공화당
▁자한당으로
▁새우
▁아싸
▁우환
▁남편도
▁주는건
▁구역질나는
폭락
▁엄지
▁연연
▁걸린다
▁나라임
▁남아있는
인성
키나
▁안경
정부도
탈출은
▁노력은
▁용기를
▁친중파
▁푸하하하
분쟁
▁반항
▁운이
색기들
▁영화가
▁치민다
▁뒷전이고
▁테러리스트
하거
▁참된
할꺼면
▁믿을게
▁서로가
▁무서운줄
▁세뇌당한
▁신중하게
▁자국민들
마담
▁분실
▁숙박
▁약도
▁다음주
▁다이소
▁빌미를
▁취소하고
▁구속시키고
▁감정으로
▁지들한테
▁된것
▁광장에
▁주어야
▁하찮은
어봐라
▁나라빚
▁똥줄타
▁불합리
▁제작진
▁수립
문하고
▁어려서
이아니라
▁기사네요
용은
▁많나
인이다
▁받으러
▁의외로
▁윤석열총장
▁직업을
▁관심없는
▁싫어하는데
▁하는겁니다
보길
▁돌로
보는거
▁먹는데
▁벽에
▁빠짐
▁가지말고
▁바가
▁잡으니
▁협박을
하시는데
재수
▁컷
▁민낮
사건에
▁아파트는
미필
봤음
▁도구
▁체면
▁고구려
▁돌머리
▁말아먹을
▁부작용이
▁티비조선
삽한
손해
▁정치쇼
▁나타나는
▁물러나야
▁카피
싶은데
직원이
▁눈하나
고싶어서
색희
성별
격으로
▁하십니다
▁실상
그러고
▁용기가
▁쓰는구나
▁필요한가
인겨
▁어버이
▁힘들겠다
▁걸면
▁쩝쩝쩝
▁구린내가
▁부모에게
▁안맞으면
▁화법
▁태어날
▁블루
▁다루는
커피
▁트윗
▁모르겠습니다
▁되었지
때문이지
반에
파일
▁안부
▁동생이
▁베이징
▁위함
▁발정난
▁벌려고
▁안드는
▁분에
▁겁난다
▁잊었나
▁진심이
▁광신도들
▁지도자를
▁우리국민이
▁이언주의원
▁우리나라보다
버그
틀어
▁업소
▁짜르
▁방향을
▁설치네
▁일만에
하고있고
▁때려잡자
수장
원장
▁개편
이런거
▁경제살
▁안가도
▁초등생
▁호구가
▁알고보면
▁정의롭지
▁본색
▁관련자들
▁올라간다
▁되라
들으면
▁입장은
▁기분나쁘
▁윤미향은
▁여론조사가
만년
▁걔네
수준은
▁생활이
▁진실로
▁보여줘라
▁않았습니다
▁다가오
▁뒤에선
▁함부러
▁길에서
▁한거고
▁아줌마는
▁좌빨갱이
▁오보
▁근본이
▁몇번을
돌아가
▁새퀴들
▁추다르크
▁논문이
할수있게
▁러시아는
▁미국서
▁하겠어
▁베트남에서
▁굶주
▁금전
▁장관도
▁저렇게까지
출연
▁벗어날
▁가족들도
▁보인다고
▁지칭
원하는
▁살수가
▁어려움이
각을
료로
▁동학
▁따블
▁용지
아닌지
▁밥먹듯
▁인해서
▁각오해라
리려
▁감탄
▁담아
▁청기와
는거봐라
▁변호사는
▁예고
▁한류
▁후속
이것이
▁경험이
▁그네가
▁지문
일본에
터지면
▁개한테
목에
충성
업체가
▁그동네
▁국민보다
▁기만하고
단결
재정
스럽지
▁별개로
▁살겠다
입이라고
▁가격으로
▁국제왕따
▁때문이야
▁걱정됩니다
▁이명박근혜때
ᄏᄏᄀ
만들면
▁바이오
▁넘어가서
▁도와주면
▁시러
▁왔나
??..
지못하고
술이
▁상류
▁있겠
북한은
은거고
조치를
▁제품이
▁탓하고
▁해명을
▁가정교육
▁북미회담
▁잘하는데
▁존재하지
정체
돌아서
▁한국당과
▁들리네
▁합치면
▁문재인만
▁열받는다
이딴
▁구지
▁대란
▁않길
▁알수있다
▁입국금지를
▁온전
▁큰거
박원순
▁사과가
▁안보면
▁집주인
▁축하해
▁막으려고
▁천만명
밤에
협조
▁바친
▁방에
▁군인들이
▁내려와서
▁들었는지
▁조건으로
▁실망입니다
액이
▁복종
퍼주기
▁공공의
▁몇십억
▁벌리면
▁얘기지
▁좋아해
▁어려움을
▁떼어
▁형평성
▁도와주세요
메고
▁주취
드려라
▁듣고도
▁짱개는
▁타다가
▁보호하고
▁집단감염
▁줄일
▁데려가
▁신문에
▁세금내는
▁수뇌
목소리
아베가
을거라고
▁나타나서
▁처벌받아야
▁사게
하시라
▁내일은
▁방역에
▁흐르는
▁쩝쩝이가
층에
▁해보면
▁인민민주주의
▁받아들이고
▁ᄉᄉ
분들께
불성설
▁멋져요
▁문통을
▁입마개
하고있어
▁잡는다고
▁날린
▁플랫
서라도
▁가짜보수
▁공항에서
어째
▁결과에
▁공기가
▁나라탓
▁뒤져야
▁문주당
▁없었을
▁자유의
인줄아나
▁아이들도
▁왜곡하고
삼모
암튼
어제
▁빼앗아
▁할머니를
고통
▁넘나
▁목표는
▁보편적
▁원하고
▁피해본
반납
▁뿌듯
▁채택
▁싸움이
▁알아도
▁보는거지
▁정치하면
미군
▁잡아들
되라
▁갑갑
▁말같
관으로
▁뽑는다
▁수꼴들
▁일어서
▁잡아야지
▁답답하네요
▁해야한다고
죽여도
▁사이좋게
▁전광훈이
********
변명
▁섹시
▁졸렬
▁반대파
▁안사면
공단
▁ᅩᅩ
▁딴데
▁말기를
▁묻지도
▁오또케
ᄉᄁ들
▁당하게
▁생각나
▁정신질환
공기
란거
웠던
▁다모
밖에는
▁촛불든
▁떨어져야
▁세월호에
▁하던대로
▁유공자명단
▁군산
▁서로를
▁알바생
▁좋을까
▁않았지만
▁짜증나게
▁떠네
책임을
▁어디를
▁정권만
팬티
▁이민가
▁실시간으로
하수
자유당
하하하
▁불안한
▁양심과
▁어떤게
밖엔
셔츠
짜로
▁들도
▁지표
▁이거네
▁전부가
▁잘못했으면
▁치유
▁거르고
▁내부의
▁좋겠음
▁죽자고
▁진동을
사람들을
괜찮
▁바위
▁신년
▁검찰조직
▁미치광이
반란
퇴진
▁어기고
▁장관들
▁평상시
▁보도하는
▁조금이나마
만해
생겨
▁두는
▁엮어
▁반일로
일것이다
▁욕하더니
잇냐
▁영생
▁끼치는
탄에
▁놓는
▁시민아
▁박지원이
▁불가능하다
▁격이
▁염색
수준에
안보고
?!?!
▁멋지게
▁스토리
하겠어요
▁정체성이
▁안당
▁파병
속에는
▁수있는
▁놀아나지
▁박물
▁일까
훈이
것같냐
▁놔두면
▁웃겨서
▁집단의
▁한단다
▁예나
▁느끼지
▁보여라
▁너무한거
▁국제사회에서
도리
▁터는
▁되려면
▁공무원을
▁오래오래
▁섭외
▁기술은
▁안했냐
놈과
방법을
카메라
할때만
▁마루타
해야되는데
▁현충일
없으니까
▁그만둬라
▁승승장구
▁신기하네
▁투기꾼들
가봐라
▁그만들
▁천안문
▁어머니가
마치
▁지독
▁치켜
▁특이
했다니
▁끝내고
▁애쓰는
▁유족들
있었는데
▁떼거지로
▁보호하는
▁의심된다
봤어
▁속임
▁실내
장관이
▁새끼도
▁다음선거
▁못했는데
불견
▁클라쓰
▁자존심은
▁무조건적인
▁초등학생도
포르
▁강점
▁선박
내나는
▁안먹고
▁막나가
▁오지랍
▁경상도는
▁이럴수록
▁좌파언론
▁부셔
▁집단을
▁팔아야
▁아니었음
하겠다는데
▁무늬
▁신물
라던데
편에서
▁경영권
▁-)
▁조약
▁말한거
▁얼굴로
-----
▁부동산으로
구경
있던데
▁따라갈
▁의료진이
▁국영
할지도
▁어울린다
▁노무현대통령
▁자아
▁누구야
▁못한거
▁안으로
▁절실히
▁지친다
▁특유의
들이라고
시키면서
▁만드는거
▁시민들의
▁아무말이나
▁연방
▁사고방식이
뜻을
시안
▁반말
▁한단
▁그시간에
▁법정에서
동욱
▁그새
▁요기
잘못은
▁댓글질
▁픽
▁외화
▁장로
▁일상이
▁너거들이
▁직원들은
▁악의축
▁당신들도
▁반성해야
▁정치하고
▁밝혀주세요
겨우
▁모략
▁민노
잔아요
▁이니가
▁안타까울
▁까기
▁판새
으리라
▁날아가
▁정부랑
▁뜨면
단체는
▁되는건데
나부
▁북폭
▁피똥
▁봐주기
▁죽여서
▁설치하고
▁정치성향
기도하고
▁개혁해야
작권
▁개풀
죽이기
거림
▁남파
었어야
▁게임을
▁공감을
▁여행도
▁병역기피
▁욕하는건
▁판단하는
▁갚아
돼지들
렸을때
보조금
▁전국민에게
▁엔진
▁반대한
▁사정이
▁숙이고
▁있자나
▁해체가
▁분노한다
멍멍
예우
▁이지경으로
▁흥청
▁너희를
▁부리지
▁욕하냐
▁특전사
사람에게
▁국민의당
▁되었구나
▁정체성을
▁혐오스럽다
개이
▁구조가
▁법적인
▁오십팔
▁근무시간
▁남긴
▁메이드
▁욕되게
문재앙이
▁식민지배
▁육성
▁친정
▁이해하기
▁전신
▁만듭시다
▁털어보자
조폭
청에
▁선방
▁시야
▁회유
▁주딩이
▁당신에게
▁모르겠지
▁비하하는
끼리는
시대를
▁때려야
▁못가게
▁사퇴를
이기주의
▁신고하면
도라
상정
절이
갑자기
▁멀쩡히
▁무기를
▁나불대는
▁망하라고
▁한답시고
▁강구
▁놈들의
▁볼수있
▁소용없다
▁ᄀᄉ
▁이노
▁이모든
여름
▁기집
▁다님
▁보란
모르게
▁끄나풀
▁왜구들이
▁차립시다
ᄎᄎ
파로
▁청원을
여사
▁댓통령
▁만든건
▁천문학
▁치료도
▁보이지도
▁않겠지만
▁유승민이
▁않을것이다
▁유니클로는
꾸라
북에
▁상세
..^^
▁궁민
▁두리
▁선의
▁대께문
▁아나봐
▁있다며
▁군인권센터
▁무너지
▁할거야
맛이
일거
힘이
▁아스
▁어의
▁꿀먹은
돌아가는
▁김경수가
▁보수들은
▁왜그렇게
오던
▁던진
▁절제
▁타국
▁가져라
▁비용은
▁국민소득
▁입수
되었네
▁이쁘고
▁탈일본
▁일하면서
▁건전
▁됐나
▁생태
▁잡기
▁팔촌
▁망언을
집단이다
되었습니다
▁당직
▁하극
▁아래로
▁전대갈
▁기왕
▁단축
▁아주그냥
▁이제보니
▁점거
남자가
▁가산점
▁의견에
▁억울하고
▁종양일보
▁혹세무민
역을
▁말로가
▁말하냐
▁소년법
▁속도가
깽이
▁명씩
▁피씨
▁걸려라
▁법조계
▁자살하는
▁자식들에게
▁우연히
▁탄핵의
▁당선되면
▁사로잡혀
역사를
해주냐
▁사실도
▁나라들은
▁잘하는건
세뇌
▁어데
▁개가웃
▁중권아
▁해대니
▁없다는걸
▁이래야
▁정경심은
▁퇴학
▁그럴줄
비례대표
▁시켜놓고
말야
일걸
▁곳간
▁알콜
▁미쳐가는구나
공이
구걸
뒤로
▁떨지
▁유산
▁희생된
다는것을
▁얘기하는데
▁꿈이
부대는
▁없거나
▁정우성
▁총체적
어버려라
▁당했는데
전가
똘마니
▁이성이
▁더불당은
지지합니다
▁개밥
▁수원
▁히로
주게
▁악날
▁결론이
▁페미가
▁난리치는
▁인권유린
눈이
졸라
▁열정
▁갈려고
▁진교수
초가
▁표심
개구리
▁본인을
▁시간당
▁인성은
▁전쟁에
할정도로
▁할수있다
담에
빙신
▁물대
웃긴다
의식을
▁노릇을
▁박원순은
▁갈비
▁우짤
가지가
▁공화당
▁뭘보고
▁막무가내
미안
▁공소장
▁아진짜
▁포인트
망청
내용을
보내서
▁사라졌
▁출입국
▁괜찮다는
▁받을거다
▁때에
▁되야지
▁때보다
▁인간성
생각하면
▁무슨말을
▁똑바로해라
▁갈겨
▁상정
▁스님
▁사법부를
▁안나오면
▁공무원연금
반이
장소
편히
▁안줄
바구니
▁잡아가
▁베트남에
▁인정해라
개혁이
권력에
▁같구나
▁재앙의
▁괴롭히는
글고
▁때와
▁심화
이기에
▁당장은
▁기독교인
▁무리들이
▁탄핵만이
▁트럼프를
▁묵살
▁유해
일이지
▁공산당을
▁네이버도
▁들어가지
네다
창호
▁망함
▁주니까
기한
▁같니
해보니
▁나쁘면
▁사시길
▁있던가
▁잘했어
▁대학생들
▁일반인들은
안나
▁미명
▁핑게
교수는
렸구나
▁든든한
▁사필귀
▁함박도
▁강경대응
▁알았지만
구성
선도
치지마라
▁보기에는
▁이런놈이
칠때
▁국유
▁노컷
▁사랑이
▁전과자
▁들게
▁강요하는
▁어디있나
수무
하쇼
▁이끄는
특권
동으로
▁다녀도
▁보여줘
▁앉혀놓고
이고요
하군요
▁사람임
▁수차례
제조
▁이낙
말이지
▁당신네
▁쑤레기
▁짱게
▁못한것들
▁빨갱이냐
▁올리려고
▁검찰개혁에
▁니뽕
▁막혀
자리를
▁머리채
▁보여주면
▁전라도와
안되지
▁택배기사
▁검거
▁넣으면
▁않된다
하잖아요
▁여러모로
▁할겁니다
▁어릴때부터
장병
▁결재
▁급등
▁레드
▁참아
▁서둘러
▁번지르르
▁협박하는
▁생각나네요
계열
▁감춰
▁군에
▁깨고
▁코앞
아니니
▁건들면
▁물러서
▁안나는
▁해준다
▁다릅니다
;;;;;;;;
리당
시키가
인간을
자신을
▁몽둥이
▁사이즈
▁수출규
▁이어서
▁경제대국
▁여론조사기관
▁건강에
▁재용이
▁최고지
▁나오지도
▁지랄이냐
▁내려오세요
변경
천만
▁스럽
▁회귀
▁미련한
▁살인이
▁크리스
▁태도를
▁심각한데
▁꼬라지봐라
햇네
▁예의가
▁원칙에
사람이다
▁나라들이
??????????
각오
편만
▁마크
세금이
▁멍충이
▁자살로
리는데로
▁나오지마라
▁난리지
▁미치는
▁안됐다
▁않을듯
마음으로
▁싶은대로
▁인간에게
▁지도자는
끄네
드림
▁인적
리라고
이란거
쳐야지
▁공격을
▁먼지가
▁심석희
▁지경이
댓글부대
▁보아하니
▁분리수거
▁실신
집합
터를
▁::
▁과실
▁농성
▁사실임
▁이거나
▁올라가서
불에
내라고
▁감염이
▁엘지가
▁영어를
▁있어서는
▁몸뚱
▁살판
▁시비걸
▁억으로
▁기업에서
▁매국노다
우회
한반도
▁시민권
▁정부만
▁인간이라면
막을
역겹
진상
▁같잖은
▁왜나와
▁쳐하고
▁다가오니
▁받아야한다
▁뽑은거
▁악플을
▁방해하고
▁아이에게
못하냐
▁송중기
▁총선도
▁단군이래
▁사전선거
▁어불성설
량은
무뇌
▁잡아도
▁역대급으로
▁코로나때문에
▁국외
▁용산
오는거
▁쓰는건
▁의사도
다님
줬음
▁내도
▁세상물
▁되어가고
▁부러우면
▁수준이지
끄고
▁돌팔
▁리본
셨는지
하다는걸
▁안하는지
매출
▁깨닫게
▁동물을
▁사과하면
락을
추적
▁모바
▁충고
▁후폭
▁받았냐
▁평화와
▁한쪽은
▁역사에서
같어
민폐
▁나갔다
▁나이는
▁수사관
수습
유승
▁기름값
▁내려온
▁동맹을
▁문틀딱
▁있느냐
▁만들어도
▁미친거지
▁잘못된건
▁표합니다
다닌다
산다고
없이는
▁동네는
법인
잖게
▁성태
▁친다
▁허다
▁붙이지
▁인성을
▁유시민의
▁일반국민
▁공정하지
▁어디가고
▁위배
해가며
▁연좌
▁격하게
▁대물림
▁시키네
려야한다
깨나
일비
▁거에
▁쭉쭉
선동에
▁키워야
▁할때가
▁오프라인
▁와이프가
▁확실한건
과장
충아
화의
▁달랑
▁플랜
▁김기춘
▁아닌감
▁자괴감
▁돈없어서
▁몰상식한
좌익
측이
▁부자들은
▁저따위로
▁쪽바리는
▁분열시키는
ᆞᆞᆞ
▁쌍방
▁일체
▁없어져라
▁돌이킬
▁쓰려고
받았다고
▁트럼프와
▁문재앙정권
▁웃기고있네
뚜기
인종
천억
▁안입
▁탁현
▁한탕
▁내려오면
또라
▁뭐로
▁앉힌
▁뭐있냐
결이
▁설설
▁교수도
▁안든다
시장에서
인간들아
▁편안하게
구이
덜아
되거나
책으로
▁힘드시
▁기가막힌다
▁써준
▁점차
▁폭삭
▁선에서
▁한건가
▁짖어대는
▁공평한
▁두려움
▁설명을
▁해줘서
▁가능한데
▁아버지를
내게
살어
▁덮을려고
▁사라지게
▁월급쟁이
▁있더라도
▁지경이다
한푼
▁연간
아예
▁퍼준
▁알려야
▁요즘엔
▁팔아넘
▁힘내서
▁부산에서
▁연예인은
▁오래전부터
▁병사
▁야생
▁놔둬라
▁비판할
▁모였
▁더블당
▁분노조절
털어서
▁감싸기
▁겨묻은
▁면죄부
해방
떨어져
살아야
▁강하고
▁경찰청장
▁비어
▁으니
▁치열
▁깍아내
▁욕하는게
▁들리
생겼네
기만하고
붙여
▁좋겟다
▁지지해
▁말만하면
▁무너뜨리고
날두
때랑
▁개주
▁모의
죽어도
▁가져와
▁궁지에
▁유기견
▁생각만해도
▁줄께
했단다
▁국민께
▁또라이네
▁지지율도
속보
▁놓아
▁잃게
▁호빠
지지도
통수를
▁딱이다
▁퍼트린
▁발생하는
기며
성적
싶냐
▁사채
▁흥미
다시는
▁사안이
▁참여한
▁정치인들의
난민
▁높음
▁정기
먹어도
▁인물을
▁등신같은
▁우왕좌왕
▁위대하신
▁현정권은
▁부탁드려요
신듯
세력에
▁여름에
▁조국일
▁김경수는
▁너무많다
▁망하는거
신거
▁물로
▁손녀
▁제동
사람의
장학금
했었지
▁기관이
▁지으면
▁둘째치고
▁않았다면
▁전세계를
셨죠
▁쉐키
▁싹을
▁이십
낼려고
신도시
▁시작하는
▁중요하다고
공에
없죠
▁반격
▁기관지
▁떨면서
▁없어져
▁일제가
▁죽음의
▁추방해라
▁않겠습니다
있노
했는가
되어야한다
▁끝날때까지
▁극한
머가리
▁가족끼리
골이
크라
▁팔려
▁한시
▁먹거리
▁안될까요
뇌동
저자
▁사입
▁조양호
▁행복을
▁시커
▁저의가
▁근무하는
▁기사에는
▁반성하는
▁깜빡
▁발원
▁수집
▁아유
변으로
▁구분을
▁따위는
▁범죄다
▁친구도
▁합리적으로
▁자충
혐의로
▁거리며
▁장사를
특수
▁막힌
▁메시
올리면
있는가
▁공개해
▁권리는
▁지식이
▁단가
▁안이
▁한국내
렸습니다
▁기독교는
▁니들같은
수리
해짐
▁반환
▁위안
▁ᄋᄋᄋ
▁호랑이
▁못들
▁술은
▁아드
▁잠을
▁적혀
단체들
▁경제망
▁리더가
▁소음
▁닥그네
▁특권층
▁노예근성
▁장자연사건
▁졌다
▁지날
▁비교할
▁교수라는
▁짜증나는
▁우리국민들
▁개패
▁잘하자
▁전화로
▁한마디만
총선때
▁주차장
남용으로
▁계모
▁규제가
▁벌이는
▁비난할
감히
▁물뽕
▁가겠냐
▁자체는
▁사기탄핵
▁술처먹고
▁!!!!!!
▁참회
해주는게
▁걱정마라
ᄌᄋ
▁타서
▁판정
들어갈
▁발가락
▁약이다
▁우한폐렴이
받길
잘라
적으론
▁겉으론
▁받았나
▁댓글달고
▁토착짱깨
낳고
면상
▁김정은도
▁황교안도
▁걸쳐
▁빠를
▁쇼통
▁공감수
타령이냐
▁한국에선
▁못들어오게
▁일들
▁봐서는
▁진보도
▁현실화
▁결사반대
경색
▁이그
▁군대에
▁특목고
라는거냐
▁나오던데
일것
▁농민
▁말어
▁주역
▁놀리는
▁수익이
▁왜냐고
각한
내나
쓰듯
▁:)
다닐때
▁고맙고
▁국공립
▁줄어든
▁살인미수
▁해야하고
너나
여고
▁겸허
▁덮을
▁합당
▁재앙은
▁모르시나
겹살
▁얼씨
소리고
▁거머리
▁반일감정을
▁공관
▁공헌
이니라
▁과거로
▁멋집니다
▁진절머리
▁잘안
▁찬탈
드는거
이세요
▁가시길
▁하나둘
것들이다
공산당은
▁살고싶다
의회
전엔
▁예로
▁돌려막
▁토악질
▁이혼하고
▁프리미엄
견찰
회계
▁빽이
대놓고
한국인
▁보너스
▁운동이
정신으로
▁주길
보이냐
학생이
▁그놈에
▁마땅히
▁가능합니다
비시
은지
지않을
해야해
▁이용할
▁잠복기
▁틀린게
지못하는
와요
▁값이
▁씨는
▁때문임
▁역할이
할수없다
▁거기가서
▁톱
웨어
▁경향이
▁역지사
▁증명서
▁교도소에
▁알아야한다
▁저감
▁약점을
▁더불어당
시여
▁없단
▁대처가
▁대학을
▁처리해라
전혀
▁반찬
▁소행
군으로
▁없다며
▁아시나요
▁잘못이라고
비어천
▁시간끌
▁정치인의
▁민감한
▁사비로
▁않되는
우리나라는
▁개짖
▁까보자
댓글조작
먹으면서
▁그런말을
▁뻔뻔함이
스타일
▁뒤돌아
▁세우는
▁팩트임
▁잘못으로
▁조국장관님
▁만남
▁윈윈
▁채울
행위가
▁좋겠어
▁집회가
▁하버드
▁임명해라
▁재수없어
▁하청업체
욕은
▁가사
▁사회로
▁황교익
그렇다고
▁만들었지
▁무식하다
▁박용
▁추세
▁할걸
▁기무사
▁낳으면
▁보겠다
▁욕심을
▁조삼모
어치
▁꼬랑
어야함
▁사라고
▁최선의
▁무전유죄
▁비아그라
▁저러는지
▁인정합니다
신상
조사는
▁망하든
▁바쁘다
▁옮기고
▁일하지
었다니
▁머물러
▁이상함
▁비교해서
▁인권침해
▁넘어갔
▁받아주
▁한국이나
▁안갔
▁짜집
▁나타난
▁듣지도
▁죽기를
▁서민들의
을거임
▁본때를
불쌍하다
▁년전부터
▁눈치보는
▁민주국가
▁전국민의
당들
▁조까
▁먹으러
▁본인과
▁어제는
골프
자영
허냐
▁경멸
▁무능과
▁하더니만
비상
▁맹목적
▁떨어지게
▁하나님은
▁처벌해야한다
련만
▁간사
▁뛰는
▁문창
▁오거
▁이은재
▁사실이지
하지않는다
▁****//
▁건조
▁나라고
▁알려진
▁억이면
▁쥐꼬리
▁베트남은
있죠
▁최민
버렸으면
▁대일민국
▁안부끄럽
▁깜이
▁트럭
▁우방국
▁지름길
▁수준봐라
▁우롱하고
▁못된다
입장에서는
▁자영업자는
▁메꾸
▁상전
▁타살
심지어
이런게
▁넘사벽
▁다니던
▁엄마들
▁지어서
▁누군지도
▁티비에서
▁꼬리자르기
디스크
▁의미도
▁징역년
▁흘리는
▁뿌린대로
글은
뜨면
▁물류
▁순시
▁한겨례
하겠는가
▁있는것이
▁조심하고
▁애용
▁안좋다
▁할꺼면
',
센징
▁보훈처
▁이넘의
▁썼다
▁초고
▁거지요
▁(–).
?......
맞나
▁겨누
▁득달
▁별일
▁쓸수
새끼도
세력과
과정에서
▁내부에서
▁중국몽을
▁시켜야한다
▁중요합니다
▁허우
▁서민의
▁정계은퇴
나마
되자
서리
▁그나물
▁공장에서
▁부메랑이
▁역겨워서
▁챙피하다
거덩
부양
가에서
▁꼴이네
▁부정적
▁정부때
▁좋단다
▁돌려보내
▁일이지만
껴서
물자
내려라
댓글이
▁나이들
▁신세계
▁썼는데
▁야당과
▁사람취급
▁뻥긋
▁개호구
▁나왔냐
▁다카키
▁상품권
▁온가족이
▁속죄
▁비판만
▁악플달
▁관계없이
▁돈퍼
▁으따
▁노동자가
쳐다
▁교환
▁폭동이
들어와서
▁변화를
▁책임져
▁시키려고
▁더심
문으로
안철수
▁댓가로
▁왜일까
▁자기한테
햇냐
▁강단
▁쇼질
식이면
▁없으신
▁투표는
▁그정도로
▁지배하는
▁유령
비리가
▁뒷조사
▁재산은
▁쫄아서
같애
됐어
▁망국의
▁플러스
▁저사람이
막아
버거
▁녀ᄂ
▁단디
▁창당
▁대구로
▁???:
▁사시패스
쓰나
▁죽어가고
▁민주당으로
▁삼고
▁흉기
▁발언에
▁고사하고
▁바이러스에
다를
무덤
장려
▁영리
▁정비
▁진학
▁쓰러져
장만
▁부화
기술이
▁얼굴좀
하고있냐
▁팩트인데
▁받길
▁올려도
▁간단하게
▁뭔개소리
▁잡겠다고
▁내놓으라고
▁앞당
강아지
저가
▁근디
따위는
▁병원이
▁실수가
▁음흉한
▁자유지만
▁중요한지
▁멍충아
▁수출로
▁어쩌네
▁졸라게
▁공산당과
▁문제없다
▁자랑이라고
티나
▁징벌
한거니
▁;;;
있으니까
▁깊게
▁탄탄
▁압도적
시킨다고
▁동일하게
▁어떡하냐
▁썼네
▁연계
잘해서
▁꼬시다
▁기술개발
났냐
▁깨지
▁넘겼
어려운
잡으면
▁수출을
▁줬다고
▁탄핵이다
▁해결해야
▁대한민국과
▁맞았
이하도
▁미국유학
▁넷플
▁옥수수
▁희열을
▁김원봉을
공주
로에
▁문구
인터넷
▁싸잡아서
▁반감
▁패악
소이다
▁군인은
▁사진만
▁이하로
▁인하여
되었다는
▁모르니까
▁윤씨
▁다녀오
조만
▁교육자
▁분들의
▁받을려고
▁보더라도
▁잘못되면
▁전두환을
▁돌을
▁시동
▁쥐박
아이를
▁나라나
싸우
유도
▁세컨더리
것아
관종
가족들
겠군요
할수는
▁교육은
▁똥꼬나
▁만들게
▁버린다
▁티난다
▁할테니
▁임차
▁정의구현
▁등산
▁소화
▁나가도
▁신경을
▁퇴임후
▁포르쉐
▁해결을
방송에서
▁무시하면
▁집어치우고
률은
▁베트
▁주절
▁풍자
▁앞가림
▁약국에
▁없는걸
▁보수들이
▁성실하게
▁찌든
▁계약직
▁알았음
▁제데로
▁매한가지
▁비호하는
▁순수하게
재해
추경
▁니애
▁소잃고
▁좋은가
▁레기
▁잘좀
▁후세
▁있군요
▁교활이가
▁한국에는
▁말다
▁징병
▁침체
사세요
▁일국의
적으로도
플레이션
▁머릿속에
▁부탁이다
▁지켜봐야
▁나경원이가
처라
희는
▁듣던
▁하였
되잖아
떨거지
▁나이든
▁쓰다가
드글
▁개구
쪼가리
▁문제있는
교를
끝이
▁벌려
▁소금
▁싸서
▁간단히
▁인연
▁크면
손가락
하는줄
▁알거다
▁이제사
▁잊었냐
▁멍청이들
▁무슨죄냐
▁여성가족
▁만들어놓은
▁롱
기획
미팅
▁모친
▁챙긴
▁만연
▁볼땐
▁스탈
▁우승
▁체류
적인거
ᄏᄏ진짜
▁높아서
▁떠들던
▁부끄럼
▁정황이
무시하고
▁최순실을
물품
▁예산이
▁국민건강
▁아니겠냐
크다
▁명에
뉴스에
▁말려야
▁손의원
▁약하고
▁여부를
▁돌아다녀
▁이사람아
마네
▁겠지
▁뚱뚱
▁표는
▁너들이
보기싫다
▁나라입니까
까기
▁겪은
른다고
▁공부나
▁일동안
▁콜센터
▁시작하네
▁일반인도
▁하지말라
.??
▁등극
▁작고
▁재주
▁새끼네
▁스페인
▁중국엔
▁도둑놈들
▁빨리빨리
▁피해보는
▁힘의
나보지
▁등록금
▁문제점
▁수사해
▁냄새난다
▁북한에는
▁포상
법대
씨부
오로지
▁바그네
▁이딴걸
▁정의도
▁주신
▁진중
▁내세요
▁준비해
▁어린애들
▁정치판에서
심사
젠더
▁벼랑
▁서장
친구가
▁쉴드칠
▁애기가
자본주의
▁댓글러들
▁인간들만
▁쥐랄
▁천한
▁혹여
▁니네도
▁알바도
안하는데
▁놈들이네
▁마인드로
▁피곤하게
.-
스톱
▁태산
선일보
▁몰랐냐
▁문화를
▁있겠어
▁쓰잘데기
▁한마리가
▁단식은
▁해야됨
▁두번이나
▁만들었냐
▁개씩
▁손흥
▁실토
▁질타
▁추녀
▁가리는
▁과태료
▁목사는
무게
▁북풍
▁기소권
▁아빠는
놨냐
▁따를
▁없으며
▁자세가
▁죽일려고
정확
학자
사고로
안간다
▁보신탕
노동자
▁가겠지
▁뭣하러
▁될때까지
▁이사람들
▁든든합니다
관료
▁반등
▁쪽은
▁따라야
▁불쌍하게
법의
▁드시
▁목포에
▁보자고
▁폐간이
채워
▁교사들
▁특검을
대상이다
▁불매운동에
가득
받자
본색
심과
▁두세
▁딱가리
▁세입자
▁앉아있는
▁돈다
▁전지
▁이성적
▁핑계를
그러면서
▁경쟁력이
▁시키는게
▁식당에서
▁여성인권
▁이새끼들
▁큼
설을
이혼
▁속일
▁헌데
세금을
황교활
▁의석수
▁처해야
▁이완용이
낸게
니라
다니네
▁돌아오지
▁정치권에서
것어
연구소
▁돌리면
▁말하던
▁세끼들
두를
▁드릴
▁밑도
▁불에
▁해놓은
이었구나
▁비상사태
긋냐
똥꼬
완용
▁내나라
▁옵니다
새야
▁논할
해대는
▁돈없고
▁사과와
▁나라꼬라지가
머리에
쟁이가
질서를
▁엄하게
▁보냅시다
없던
허용
▁칼이
방송이
▁급격히
▁뼈빠지게
▁시끄러워
▁좋은나라
방탄소년단
▁깜놀
▁져라
▁취해서
▁말하면서
참석
확산
▁눈먼돈
하면된다
▁정부에서는
💙💙💙💙💙💙💙💙
▁그름을
▁자비로
▁채우는
▁표정이
고속도로
도박
웃기는
▁해야만
[]
▁믄
세퀴
▁기형
▁미뤄
▁삐라
▁감빵에
▁대학에
▁비겁하게
▁비싸다고
영아
▁담에
▁뛰쳐
▁안읽
▁책정
아이고
▁결정적
▁사형에
▁나가라고
▁떨어져도
▁범죄자로
▁사과하는
▁성폭행범
▁속국으로
▁추악하고
드를
발행
▁너야
▁놈들만
주도성장
▁비교할걸
▁판사들이
▁탄핵시키고
친미
을거야
▁삼성전
▁십자가
▁염치도
▁문재인대통령이
▁욕본다
▁강력범죄
▁돈벌어서
▁말씀입니다
▁분식
이상한
▁부부는
▁쓰나미
▁이런식의
▁재앙이와
되며
▁해경
▁가셔서
▁공약을
▁달리는
▁원전이
▁해먹은
▁해방후
리기전에
▁가능성도
▁하는말이
▁빌고
▁영사
▁장관후보
▁황교안과
고랑
업은
▁떤다
▁마르
▁제네
▁차근
▁천배
▁능력으로
▁많으십니다
▁실용
▁없긴
▁였다
▁치과
기보다
▁지구의
▁너희같은
▁이런분이
▁이상하고
하건
▁탄원
▁트로
▁아쉬울
▁지르고
▁징징대
▁들어서고
▁흥청망청
련이
▁아참
▁억도
버려서
외에는
질까봐
▁아는건
▁싫다는데
▁친구들이
공을
주사
▁횡포
시간을
▁갚아야
▁오리지
▁져야지
▁경찰한테
▁돌아오는
▁슬프네요
▁언론사가
▁이중인격자
바쁘
▁실물
조무사
어버려야
▁그랬다고
▁내가하면
▁못차렸네
▁헛소리나
▁소탕
▁해를
했을듯
▁과거는
▁냅두고
▁보수와
잡힌
▁공모
▁생쑈
▁안만
▁용이
▁뭘까요
▁씌워서
되었는지
애들한테
▁브레이크
▁한다면서
가해
▁귀순
▁꼴불견
▁일관된
▁어울리지
▁없는것들
▁재일
▁호구냐
▁재인이는
숭이
오지네
▁겨울에
▁뜻으로
▁아가리로
▁짜빠구리
교가
▁마나
▁아둔
▁한개도
▁당해봐라
잖여
▁감출
▁뒷배
▁애처
▁의회
▁반국가
▁저자로
▁행사에
▁죽어나가는
▁가던지
▁반려견
▁식약처
▁아파트를
▁퍼뜨리고
▁당한거
▁무사히
▁영창
▁리더쉽
▁즐겁게
▁치료가
▁틀렸다
▁듣는거다
▁뻔뻔함의
▁위해서도
▁신천지에서
▁최저임금은
왔음
쿠데타
▁내주고
▁먹을거
▁의하면
▁크다고
~~!!!!
▁생을
▁토종
이상의
▁못가는
▁뭔지나
▁사니까
▁권력남용
내부
▁밥상
▁집안일
▁한일이
▁타워
▁희희
윤미향
▁국민정서
▁턴
사상을
▁가정에
▁않았던
▁우수한
▁원하던
▁일이라
▁저랬다
▁니들처럼
▁최순실과
백수
▁김포
▁조국딸이
▁님아
▁초선
▁티끌
대표는
하는꼴
▁같은건
▁말거라
▁빌어라
▁한국여
▁가르치고
▁중국눈치
▁마스크쓰고
는듯
▁싱글
▁잘함
▁연관이
▁하는척
아무것도
▁공무집행
초기
▁말함
▁야외
▁사과하라
▁인물이다
▁미안하다고
▁있었습니다
▁경재
▁무안
▁무참
▁있길
▁몇년째
▁욕하기
▁걱정하지
러들
전시
▁드는데
▁못느끼
▁물들어
▁죽이자
대통령도
쳐묵
▁맡긴
그들은
▁노력한
주는것도
▁자기보다
▁있는겁니다
▁정규
▁억달러
▁요즘도
▁평가를
▁개돼지들의
바쳐
써야
▁바람이
▁좋아도
▁중국애들
때문이라고
쥐고
▁교대
▁라며
가다가
▁발표한
▁분들을
▁국회위원
▁빈부격차
▁미안합니다
▁결여
▁한자
졌는지
증으로
▁대명사
▁세워서
▁치더니
▁위장전입
▁라니
▁조재
▁진보라고
완화
▁맡은
▁속으면
▁조속히
▁토나와
▁민주화의
일으키
일인가
▁구하고
▁날리는
▁닮았네
▁무섭냐
▁풀어준
▁사람마다
▁쓰레기도
▁확실하네
▁딸과
▁빵터
▁스텔
▁끝이야
▁내려올
▁불러다
▁사상에
▁소비가
▁애미가
▁진짜ᄏᄏ
발급
처먹을
환자가
▁애플은
▁인성도
▁해먹을
▁범행
▁병을
▁한끼
▁들이대
▁진중권씨
▁문슬람들은
▁받은게
▁줄이면
▁공개해서
▁돈없으면
▁빼애
▁표리
대단한
▁꼼수를
▁사이가
▁솔찍히
▁알겠어
▁모르는듯
▁왔습니다
▁사회악이다
▁컨트롤타워
달려
▁다급
▁위축
장하고
▁풀어야
▁그러세요
▁듣고싶은
▁안하나요
스티
▁없길
▁충당
때리는
▁무능이
▁사용한
▁일용직
▁칠푼이
▁한짓을
▁목매
▁외상
▁할일은
▁국민인데
▁나이먹고
▁있을것이다
르냐
▁떼로
▁통쾌
▁좋아지
한마디로
▁들어보면
▁와이파이
▁포기하지
▁한사람으로
소음
▁그거에
▁세계는
한다니까
▁빨아먹고
버닝
▁공원
▁집없는
▁구역질이
▁축하해요
문도
우습
▁안나옴
▁어느날
▁죽는다고
▁휘둘리는
리던
▁위안부로
▁환경오염
고향
조약
▁밥만
▁일베는
▁기생충같은
투성
▁약화
▁학자
던지고
▁갈아타
▁두렵지
▁국가부도
▁막말하는
▁통일되면
▁잡았다
▁자유우파
▁용의
▁흐려
사이다
힘으로
▁남이가
▁대통령이면
과세
▁평택
▁그말이
▁부자는
▁해줘도
▁슈퍼전파
▁낳는
▁땅값
▁활발
▁달라요
▁무리가
▁숨기는
▁탁월한
▁선발
▁사용할
▁시킨다
▁역겨움
▁하는것들
▁군이
▁못느
▁트래
분들의
하신다
▁단세포
▁반일이
▁붙었다
▁빤스런
▁위자료
▁비나이다
▁사법부는
▁안한다는
▁집안에서
▁사람이지만
돈벌
▁가던
▁놀다
▁몰랏
▁안위
▁흡혈
사고를
▁자고로
▁생각하지만
꼼수
▁봉투
▁분당
들부터
을때가
▁작정한
한다는거
▁악의적인
▁지랄염병
▁국회의원이라니
▁쇼로
사고는
▁이번주
▁있을뿐
▁양아치가
▁잊지말자
▁생각하면서
▁자유한국당을
구입
▁드물
년이네
▁방안을
▁이슈를
▁해병대
다니는데
봤습니다
??...
▁자유대한
▁---------
황제
▁넣는
사실이
▁했었지
▁걱정하고
▁안타까워
닌까
스키
▁말하기
▁사회와
▁여자든
▁였는데
▁총장을
멘트
명하
술을
▁광분
▁구로
▁점은
나가야
▁거라는
▁들이네
▁일단은
▁썩을대로
▁응원해요
▁무산
▁정중
려는거
▁쇼하는
▁이런식이면
▁자한당이랑
내며
▁반동
▁복원
▁약해
경찰은
으려다
▁기대가
▁떠나는
▁아름다
▁임기가
▁흐름을
▁결심
▁돌연
▁받는건
▁알아보
▁약자를
▁지우고
기어
타격
▁결백
▁소지
▁울며
▁시험을
▁치는데
빠른
역에
조상
▁경솔
▁똥줄이
▁아무일
▁미안하고
▁유공자는
▁쥐도새도
▁형평성에
▁하지맙시다
뽑고
장자연
▁만으로
▁손해가
▁찍어라
▁박정희를
▁양심선언
끄덕
▁개ᆞ
▁했죠
▁지인이
▁선생님이
▁여성혐오
▁오냐오냐
▁정신없는
경고
▁쫄보
▁누르는
▁무시당
▁죽거나
▁선동당하는
보존
▁큰데
기사로
운다고
▁노동당
목적으로
신의
▁말임
▁비축
▁중개
▁그따구로
▁변호사도
▁진동한다
▁처단해야
▁기대됩니다
▁부끄러움도
강국
먹게
썩을
▁원시
기들은
위선양
▁벌어지는
▁안좋은데
확대
▁달달
▁아울
신가요
▁길가다
▁선전포
태양
▁애걸
로서의
성매매
▁난다고
지껄
철거
▁호가
관에서
집단은
▁알리는
▁좃선이
▁검경수사권
막장
퉤퉤
▁개당
▁남남
▁판결은
타령하는
ᄀᄋ
어질
▁들춰
▁희롱
▁남자든
▁눈감아
하는거는
▁떨어졌다
▁물어뜯고
▁득이
▁탐관
댓글에
지역에서
▁시정잡배
▁개소리하고
독감
▁감비아
▁너그들
▁불행한
▁여당에
▁감수하고
__
▁도배를
▁외국인들이
▁그른
▁사연
버리게
▁이미선
▁죽겠네
적폐청산
▁사과부터
내놓
▁비켜
▁국세청
▁끝나지
▁내에서
졌습니다
▁고통받는
낸거
망할
▁발등
▁있길래
▁주라고
사람으로
▁당파싸움
▁돌아온다
▁있겠습니까
?'
▁거래가
▁년까지
▁보수에
▁시간낭비
▁아니겠죠
▁안하겠다
유를
▁샤워
지어다
▁태풍이
달을
주야
▁하진
▁달창을
▁옳은말
시민들이
▁해쳐먹고
디가
▁깽깽이
▁방역을
▁북괴에
▁결국에는
▁동의합니다
대대로
▁안하던
▁지난해
▁했던거
▁문제라는
▁윤석열총장님
갈려고
▁그렇구나
▁멍청이들아
괜히
다냐
왔지
▁경매
▁불사
▁보는건
▁시선을
▁업적이
▁주머니에
가던
수익
▁면책
▁몰염
▁국력을
▁죽이네
▁무능하면
▁소상
▁왜안
었더니
▁때려서
▁탄핵도
▁이야기하는
언니
치마
▁강기
▁겠네
▁들어주
▁생색은
▁세대는
▁정책의
▁주장에
▁하는짖
정신병자
▁고통받고
▁똥덩어리
▁저런말을
▁독단
▁생가
▁싸대기
한거잖아
▁수준낮은
▁정치자금
해주네
▁하노이
▁중앙일보는
▁내에
▁주네
회장이
▁뽑았다
▁시작이
▁다니는거
▁당연한건데
절차
▁말들을
▁맘까페
▁비서실
▁그곳에서
게시판
노트
살해
▁톡톡
▁가지만
▁듣는다
▁본다면
▁중국탓
▁저긴
자기가
▁찾아보
정상회담
▁세금도둑
르나
▁버금
▁삼일
▁옳소
▁수백명
▁짐승보다
에에
보복을
한거랑
▁가다가
▁좃중동
▁일본인은
▁좋겠지만
▁상사
▁어필
▁입성
▁홍수
▁더많은
▁왜저래
는거지요
▁공통점은
▁애잔하다
분담
적이며
좋아서
▁무언가
▁소신을
▁양반아
▁고생하고
▁명확하게
▁강국
▁모닝
▁부귀
는것과
플리즘
▁빼먹고
▁엄격한
▁동아시아
▁서로서로
▁영업이익
▁돌아다니면서
인류
▁아실
▁들어줄
▁모범을
▁신격화
▁대목
▁말란
▁정한
거리면
▁정책만
해줘야지
▁개돼지야
▁원하는건
▁집권하고
▁기자간담회
방관
사찰
▁그와
거같음
▁가겠네
▁수출이
▁죽인거
▁법무장관에
먹음
▁관공
▁똥별
▁몸도
▁지를
▁걸어라
▁디지털
▁모니터
▁문드러
뿐아니라
▁지랄들을
▁자유대한민국의
난리를
원들은
▁울면서
▁게임중독
▁시위하는
▁우러
보이콧
▁대신에
▁모자른
▁발표를
▁제품은
▁품질이
▁그꼴
▁재팬
면으로
▁중범죄
팔아먹는
▁살아있네
차려
▁평당
같은놈
시장을
얘기는
▁남편을
▁만만세
▁유트브
▁중국서
▁부끄럽게
잘난
주작
케어
▁장착
▁되면서
▁불태워
▁먹을려고
▁이루어진
▁직접적인
법과
쓰니
▁마실
▁안드
▁경원이
▁고위층
▁핵으로
▁개소리도
▁지옥에서
▁돌아가는지
원아
▁병균
▁힘은
▁부산에
▁의도로
▁처우
▁막아야지
▁이러는지
움직
▁감내
▁공존
▁말단
▁숨을
판이다
한데도
▁거들먹
▁니가족
▁보유한
▁오징어
▁공권력을
▁여러사람
▁오르는데
업고
▁대지
▁안물
▁자알
오른다
할거임
▁김호중
▁어두운
▁여행은
▁지하에서
후배
▁선빵
▁항거
편하게
▁외교관
▁더불당이
▁청년실업
개치고
▁잘해도
▁안나오고
▁이렇게도
▁주민등록
졌을
▁가길
인것도
▁무죄추
▁빼애액
▁신문이
▁현재도
▁한국사람들
강의
봐봐
▁군필
▁석열이
▁하겠니
▁사용하지
▁천황폐하
▁알고있는데
래를
우롱
년만에
사상에
▁내놓는
미쳐
언을
▁어줍
렸는지
▁너무들
▁사적인
▁지원도
▁개망나니
▁대북지원
▁반납하고
▁읽어보고
겟나
박에
반기
▁대림
▁커플
▁하층
▁죽창가
▁땅덩어리
▁개시
▁문빠가
▁자식들한테
곡을
▁벌이고
▁하기엔
▁몇번이나
해고
▁하구나
▁공수처에
▁설치해서
▁조선족들이
▁주둥아리를
담아
▁만을
▁열심
▁첨엔
▁합병
누구도
▁답변을
▁안돼지
▁증권사
대란
▁낳아서
▁민중의
▁일삼고
음주
▁걸렸다
▁글이나
▁마약을
▁양심의
▁여자다
▁입국자
▁학살한
하는짓이
▁바른소리
하시는분들
▁까다
▁누진
▁계획을
▁판문점
▁그동안의
부적
▁시한
▁정이
▁싶다는
▁개인이오
▁비핵화를
▁피할
▁국력이
▁돼지는
▁조사하는
▁구속시켜야
▁응원하겠습니다
▁딩
지향
에따라
▁호박씨
▁당연하게
▁동물보호
▁보수통합
▁질병관리
▁붙이
▁맛있는
마음대로
▁없잖아요
객이
파면
따까리
▁면상을
▁문석탄
▁죽음에
▁우리일본
넘도
북으로
불허전
▁대안은
▁만나러
▁반대는
▁준비된
▁한것은
▁벌레들이
▁빨갱이야
▁아파트값
▁이런소리
▁취급하고
분위
앙이
▁줘패
▁경제성
▁길들이
▁선동의
▁학생을
두에
▁도통
▁실려
이제와서
▁수출금지
▁잘할
치려고
▁것이야
▁일부로
▁잘되고
▁주인을
▁지위를
▁직접적으로
▁퍼진
▁통제가
▁가만히나
▁댓글수준
▁미사일로
▁미쳐가는
센스
수상
순히
***
▁배반
▁추징
언론들
없었다
▁사형이다
▁주사파가
그냐
▁극우가
▁죽음이
▁행동과
한가보네
▁발생하면
▁족속들이
▁태세전환
점점
▁옷이
한것만
▁들이밀
▁인권도
▁천국이
▁무겁
있었다
▁동네에
▁특별법
▁원인제공
▁하는짓거리가
곡히
스토
▁스시
▁안생
▁한반
▁끝없는
▁키워라
▁페미들이
▁닝
부분이
수석이
▁나라돈
▁가족에게
▁시진핑의
▁지지했던
▁명예훼손으로
▁소홀
▁수로
▁야는
▁공시가
▁깨닫고
대깨문들
몰래
▁코치
올라서
▁궁금함
▁인물은
▁짱깨한테
▁민주주의냐
기적
념이
▁님도
▁핸폰
게다가
꾼들이
▁광주를
▁토착왜구들아
랑가
▁알죠
▁적법
김경수
▁나오길
▁도리어
▁약하다
▁인구는
▁총장상
▁알아줘야
련들
▁쉬워
▁못한다면
▁선다
▁납셨네
떨어지고
▁궁금한데
▁순리
▁조직에
보입니다
자영업자
▁하루속히
▁소득주도성
▁우리국민은
부활
센타
▁유동
되지도
▁단위로
▁부정을
▁다음정권
▁자기자식
자들에
▁뭘하든
▁사실과
▁일해도
▁사법처리
▁종교단체
신기
▁그져
▁끝낼
▁두마리
▁블로그
▁비판도
▁있기나
하는것이다
▁나오는구나
수라
네시아
수산물
▁같더라
▁엉뚱한데
▁투자하고
▁횡단보도
▁된거다
▁판사님
▁안하니까
제제
▁럼프
▁폐미
▁따름이다
▁사퇴해야
▁하는거죠
뿐만아니라
루루
▁종류
▁문정인
▁바지사
▁수만명
▁인재를
▁홍발정
▁따지지도
▁위하는척
감사합니다
▁변희
▁북을
당했다
잇는데
하구요
▁수사로
▁드글드글
▁모가지를
▁억울해서
▁리가
▁꼼수로
▁선동만
▁업체가
▁장난감
▁기생충이
▁챙기세요
▁빨라
▁높으신
▁알겠니
▁아님말고
▁감성에
▁이로써
▁좋으냐
▁==
시는데
▁날뛰고
▁대이상
▁시민은
▁폭동을
▁그대는
▁기억도
▁남북한
▁암세포
▁망령
적인게
집단의
쳤으면
하더니만
▁공격하고
▁득달같이
▁안뽑는다
선포
▁떡하니
▁병원도
▁아니오
▁정책도
▁만들었네
▁돌아다니고
▁보구
▁악행
남았다
드려야
렸다가
▁말같은
▁죄앙이
너거
대학원
▁안도와
▁인격이
▁엮여
으므로
이참에
하셨네
▁갔는지
▁들어갔다
▁죽기전에
▁눈앞
▁딸랑이
▁군림하는
▁후쿠시마로
▁훠
▁침입
▁것이죠
▁한남충
▁완장차고
▁훈육
▁믿어주
▁이해못
수가없다
▁살려주세요
▁하는거보면
▁우한폐렴으로
난게
▁난감
▁파일
▁줄려고
▁걱정이나
▁인정하기
▁억울하다고
구여
민생
부른
▁법좀
▁막강한
▁수사할
▁정상인데
▁둬라
▁기존에
▁우선시
▁난리났네
더듬
레가
▁서지
▁전현
▁취한
▁못차리네
▁신경쓰고
▁소비를
▁조현아
▁답답해서
▁조국하고
갈듯
삭발
파기
▁죽은거
▁알바자리
으루
비리를
▁신기한
기만해도
▁해야지요
▁유람
일하는
줄이고
▁목아지
▁한반도에서
▁자업자득이다
대충
쉐키
▁쪽국
▁넘었는데
▁정상이다
▁짜파구리나
매수
없애라
▁말든가
▁의미는
▁자세로
▁괜찮은데
▁하면되지
▁각인
▁극찬
▁실익
▁함정
거리도
▁예수가
▁참석한
망하게
음에도
▁생산성
▁추천수
들때문에
▁불러놓고
▁서울집값
▁죽어나가는데
▁토착왜구라고
백년
▁전진
애초에
▁대응은
▁보아라
▁불안감
▁털리고
▁싫습니다
▁한가지만
▁어마어마하게
▁물은
▁업주
▁공부한
▁신성한
▁싸움에
▁연세대
========
▁육포
▁하시는지
것같습니다
▁연예인들이
균형
▁맞춘
▁삼각
▁원치
▁털릴
차하면
▁누구탓
▁지옥이
▁풀어줘라
▁트럼프에게
채무
▁명재
▁피도
날까봐
▁노인이
▁위험을
▁밀어주고
▁작자들이
참모
▁머저
▁빼서
▁중한
▁뒷구녕
▁한말이
유투
▁가든
▁술이
▁캬악
▁해놓
정치의
▁부족해
▁잘살아
▁어찌할꼬
인구가
▁가지마
▁돌아간
▁만명은
▁민폐끼
▁챙기기
▁어리둥절
▁이웃나라
▁찍혔
▁태우
뿐이네
▁그라고
덜덜
식품
신세
휴직
▁레전
▁주한
▁고영태
▁까보면
▁악순환
▁통계가
▁투기로
▁처리하고
▁교도소에서
났나
인재
▁넘버
▁믿어요
▁범인이
▁공무원만
▁시민들을
▁이들에게
▁제목보고
내란
석도
!!~~
▁임금은
▁대다수는
▁저런놈이
나치
▁폭주
▁개념을
▁마트에서
▁도서
▁씨앗
▁이꼴이
▁임은정
▁정의냐
▁아는거지
▁없다는거
겨울
▁추월
했으며
▁가치는
▁탓이냐
▁영향력이
굳이
▁과천
▁멋져
기자들
▁뒤지면
▁처박혀
▁새ᄁ
▁미워도
▁병리학
▁있더만
▁신천지의
사네
▁엄마를
▁법꾸라지
▁일본국민
있었
▁나체
▁서운
▁홀대
발전을
오는게
짓이나
▁사필귀정
▁고생하셨습니다
부디
▁얼척
▁지침
▁갈라서
▁죽일놈
▁힘들었
▁당대표가
▁상대방을
하는것처럼
거던
▁술에
▁추행
탱이가
해지니
▁극치다
▁된거야
▁없었지
으셨어요
▁국가경제
노는
▁경부
▁조항
▁빼돌린
▁없겠네
▁일이야
▁국민선동
▁달창이라
▁떨어져라
▁쳐먹어라
▁더불어터진당
준이
▁될까봐
▁이쁘게
달창달창
▁보건복지부
오직
▁일명
▁핵은
▁화물
▁바꾸지
가지말고
▁사실입니다
소통
척결
▁극렬
비핵화
▁도로에
▁시대적
▁앞으로의
▁후손들에게
▁자영업자들은
괴롭
호흡
▁입닥
놈들과
▁못오게
▁주만에
▁남북관계
▁떨어지지
산도
설명
▁도래
▁목회
▁살때
▁야단
▁측정
▁수사팀
▁하겠죠
▁관점에서
▁한국제품
▁친일파라고
▁년형
▁불우
챙기는
▁아기를
▁(.%)
▁국위선양
▁이산가족
수꼴
원내
▁저짝
▁전임
▁천민
천만원
▁감당할
▁달라도
▁닮아서
모의
년들아
전쟁이
▁못받아
▁제발요
▁혼란에
▁보면서도
▁지껄여라
▁침묵하는
▁일식
▁형을
플러스
▁못간다
▁방송도
▁복지를
▁저거는
될걸
종합
▁못벗
려하네
팔이로
▁오바마
▁혐의로
가지가지
기레기야
▁못하는건
▁비참하게
▁사퇴하면
▁인건비가
▁별별
급이네
회사는
동반
애서
▁걷는
▁공문서
▁낮추고
▁더불어강간당
어어
▁번만
▁산하
▁발원지
▁범죄의
승자
전범
▁건드려
주는구나
▁쓰레기당
개뿔
▁만듬
무도한
▁절대안
▁머가리가
▁존경하고
방가
▁트랙
겠더라
▁좌파와
▁만들어주
▁뭐했는지
▁어찌되었
▁조선일보야
▁-%
▁꿀빨
▁돈받
▁총대
▁소인배
▁야당도
▁도덕성이
▁식민지로
▁진영논리
책은
▁상응
▁장땡
▁가치관
▁이새기
▁늦었지만
▁내로남불에
▁막아야한다
▁망쪼
▁그대가
▁팬클럽
▁필요없어
매를
숫자
▁부흥
▁않죠
았을까
▁모른체
▁시급한
▁음식을
다는건데
...^^
마구
열사
▁놔둬
▁뚝딱
▁뭐함
해야돼
▁무기로
▁친구를
▁받습니다
▁힘들지만
셨음
▁기독
▁기재부
▁보내야지
▁탄핵사유
▁나라경제가
▁버럭
▁나누고
▁디지게
▁웬만한
▁페미는
족은
▁신을
▁왜요
결과는
▁건국이래
편의
▁경희
▁돌보
▁분해
▁약이
▁자도
터지는
▁되었을
▁영양제
▁짖어라
▁초중고
▁구멍가게
▁조작이다
▁좋아하는데
당만
호남
▁뛰고
▁일뿐
▁나란히
▁놀라울
▁바빠서
▁섬기는
▁일어나라
▁한국국적
▁조사해야한다
왜냐
판인데
▁감방갈
▁정책과
▁이인간은
▁장관임명
▁좌좀들아
▁직장에서
자원
▁이원
들과의
이유로
▁말투가
▁어쩌란
▁다물어라
▁생각하자
▁자신들은
▁중간에서
간신
지인
▁도모
▁두뇌
▁명목
▁공약은
▁권한이
▁속국이
▁촛불의
한국당은
▁구현
▁스승
▁있슴
겠구먼
기자님
보니깐
아닌듯
▁체제를
떨지말고
▁수고하셨습니다
논다
▁훼방
▁싶다면
▁조작단
▁그사람들
▁뭐합니까
▁이세상에
발사
▁자선
뒤집어
▁물가도
▁불보듯
▁싫으니
▁할머니들이
▁실제는
▁실체다
▁일벌백
▁저세상
▁말았으면
▁중에서도
▁한국정부
▁건수
▁교복
▁메신
냈으면
▁대안도
▁언행을
지지율이
▁개판이지
▁그러라고
주문
것같음
▁강지환
▁다행히
▁단체는
▁달라서
▁못차린
▁숫자를
▁정권유
▁같은것들
▁짱개들이
▁피의자가
▁술마
▁움켜
▁폭증
경우가
셔야지
▁무죄로
▁아까워서
머저리
▁막아버
▁여자나
▁우상화
▁의견도
하시는게
▁중앙일보가
▁김혜
▁쪽빠
▁기대한다
▁기자라고
▁주십시요
담화
▁꾸짖
▁이런애들
말구
아까
▁가루
▁구치소
▁정권잡은
▁비례대표제
남성
▁국이
▁몇살
▁쓰다
▁이의
▁층간
▁그밥에
▁올라도
▁잊어버
▁하는거랑
▁사람들인데
사발
상가
문제지
철저히
청구권
▁국가냐
▁오만과
▁이거다
▁그때까지
▁도산
▁돌린
▁생필
진중권
▁걸러야
▁양치기
▁편들고
이지말고
▁맹목적인
▁성적으로
▁좋아합니다
나만
▁서식
▁흘린
▁다알고
▁오만방자
▁쪽발이들
▁오길
▁유씨
그것이
▁경원아
▁좋을것
▁피하고
▁신변보호
▁주사파들
!!!!!!!!!!!!!
나머
쓰게
▁낳지
▁탓이
▁푸른
▁촛불에
▁광장에서
▁정경유착
▁조중동과
▁김두
통이다
▁심장이
▁없을것
▁스스로의
▁댓글알바들
개씩
공제
▁공업
▁배나
▁무슨짓
▁않하고
▁원자재
▁쳐먹을
▁지지자는
▁행동하고
▁대행
▁몰지
▁낮아서
▁자존감
▁저래서
▁돼지열병
악의
▁포섭
▁금액이
▁일본제
▁좃선은
▁감방으로
▁대통령직
▁시각으로
▁학생들의
분전
▁품고
지들은
지못할
▁기억을
▁나쁜건
▁마시는
교도
병도
▁떼고
▁모이
▁전엔
▁증발
잡이로
줬으니
▁가봐야
▁안써도
▁요새는
▁최소화
▁개소리가
▁저사람은
중이라
행위는
▁국방비
▁추하고
▁황교안의
섹히
지면서
할말이
▁두동강
▁민족은
▁부분에
몰고
▁막막
▁후유
▁데모만
▁빽으로
▁새발의
정권이다
▁국민들에
▁김진태가
▁대상이다
▁오른다고
~~~~~~~~~~
▁들만
▁스폰
▁인위
▁거짖말
▁절차를
▁립서비스
▁이시대의
▁너덜
▁먹던
▁욕한
▁조나
▁폐암
▁마시오
▁비싸면
▁자격으로
▁종북빨갱이
경에
라다
바가
성추행
▁들었던
▁무늬만
▁어이없
할것입니다
▁대통령인가
율도
▁거를
▁귀싸
▁놓지
능력도
▁구하는
▁아닐지
▁대구시민들
▁진영논리에
▁더잘
▁삼성과
▁압박을
▁이건희
하다보면
▁시위하고
▁이재명은
▁이중국적
고있는거
자한당이
▁노릇이다
▁불편하게
▁저두
▁지니
▁친위
겟다고
이미지
▁걱정할
▁넘기는
▁신생아
▁수준이하
▁하면서도
▁인간이라고
볼래
▁잡힐
보수들
하단다
▁거니까
하겠구나
▁장구치고
▁헤드라인
▁자유민주주의가
▁짓도
▁훈수
▁사투리
니아
▁낙수
▁행진
▁허긴
뉴스는
▁그지역
▁조금더
▁.........
점이다
▁먹으며
▁않느냐
시키라고
▁당신들을
▁수상하다
▁잘하고있다
▁대회
▁우파의
▁감사하게
▁민낯이다
▁부관참시
▁술마시고
▁유튜브로
돈에
심의
평균
▁진태
분으로
지하철
👍👍👍
▁무섭게
▁할까봐
▁치매노인
▁파괴하는
척하고
▁저놈이
▁무능정부
빤스
▁것일
▁네들
▁반짝
▁여포
그렇고
▁ᄉᄁ야
▁단체들
▁발목을
▁불편해
북한북한
▁망하는게
▁않을거다
▁경질
▁옹졸
홍준표
▁검찰로
▁교안이
▁또한번
▁오는거
▁독재자가
▁만원이면
▁박영선은
진료
▁내뱉는
들어가면
민주화운동
르니
전의
▁되자
▁잊어
▁초계
신들아
▁이따구
▁인사는
▁죽겠는데
▁능멸
▁코에
▁헐뜯고
▁사람들로
▁다른나라는
▁지긋지긋한
폭발
▁송구
▁왜국
▁유혹
▁시위는
▁안돼서
▁유권자
▁특징은
▁손가락을
▁장난치는
▁좌파우파
▁개소리하네
▁원내대표가
▁떨어트
▁이사건
▁할망구
놈들한테
▁이해찬은
▁즐거운
▁했는가
▁프랑스는
완료
▁다친
▁아아
▁원리
거리다
이다니
있잖아
▁거지가
방귀
시티
▁빨던
▁팔아도
▁돌아가면서
▁다짐
▁소아
▁조그
▁키즈
▁게임은
▁심한데
▁싶은게
▁공산당에
▁나라팔아
▁다행이네
나기
딸도
오라
▁줄까
▁코너
▁타지
하것다
▁공인이
▁관상이
▁눈깔이
▁해주라
▁단순하게
▁야야
국가다
▁같기도
▁불과한
▁시간과
▁장사치
▁한명은
▁말하세요
▁부도덕한
▁아파트에
자주
▁알만
▁자각
▁조ᄉ
▁힘듬
붙이고
인들과
▁따지지
▁발상이
▁천막은
▁파악이
▁흘리며
▁건은
▁빨아제
▁역사도
▁이념과
▁개소리나
▁느껴지는
▁수학여행
▁올린다고
▁자영업자들이
ᅮᅲ
▁그당
▁눈멀
▁된듯
세상을
최소한
▁김지은
▁잘어울
▁지내고
수있다고
어가는데
냈는데
살아서
▁미사일이
▁정은이에게
삼이
혈세
▁미미
▁염장
▁피임
▁돈까지
▁말해보
▁시끼들
▁나경원의
▁지랄이네
놈에
모여
▁개이득
▁대표를
▁족바리
▁피해서
▁대통령만
▁살리려고
가든
▁숨도
▁짜요
▁불쏘시
▁사람인
▁일요일
하지않은
▁살수있는
셨던
횡단
.."
▁숙제
일본의
▁느낌은
▁해먹는
해주는데
▁너희들을
▁아니었어
발림
범도
▁미소
▁어수
▁전여
인데ᄏᄏ
▁명불허전
▁유승민은
▁유시민도
희망
▁벌이
▁욕망
▁포격
▁걸렸네
▁저자가
▁치면서
▁언론이나
▁국민입니다
▁근절
▁좌시
▁노무현도
▁사람이랑
▁인과응보
▁학창시절
박은
▁사각
▁장대
▁주년
▁각오로
▁욕한다
▁이혼한
▁행복해
▁쟁취
▁내년엔
▁맞지요
▁석열아
▁홍남기
찍는
판정
▁못만
영감
토가
▁약물
▁취준
▁ᄏᄏᄀ
▁이민가라
렀네
▁개성
기업에
뭐하냐
질해서
▁관상은
▁문통도
▁있으라
▁아닥해라
▁웃음밖에
▁장관자리
▁생각해보자
▁오죽했으면
작품
퀴야
수있지
지사가
▁골때리는
▁국가간의
▁사실인지
▁할일없는
▁리얼미터가
했는
▁직속
▁탕진
▁관계는
▁싶겠냐
▁기본이고
▁비핵화는
▁살아가야
▁인간답게
▁전체적으로
▁된건
▁라임
자로써
▁그런일
▁아끼고
▁잇는데
체육
▁갖는
태어나
▁올리기
대통령의
▁감시하고
▁노예처럼
▁야비하고
▁웃고간다
▁그렇다치고
▁민국
▁빽빽
▁의장
▁농산물
▁시키냐
▁사람처럼
▁탈원전으로
날라
베충
인턴
▁경욱
먹이고
▁깨지고
▁난리칠
▁몰랐나
▁토착왜
▁욕해야지
▁책임전가
▁북한대변인
엇네
▁잠수함
보지말고
▁이시점에
▁잘한다는
▁바이러스로
부류
의지
줬지
▁부상
▁진자
인사들
▁효과를
▁망신이다
▁망합니다
▁우리에겐
▁혹시라도
▁한국당에서
공안
▁앉은
▁소리들
▁우리법
▁조금도
▁통채로
▁폭력은
했을거다
▁이명박때
루야
▁넘치
▁빌라
▁표얻
먹었다
▁못배워
▁복지는
""""""""
줄어
▁밀집
▁번복
▁입지
▁조목
▁건방진
▁그러더니
▁활동하는
하겠습니까
엇나
▁사퇴해
▁공권력이
▁기본으로
▁유흥업소
▁지났는데
▁자영업자가
▁힘쓰
기자야
한적이
▁먹었나
후반
▁안면
▁온거
스젠더
였구만
▁비웃고
▁것이라는
▁안든다고
▁정신건강
▁퍼트리는
꺼지
▁거칠
▁구워
▁발포
▁진급
▁관리도
▁늘었다
▁바라며
▁바르고
▁여당을
▁재앙이랑
▁현명하게
가려
▁트젠
▁시켜도
▁이색히
▁찍었다
▁드러내고
▁이정권의
▁재앙이도
▁휘두르는
환수
▁기억해
▁하는줄
▁사람들이나
▁방화
▁삼성폰
▁썼다고
▁살지마라
▁국민으로써
졌어요
▁대법관
▁붙으면
▁자일당
▁한명숙
왔습니다
▁긍정적인
▁칸
저항
후원
▁근간
▁대본
▁세가
▁신부
하셔요
▁구조를
▁망상에
▁본거지
▁정신승
▁임기동안
러기
쉴드
▁임태
▁혜원
▁목표가
▁대깨문과
▁자연스레
슈타
위성
전원
할인
▁할께
퍼센트
▁망가트
▁하느님이
미투
▁무었
새끼를
▁국민탓
▁사우디
▁이회창
▁정권바
▁하길래
▁할일을
▁마스크로
▁법무부가
▁집권여당
▁권총
리겠다
▁치사한
▁만져
▁종종
▁출현
급이다
왜구당
재앙아
▁개들은
▁모독죄
압수수색
▁늘어지는
▁않는구나
▁통제하고
용어
▁아반
▁머하러
▁한쪽만
▁주둥이가
잇나
차근
▁종속
▁개극혐
▁귀신은
▁불체자
▁약해서
▁이꼴로
▁일부는
▁길바닥에
▁보수단체
▁숭배하는
▁위반으로
▁하십니까
방궁
▁뱉은
▁봤음
▁처방
▁국방력
▁없자나
을겁니다
▁돌아봐라
▁삼성에서
▁자율주행
▁처벌하는
▁타인에게
▁문제인거지
지자
▁신랑
▁쫄딱
▁튀겨
있겠지
▁개혁에
▁이겠지
▁****/
망한
파에
▁끼가
▁배당
▁업계
▁당리당
▁애낳고
들어가고
▁고속
▁권장
▁채무
▁먹을게
▁어쩔래
▁잣대가
▁재벌들
▁홍콩은
▁나라위해
▁미개하고
▁엄살
▁수십명
▁훈훈한
▁기자들도
▁입방
▁조준
망하고
안되나
▁귀닫고
▁자기들만
▁일제시대때
실력
특정
▁사투
▁조빠
▁년정도
▁제저자로
▁가두고
▁한글을
▁끌려가서
▁안철수를
▁일본불매
▁건강하세요
▁보도가
▁열어서
▁일장기
▁희생이
정신나간
▁필요한지
▁형편없는
♥️
렉스
▁먹음
▁한분
▁곧바로
▁반대할
▁웃지요
▁유럽은
▁치가떨
봐야한다
▁아닌걸로
분석
장부
장치
주둔
▁법제
▁거기도
▁본성이
▁유지하는
▁자랑이냐
▁수사하라고
▁안봐
시고요
▁남녀가
▁환자를
▁여행가는
▁알았습니다
냥이
▁바본
▁깜방에
▁년으로
▁죄송하다고
풀고
기때문
▁기자냐
▁총리는
▁한국민
▁도와줘야
▁그만하시고
▁패거리들이
삭제
▁김웅
▁쉽고
▁연차
코리아
▁교회도
▁본색이
▁아니던가
▁안되면서
▁환경에서
강요
창에
▁전매
▁행적
▁황교환
▁만들면서
▁왜그러냐
▁똥도
▁아첨
▁추후
▁하듯
백화점
▁고치고
▁난린데
▁에서는
▁읽는다
▁팩트지
▁정치인도
▁사실이지만
김치
순례
▁토요
▁피난
검사를
▁고소를
▁구속을
▁수사나
▁했었다
▁싱가포르
▁저런짓을
▁감성팔이로
▁저런인간이
철학
▁물든
▁헌정
▁그분이
▁기득권이
▁몰고가는
▁공산주의는
구분
▁과제
▁비워
▁시가
▁허물
설수설
▁도끼로
▁본연의
▁싸우다
▁영수증
▁원으로
▁국가대표
▁판단력이
▁찢어버리고
부탁드립니다
주제
기레기들
▁멍청하면
▁부동산에
▁비굴하게
▁사진찍고
▁지방으로
태극기부대
▁될꺼
▁갑질을
▁댓글좀
▁수익을
▁기다려야
▁찾아내서
▁공단
▁물건이
▁애국가
▁우스운
▁당연한걸
▁때다
▁백악
▁되시길
▁법조인
▁알바를
▁없기를
▁여하튼
▁할만큼
▁대한애국당
▁쪽팔리지도
콜라
▁경심
▁무급
▁받던
▁적군
문정부
▁같은놈
▁보기가
▁심부름
▁의원수
▁대통령이고
사야
▁대담
▁차분
광신도
하려니
▁길바닥
▁못보게
▁악이다
▁영혼이
▁이롭게
유니클로
▁욕먹어도
▁감면
▁할건
▁손석희는
▁여성들은
▁했으면서
▁지금부터라도
▁값을
기술을
▁다를까
▁바보지
▁이중적
▁기사쓰는
볼땐
▁끝에
▁승계
▁나라만
▁기가차서
▁기사입니다
▁적폐청산을
뿌리고
▁나물에
▁물고기
▁비난만
▁욕먹지
▁주제도
▁돌아가네
▁행동이다
▁자유시장경제
벗은
치러
▁거액
▁동물이
▁해주길
▁노벨평화
▁위선으로
질때
▁뒤엎
▁하곤
모르냐
▁맛있게
▁문빠는
▁선거용
▁말입니까
▁철수하고
▁문재앙이다
▁시민단체가
▁논리적
▁너같으면
▁사법부의
복무
▁과속
▁방류
▁여호
▁익명
▁피와
병원에
▁개검들
▁기자를
▁믿어라
▁본모습
그레이드
▁국가부채
▁논리대로
히다
▁권유
고싶지
돈주고
▁고쳐라
▁너거가
▁신념이
▁잘보고
▁가정폭력
▁바라는게
▁청년들은
▁문재앙이나
▁살려달라고
처서
▁기정
▁야권
▁착착
▁처가
▁화상
▁우발적
▁위선을
▁좋을거
▁빨갱이지
▁아부하는
▁자랑하는
▁저능아들
▁어떻게하면
▁있는것이다
깊은
▁두지
▁배임
▁송철
▁개죽음
▁틀딱이들
▁폭망하고
▁곤두
▁또래
▁수렴
▁후달
▁교육도
▁상당한
▁재미로
▁기는
▁취지
▁해지
보기도
행동이
▁배고프
▁조사나
▁지들의
이더라
▁벌어야
▁남한에서
▁우리정부
▁중국인입국
두려
▁도람
▁손아
▁직행
거같아
바꾸고
▁부담이
한것들아
▁기부하고
▁절대반대
▁박근혜탄핵
래서
▁예천
▁환멸
▁밀어준
▁붙들고
▁진심을
▁내세우는
▁떠나거라
▁물어보자
▁발표하고
▁아들이나
보일
▁기기
▁무거
▁즐길
▁내용에
▁지나지
▁할짓이
▁교수들이
▁약국에서
▁전관예우
▁헛소리야
▁우리나라로
▁소리하고있네
긍긍
이소
▁법사
▁희토
▁끝났네
▁나타날
▁연설문
▁공개처형
▁지원해라
▁철수하면
▁안되는거다
▁들었냐
▁추운데
▁꼴통들이
▁문제이다
금리
▁지울
▁팬이
▁합류
년이다
▁멈추고
▁자유한국당의
죽어라
▁사라짐
▁에서도
▁가능하고
▁그만이지
▁현재까지
▁카니
▁상처가
▁하루만
▁범죄혐의
▁않으려면
▁자한당만
▁끼는
▁만신
▁저만
경기도
언론에
▁부적절
▁당연한것
▁듣는거야
▁탄핵청원
▁압수수색하고
주위
햇지
▁붙잡
걸까요
▁소장
▁됐으니
▁호날두
▁그랬을까
▁기반으로
▁사용하면
▁잘못해도
▁대가리깨진
꼬봉
▁가차
잘못된
▁국제정
▁넘어선
▁다니나
▁속으론
▁안일한
▁작자들
▁회장님
▁비교하냐
씨와
캐슬
한남
▁안말
▁암말
부분은
싫어서
외국인
▁산채로
▁중앙아
▁대선토론
▁매일같이
▁정식으로
▁쪽팔리다
하는겁니다
▁끌어내리자
▁램
▁참관
▁한듯
▁흉노
김학의
돌리기
역에서
오면서
▁가자고
▁일해야
▁즐라도
▁그것보다
▁나쁜사람
▁동문
▁억만
▁돈까
▁복권
▁빨래
▁촉진
▁문제라
▁새마을
▁쟤네들
▁지킨다
▁경찰에게
▁니들보다
▁대통령인지
ᄌᄌ
비해
▁미흡
▁방심
▁청문
였다니
청원이
편으로
▁간첩질
▁그들과
▁합의금
빌려
▁상여
▁상명하
▁온전히
다는건지
이라해도
학생들이
▁뉴라이트
▁대통령감
▁생각하게
▁싸지르는
▁전쟁에서
▁대통령되고
되죠
▁문개
▁민족성
▁옛말에
▁역사공부
▁더러운것들
▁사다리
▁정책이다
접촉
▁주부
새퀴들
▁기다리면
피의
▁속인
▁받아줄
▁준다면
▁알아서들
▁자격지심
짝이
▁돈번
▁만점
됬는데
새기가
▁교육의
▁무서울
▁잘살면
▁말해야지
▁부화뇌동
▁했으니까
받네
▁복붙
▁이춘
▁직종
▁발바닥
▁철수야
▁장수
▁업무를
국정농단
긴하지만
▁주민번호
손이
▁반값
▁산에
살기로
성범죄
▁문제될
이로구나
▁잡혀서
▁특권을
▁일본애들
정의를
▁배이상
▁식구들
▁왜놈들이
▁적당히들
▁북한한테는
분자
퇴직
▁날카
▁작자
▁이란다
▁재미가
▁전쟁의
▁북한사람
▁집주인이
싸서
▁개야
햇으면
▁안쓰럽
▁요즈음
▁자식의
▁헛웃음
▁파괴하고
▁있었을텐데
조목
호황
▁혼인
▁더운데
▁막는게
▁불러라
▁심해서
기준으로
▁사는구나
▁있음에도
▁어르신들이
갈수
건에
▁아카
뒤에서
▁늘리면
▁나와야지
▁왜곡하는
▁빨갱이들을
▁지소미아는
록에
이동
재인이
▁우짜노
▁치르게
▁강경하게
▁일본정부
▁더나
▁볼일
▁총맞
상태가
▁들리는
▁똥물에
▁소름이다
▁존재한다
개혁을
▁국군의
▁네놈이
▁떠나면
▁매매혼
▁진실과
▁자기들도
▁젊은이들은
▁하고싶은대로
떼고
사드
▁센스
▁즐겁
년이나
▁허우적
▁대깨문들의
할만
▁윤춘
▁교수를
▁기술도
▁기존의
▁뭔놈의
▁우습지
▁조민은
▁해명이
▁비겁하고
▁잊지마라
▁책임회피
이그
폭격
▁개다
▁가는것
▁귀기울
▁사장은
▁전국이
▁요구하고
▁당연한거다
▁국대
했던게
▁불친절
▁수치를
▁위협이
▁하는꼴
▁그쪽으로
▁속보인다
▁하고있는데
▁에는
▁왜해
▁이공
▁열등감에
총수
▁내탓
▁싫지
▁어캐
▁티를
▁승리를
▁주겠다
▁누구더라
▁들먹이며
체어
▁에세
▁헤헤
석으로
제정신
▁방구석에
울때
퍼주
▁과자
▁성남
▁협잡
▁년후에
▁위험하다고
▁뭐네
▁싸웠
빠지고
을지도
▁독일은
▁무면허
▁선동한
▁관리하는
▁넘쳐난다
▁락
▁겁이
더이다
▁국가원
▁부담을
▁파악도
▁한때는
▁퇴출시켜야
됐음
비나
찬스
▁글쓰
▁낮고
▁성조
▁저꼴
▁북중러
▁분열과
▁불매를
▁쓰이는
▁좌파도
▁이념으로
▁정치공작
▁상관없는데
된장
말살
▁상책
▁유모
▁서울대는
존중
▁만취
▁송환
것부터
법위반
▁된거냐
▁어느쪽
▁전세금
▁개표조작
재기
▁너님
▁먹냐
▁산소
▁언냐
▁싸움은
▁정권아
▁투표함
▁개똥같은
▁시대인데
▁아무생각없이
고싶고
▁사주고
▁서로의
▁예의도
▁잘됐다
▁몸은
감정은
마지막
▁간첩을
▁나라면
▁들러리
▁잘봐라
▁지지는
▁판사를
▁지랄하는
▁나오는거지
▁됐어
▁국가들
▁불법과
▁삼겹살
▁신의한
▁심하고
▁없애야한다
사납
▁칼럼
▁할려
만큼의
버리니
▁언행불
▁조건이
▁한군데
▁가능하게
▁내려와야
▁책임이다
▁호위호식
예약
▁굶겨
▁일류
김어준
지도자
하셨다
▁본투표
김정은이
▁웅동학원
▁저렴하게
귀가
▁문대
▁일탈
▁자매
방송을
▁말하니
적이네요
▁아쉽네요
분리
▁외엔
가능성
▁심판할
▁연루된
▁팬미팅
▁회사의
▁한다는건
끌려
침몰
그러다
▁총선용
▁애국심이
싸이
▁비대
머리로
장까지
▁같아도
▁뜯어서
▁백성들
▁사는것
▁주장한
▁참신한
▁밝혀지고
▁얻으려고
꾼이
호나
▁나와요
▁의무화
▁틀어막
▁말았어야
▁천년만년
릴라
진출
▁천하
▁패트
거기서
▁영화는
▁통계는
▁일본과는
▁피곤하다
땐데
사범
▁당론
▁뭔일
▁줄게
▁비지니
▁자유다
▁가정에서
▁뉴스라고
대결
목은
쳤냐
▁노조를
▁많은건
▁인간인가
▁서울대교수
됬네
▁어색
주변에
힘들게
▁과학적
▁염치가
▁박그네는
▁구타
▁니말
▁대부
▁봤을
봤지만
티스트
▁이철희
낮에
성욕
▁ᄂ이
▁하류
▁걸리지
▁힘든건
▁이럴때는
노선
실도
▁구명
▁돌았네
▁모처럼
▁전형적
▁청구권
시대인데
▁못했다고
▁이어지는
▁찌질이들
▁교육부장관
닌가
패딩
▁넘의
▁두드
▁못산다
▁사지를
▁죄송하다
▁미숙
▁문두로
▁배현진
▁뺏기고
▁악영향
▁얼마남
▁사람이지
▁지경까지
▁중소기업이
▁조윤
▁항문
부르고
▁간신히
▁교수로
▁파이터
▁불쌍하지
▁있다는건
▁지방자치
▁한사람으로서
뇬은
▁서는
▁찌꺼
마리가
▁못받은
▁시비를
▁프라이
▁남았는데
▁로동
▁애나
▁내생각
대상으로
▁찍어주는
▁최악으로
▁못봐주겠다
장면
특필
▁도매
▁동기
▁굴하지
▁댓글들은
▁중요한가
▁한심하네요
▁정봉
▁맞을듯
▁살아나
▁이처럼
▁장관의
버려야지
셔라
잡기
▁아고
▁대접을
▁명령을
▁목숨은
▁진행중
▁이쯤에서
▁당연하다고
▁지금까지도
▁습성
▁글쓴이
▁문제여
▁쳐넣고
▁영혼까지
ᄉᄋ
교포
▁구렁
▁리플
▁숫자는
▁그랬다면
▁놈들인데
▁다른지역
▁되는거임
▁되었네요
▁뽑아주는
▁하시나요
▁박근혜한테
▁사납
채우고
▁그거야
▁미역국
▁암울하다
▁강다니엘의
▁능력없으면
올로
보이면
▁눈물흘
▁많이나
▁빨면서
▁지내는
▁힘들때
▁도와달라
▁예수님이
▁문재앙한테
▁못버
▁해운
▁뒤지는
▁사학비리
▁쩝쩝이는
▁대통령님은
▁욕하지마라
주체
후예
▁독이
▁한지
▁개조선
▁기록될
▁법정에
▁싸우자
▁악플이
▁사실인가요
하시다
행위로
▁스토커
▁저주를
▁먹었는데
▁앞세워서
연맹
▁바늘
▁숨긴
▁할당
▁매스컴
▁그렇게나
▁경청
▁찍찍
있는듯
▁모하냐
▁야당에
▁난리치고
▁대학에서
▁들어오게
▁👍
▁):
▁간병
▁까내
▁전경
▁쳐야
버닝썬
▁요직에
▁응원을
▁자가격
▁구라치고
▁요리조리
▁전교조가
▁꼴보기싫다
차익
▁발발
▁준수
시장님
▁안그랬
▁일인지
▁지들편
▁감추려고
▁나경원씨
서고
저지른
▁남의집
▁늬들은
▁이니까
▁데려다가
언젠
▁비벼
나와도
▁가보고
▁감자탕
▁그런줄
▁담배피
▁써놓고
▁곳곳에서
▁한두번이
▁인도네시아
가수
류탄
▁개쓰
시켜주
운전에
▁실거래
▁중공군
▁지켜줄
▁직원을
없으면서
▁그정도면
▁신종플루
같으니라고
▁나갱
▁따까
▁살아날
▁정도만
▁돌봄
▁죄짓고
▁사라졌다
▁우선이지
뜯는
협의
▁여사
알바들
▁미친나라
▁서리풀축제
▁좌파정권이
말기
치의
▁더많
..;;
▁살자고
▁다아는데
▁이런다고
쓰레기들이
▁구속수사해라
박수
월일
▁거리지
▁밝혔다
▁밥그릇만
▁이렇게라도
잖소
▁벌떼
▁쇼가
▁옮긴
▁구국의
▁년들이
중에서도
▁법무부장관은
밥에
주부
▁뜻에
▁유서
▁필사
시킨거
▁놈인데
▁반성좀
▁미국시민
스쿠
▁꾸며
▁장도
▁느껴지
안타깝다
▁성소수자
▁탄도미사일
▁해야되는거
뭐고
할말
▁걸래
▁근육
▁담긴
▁망설
▁알것
빠르게
▁경제로
▁
.
이
다
는
고
하
지
가
들
라
도
나
아
한
에
?
은
니
사
기
국
서
어
리
대
인
자
로
을
,
정
해
그
ᄏ
면
게
거
의
!
만
시
보
으
일
야
수
데
주
~
민
부
네
있
제
요
문
안
당
말
를
조
무
구
없
냐
세
것
전
원
신
마
상
개
재
진
장
까
여
치
우
저
내
미
려
중
생
되
건
적
선
소
모
할
공
더
금
동
간
스
같
과
통
오
못
경
성
러
비
겠
유
람
본
런
했
위
바
때
권
단
심
입
와
실
불
잘
살
명
교
왜
히
남
회
너
래
화
짜
발
각
처
분
파
관
임
반
었
산
음
차
먹
르
노
방
식
법
북
받
않
알
박
걸
집
년
드
운
감
계
애
역
직
체
던
물
뭐
령
청
좀
쓰
용
놈
질
합
연
빨
-
많
난
좋
든
행
속
작
터
두
업
"
된
렇
레
친
력
봐
새
영
돈
죄
망
죽
검
버
언
트
누
준
근
끼
호
군
럼
천
참
좌
님
달
글
줄
번
학
표
매
판
결
배
키
테
찰
짓
현
)
랑
디
습
(
강
맞
등
피
양
냥
'
앙
외
론
쳐
ᄒ
ᄍ
종
김
타
능
태
벌
았
총
잡
올
또
함
ᅳ
족
른
급
듯
예
넘
추
얼
최
란
길
독
베
닌
악
날
출
후
돌
며
석
열
져
절
머
린
싶
욕
빠
울
병
댓
따
프
책
느
손
막
격
온
놓
증
투
돼
답
깨
편
희
워
황
씨
변
순
슨
창
크
목
갈
혜
평
힘
몰
월
설
광
폐
탄
싸
죠
^
복
갱
겨
토
형
범
코
럽
억
확
폭
핵
ᅲ
약
포
될
긴
;
먼
켜
눈
팔
뭔
웃
앞
쪽
충
초
점
잖
꼴
철
늘
환
응
패
극
끝
믿
똑
필
료
루
착
였
%
삼
떻
싫
뒤
똥
특
승
혼
별
꺼
존
백
엄
/
줘
혀
색
찬
딱
취
허
찍
떨
활
떠
름
써
송
뉴
쟁
탈
틀
녀
논
찌
품
택
:
록
*
굴
얘
몇
득
립
윤
뻔
완
카
혁
뿐
ᄉ
뽑
꼬
징
담
항
퍼
락
꾸
술
밖
왔
졌
놀
릴
갔
험
육
협
께
퇴
뭘
엔
휴
랄
겁
곳
향
십
갑
움
ᆞ
뇌
짱
딸
귀
율
견
렸
큰
텐
ᄌ
밥
탓
익
접
티
값
멍
척
ᅮ
압
=
염
침
메
빼
꼭
홍
났
갖
봤
련
끄
쇼
ᄋ
됐
림
채
숨
즘
볼
봉
ᄂ
젠
밀
골
규
셨
듣
괴
풀
럴
찾
페
혹
ᄇ
플
덕
둘
슬
쌍
떤
축
닥
쩌
ᄃ
밝
잔
딴
쓸
끌
붙
걱
왕
땅
옥
궁
맘
쁜
류
ᄀ
ᄅ
큼
꾼
셔
넣
털
념
깝
솔
썩
브
둥
덜
쓴
첩
암
클
낙
씩
커
핑
례
쥐
팅
케
량
쉬
맨
쩝
넌
높
됨
촛
챙
헌
훈
맛
깐
렴
팩
랍
칠
탁
졸
폰
숙
섭
혐
잠
째
엇
낸
짝
좃
농
몸
뜨
빵
헛
튼
랐
줬
킨
랬
맹
멀
쳤
뜻
멸
엘
괜
층
됩
효
잇
욱
앉
깔
숭
겼
짐
즈
겹
닭
납
혈
쉽
풍
–
빌
젊
읽
뿌
닐
낫
떼
릇
ᄁ
삶
줌
놔
묻
뀌
찮
롭
쁘
낮
칭
센
킹
뜯
걍
블
싹
땐
웅
멋
곧
뒷
겟
엉
얻
빈
쯧
냄
쩔
짖
뛰
맙
{
+
}
닫
깜
묵
딩
\
껄
곤
롱
휘
몽
곡
밑
률
낳
헤
힌
봅
떡
낼
흔
쿠
칼
객
뭉
옳
퀴
닙
슴
둔
쯤
즉
측
액
햇
벗
꿔
및
웠
옹
씀
덩
략
뢰
렵
늙
둑
탕
잊
킬
쑈
훨
널
똘
슈
콩
꿈
덮
끗
옷
삭
껏
ᅵ
잃
땜
껴
흘
싼
끔
옆
냈
쇄
긋
균
늦
빡
튜
씬
흐
옛
팬
둬
떳
쪼
빙
헐
걷
획
랜
픈
꿀
렬
ᄆ
넷
굳
켰
봄
녕
캐
흥
#
놨
벽
낌
칙
끊
벼
첨
맡
ᄊ
슷
흉
ᄎ
헬
앗
푸
씹
션
춰
씌
깡
벙
턴
즐
[
춘
]
픽
롯
냅
빚
붕
맥
튀
뇬
쟤
쉴
촉
렁
짤
썼
밤
좆
뺏
섬
흑
댕
쫌
뻥
겐
쉐
훠
낭
꼼
잉
푼
츠
삽
낀
닝
쏘
🐕
퉤
늠
숫
싱
쌀
촌
읍
왠
덤
@
렀
엿
뿔
됬
옴
듬
밟
뚱
_
땡
쫄
💙
뽕
컨
옮
찢
냉
빛
잣
찐
낯
눠
쌓
쩡
찔
ᅢ
딜
뷰
젤
팍
é
굶
윗
랙
템
혔
뱉
꼰
콘
랏
섹
👍
믄
겄
꽃
펀
롤
끈
—
륜
빤
삐
웨
녹
뻘
갓
셈
쇠
램
썬
묘
앵
훌
텔
왈
쎄
탐
훼
힐
$
낄
탱
젓
줍
겪
톡
흡
컴
링
갚
뼈
춤
닮
깊
첫
벤
빕
벨
륭
펴
껀
멘
팀
룩
깽
콜
럭
칸
눌
겸
므
♥
겉
슥
샤
쏟
옵
쏴
쌩
️
팽
엮
빽
랫
ᄐ
긍
컷
멈
굽
쭉
뤄
델
렉
횡
윈
댄
릿
엎
쩍
융
ᅩ
탑
홀
뜬
랴
쑤
늬
흠
핸
뚜
띄
뭣
쯔
뒈
몬
톱
릅
펑
ᅡ
텅
듭
웬
걔
쿨
쫓
콧
쾌
깍
폴
샀
뚝
캬
