<unk>
<pad>
ས་
ང་
ི་
ན་
ད་
ར་
ལ་
ག་
འི་
ོ་
ུ་
གས་
བ་
མ་
ེ་
ྱི་
བྱ
ོད་
དང་
རྒ
པ་
ོན་
རྒྱ
ོང་
སྐ
ུང་
ིན་
ངས་
ིས་
ིག་
གྲ
ིང་
ོགས་
ེད་
ནས་
ཀྱི་
པའི་
ོས་
ེན་
ུལ་
གས
ོར་
ེས་
འད
སྒ
ོག་
ུས་
སྤ
གྱི་
མས་
▁ད
ུན་
བས་
གི་
ལས་
སྐྱ
སྟ
ུགས་
ད།
མི་
▁།
འག
རྩ
ུར་
ཁྲ
དུ་
འབ
ེལ་
▁བ
གཞ
བྱེད་
ས།
ཁྱ
ེར་
ོའི་
ཚོགས་
དག
རི
དེ་
བའི་
སྒྲ
ོངས་
ཆེན་
བྱས་
སྲ
ུག་
བཅ
ིད་
▁ག
ྱིས་
འ་
དང་།
པར་
ན།
ོབ་
སླ
སྡ
གཏ
འཕ
འཛ
ཀྲ
ཡོད་
བཞ
མཐ
▁ལ
རྒྱལ་
པོ་
▁ར
འབྲ
ཕྱ
▁མ
རྟ
ུབ་
ནང་
ོལ་
དཔ
དོན་
ལྟ
▁འི་
ནི་
སྔ
ལྷ
འགྲ
ུད་
འུ་
སློབ་
དམ
བྱ་
ྱུར་
སུ་
གནས་
ཁང་
ཞིང་
པ།
ཞིག་
མཚ
ེད།
དྲ
ཡིན་
གཉ
བྱུང་
སྣ
འཇ
ོད།
ུམ་
རང་
རིགས་
ལོ་
རྗ
བར་
གསར་
གཅ
ཀྱིས་
བཟ
གླ
སྤྱི་
ཏང་
གིས་
གྲོང་
ུའུ་
ཁུལ་
རེད།
བོད་
ལ།
སྦ
ཀྲུང་
རྫ
ཡང་
ར།
རྣ
ོམ་
ཟླ
ཡོད།
ིའི་
སོགས་
དབ
ཁ་
རྒྱུ་
དུས་
ེང་
སྨ
བཞིན་
རིག་
ལྡ
ེགས་
ེའི་
བསྟ
འཕྲ
སྤྱ
ལམ་
མེད་
མཁ
མང་
དང
སྲིད་
ཞི
ཚད་
ཡུལ་
གཉིས་
ེ།
རྒྱ་
ནད་
ུའི་
བཤ
▁དང་
སྙ
ོ་བ
འབྲེལ་
པ་དང་།
ིན།
གཏོང་
ཉིན་
སྐྱོང་
ཚོ་
ཀྱ
ཏུ་
ིགས་
ཕྱོགས་
དག་
ལྗ
གྱིས་
ཡོངས་
གཅིག་
བླ
ཞིབ་
མཛ
འཁ
གོ་
བ།
མོ་
འདྲ
སྐྲ
རྡ
ཟླ་
གཞི་
གཙ
འཛིན་
ཐོན་
འདི་
ཐོག་
སྤེལ་
རིམ་
སྦྱ
དམངས་
སྔོན་
དབྱ
སྐབས་
སྒྲིག་
ཞེས་
ོ།
སྐོར་
ཆེ་
རིང་
ཆ་
ཡིག་
རྒྱས་
▁དེ་
ལ་བ
བཅས་
ལག་
ྭ་
ེམས་
ཆུ་
ལྗོངས་
ལྡན་
ཤེས་
པས་
ཏེ་
ཆོས་
ཐེ
འཐ
ུངས་
ཉམ་
གསུམ་
འཛུགས་
སྐྲུན་
བཀ
འགྱུར་
པ་དང་
བསྡ
གཞུང་
རྫོང་
གྲོས་
རྒྱུན་
ཁག་
བས
ཁབ་
ིར་
པ་རེད།
འཕེལ་
ལྟ་
དགོས་
རུ་
རྒྱལ་ཁབ་
རྐ
▁ཡ
ཚུལ་
འགན་
བདེ་
ཅན་
རྒྱུད་
སྤྲ
སྒོ་
▁མི་
ཚང་
ཁྱེར་
ཚེས་
ཀྱང་
ལུགས་
ཐང་
ལེན་
ཧྲ
ཤུགས་
ཚན་
མད
རྣམ་
ལྟར་
རི་
ཨ་
སེམས་
གསོ་
རྩོམ་
མཉམ་
▁བོད་
སྲུང་
ཞི་
སྐུལ་
ཁྲི
ཆུང་
འཁོར་
དཀ
▁ས་
སྟོན་
ེབས་
ཤིང་
ཁྱབ་
རྩལ་
གཟ
ཨུ་
འཚ
སྤྱོད་
▁ཉ
▁ཀྱི་
གྲོང་ཁྱེར་
ཞིང་ཆེན་
མཐུན་
དངོས་
གླིང་
སྡེ་
།།
ལེགས་
▁ར་
གན
སྨན་
ནུས་
རྟེན་
▁ཁ
བཏང་
ོས།
པོའི་
བྲ
ཁྲི་
བཅོས་
ཡོན་
དབང་
ཐེངས་
▁ཀྲུང་
ཁྲིད་
བཤད་
གནང་
ཡིན།
རེ་
གྱ
འབྱ
ཙམ་
ཐུབ་
མང
བུ་
སི་
གང་
▁ལ་
ཁྲིམས་
རྗེས་
ོམས་
ཡི་
འཆ
བཙ
བརྗ
འཕེལ་རྒྱས་
ིལ་
གྲུབ་
ུ།
▁ཕ
འོ་
རྙ
མཆ
ིམ་
མའི་
ཚེ་
▁གྱི་
རྩ་
བཅུ་
རྐྱ
གས།
དམ་
རྣམས་
མཐོ་
རླ
ཕྲ
གྲངས་
ཚོད་
བ་དང་
འབྱོར་
བརྩ
དཔྱ
▁ལས་
སྐད་
ཅིང་
དཔེ་
ཐག་
སྦྱོང་
ཞུགས་
སོ་
ྔ་
འགྲོ་
མེ་
དགོས།
བཟང་
ཱ་
▁ལྷ
ཐབས་
ལྷ་
ནས།
▁རང་
གད
རབས་
ཅི་
ེབ་
མཁན་
སྒྱུར་
བསྟན་
འཕྲིན་
ཡོང་
ཏེ།
སྣ་
མཚོ་
བྱེད་པའི་
འདུ་
▁ལོ་
▁སྤྱི་
རིག་གནས་
གཞན་
འགོ་
▁བྱེད་
▁ནས་
▁དག
▁ན
བརྟ
གསལ་
བད
འགོག་
ཞུ་
ངོས་
དཔལ་
རྒྱུས་
བཏ
མི་རིགས་
ཆེད་
དགེ་
སྒྲུབ་
ངོ་
ཉིད་
ཁྲོད་
འཇུག་
མི་དམངས་
ལྷན་
རྨ
ཐད་
བརྒྱ
▁གི་
ཡོད་པ་
འགོད་
རྐྱེན་
མ་ཟ
ཅིན་
བསྐྱ
འཁྱ
དངུལ་
དར་
བ་དང་།
ི།
ཁུངས་
ལྷག་
བསམ་
སྙན་
ལས་དོན་
ཁམས་
དཀར་
འཁྲ
སྲོལ་
▁དཔ
བཞི་
ཅེས་
སྒོར་
བཀོད་
▁རྒྱལ་
ཁང་གི་
སོང་
འཚོ་
སྐྱོར་
དབྱང་
ུག
ཕན་
འང་
མ།
▁ད་
དུང་
འབྲས་
ཆེན་པོ་
སྣང་
ངང་
གཤ
གནད་
མཐའ་
མར་
དགའ་
གོང་
བསྒྲ
ཅིག་
ཁྱད་
སྔར་
འདྲ་
ཚོང་
▁སློབ་
གཞོན་
གྱུར་
བྱང་
ཟིན་
འཐུས་
▁བྱས་
བློ་
འདེད་
▁ཤ
ལོའི་
▁མཚོ་
བཟོ་
ཁོངས་
བོ་
ཀ་
གཡ
མཚན་
ཕྱི་
པས།
ཁྱིམ་
བཟུང་
རྒན་
པོར་
གོའི་
སྐྱེ་
ཐོབ་
དེའི་
▁འདི་
▁དུ་
མངོན་
གཏན་
▁དྲ
འེ་
ོན།
ཉི་
མཛེས་
ལྔ་
དམག་
སྐུལ་འདེད་
དཔྱད་
ནན་
དྲ་
དོ་
ིས།
གྲྭ་
བརྗོད་
ཚོགས་ཀྱི་
▁བཅ
ལུས་
སྟོང་
བྱས་ནས་
▁ཟླ་
ཁུལ་གྱི་
ཡིས་
མིང་
ཞབས་
འཛུགས་སྐྲུན་
ཀུན་
ཇུས་
མཛད་
ཀླ
མིན་
ཨུ་ཡོན་
སྐུ་
ཇེ་
ཕྱིར་
གལ་
ཡུལ་སྐོར་
སྙིང་
མྱ
སྤྲོད་
ོག
▁ཉིན་
ཞིང་།
ཟབ་
ཚོས་
རྫས་
བརྒྱུད་
བརྡ
འདོན་
འགྲན་
ཁེ་
བསྟར་
▁དུས་
བྱས།
འཇགས་
འཆར་
སྟེང་
ཆགས་
བོད་ཀྱི་
རོགས་
ེད
བས།
རིན་
▁“
▁ཐ
རང་སྐྱོང་
སྡོད་
གཙོ་བ
དམིགས་
འབྱུང་
ངས།
ངེས་
▁དམ
ཕིང་
གཉེར་
▁ཨ་
གློག་
འི
སྲིད་གཞུང་
▁ཆ
ཡོངས་ཀྱི་
ཀྲུའུ་
སྐྱེས་
མཚོན་
ཚེས་ཉིན་
ལི་
གཙོ་
▁ཧ
སྟེ།
སྔ་
འདིའི་
སྒྱ
སྦྲ
སྟེ་
ལོ་རྒྱུས་
ོབས་
▁རྒྱལ་ཁབ་
དབུལ་
ཤིང་།
བརྟན་
མོའི་
པ་ཞིག་
བརྙ
གྲོས་ཚོགས་
ུར།
ཆས་
རྟགས་
ཅང་
མཐོང་
སྤྱི་ཚོགས་
འདུག
དྲུག་
གར་
▁བྱ་
གཅོད་
ཞི་ཅིན་
ཤིག་
ཉེན་
ཟེ
གཙང་
ཆད་
ཏོག་
འགུལ་
ཁོ་
ིག
མཇ
ཧྲུའུ་
རྟོགས་
ཉམས་
མིག་
ཚོགས་འདུ་
▁དབ
ཡོད་པ་རེད།
གནས་ཚུལ་
བྱས་ཏེ་
རྗེ་
ུས།
▁གཏ
ཡུག་
ངག་
▁གསར་
རབ་
འདོད་
▁རྩོམ་
ཞིབ་འཇུག་
འཇོག་
▁ཉེ་
མཚམས་
རྩེ་
སྦྱོར་
སར་
ཚིག་
ཚོགས་ཆེན་
རྩིས་
ཡ་
ལྷོ་
བཤེར་
སོགས་ཀྱི་
ནམ་
མ་ཟད།
ཁྱོན་
ཕྱིན་
རྟོག་
ཚུགས་
▁གླ
འཛམ་
རུང་
ཞི་ཅིན་ཕིང་
▁མཚོ་སྔོན་
འཐབ་
▁(
ཚོའི་
▁ཀྲུང་གོ་
བདག་
▁ས
སྟོབས་
བྱས་པའི་
ོད
སྐྱོབ་
འབྲོག་
མཐུད་
▁ང་
ལྡན་པའི་
སྐྱོད་
མང་པོ་
ེས།
ནོར་
▁ཞིང་ཆེན་
▁ཞ
ལུང་
▁མ་
རྡོ་
སྐྱིད་
མཁས་
འཛམ་གླིང་
གཏམ་
▁གཉ
རིམས་
ཧྭ་
ཀྲུང་གོའི་
པེ་
ཡིད་
ཅིང་།
ཨུ་ཡོན་ལྷན་
བསྡུར་
ཆེས་
ཡོད་པའི་
ོར་ཡུག་
བཞག་
བཀྲ
པུའུ་
སྒྲོལ་
སྲུང་སྐྱོང་
ཚོར་
གྲུ་
ཡུན་
བརྙན་
ཤར་
སྤྱིའི་
ལན་
རྒྱབ་
▁རེད
▁.
གེ་
གྲགས་
བརྒྱ་
དཔོན་
བསྡུས་
▁ལྟ
སྐྱེད་
ཏང་གི་
ལེ་
དཔལ་འབྱོར་
དེར་
སྣོན་
ོར།
▁གིས་
བྱས་པ་
ཡག་
ེམ་
བ་རེད།
▁ཡིན་
ལག་བསྟར་
དགོན་
▁རྒྱུ་
ཕ་
མྱོང་
བྱེད་པ་
ཅན་གྱི་
རང་བཞིན་
སྡུག་
ཤིས་
འབྲི་
གཏོད་
གལ་ཆེན་
▁ལྷ་
གུང་
ནག་
ཚགས་
འབབ་
འབྲིང་
རིས་
གླེང་
ནུས་པ་
མདོ་
དགུ་
▁ནང་
ཀྲང་
▁འ
ཁྱོད་
སྲོག་
མང་ཚོགས་
ིན
ཀྲུང་དབྱང་
བསྒྲགས་
▁མི་དམངས་
ཅུས་
མིའི་
ེས
འཕར་
དཀའ་
བདུན་
བྱིས་
▁དེའི་
གནམ་
པོས་
▁ཞིང་
ཉེ་
སོ་ས
སྐྱོན་
རོལ་
ིས
ཉུང་
སུམ་
འགྲུལ་
རྒྱག་
འབྲེལ་ཡོད་
ཁྲོན་
ཚིགས་
ེངས་
གསར་འགྱུར་
▁ཀ
ཟེར་
རྒྱུའི་
གྲྭ
▁བདེ་
སྤྱི་ཁྱབ་
དོ་དམ་
▁བོད་ལྗོངས་
རྩྭ་
བཅས་ཀྱི་
▁གས
བསྒྱུར་
ཁོང་
ཚ་
▁ཀྱིས་
གཞིགས་
སའི་
མགོ་
སླེབས་
ཤུལ་
འདྲེན་
རྒྱུར་
ཟེར།
ཁུར་
▁བཟ
ཐོན་ལས་
ཤས་
ཞིག་ཡིན་
ཁོར་ཡུག་
ཧྲུའུ་ཅི་
གཟུགས་
ཁྱད་ཆོས་
གཞིའི་
▁སྐབས་
ལོར་
ཧ་
བླ་
▁《
བརྒྱད་
དགོངས་
ཆོག་
ཏན་
སློབ་སྦྱོང་
བོད་ལྗོངས་
▁ཨ
སྣེ་
སྐར་
▁ཁ་
ཐུང་
ཞེས་པ་
བསྐྲུན་
▁གྱིས་
བྱས་ཏེ།
▁བླ
ཞེས་པའི་
བྱ་རྒྱུ་
མཇུག་
སྐྱེ་ཁམས་
ངལ་
སྒྲ་
▁མཉམ་
ེའུ་
རང་སྐྱོང་ལྗོངས་
འདིར་
སྒྱུ་
བྱུང་།
སྤུས་
ནི།
གནོད་
བདེ་འཇགས་
▁གནས་
ིངས་
འདེབས་
▁ཡོད་པ་
▁འདི་ནི་
སྨན་བཅོས་
ཇི་
ཉིན།
འོད་
▁མང་
འདུན་
▁མིག་
▁ཚེས་
བཞུགས་
བཙུགས་
བཅའ་
འདྲི་
དྲག་
འབྲེལ་བ་
གསོའི་
མཆོག་
མོལ་
ཆར་
བྱ་བ་
ལ་བརྟེན་
རིམ་པ་
བརྡ་
སྒྲོག་
ཐེབས་
རྩ་འཛུགས་
ལྟེ་
▁རྒྱ་
ཡར་
ིལ་བ
ཡན་
ཚབ་
ཙུང་
ཚེ་རིང་
དམར་
▁གཉིས་
▁རིག་
འམ་
▁ལོའི་
དྲན་
གཤིས་
རེས་
ནང་དུ་
ཆབ་
འཁྲབ་
བྱེད་པ།
འོག་
རྣམ་པ་
མག
ཐར་
དབྱངས་
བྱེད་དགོས་
གསུང་
ཆེར་
འཛོམས་
གནད་དོན་
རླུང་
ས་ཁུལ་
གྲོང་རྡ
ཞིབ་བཤེར་
གཉིས་ཀྱི་
དེབ་
པར་དུ་
ཤ་
ཁག་གི་
▁ཕྱོགས་
▁འཇ
གཏོགས་
བཙན་
▁གཙ
རིམས་ནད་
ཀྲུང་གོ་
བྱུང་བ་
སྒྲིལ་
འབུམ་
བྱེད་སྒོ་
མྱུར་
འདེགས་
མཉམ་དུ་
ཚེས
▁དོན་
མོང་
བྱེད་པར་
ུགས།
དེ།
ཁང་གིས་
▁རྣ
བྱེད་བཞིན་
འདུག་
སྐྱེལ་
ཞུས་
བཀའ་
གྲུབ་འབྲས་
▁རྩོམ་སྒྲིག་
ལོག་
རྟ་
མཉམ་ལས་
▁སུ་
ཨུའི་
ནུབ་
ཤོག་
གསུངས་
མཚོ་སྔོན་
གཙོ་བོ་
ུལ།
གསེབ་
▁ཟ
ཆེ་བའི་
ཚུན་
▁ཁྲ
ཐག་གཅོད་
ཤོས་
▁བས
ཁྱེད་
▁ཆུ་
སྒྲགས་
▁ཁོང་
འགག་
▁མཛ
ོ།།
རྒྱལ་ཁབ་ཀྱི་
སྐོར་གྱི་
སྟངས་
ལས་ཁུངས་
ནང་གི་
ཁང་།
གཏིང་
སི་ཁྲོན་
མཁོ་
འབད་
ཁང་དུ་
བོའི་
བཀྲ་
▁རྟ
རླངས་
ཀར་
ཡོངས་ནས་
བླངས་
▁ཐེངས་
སློབ་གསོ་
▁ཏང་
གྲོང་རྡལ་
བྱས་པ།
▁ཁུལ་
འགྱ
ཡག་པོ་
མུ་
ལོན་
ཕྱུར་
ཤེས་རྟོགས་
འཕྲིན།
སྒྱུ་རྩལ་
བུའི་
ཐུན་
ལུགས་ཀྱི་
རང་གི་
མེད་པར་
ཤང་
▁ཡང་
འགྲེལ་
བསྟེན་
ཆེའི་
རྒོལ་
ལས།
ཀྲུའུ་ཞི་
སྐུལ་འདེད་གཏོང་
དེ་དག་
གྲོང་གསེབ་
ཡོད་པ་དང་།
བོད་རིགས་
བརྩོན་
སྤྱད་
ཨང་
གོས་
འཐུས་མི་
བསྐ
▁ཏ
ས་གནས་
འཚོགས་
འགལ་
དཔུང་
▁བྱ
ེག་
ོགས།
མོས་
བྱེད་དགོས།
བགྲ
གསར་པ་
▁བྱེད་པ་
འགོ་ཁྲིད་
གླུ་
རེའི་
གསེར་
ུབ།
མཁའ་
ཆེ་རུ་
▁རྫ
ཚན་རིག་
རྐང་
དབྱེ་
མེད།
བྱས་པ་རེད།
ེན།
ཡིན་པའི་
མེད་པའི་
རང་ཉིད་
འདུས་
སེལ་
འགོ་ཚུགས་
ཐོ་
བྲིས་
ཐ་
མཆོད་
འགྲེམས་
ལྟར་ན།
ཕེབས་
དེང་
ོ་བོ་
དང་པོ་
འཁྱོངས་
ཕུལ་
གནའ་
▁ལག་
འཕྲོད་
ུའེ་
དཔེ་སྐྲུན་
ཡོད་ལ།
ཤིན་
མཛོད་
▁ཚོགས་
ལ་བརྟེན་ནས་
མཐར་
གཞིས་
རེར་
བཟོས་
མི་སྣ་
སྟེགས་
ནས་བཟུང་
ོའུ་
འདས་
རྙིང་
སྔོན་འགོག་
སློབ་མ་
པའི
མི་སྣ
ཡིན་ལ།
མདུན་
དེས་
སྟོད་
གྲོགས་
གྲ་
ཐོན་སྐྱེད་
དུ།
བཏོན་
ཤུགས་སྣོན་
ཆེན་གྱི་
ཉིང་
ཚལ་
སྲུང་སྐྱོབ་
དགེ་རྒན་
བསྡུ་
དྲ་བའི་
ཕྱུག་
དུས་རབས་
མེ་ཏོག་
སྣ་ཚོགས་
བྲག་
ངས
ཆང་
▁རྨ
▁ལྷག་
རྒྱན་
ཧ་ཅང་
རྨང་
རྫོང་གི་
སླར་
བཀོད་སྒྲིག་
གཞོན་པ་
▁སྤེལ་
རྒྱུན་ལས་
དོན།
ཞི་ཅིན་ཕིང་གིས་
བྱུང་བའི་
▁བྱས་པ་
དངོས་སུ་
ཅུང་
བར་གྱི་
འོས་
རྩོད་
བབ་
བསླ
བསྐྱོད་
ལས་རིགས་
པར།
སྒང་
ེལ།
རྣམ་གྲངས་
མཉམ་འབྲེལ་
▁སེམས་
གྲོན་
སྲིད་གྲོས་
གངས་
པོ།
གྱོགས་
▁དམངས་
ངན་
▁གྲོང་ཁྱེར་
ཚོད་འཛིན་
བ་ཞིག་
གསལ།
རྒལ་
བསྐྱར་
ལྔ
▁ཕྱི་
འཁྱོལ་
འཚོལ་
འཚོ་བ་
སྒྲུང་
▁ཀྲུང་དབྱང་
▁མི་རིགས་
པ་ནི་
སྲིད་ཇུས་
▁རྗ
མང་དུ་
འཁུར་
སྲོལ་རྒྱུན་
བརྟག་
▁གཏོང་
བྱ་བའི་
པ་དེ་
ཆོད་
བརྩམས་
རྒྱང་
▁གཞན་
བརྒྱབ་
ུན།
..
བྱས་ཡོད།
གཞིར་
ཆེན་མོ་
ིལ་བསྒྲགས་
སྤྲོ་
རེད་
བོད་ཡིག་
འཁེལ་
རོང་
▁ན་
▁མཁ
སྟབས་
ལམ་དུ་
ལྷག་ཙམ་
ཁའི་
མཚུངས་
▁ནི་
ཉེས་
ཕྱག་
ཨུ་རུ་
ཀན་
ཉེར་
▁པ
རྒྱལ་ཡོངས་
ཟུང་
ཆུའི་
འཁྲི་
▁བསྡ
ངས་རྒྱས་
མངའ་
དུས་ཚོད་
མ་དངུལ་
ཐུན་མོང་
ལག་རྩལ་
འཚོ་བའི་
པེ་ཅིང་
འགྲན་བསྡུར་
སློབ་གསོའི་
མས།
▁བཀ
ཤོར་
སྙན་ངག་
▁རྣམ་
ཕྲེང་
▁ཡིག་
སྒོ་ནས་
མོར་
བཅད་
ཁྱིམ་ཚང་
འགྲིམ་
▁གལ་
རླངས་འཁོར་
དབུ་
ུད་མེད་
འགན་ལེན་
རླབས་
སྐབས་བཅུ་
བྱེད་པ་དང་།
དྲ་བའི་འཕྲིན།
བཤད།
རྒྱལ་སྤྱིའི་
འགན་འཁྲི་
▁དཔལ་
ངའི་
བཏང་ནས་
ཐུབ་པ་
འབེབས་
བྱས་པ་དང་།
སེར་
ུངས།
འཕྲུལ་
སོ་སོའི་
སྦྲེལ་
▁གྲོས་
▁ཐོག་
ནའ་
ུད།
རྣམས་ཀྱིས་
ལག་ལེན་
▁བར་
ནགས་
འཕྲད་
རྒྱ་མཚ
གཏིང་ཟབ་
ཐོག་ནས་
སློབ་གྲྭ་
ནའང་
ཐོན་རྫས་
གྲས་
ཀའི་
རིའི་
▁གཅིག་
▁བོད་ཀྱི་
འདུ་ཤེས་
ིབ་
ཁེ་ལས་
ཕུན་
གཏོར་
ལིང་
▁ཁོ་
དུ་གཏོང་
▁ཞིག་
རྒྱུགས་
▁རང་སྐྱོང་
ཚེས་ཉིན།
ལྟེ་གནས་
འཕེལ་རྒྱས་ཀྱི་
བརྒལ་
▁ཡོད་
གདན་
▁རྒྱལ་ཡོངས་
ཐུགས་
▁ཡུལ་
ཚོགས་འད
▁མེ་
སློབ་གྲྭ
མགྱོགས་
ཟས་
དུང་ཕྱུར་
ད་དུང་
གཅིག་ཏུ་
གའི་
བྱེད་ཐབས་
ཆབ་སྲིད་
སུའུ་
▁ཀྲུང་གོའི་
ཨུད་
ཐན་
བསྟུན་
འགའ་
འབོར་
ཀློག་
སྡོམ་
ཟླ་ཚེས་ཉིན་
མ་ལག་
བསྡོམས་
གཞིགས་ན།
▁ཡོད
རིམ་པའི་
འཚམས་
▁ལོར་
ལྡོག་
གསུམ་གྱི་
ཕོག་
ཆེ་བ་
བྱས་ནས།
བྱེ་
ལྟས་
བཀྲ་ཤིས་
▁སྡེ་
▁བཅས་
ལྷ་ས་
ཀུང་
པ་ལ་
་བ་
▁དགེ་
ཡོངས་སུ་
རྩའི་
ཏ་
རོགས་སྐྱོར་
▁བཏང་
འགྲེམ་
གཟིགས་
རྒྱབ་སྐྱོར་
ཤིན་ཏུ་
མཛུབ་
དུག་
སྤུས་ཚད་
▁སྔོན་
འགྲུབ་
མི་རུང་
ིན་ཧྭ་
དགོས་པའི་
ཚང་མ་
རྨ་
འཕྲོད་བསྟེན་
ཐོན་ཁུངས་
རྒྱུ་ཡིན་
བཅུད་
▁རི་
སྒོས་
▁གློག་
▁སོགས་
དབུས་
ཆོས་ལུགས་
▁ཁྲིམས་
རྒྱུ།
དུ
དྲིལ་བསྒྲགས་
རྒྱུག་
གསར་པའི་
ཙུང་ཐུང་
བཟའ་
སྟག་
▁གསུམ་
རང་བཞིན་གྱི་
རྒྱད་
ཞལ་
མཁར་
ོས
རྒྱལ་གྱི་
འགྲམ་
བྱེད་ཀྱི་
གྲོང་ཁྱེར་གྱི་
མཐུན་སྒྲིལ་
ནང་དོན་
ཞུའི་
ོན
ིའུ་
▁རིག་གནས་
དེ
▁དཔྱ
སྐབས་སུ་
▁དངོས་
སྨད་
པའི་ཚེས
རང་བྱུང་
ིད།
དོན་འཁྱོལ་
དུས་ཆེན་
ཧུར་
གུ་
ིག་རྟེན་
▁རླ
འགྲིམ་འགྲུལ་
▁དགོས་
བར།
རྟག་
ཅད་
མང་ཚོགས་ཀྱི་
གསོ་སྦྱོང་
མདོག་
ལྟའི་
དུད་
ནས་ལོ་
▁མང
ཁི་
ལོ
གཞུང་ལམ་
▁སྤྱི་ཚོགས་
མི་འདྲ་
འགན་སྲུང་
▁དམག་
དབྱི་
སྔོ་
སྨོན་
མས་ཅད་
▁གནང་
མུ་མཐུད་
མ་ཟད་
སྨྲ
ིན་ཧྭ་གསར་འགྱུར་
ཁྲོམ་
བེད་
ལུས་རྩལ་
ཞིག་ཏུ་
རྗེས་སུ་
ལས་ཀ་
ལགས་
སློང་
རྗེས།
བསལ་
▁ལྗ
སྙོམས་
མོད།
ཟུར་
རྩི་
ཉེན་རྟོག་
ཡོད་ཅིང་།
གདོང་
▁ལྷ་ས་
འཆམ་
▁རྩོམ་སྒྲིག་པ།
ཐུབ།
ཚོགས་པའི་
འཕུར་
▁གོང་
ཕོ་
ཕྱུགས་
སྔར་ལས་
གཉིས་པའི་
རའི་
འབུལ་
ཆའི་
ཀྲོའུ་
གསར་གཏོད་
▁དེ་ནི་
བརྩེ་
བྲལ་
འབོད་
ལས་འགན་
ཏི་
ཞབས་ཞུ་
▁ཡོང་
སྨྱ
མཐོར་
གཞག་
དེ་ནི་
རིག་པའི་
▁གྲོས་ཚོགས་
▁ས་ཁུལ་
མདའ་
ཆུས་
ཕྱོགས་སུ་
ཨེ་
ུབས་
སྔགས་
བྱེད་པ་དང་
ཞིང་ལས་
ཁྱབ་ཁོངས་
རྩེད་
སོང་།
རེན་
རུ་ཁག་
གཏོང་བའི་
རིགས་ཀྱི་
འཁྲབ་སྟོན་
ཤུ་
ཟོག་
དགོངས་དོན་
ཕྱོགས་ཀྱི་
ཀླུ་
བཞིན་པ།
ང་བྱ་
སྨི་
ཟ་
▁འཛམ་གླིང་
▁གྲོང་
ཐམས་ཅད་
པ་ཡིན་
འོ།
▁དབྱི་
ཚན་རྩལ་
▁བསྟ
གནང་།
འབྲུ་
གློ་
ིབས་
ཁུ་
ཨུ་ལྷན་
▁ངས་
▁ཁྲི་
▁རྫོང་
དྭ
སྤྱིར་
གསོ་རིག་
ོད་ན
རྟེན་འབྲེལ་
འཚེ་
ནེ་
ོན་ཀྱང་
སྲིད་གཞུང་གི་
ཐོག་ཏུ་
དེ་བས་
འཇམ་
ུར
▁ཡིས་
བྱས་ཤིང་།
ངོས་འཛིན་
གསང་
རྩོམ་རིག་
▁བཅུ་
རྩྭ་ཐང་
སོ།
ཚགས་པར་
▁གཟ
འབར་
འོང་
▁ད་དུང་
ཡུན་རིང་
▁མཐོ་
ཉོ་
▁ལམ་
ཆེད་དོན་
▁ཚ
▁ཞེས་
ོད་ནམས་
ངོ་སྤྲོད་
▁འད
ས་ཁུལ་གྱི་
▁བྲ
ཡེ་
བདེ་ཐང་
ནས
སེམས་ཀྱི་
སྐྱ་
སྐད་ཡིག་
▁པར་
▁དབྱ
དེང་རབས་
▁བཤ
འདི་ནི་
དཔའ་
▁བློ་
ཡིན་པ་
ཞིག་གི་
གསུམ་པའི་
ཇི་ལྟར་
དྲི་
ཁྱབ་བསྒྲགས་
ཁུལ་དུ་
▁གང་
ལྔའི་
དཔྱོད་
བྱ་སྤྱོད་
ོར
སྣེ་ཁྲིད་
རྡུལ་
ཞན་
བརྟེན་
གཏན་འཁེལ་
▁རྡ
▁ལྟ་
རྒྱུན་འཁྱོངས་
ཕན་ཚུན་
▁ཁྱོད་
▁ལེགས་
གཉིས་ཀྱིས་
བཅོལ་
སྡེའི་
བྱས་པར་
མན་
ཐིག་
རྒྱུ་རེད།
བསྟོད་
གཅེས་
ལྟ་བུ་
དང་པོའི་
ཆར།
དབུལ་སྐྱོར་
འཐེན་
▁བྱ་བ་
▁སྨན་
▁གསར་འགོད་
ཕྲག་
▁རང་སྐྱོང་ལྗོངས་
སྣོད་
ཉན་
▁མང་ཚོགས་
ཁྲག་
ཆག་
ཕྲན་
སྒོའི་
བཀག་
ཧུར་ཐག་
སྐལ་
རྒྱུས་ལོན་
ཡུལ་དུ་
སྦྱར་
▁རྐ
▁དབུལ་
བྱིས་པ་
གནང་བ།
གཞས་
▁ཡི་
སྤྲད་
▁ཕ་
བྱེད་མཁན་
སྲིད་སྤྱི་ཁྱབ་
གླིང་གི་
ལམ་ལུགས་
གྲོས་ཚོགས་ཐེངས་
སྒྲོན་
གཅིག་གྱུར་
ུས
ཨར་
བགྲོད་
ལྟར།
ཨུ་ཡོན་ལྷན་ཁང་
དྲུང་
བོན་
རྟོག་ཞིབ་
དར་རྒྱས་
▁ནད་
སིའི་
▁ཡིན་པ་
ཁྲོད་དུ་
ཡུལ་གྱི་
བུད་མེད་
ཡོ་
འཐུང་
ཡོད་ཅེས་
དགུན་
རྩམས་
བྱ་འགུལ་
སོ་སོ་
རམ་
མཇལ་
སྔར་བས་
དད་
སྲིད་འཛིན་
བྱས་ན་
ོ་བྲ
ཐུག་
▁ལྷོ་
ཆེད།
མཐོའི་
བཞིན་ཡོད།
སྲས་
རྫོང་གིས་
▁བསམ་
ལྟ་སྐུལ་
ཕྲུག་
▁བཙ
ཆ་འཕྲིན་
པ་ཡིན།
གསབ་
ཧྲན་
▁འོན་ཀྱང་
ཡོད་པས།
གཞི་རིམ་
ལའང་
▁ས་གནས་
བདེན་
▁གནམ་
བའི་ལོ་
དཀྱ
རུས་
▁བཟོ་
བྱེད་སྒོ་སྤེལ་
ཐེ་
ཏུང་
མི་རིགས་ཀྱི་
ཡང་།
སུ།
སྟོབས་ཤུགས་
རྔ་
གློག་འཕྲིན་
▁ཐད་
▁རུ་
འབྲུག་
ཤེས་རྟོགས་བྱུང་
▁ཀན་
འཕེལ་རྒྱས་ལ་
གསོག་
དུས།
རྣམས་ལ་
ཡོད་པས་
▁ལི་
▁དཔེ་
སྒེར་
གཉེན་
ལྟ་བུའི་
བར་དུ་
པ་སོགས་
བསུ་
རྔ
འདྲེས་
ཟམ་
གཏན་འབེབས་
ཕུན་སུམ་
▁ཅ
སློབ་ཆེན་
ཆེད་ལས་
གིས།
▁ཉེ་ཆར།
ཧྲིལ་
ཕྱོགས་ཡོངས་ནས་
ཁུ
ནུ་
▁སྒྲིག་
མཚར་
དོད་
འགོ་བ
རྙེད་
▁དེས་
དྲོད་
བརྡར་
མོ།
མཐོ་བའི་
ཁྲོད་ཀྱི་
རིན་ཐང་
འགན་འཁུར་
འཛུགས་སྐྱོང་
ན་པ་
ཡི་གེ་
རྫོགས་
▁ཆོས་
ཆོག
ཡིན་པ།
འཁྲུག་
དག་གི་
ལོའི་ཟླ་
ནང་བསྟན་
དང་མཐུན་
རག་
འཚམས་འདྲི་
ོན་པོ་
ཞིག་གིས་
ཚད་གཞི་
ངེད་
▁པ་
རྐྱང་
གྲོང་ཚོའི་
འཇིག་རྟེན་
▁སི་ཁྲོན་
ཅུ་
ངེས་པར་དུ་
འཆར་འགོད་
ཇ་
▁ཟླ
ཐེག་
ཐིང་
ཁྲན་
འཐབ་ཇུས་
རིང་ལུགས་ཀྱི་
བྱམས་
ུའ
པའམ་
རྣམས་ཀྱི་
ལྗང་
བྱ་དགའ་
ཆུང་གི་
སྲིད་གཞུང་གིས་
ུམ།
དཔེ་སྐྲུན་ཁང་།
བཀོལ་
རྟན་
▁སྤ
ཐུབ་པའི་
པོ
རིང་།
▁ཤེས་
▁སྒོར་
ཚེ།
ཆ་རྐྱེན་
འགན་ཁུར་
འཆར་གཞི་
ཱའི་
པ་ལས་
▁མིག་སྔར་
སློབ་ཁྲིད་
ཅིག
སྲོག་ཆགས་
དེ་གའི་
བོར་
སི་ཐན་
རན་
ཏུའུ་
གས་ལམ་
ཚད་ལྡན་
མེ་རི་
གཏད་
ོ་བརྒྱད་
▁ཉི་
ཆུ་ཚོད་
ཞང་
ཡའི་
ཏིག་
་་
ཡོང་འབབ་
སྒྱུར།
▁མཚ
▁ཁེ་
ོན་པ་
ནུས་ཤུགས་
བབས་
ཟོན་
▁ནས
བཅུག་
གསོལ་
ཞེ་
སྐུལ་འདེད་བཏང་
རྒྱུད་ཀྱི་
ཁར་
▁ཆབ་
སེང་
ཉི་ཤུ་
མངོན་འགྱུར་
ཡང་ན་
རྒྱའི་
བརྙན་འཕྲིན་
▁ལུས་
རེ་བ་
ལྟ་ཞིབ་
▁དཀར་
བླང་བྱ་
▁གྱ
བྱའི་
གོ་རིམ་
ཟེར
འཇིགས་
འཕགས་
▁ཁྱེད་
▁ཏུ་
དྲིན་
འབྱེད་
ལ་ཤུགས་སྣོན་
ཕྲ་
▁དཔལ་འབྱོར་
རང་སྐྱོང་ཁུལ་
▁རེ་
▁ཨུ་རུ་
ཀྱང་།
གསར་འགོད་
ཁོག་
ཀྲ་
གཅིག
▁གནད་
གོང་འཕེལ་
མཆན་
ཡོང་བར་
ཐོག་མར་
མཐོ་རུ་
སངས་རྒྱས་
དཔྱིད་
བསྟན།
ལངས་
བློ་བཟང་
▁ལས་དོན་
རིན་པོ་
ཞིང་ཆེན་གྱི་
▁རྗེས་
▁དེ་ནས་
▁ཏེ་
ཞིག་ལ་
ཕལ་
ལའི་
ཁྲལ་
འཕྲལ་
ལིན་
བརྗེ་
དུས་ཀྱི་
ཧན་
འགྱུར་ལྡོག་
བཙུན་
ཞབས་ཞུའི་
▁བྱུང་
▁དེར་
▁()
ཕྱེ་
མ་ཡིན་
སྒོར་དུང་ཕྱུར་
▁མཉམ་འབྲེལ་
▁བྱས
པ་བཅས་
དུས་སུ་
གཅིག་གི་
ཀྲུའུ་རེན་
ལོང་
བསྐྱེད་
ཆེད་དུ་
རྣམ་པར་
▁ཚོགས་འདུ་
བཞེངས་
བརླ
བཟང་པོ་
བསྲ
རལ་
སྤེལ།
རིག་གནས་ཀྱི་
བྱ་དགོས།
བརྟག་དཔྱད་
ལོངས་
ཚེས་ཉིན་གྱི་
ཁྱད་པར་
བཅའ་ཁྲིམས་
རོབ་
སྣུམ་
མུའུ་
▁ཚེ་
ཨོ་
བྱ་དགོས་
བྱེད།
▁མཇ
གཉིས་པ་
སྤོ་
གློ་ཚད་
སྒོར་ཁྲི་
ཡས་
སེ་
སྡེ་ཁག་
རྡོ་རྗེ་
▁འཕེལ་རྒྱས་
▁འཛུགས་སྐྲུན་
▁གལ་ཏེ་
དམིགས་བསལ་
སྡེ་ཚན་
ོན་པའི་
གཙོ་གནད་
▁རྒྱུན་
བྲོ་
སྐབས།
ཙཱ་
དོགས་
དམ་འཛིན་
ཧོ་
▁དང
▁ཁག་
ཡིན་པ་དང་།
ཆོས་ཀྱི་
ོལ།
ཆུ་ཚད་
མ་དང་
བཞིའི་
དག་གིས་
འབྱོར་གསལ།
གཙོ་བོར་
གུང་ཁྲན་
འགྲོ་བ་
▁དེ་བཞིན་
ཉིན་གྱི་
ཕོངས་
འགྲེམས་སྟོན་
ི་ལིང་
གཏུག་
▁ད་ལྟ་
▁ཏང་གི་
འདེམས་
ཡོང་བའི་
ཤུགས་རྐྱེན་
▁དེང་
ལུག་
སྤྲིན་
རྒྱ་མཚོ་
▁བཞ
ཡོད་པར་
སྙན་ཞུ་
དང་འབྲེལ་
གྱོད་
ུ་གུ་
གུང་ཀྲུང་དབྱང་
འོངས་
▁སྲིད་གཞུང་
ོ་བྲང་
སྦྱིན་
▁ཕན་
མེད་པ་
མཛེས་སྡུག་
ཟད་
ལས་ཞུགས་
ུའོ་
བསྡུས།
གཏོང་བ།
ཚོགས་པ་
རོ་
གང་ལེགས་
གདུང་
རྒྱལ་པོ་
▁ཟེར
▁ཡུལ་སྐོར་
འཆད་
སྲིད།
རྒྱུར།
ཕབ་
རང་ཉིད་ཀྱི་
རྩོལ་
སྤྲུལ་
ཚང་འཛོམས་
མངོན་གསལ་
རིང་ལུགས་
སྡུད་
▁མད
གེ་སར་
ཐོས་
གཟབ་
▁ལྟར་
བྱས་རྗེས་
ཡིན་ཞིང་།
གསར་བ་
མི་རུང་།
མཁྱ
གྲང་
སམ་
ཉར་
པན་
ཞིང་འབྲོག་
ཚབས་
▁བདེ་འཇགས་
སོགས་ལ་
སློབ་མའི་
གཏེར་
▁སྤྱི་ལོ་
▁ལྡ
བལྟས་
ཐོགས་
སྡོང་
དང་མཉམ་དུ་
▁བྱང་
▁མགོ་
མགྲོན་
ཡུས་
རྨང་གཞིའི་
དྲང་
▁ང་ཚོས་
བདེ་སྐྱིད་
དཔག་
རེ་རེ་
དམའ་
རིག་པ་
སྐར་མ་
བྱ་བར་
དེ་ལྟར་
གསུང་བཤད་
▁ཚོང་
བ་ནི་
ཚོགས་འདུའི་
མངགས་
བཏགས་
གྲོང་ཚོ་
▁དངུལ་
▁ཡོངས་
ཚུད་
མདངས་
བར་གཞིགས་ན།
དཀར་མཛེས་
▁ཤིང་
ཞོར་
གནོད་འཚེ་
▁གཞུང་
ཁ་པར་
མཛེས་ལྗོངས་
འདོམས་
ཀོང་
བཅོས་སྐྱོང་
བརྟན་པོ་
དབྱར་
བཅས་ལ་
ལེགས་སུ་
སྦྱོང་བརྡར་
ཐེར་
ཡན་ལག་
▁གོ་
སྐད་ཆ་
རྒྱལ་ཡོངས་ཀྱི་
ིར།
▁བད
▁ཧྲ
▁སྒོ་
ཀྱིན་
ཁང་དང་
▁དབང་
རྨས་
དར་སྤེལ་
▁གན
བསྒྱུར།
དང་སྤྱི་ཚོགས་
བསྣ
▁སྤྱི་ཟླ་
▁དོ་
གོམས་
ལས་ཀའི་
ཕུགས་
▁བཞི་
▁ཅེས་
གནང་བའི་
▁གནས་ཚུལ་
བརྩམས་ཆོས་
མོ
ཤེས་བྱ་
▁གངས་
▁མཛེས་
མཐོ་སྒང་
མཛད།
མེད་དུ་
བདེ་ཆེན་
▁རྡོ་
ཤུལ་བཞག་
ལ་ཞུགས་
▁དེ་ཡང་
སྔ་དྲ
ཐོ
ཕྱོགས་ཀྱིས་
གཡུ་
བསྒྲུབ་
མིས་
པ་མ་ཟད།
སྙད་
▁རིང་
གྱུར།
སྤོས་
བེད་སྤྱོད་
གསར་གློ་ཚད་
ནུས་ལྡན་
མཛད་སྒོ་
ཆེན་པོའི་
ཧའེ་
མཁྱེན་
ས་ཚིགས་
སང་
ང་ཚོས་
ནང་ཞུགས་
▁རྩོམ་སྒྲིག་པ
▁མེད་
བརྗོད་དོན་
འབད་བརྩོན་
ཕྱོགས་བསྡུས་
གྲིན་
ཙུང་ལི་
རིམ་བཞིན་
བསམ་བློ་
གསོ་སྐྱོང་
དག་ལ་
ཁས་
སློབ་གྲྭའི་
ས་ཆ་
པུའུ་ཀྲང་
བྱིས་པའི་
བདམས་
མེས་
▁བཤད་
འཚམ་
ཕུ་
དང་མི་
དེ་བཞིན་
བུར་
▁ཉེན་
རི་མོ་
▁དམིགས་
རས་
བག་
དབྱིབས་
▁ལྗོངས་
ཀྲི་
▁ལོའི་ཟླ་
རྒྱུན་འཛིན་
▁དཀ
▁དཔྱད་
▁ཁོས་
དྲངས་
དྭངས་
སྨིན་
▁མཁའ་
སྤྱི་བདེ་
▁དང་པོ་
▁ཏེ
སྐྱེལ་འདྲེན་
ཡིན་པས།
ཕུང་
▁བྱས་པ
▁རོགས་
ཟླའི་
བཞིན་པའི་
སླར་ཡང་
མཛུབ་སྟོན་
བཞིན།
གྲ་སྒྲིག་
ཡོད་དེ།
ལམ་གྱི་
ལེ
གནང་བ་རེད།
ཨན་
▁སློབ་གསོ་
གླང་
▁དུས་རབས་
དང་བཅས་
དོན་རྐྱེན་
ཐད་ནས་
ཡོམ་
ཆེན་མོའི་
གཅིག་ལ་
སྟེང་དུ་
▁ནོར་
གསལ་བ
▁ཞི་ཅིན་ཕིང་གིས་
ཤི་
རགས་
བླ་མ་
ཁོངས་སུ་
▁བསྟན་
ཚོགས་འདུ་ཐེངས་
▁རིགས་
བརྐ
ཁྱོན་ཡོངས་ནས་
གྲོལ་
▁ཀུན་
▁དཔེར་
དགོང་
ཉི་ཟླ་
▁སི་
བྱ་ཐབས་
རིམས་འགོག་
བྱས་པ་དང་
▁སྐྱེ་ཁམས་
སྐམ་
()
▁ཐེངས་འདིའི་
ཡངས་
མེད་ཀྱི་
ངལ་རྩོལ་
ལས་དོན་ལ་
རིང་གི་
སྒྱུར་བཅོས་
ཉི་མ་
གྲོས་མོལ་
གཞིར་བཟུང་
ཞུ།
ནད་པ་
སྔའི་
བྷ
ཅུས་ཀྱི་
▁ཚོགས་ཆེན་
ཐོག
ེར།
དམག་དཔུང་
འགག་སྒྲོལ་
འཛུམ་
པུ་
ཆ་སྙོམས་
▁ལྔ་
ཁ་ཤས་
ཧོང་
དབྱིན་
ཅ་
ལང་
▁ཞི་
▁གནོད་
མཁས་པ་
སྙིང་སྟོབས་
བ་བཅས་
རྒྱལ་མཚན་
ཁྲེང་
བརྒྱུད།
ཡིན་པས་
ཚོ
▁དགའ་
བཞེས་
མང་ཚོགས་ལ་
▁མ་དངུལ་
▁དུང་
སོ་སོར་
དུ་བཏང་
སྤྱི་ལེ་
གཡང་
སྒུལ་
ཚང་མས་
ཚུལ།
དཀྱིལ་
▁བུ་
ཕྱེད་
སྐབས་ཀྱི་
▁དགོས་པ་
ཆ་ཚང་
ཀྱི
▁དར་
ཤེས་རབ་
དབང་གིས་
རྨང་གཞི་
ཁུག་
བཤད་རྒྱུར།
གྲོ་
སྤེལ་བའི་
ཡིག་གཟུགས་
ཁུངས
ཆིང་
འཇལ་
ུར་དུ་
མགོན་
མཁོ་འདོན་
▁རྨ་
བྱ་གཞག་
སོག་
ཞི་ཅིན་ཕིང་གི་
བྱིན་
▁འདི་ག་
ལ་སོགས་
མི་སྣས་
གྲོང་གསེབ་ཀྱི་
▁རྒྱལ་ཁབ་ཀྱི་
བསླབ་
ལས་བརྒལ་
▁ཁོང་གིས་
གོམ་
མནའ་
ནས་མི་
འབའ་
ཁྱབ་གད
▁མི་སྣ་
རྒོད་
▁སྐོར་
ཁྱད་ལྡན་
དཔེ་སྟོན་
དང་པོར་
ཡང་དག་
སྒྲིག་འཛུགས་
སྐྱོ་
ཁྲ་
མཐོ་རིམ་
མཐའ་མཚམས་
པ་པོ་
ཟུང་འབྲེལ་
བརྗིད་
▁ལོ་རྒྱུས་
གཙོ་བོའི་
ཀྲུང་ཧྭ་
ཧྲི་
འཁྲུངས་
དེ་ལ་
▁སྐུ་
བཅོ་བརྒྱད་
སྣོད་བཅུད་
ཕན་འབྲས་
སྙམ་
བཅར་
བ་རྒོལ་
བཏབ་
སྡོད་ཁང་
▁མཉམ་ལས་
ལྷོ་ཁུལ་
གསོན་
འགོར་
རྫ་
ཐབས་ལམ་
▁ཟླ་ཚེས་ཉིན།
ཡིད་ཆེས་
བསོད་ནམས་
▁ཉེ་བའི་ལོ་
ལས་བྱེད་
མི་དམངས་འཐུས་
སྐྱབས་
དཔང་
▁འཕྲ
▁ཨེ་
གསེང་
ེ་རི་
▁འབྲེལ་ཡོད་
གཞི་རྩའི་
ཕུག་
ངོ་རྒོལ་
▁བཀོད་
རྒྱ་གར་
བློན་
གཟི་
ངོ་མཚར་
▁ཤོག་
ལ་མི་
ཐོབ་ཐང་
བཤེས་
གསར་དུ་
ཏང་ཡོན་
ཨུའི་ཧྲུའུ་ཅི་
གཙུག་
འཛད་
པར་མ་ཟད།
སྐོང་
སྲོང་
ཁྱད་ཆོས་ལྡན་པའི་
བསྟན་པ་
སྨྱན་
ཆེ་ཤོས་
ཞིག་ཡིན།
ཚར་
▁དྲ་
ཆེ།
འདྲའི་
གིས
▁རིམ་པ་
གཞོན་ནུ་
ཕུལ་བྱུང་
▁དེ་མིན་
ཟླ་བ་
སྲ་
▁ཡུན་
མཐའ་འཁྱོངས་
ཡོང་བ་
བྱ་རྒྱུའི་
ལྷོད་
▁ཉིང་
སླར་གསོ་
▁སློབ་མ་
ལོ་རྒྱུས་ཀྱི་
▁སྤྱི་ཁྱབ་
དུ་མི་
ང་ལ་
ུང
འདམ་
ཕོ་བྲང་
གཉིས་ལ་
▁གནད་དོན་
སྦྲ་
ཟིན་པའི་
འགྲེམ་སྟོན་
▁དྲ་བ་
རྗོད་
མཁན་གྱི་
▁སངས་རྒྱས་
ཐོག་མའི་
ཚད་ཡོད་
ནར་
ཟབ་མོ་
གནམ་གྲུ་
རྒྱུན་མཐུད་
ོངས།
ནགས་ཚལ་
བསྟན་དོན།
ངར་
བསྒྲུབས་
འཕེན་
གྲྭའི་
ཀྲ་ཤིས་
དྨ
མདོར་
ཅན།
ཞིག་རེད།
མི་སྣའི་
ཇོ་
རྐྱེན་ལམ་དུ་
གསུམ་པ་
འཁོར་གྱི་
ལེགས་པར་
▁ཞུགས་
གྲལ་
བཤམས་
ཏུན་
▁སློབ་གྲྭ་
བྱོན་
ཟློས་
རིན་ཆེན་
ཤུགས་ཆེ་རུ་
ཐོན་པའི་
ལེགས་པོ་
མཛའ་
སྐོར།
▁རིན་
ཁྲུང་
པེ་ཅིན་
སླ་
ུམ
བརྩི་
གཞུང་ལུགས་
ེབས།
རྒྱ་མཚོའི་
འཐུས་ཚང་
གུར་
བཏོད་
ད་ལྟ་
གཟེངས་
བསྡད་
ཐ་སྙད་
གློག་བརྙན་
འ།
▁དྲག་
ཐོག་མ་
གཅིག་པའི་
དགོད་
ཞུགས།
ཐོག་གི་
འཕྱ
ཕྱིའི་
▁གཙོ་
བོད་སྐད་
སྲིང་
བསྒྲིགས་
ཅུས་ཀྱིས་
ཞུ་བའི་
འགྱུར་བ་
ཡིག
འཚོང་
སྣ་མང་
མས
དགུ་པའི་
སྤྱི་ལོ་
▁བྱུང་བ་
ོང
གསར་བའི་
ལྷིང་
སྐལ་བཟང་
གནས།
རྒྱལ་ཚོགས་
ཏན་ཏིག་
དབུལ་སྒྲོལ་
རྣམ་ཐར་
ལས་གཞི་
▁སྤྱིར་
▁གཏན་
བླག་
དང་ལེན་
ཀང་
ཡིག་ཆ་
རྫོང་དུ་
ཐད་ཀྱི་
▁)
▁ནམ་
གཞིས་རྩེ་
དགོས་པ་
འབེན་
ཡིན་ན
▁ཀྲ
བྱེད་རྒྱུ་
▁ཟིན་
ནས་བཟུང་།
བྱ་རྒྱུར་
ཆུབ་
ཉ་
རབ་ཏུ་
ཕར་
ཚགས་པར་ཁང་དུ་
ལྷུང་
ལ་མ་
ཤུགས་ཆེན་
▁བཏ
ཧུའུ་
ཡཱ་
གྱིས།
▁དགེ་རྒན་
འདེབས་འཛུགས་
འདང་
ཆི་
སྡེབ་
▁ཡིད་
▁འཁོར་
བང་
ལྷོའི་
ལ་ཁ་
གསལ་པོར་
མཐར་ཕྱིན་
ལྗོངས་ཀྱི་
▁མིང་
རྡུང་
སྒྲིག་ཆས་
འདོན་སྤེལ་
ཉག་
རྩད་
སྙིགས་
དང་འདྲ་
▁ཁེ་ལས་
གཏོང་བ་དང་།
བྱེད་བཞིན་པ།
▁ཨ་མེ་རི་
▁ངང་
བ་སོགས་
▁དཀའ་
མཁྲ
མགྲིན་
སྐྲུན།
བསྐོར་
▁གསེར་
བསམ་བླ
གཞུང་ལས་
ཅན་དུ་
བཅའ་སྡོད་
འགོས་
▁ཚོགས་པ་
▁ལག་བསྟར་
དཀའ་ངལ་
བའི
ཚད་ལ་
▁རྐྱ
▁གཙང་
▁ཁྱིམ་
▁རླུང་
བ་དེ་
ཡིན་པ་རེད།
དགྲ་
ཡིན་པར་
ུགས
བཅས་ཀྱིས་
▁དཀར་མཛེས་
གཤེགས་
ཚོགས།
འཛིན་གྲྭ་
རྒྱལ་རབས་
བརྒྱུད་རིམ་
སྡེ་བའི་
ཉིས་
ཚོན་
ཆ་ནས་
ུང་ལོ་
ལོ་ངོ་
དཔལ་ཡོན་
ཚོད་ལྟ་
ཐོབ་པའི་
▁འགྲོ་
སྟེ
ཉེན་ཁ་
པོ་དང་
ཚོགས་འདུར་
མང་པོ་ཞིག་
གཤམ་
ཤར་གཏོང་
སྤྱད་དེ་
ཧུའེ་
▁ཇེ་
ང་ཚོའི་
▁མུ་
དོན་དངོས་
བྱེད་དགོས་པའི་
▁གཙོ་བོ་
ཞིབ་དཔྱོད་
ཀྲུང་དབྱང་གི་
ཁུང་
ཕག་
དགོས་ཞེས་
འཁོད་
ཡོད་པ་དང་
རྩོམ་སྒྲིག་
ཆེན།
▁ངའི་
ཞེན་
སྤྱན་
ཡོན་ཏན་
སྒོམ་
ཆབས་
བཀུར་
གསུམ་དུ་
གཙོ་སྐྱོང་
གསོད་
ཨུད་ཀྱི་
འཛད་སྤྱོད་
སྒམ་
པ་ལྟར་
ཐོ་འགོད་
རྒྱུན་ཆད་
སློབ་འབྲིང་
གྱི
ལྡན་གྱི་
བྱུང་ཡོད།
▁གྲངས་
▁ཤར་
▁ཚན་
▁གཞི་
དཀྲ
▁གཞན་ཡང་
▁ཁོར་ཡུག་
ཙེ་
▁ཆེད་
▁ཞིང་ལས་
གྱོན་
སྟེར་
སྨན་ཁང་
སློབ་སྦྱོང་དང་
དུས་མཚུངས་
ཆུང་ཆུང་
དོ་སྣང་
གོར་
གཡས་
▁དེ་ལྟར་
ནིང་
འདི་ཉིད་
གསུངས།
ཡོད་རྒ
རིང་ལ་
ཁུལ་གྱིས་
བཏང་།
ཡོད་པ།
ཐོབ།
▁མཛད་
གསར་སྤེལ་
མི་དམངས་ཀྱི་
མཱ་
▁ཡོ་
དབུལ་ཕོངས་
གཏང་
གནས་པའི་
ཅི་ཡང་
▁གད
གནའ་བོའི་
གོ་སྐབས་
ཁེངས་
▁ད་ལོ་
ཨུ་ལྷན་གྱི་
ཅེས་པའི་
ཚུར་
པའང་
ད་ལྟའི་
སྡུར་
ཀླུང་
▁ཨུ་ཡོན་ལྷན་ཁང་
སྲིད་གྲོས་ཀྱི་
གི
▁ཐོན་
བུ་མོ་
ཟླཔའི་ཚེས
གནམ་གཤིས་
▁བྱེད་སྒོ་
མོ་བ
▁གནའ་
▁ཕྱིར་
འབྱོར་འབྲིང་
དུད་ཚང་
དོག་
ཞའོ་
རྒྱ་ཆེའི་
ཆོ་
ཕྱི་དྲ
ཁྱབ་གདལ་
སྤྱི་ཚོགས་ཀྱི་
མི
ཚོགས་ཀྱིས་
སྐྱར་
ནི
ཞིག
ཉམས་མྱོང་
སྦྱངས་
དགེ་འདུན་
བཙོག་
▁མཚན་
ཚེ་སྲོག་
མི་གྲངས་
ནའང་།
སྒུག་
མུ་མཐུད་དུ་
འགྱུར།
གད་
་རན་
ལས་དོན་གྱི་
ཞབས་འདེགས་
གཟའ་
སྒྲོག་འགྲེལ་
▁རྩ་
▁མངོན་
འཚོགས་པ།
སྟབས་བདེ་
▁བཀྲ་ཤིས་
མངོན་པར་
▁རྟེན་
ཀྲུང་གོ་དང་
ལོ་ཙཱ་
ཕྱུག་འགྱུར་
འགྲོ་བའི་
ཀྱིས།
ན།།
གཏམ་རྒྱུད་
▁གཏོང་བ་
འདི་དག་
▁ཞི་ཅིན་ཕིང་
གྲུབ་པའི་
ས་ཁུལ་དུ་
བསྙ
▁བསྡོམས་
▁རྟ་
བདུད་
ཚབས་ཆེན་
པའ
འགྲན་ཚོགས་
སྐྱེ་དངོས་
ཡི་ག
▁ཐོན་ལས་
འདྲིས་
སྐྱུར་
ལྷ་ས་གྲོང་ཁྱེར་
སྨྲ་
པ་ནས་
▁ཟླ་ཚེས་ཉིན་
▁ཆེན་པོ་
འགྲིག་
ལྷུན་
▁བདེ་ཆེན་
▁ཐ་
བཅོ་
་ཆེན་
ཕྱི་འབྲེལ་
▁མདོ་
བསྟན་པའི་
མ་ཡིན་པའི་
ཁག་གིས་
▁རྩ་འཛུགས་
ཚེ་རིང་གིས་
▁རྒན་
རྒྱུ
ཁྲིད་སྟོན་
དོ།
ཁོང་གི་
དོན་སྙིང་
▁ཆེ་
▁སྲིད་
▁རླངས་
▁རྗེ་
▁དྲུག་
སྤྱི་མཐུན་
སྤེལ་རེས་
མགོ་བ
མཐོར་འདེགས་
མཆེད་
སོན་
བསྐོ་
ང་ཚོ་
▁སེམས་ཀྱི་
▁ཞུ་
ཚོང་དོན་
བསྟུན་ནས་
▁ཡིན
བཞིན་དུ་
འཆི་
པུའི་
བློ་མཐུན་
མཐུན་སྦྱོར་
ཕུན་སུམ་ཚོགས་
ཡིག་གི་
པའོ་
ཧྲུའུ་ཅ
ངུ་
བ་ལ་
ེན
གཡོ་
མཐོང་ཆེན་
སྟེང་གི་
ཁྱུང་
▁སྙིང་
ཁ་གསབ་
▁ལས་ཁུངས་
སློབ་གླིང་
དཀོན་
བཞད་
ལས་གནས་
མས་པའི་
མས་པ་
པུས་
▁ཆེས་
▁སྨན་བཅོས་
སྣང་ཚུལ་
▁མཇུག་
▁ནན་
དགོན་པའི་
མང་ཚོགས་ཀྱིས་
འབུ་
རྡ་
གྲོང་ཁྱེར་དང་
ལ།།
▁སྔར་
▁དཔྱིད་
མཁན
ྐོག་
▁མེད་པ་
ཁྲིམས་འགལ་
བཞུགས་མོལ་
དེ་ལས་
ཞིག་ཀྱང་
▁བསྒྱུར་
འཕྲོག་
གུས་
ལྷོ་བོད་རིགས་
སྔོན་འགོག་དང་
དབྱིངས་
ལགས།
འཛམ་གླིང་གི་
▁ཐུན་
▁སྔ་
འདབ་
གྲགས་ཅན་
མདུན་དུ་
▁ཐང་
གྱུར་ཡོད།
རྒྱ་ཁྱོན་
སྐུ་ཕྲེང་
གཅིག་དང་
རྒྱུན་ཆད་མེད་པར་
གཡོན་
གུང་ཁྲན་ཏང་
ནན་ཏན་
གཞི
འགྲོལ་
▁ཙུང་ཐུང་
མ་ཐག་
འདུལ་
ར་པན་
ཧྲིལ་པོའི་
▁ནག་
ཧྲེང་
དབུགས་
ཚོགས་ཆུང་
▁ཚད་
ཕུའུ་
དཔེར་
▁རང་ཉིད་
▁དུང་ཕྱུར་
གླ་
ཁེལ་
དུམ་
ཡོངས་ལ་
ཡིན་ཞེས་
▁མངའ་
ཡེ་ཤེས་
ཆུ་རྫོང་
བུན་
ས་ཁོངས་
དུ་མ་
པད་
སྨན་རྫས་
▁ནུབ་
དགོས་མཁོ་
རྨི་
དགོས་པ་དང་།
རྐྱེན་ལམ་དུ་ཤོར་
སྨུག་
▁གླིང་
སྲང་
ཕྱིར།
▁དོ་དམ་
བཞི་པའི་
འཛིང་
▁རྣམ་གྲངས་
▁ཉེ་ཆར་
▁དེ་བས་
ཆེན་པོས་
དང་འབྲེལ་བ་
རིག་གཞུང་
ོ་བ།
རྒྱུ་མཚན་
▁བཅོས་
ཧེ་
ཀྱིས
ཨུ་དང་
གྲོང་མི་
སྤུ་
འདྲ།
ཞི།
བརྗེད་
ཁོ་ན་
རྒྱལ་ཁ་
སོ།།
རེད་ཅེས་
སློབ་དཔོན་
ཁོངས་གཏོགས་
ཁྲིན་
བྱེད་སྟངས་
ལོ་གསར་
རང་རྒྱལ་གྱི་
པ་ལྟར་ན།
▁བླ་
འགའི་
ལེགས་སྐྱེས་
འགན་བཅོལ་
རོགས་རམ་
འདབས་
▁འཕྲིན
དྲུག་པའི་
སྤུན་
ལ་དམིགས་
▁ཤེས་རྟོགས་བྱུང་
▁རྐྱེན་
ཕལ་ཆེར་
ལས་ཁུངས་ཀྱིས་
ཚོགས་པས་
གྲུ་བཞི་
ཚང་གི་
ཡོད་ཟེར།
བྱད་
ང་རང་
ངོས་ནས་
ནན་གྱིས་
མཛད་པའི་
▁ནགས་
ཉལ་
ནམ་ཡང་
ཐུབ་པར་
ཡོད་རྒུས་
འདིས་
ཡོད་ཚད་
མ་ལ་
ཡོལ་
▁ལས་རིགས་
ལཱ་
བྱང་ཆུབ་
དང་སྦྲེལ་
ཙོང་
བརྙེས་
བྱུང་བ།
▁དེ་དག་
ཨ་རིའི་
ཤན་
▁མཁས་
གྲོང་ཁྱེར་དུ་
རྒྱུ་ནོར་
སོང་ནས་
ཐལ་
འདི་ལ་
ཡོད
▁སྐད་
བཏང་བ།
▁གློག་འཕྲིན་
སོགས་ཀྱིས་
གྲོགས་པོ་
དྨ་
▁ཚན་རིག་
ཁོའི་
གནས་བབ་
གཡག་
འོས་འགན་
དེ་ཉིད་
ཇེ་མང་དུ་
གཏོང་བར་
▁ཀླུ་
ཡོངས་བསྒྲགས་
▁སྟེང་
མཁས་པའི་
སྣེ་ལེན་
▁ཀྲུའུ་ཞི་
གཏམ་བཤད་
མནའ་འབྲེལ་
▁ཀན་སུའུ་
མངོན་གསལ་དོད་
པྲ
རིགས།
▁གྲོས་མོལ་
▁ཞིབ་འཇུག་
གྲོང་ཁྱེར་གྱིས་
ཁས་ལེན་
འབད་འཐབ་
ཀླད་
པའི་དུས་
དགེ་ལུགས་
དམིགས་ཡུལ་
ལུགས་གསོ་རིག་
སྨྱན་སྦྱོར་
བསྟན་བཅོས་
ནོར་སྲིད་
བསྔ
དྲིལ་
▁སོང་
ལ་དགའ་
འོག
གཉིད་
བདེ་བླག་
རིག་དངོས་
▁སྟོང་
སི་རལ་
མཛུབ་ཁྲིད་
▁པེ་ཅིང་
རང་རེའི་
ཨ་ཧ
ཤེ་
ཉོ་ཚོང་
▁དེ་ལས་
▁ཉེ་བའི་ལོ་ཤས་
མང་པོའི་
▁ཡར་
རིན་པོ་ཆེ་
▁སི་རི་
རྣམ་པའི་
སློབ་གྲྭར་
པཱ་
▁ཁྲོད་
ར་བ་
མཚན་སྙན་
ོགས
▁ཞེས་པ་
མི་དམངས་འཐུས་མི་
ཡུང་
མི་འདྲ་བ་
རྒྱལ་པོའི་
ལུའུ་
ཆོག་མཆན་
བཀོལ་སྤྱོད་
མཐའི་
དོན་གྲུབ་
ན་གཞོན་
ཟུག་
འབྲས་བུ་
ནང་།
འབྲོག་པ་
ཐོར་
དཀར་པོ་
འཛུལ་
གྲོང་རྡལ་གྱི་
འཁྲུལ་
དམག་དོན་
འཁྱགས་
ཀན་སུའུ་
དམངས་ཆེན་
པུའུ་ཡི་
གདེང་
▁ཡུས་
རྒྱུ་དང་།
ཡུམ་
དཔེ་དེབ་
▁བདག་
འཕེལ་རྒྱས་སུ་
རོགས་སྐྱོབ་
བཅིངས་
བོད་དུ་
སྐོར་ལ་
▁སོ་སོ་
རྒྱ་མཚོ།
མེ་འཁོར་
བཏུང་
ཡཱའི་
▁བསོད་ནམས་
གཙོས་
དགོངས་པ་
འཚོལ་ཞིབ་
མལ་
ལམ་བུ་
གམ་
གཟོད་
ཛ་
ལྷ་སའི་
རབ་དང་
ཕུད་
ངོ་བོ་
▁རིམས་ནད་
ཏོག་གསར་གློ་ཚད་
བྲང་
▁བཅའ་
ཁེ་ཆང་
▁གཅིག
▁དོན་ཚན་
བརྩིས་
ཟློས་གར་
བོད་ལྗོངས་ཀྱི་
▁བརྟན་
▁ནང་དོན་
ལས་ཁུངས་ཀྱི་
བྱེད་སྐབས་
▁རྔ་
ཚད་ཡོད་ཀུང་
འབྲུ་རིགས་
ལ་ལྟ་
ནད་དུག་
▁སྐུལ་འདེད་
ཡབ་
▁རབ་
རིན་གོང་
ཡིན
དམ།
▁ཐོབ་
དངོས་པོ་
ལ་སླེབས་
སྒྲིག་བཀོད་
དང་མཐུན་པའི་
གསར་པར་
བ་ཡིན།
▁ཡོ་རོབ་
....
▁དོན་རྐྱེན་
▁ང་ཚོ་
གཏོང་བ་དང་
▁རིམ་
▁ཤ་
འགུལ་སྐྱོད་
གཉིས་དང་
ཞི་བདེ་
ཆེ་གེ་
▁ཕྲ
▁འཚོ་བ་
བསང་
ས་ཡ་
བསམ་འཆར་
▁འཐུས་མི་
བྱེད་ཤུགས་ཆེ་རུ་
ཅག་
▁ཁང་
རྙན་
བུད་
བྱེད་བཞིན་ཡོད།
ཁྲང་
སོགས་སུ་
གཏོང་དགོས།
ལེགས་གྲུབ་
ཡང་ཡང་
རྩ་བའི་
ཟབ་ཏུ་
ཀི་
ཅེ་
བརྗེའི་
▁གསར་འགྱུར་
སྔར་བཞིན་
ཤོད་
བསྣན་
བརྐོས་
ཤེལ་
རིག་གནས་ཤུལ་བཞག་
▁ཀྲུང་ཧྭ་
▁རྣམ་པ་
ུའུ་ཧན་
▁རླངས་འཁོར་
རིག་རྩལ་
ཤེད་
▁ཉིན
གཉིས་སུ་
སློབ་ཆུང་
ཀོད་
དམིགས་འབེན་
སྤང་
▁དཔེར་ན།
▁བོད་རིགས་
ཅུང་ཟད་
ཁོང་གིས་
▁བསྡུས་
རྒྱུ་རྐྱེན་
▁མཐའ་
གང་འདོད་
▁སློབ་སྦྱོང་
ཏང་ཨུའི་
བཞུར་
ེལ
▁སྟོན་
▁བྲག་
ལས་བྱེད་པ་
གནོན་
▁རྒྱུས་ལོན་
▁འབྲེལ་བ་
ུའུ།
བུ།
ིགས།
དུ་གྱུར་
སྒྲིག་གཞི་
▁སྐ
རྒྱ་ཆེར་
▁ད་ཐེངས་
ཁང་གི་ཀྲུའུ་རེན་
ུལ
སུའི་
ཁ་ཕྱོགས་
ཅུའུ་
ལྷ་མོ་
ལམ།
བློ་གྲོས་
▁ཨ་ཧ
པི་
▁ཟླ་བ་
རར་
ཇུས་འགོད་
སྨོན་ལམ་
ཤེས་ལྡན་
ཆུད་
▁ཀྱང་
བརྒྱུད་ནས་
སྒར་
གསུམ
དུས་རབས་གསར་པའི་
མདོའི་
དང་འབྲེལ་བའི་
ཕྲུ་གུ་
མཚོན་ན་
ཚེ་རིང་།
ཤེས་རིག་
མང་བོ་
ཚང་མར་
པའི་མི་
བདེའི་
བྱས་པས་
▁ཆབ་སྲིད་
བརྒྱ་དང་
▁ལས་གཞི་
འགྲན་སྡུར་
བརྗོད།
མཁྲེགས་
འཆམ་མཐུན་
གཅིག་སྡུད་
ཧུང་
ངོས་སུ་
སྦྲང་
▁མེ་ཏོག་
སྔོན་གྱི་
ཙི་
བཏང་སྟེ་
ཁེ་ཕན་
▁བཟུང་
སྤྱི་གླིང་
ིད
མིན།
▁སྙན་
དབུལ་ཐར་
▁སྤྱོད་
མགྱོགས་མྱུར་
ལེབ་
▁དབྱར་
▁གསར་འགོད་པ་
རི་བོ་
དགེ་ལུགས་པའི་
ེར
བ་ལས་
སྤུངས་
ལེགས་བཅོས་
མེ་ཟོན་
གསུམ།
སྤེལ་བ།
གསེར་གྱི་
ལྡན།
རྟེན་གཞི་
རྒྱུན་དུ་
གོ་ལ་
▁བརྒྱུད་
འབུད་
▁ཁྱོན་
ས་མཐོའི་
འཐུས་སྒོ་
བསྟུད་
ས་ནས་
ནོར་བུ་
བྱུང་བ་དང་།
▁རྒྱལ་སྤྱི་
བཅངས་
བསྟན་འཛིན་
ས་གནས་དེ་གའི་
▁གླུ་
▁བརྒྱ་
བོད་སྨན་
▁འབྱུང་
▁ཆུང་
བཟང་བོ་
ུན
རྗེས་ཀྱི་
▁རྟོག་
དལ་
ཤོག
སྲ་བརྟན་
ནད་རྟགས་
གཉིས།
སུ
▁ཨ་མེ་རི་ཁ་
▁ནུས་པ་
ཚྭ་
▁ཤང་
མཁས་ཅན་
▁བྱ་འགུལ་
ཡུལ་སྐོར་བ་
▁གསར་འགོད་པས་
ལ་ཕན་
▁དུས་ཚོད་
རྒྱལ་གྱིས་
ཡིས།
དཔེ་རྙིང་
▁ལྷག་པར་དུ་
བཅུའི་
ཟི་ལིང་
▁བཞིན་
བྱ།
ཙུའུ་
སྔོན་ཐོན་
ཏང་གི་ཚོགས་ཆེན་
འཕྲུལ་ཆས་
▁འཕར་
དུས་ཡུན་
བདུན་པའི་
བརྒྱུད་ནང་བསྟན་
ཤག་
ལེགས་འགྲུབ་
ནས་ཟླ་ཚེས་ཉིན་
▁བྱེ་
▁རང་བྱུང་
▁དམ་
▁ཞིབ་བཤེར་
གཉིས
དམིགས་ཚད་
ཧྲང་
གཅིག་གིས་
གྱིས
པའི་ཚེས་ཉིན།
བཟོས་པའི་
སློབ་གས
དྲོ་
རྩ་དོན་
ལྟ་བ་
བྱས་པར་གཞིགས་ན།
བཅུ་གསུམ་
ནན་པོ་
▁དེའི་ནང་
གང་རུང་
མེ་ལོང་
རྗེའི་
ལེགས་སྒྲིག་
ོག་པ་
ཡང་བསྐྱར་
སྐྲ་
དང་དེ་བཞིན་
རང་གིས་
བཟོའི་
ལས་གྲྭ་
▁ཟི་ལིང་
▁ཁྱིམ་ཚང་
▁ཀྲང་
སྒྱུ་རྩལ་གྱི་
སྡེ་བ་
དོར་
བཅོས་སྒྲིག་
ལེའུ་
▁བུད་མེད་
ཞེས་གསུངས་
ངོགས་
དྲིས་
གཙུག་ལག་
▁གཉིས།
▁ཉམས་
སྲིན་
འབྲེལ་བའི་
ལྟོས་
སྤུས་ཚད་མཐོ་བའི་
གོ་གནས་
▁འདིའི་
རྒྱས།
འཇོན་
ཅུན་
▁གནང་བ
གཅིག་མཐུན་
མཐོ་སྒང་གི་
སྙམ།
▁མཚམས་
ཕྱོགས་ནས་
▁ཟླཔའི་ཚེས
དྭགས་
གོང་དུ་
ལྡེ་
▁མྱུར་
འགྱུར་མེད་
ཆིན་
འཚར་
ལྐོག་
གཞོན་པ།
མགྱོགས་སུ་
སྔོན་ལ་
ཞུང་
མ་འོངས་
བགྲོ་
དྲ་རྒྱའི་
▁འབྲིང་
▁རོང་
གཉན་
ཚེས་ཉེར་
ཡང་མི་
ཡོ་རོབ་
ཇེ་མཐོར་
ལྗང་མདོག་
དུ་འགྲོ་
གྱོད་གཞི་
▁གླེང་
འགྲོས་
བླངས་པའི་
འཁྱིལ་
བཟོ་ལས་
ཁྲོད་ནས་
བཅོས་སྒྱུར་
ཐང་གི་
མངའ་རིས་
ཕུགས་འདུན་
གནང་ཡོད།
▁ལྟར
ཆུང་།
གང་མང་
བསམ་བློའི་
སྤོར་
དེ་ནས་
ཡར་ཐོན་
ཆོས་འབྱུང་
▁གསལ་
▁དབྱིན་
སློབ་ཆེན་གྱི་
མ་གཏོགས་
འཛིན་པ་
གནས་ཚུལ་ལ་
དུས་ཚིགས་
བཀའ་དྲིན་
ལ་ཉེ་
▁ཞིབ་
▁བརྙན་
ཁེ་དབང་
འཕེལ་རྒྱས་དང་
▁དག་
རྩ་བ་
མཚན་ཉིད་
བཞི
ས་ཡོམ་
སྐུལ་མ་
ཐད་ལ་
▁ལྷ་ས་གྲོང་ཁྱེར་
▁བཀའ་
▁ལྷན་
ྭའི་
ཐའེ་
སྡུག་བསྔ
ཁྲིམས་ལྟར་
བཙན་པོའི་
གཏན་ནས་
▁སྙན་ངག་
གླེང་སྟེགས་
གྲུབ་ཆ་
དགའ་བསུ་
▁གཏམ་
ཕྱོགས་ལ་
འགོག་བཅོས་
གང་འདོད་དུ་
དབུ་བརྙེས་
བཟོ་སྐྲུན་
▁རྐང་
ཧོར་
▁དགུན་
▁བརྡ་
རྒྱུ་དེ་
▁རོགས་སྐྱོར་
▁ཡང་ན་
▁མ་ཟ
ཆད་པར་
འཚོ་བར་
འུར་
▁བརྗོད་
བྱ་རྒྱུ།
བདེ་བླག་ངང་
གསུང་བཤད་གལ་ཆེན་
བཅོམ་
ཇེ་ཆེར་
གཞུང་དོན་
བཅུ་གཉིས་
སྲོལ་རྒྱུན་གྱི་
▁ཧ་
བགོས་
ངེས་ཅན་
མིར་
གྲགས་པ་
ལྟེ་བའི་
བྱ་རྒྱུ་རེད།
ཕེན་
▁སོ་
འཁྱེར་
ཚད་ལེན་
བགྲོ་གླེང་
མི་འདྲ་བའི་
འོག་ཏུ་
འབོད་སྐུལ་
སོ་སོས་
དུས་སྐབས་
▁གཡ
ཚོད་ལྟའི་
འཛུགས་སྐྲུན་གྱི་
ཕ་ཡུལ་
ཟེར་བ་
▁གཞིགས་
ཤེས།
མི་འདུག
▁གཞི་རིམ་
དགོན་པ་
འགྲིལ་
▁སྤེལ་བ་
ཀོན་
འདེམ་
རྫུན་
▁ཅི་
སེམས་ཁམས་
▁རྣམས་
ཀུན་ཏུ་
དབར་
ཕྱི་ནང་གི་
དཔར་
ར་མན་
ཡུན་ནན་
སྒྲོལ་མ་
▁བཙན་
▁བཟང་
ནན་བཤད་
འཁོར་ལོ་
འགོ་བརྩམས་
ལྷ་སར་
▁ཨ་རི་
ཀྱི་ཡོད།
གཞི་ཁྱོན་
བྱེད་དུ་
▁གཉིས་པ་
གསར་རྩོམ་
ཁྱིམ་དུ་
ཐག་བཅད་
ལོགས་
འཕྲིན་ལས་
ཁུངས།
སྔོག་
▁འདིར་
ལ་སྐུལ་འདེད་
▁སྲུང་སྐྱོབ་
རྩ་འཛུགས་ཀྱི་
ཁྱི་
▁དུས་ཆེན་
ཕམ་
དགེ་མཚན་
མཐའ་གཅིག་ཏུ་
ཁང་ནས་
གྲོས་འཆམ་
▁ཐུན་མོང་
མཐོ་ཚད་
ཁྲིམས་འཛིན་
ཁྱུ་
ལམ་ནས་
རིགས་ལ་
བྱེད་ཚད་
བྱ་ཡུལ་
ལམ་སྲོལ་
ངེས།
▁བདུན་
གཞན་གྱི་
ངོས་ཀྱི་
གཏིང་ཟབ་ཏུ་
བརྗེ་རེས་
ཁེར་
ལ་བརྟག་
ལས་འདས་
རྒུད་
▁མ་ཟད
ཁ་བ་
▁ཨོ་
ཞུས།
▁རྒྱ་གར་
གོ་བ་
ད་མོ་
འཐུས་ཚབ་
མཐོན་
རྒྱུ་ཆ་
▁འབྲི་
▁ཕོ་
ཚིག་གི་
▁ལོ་ངོ་
གསུམ་དང་
འཁྱག་
▁བརྩམས་
བརྟེན་ནས་
རྒྱལ་ས་
ངག་དབང་
དོན་ཚན་
འཚུབ་
འཇབ་རྒོལ་
འགྲེམ་སྤེལ་
▁བྱིས་པ་
▁བརྒྱད་
ཨུ་ཡ
པུའུ་ཡིས་
▁རྨང་
རྒྱུ་དང་
ཤེས་དཔལ་
▁ཡོང་ཁུངས
ལྷག་གི་
དུས་ཆེན་གྱི་
དྲ་བར་
བསྐུར་
བསྡོམས་པས་
འཕེལ་རིམ་
པ་སོགས་ཀྱི་
གནས་སུ་
འདོགས་
ཐི་
མྱོང་།
▁སྐྱེས་
གྲོང་ཚོར་
ལས་མི་
ཆབ་སྲིད་ཀྱི་
ཞྭ་
ཕྱུར
ཀོ་
བཅོ་ལྔ་
མང་པོར་
ཞོགས་
ཐད་ཀར་
སྐུལ་སྤེལ་
གྲོས་བསྡུར་
གོམས་གཤིས་
གན་
གཟན་
གཞི།
བསགས་
མི་ཤེས་
རྒྱུན་ཨུ་
ལོ།
དུང་ཕྱུར
▁གྲོང་གསེབ་
▁ཡན་
ལ་བལྟས་
མིན་པའི་
བྱུང་ནས་
▁ཚོགས་འད
▁ཕྱི་འབྲེལ་
གོང་གི་
ཆོག་པའི་
ཁོས་
སྐུལ་སློང་
ཞིག་ཡིན་ལ།
འགོ་ཚུགས་པ།
ངམ་
▁ཐོན་སྐྱེད་
མག་
རུ་ཁག་གི་
ཚེའི་
▁རྒྱང་
འཁོར་བར་
གཉིས་པ།
རྣ་
རྒྱུད་དུ་
གླེང་བ།
ལིས་
སུམ་ཅུ་
བཟུང་ནས་
ཕོད་
དམངས་ཁྲོད་
དོན་གྱི་
ཡོངས་ཀྱིས་
དབྱེ་ཞིབ་
ཡིན་ན་
▁ཨུ་རུ་སི་
ལག་ཁྱེར་
རིགས
གྲངས་ཉུང་
གོ
▁ཡིག་འབྲི་
སྒོར་ཁྲི
གྱིན་
རྩེའི་
གེགས་
ལྟེ་གནས་ཀྱི་
ཅན་དང་
▁ང་རང་
▁མྱ
བྱེ་བ་
ཡིག་ཚགས་
རང་འགུལ་
ཐུན་མོང་གི་
འཛིན།
འདོན་སྤྲོད་
བྱས་པ་བརྒྱུད།
འཐུས་སྒོ་ཚང་
▁ཙམ་
རུ་ཁག་གིས་
མཆོད་རྟེན་
གྲི་
སྐུད་
བྱེད་སྒོའི་
ཁྲེན་
གནང་བ་
སློབ་ཚན་
བཅར་འདྲི་
▁ཧུའུ་
ཚོད་འཛིན་གྱི་
མཉམ་འདྲེས་
ག་ལ་
དུས་ཐོག་ཏུ་
བསད་
བུམ་
པེ་ཅིང་དུ་
▁ཚན་རྩལ་
▁རྒྱུན་ལས་
▁ལྡན་པ་
གྲབས་
▁གུང་
ཀྲེང་
ངོ་མ་
ཁག་དང་
གསན་
▁ཉེར་
པར་ཞུ།
▁བ་
རིག་གནས་དང་
▁བཀོད་སྒྲིག་
གནད་དོན་ཐག་གཅོད་
སྡུག་བསྔལ་
པང་
འཕོ་
གྲགས་པའི་
སངས་
ཛ་དྲག་
མྱུར་བགྲོད་
▁ཀོང་
འཇམ་དབྱངས་
གཉིས་ཀ་
ནང་ནས་
▁བརྟག་
ཚོགས་ཆེན་གྱི་
▁ཞབས་ཞུ་
དབང་ཆ་
▁མུ་མཐུད་
སི་ཁྲོན་ཞིང་ཆེན་
གདངས་
སྣང་བ་
དགོས་པར་
▁ཡུན་ནན་
ལྷན་དུ་
▁རྟོག་ཞིབ་
བྱེད་ཀྱི་ཡོད།
ལ་བ་
▁ཧོ་
བོས་
▁ལོ།
▁གསར་པ་
▁ཐག་གཅོད་
ཐབས་ཇུས་
ཨང་དང་པོ་
འགོག་སྲུང་
ནམ་མཁའ་
པར་དབང་
བཏོན།
དུ་སོང་
▁བློ་མཐུན་
ལས་ཀར་
བྱེད་ཐུབ་
མུན་
ཀློང་
▁ལྷོ་ཁ་
གསར་སྐྲུན་
བསྔགས་
རྫོང་།
མཐུན་ཚོགས་
མི་དང་
འདོད།
ཡོད།།
▁འཚམས་འདྲི་
ེའ
དང་རྒྱལ་
མཉམ་འབྲེལ་ལྷན་
བསྟུད་མར་
བཅིངས་འགྲོལ་
པའི་གནས་ཚུལ་
དུས་དེབ་
ན་རྩོམ་
▁གསར་བ་
མཆིས་
སྒྲིག་ཁྲིམས་
སིས་
▁བརྩེ་
▁གནང་བ་
ཏཱ་
▁མིའི་
འགོད་པ་དང་།
▁ཉེས་
ཙམ་གྱིས་
ཁྲོ་
▁བཙུགས་
གཟེངས་བསྟོད་
པ་རྣམས་
བར་གསུམ་དུ་
་་་་
མཚོའི་
པ་མི་
འཕྲོ་
དངོས་ཟོག་
རིགས་པའི་
▁ལྟེ་
གཙོའི་
▁དགོན་
ནང་འདྲེན་
དམག་འཐབ་
སྒེར་གྱི་
རྭ་
▁ཧན་
རྒྱལ།
དོན་དུ་
གཏོགས་པས་
རྩེར་
ཤམ་
དབང་པོ་
བསྐྲུན།
སྔོ་ཚལ་
▁གཟའ་
▁དེ་ལ་
▁དབུ་
ནོ།
རྒྱུ་ནི་
ཞག་
▁ཉིན་ཤས་
ཕྱིས་
བྱེད་མི་
ཐེངས་འདིའི་
ཁུལ་ཡོངས་ཀྱི་
ཉིན་རེའི་
རྩོམ་ཡིག་
▁ཉེན་རྟོག་
གང་ཞིག་
ཡུལ་དངོས་
བུ
འདི་ལྟར་
པྲོག་
▁ཉིང་ཁྲི་
▁དཔའ་
སློབ་གཉེར་
ལས་བྱེད་པ་དང་
དྲགས་
ཆེ་ཆུང་
ཁུལ།
བཏང་ནས།
ལ་གནོད་
མཚམས་སུ་
གཞོགས་
ཏེ
རྡོག་
▁གྱོད་
▁སྲིད་ཇུས་
མཆོང་
དམ་པ་
བསམ་པའི་
འགྲམ་དུ་
ལག་ལེན་བསྟར་
▁ཉིས་
བཅུ་གཅིག་
བོ།
སོར་
▁ཆབ་མདོ་
གཉེར་སྐྱོང་
▁སྐྱེ་
ཕྱི་རོལ་
ཟས་རིགས་
བརྒྱབ་ནས་
ཅོ་
པོ་ཞིག་
བམ་
་ངན་
ཏང་ཨུད་
གཡེང་
དང་ཁ་
ད་གཟོད་
▁ལེ་
▁ཕུལ་
དྲག་ཆས་
གཞན་དུ་མི་
བཟོད་
ལས་རིགས་ཀྱི་
ཐབས།
▁ཚ་
བོང་
སྒྲོམ་
དེ་ཡང་
དེ་འདྲ་
སྲོག་ཤིང་
▁གྲུབ་འབྲས་
▁ཟླ་ཚེས་ཉིན་གྱི་
▁འཇིགས་
བཤད་པ་
སྡེ་ཁག་གིས་
ཆབས་ཅིག་
ཆ།
པའོ།
གད་སྙིགས་
རླབས་ཆེན་
ལོས་
ོལ་བའི་
▁འཇིག་རྟེན་
རྨི་ལམ་
ཕོར་
བྲེལ་
▁ན་ནིང་
དངོས་རྫས་
རྐྱེན་གྱིས་
▁མཇལ་
པའི་ནད་
ཁྱོད་ཀྱི་
ཞིན་
ཅི་ཞིག་
གནས་ཀྱི་
ཆབ་མདོ་
པིན་
ཁྲོམ་རའི་
རྩོམ་པ་པོ་
ལ་བྲ
▁འདོད་
བསྐྱལ་
▁བོད་ཡིག་
ལིའུ་
འདིའི་པར་དབང་
ཏང་དང་
རྦ
རྡེག་
དྲ་བར་གཏོགས་པས་
▁མོ་
ཡིད་དབང་
ན་རྩོམ་ཁུངས་
པདྨ་
▁གསོ་སྦྱོང་
དང་སྦྲེལ་ཐག་
གཟབ་རྒྱས་
ོལ
▁དྲི་
འཁོར་བའི་
འཛིན་པའི་
▁དེང་རབས་
མཐུན་ཚོགས་ཀྱི་
ཐག་རིང་
▁བྱེད་ཐབས་
སེམས་ལ་
བལ་
▁ཐེ་
▁ཨུ་ཡོན་
ལགས་ཀྱིས་
གསལ་པོར་དགོད་
ཚེསཉིན་
སྤྱི་ལོ
གསར་པ་ཞིག་
ལམ
▁འོ་
གང་ཡིན་
བོད་སྐྱོར་
ཐེམ་
བྱས་པས།
བརྟན་ལྷིང་
▁སྲིད་གྲོས་
▁ཤེས་རྟོགས་
ཨ་མེ་རི་
▁ས་གནས་དེ་གའི་
མགོ་ཁྲིད་
▁རང་རྒྱལ་
ཁག་ཐེག་
རྩི་ཤིང་
བཅུ་དགུ་
འཕེལ་རྒྱས་འགྲོ་
ལོ་ལྔ་
▁མིག་སྔ
པར
▁ཁྱབ་
ཡན་གྱི་
ལོའི་ལོ་
གྲོས་ཞིབ་
གདམས་
མང་བ་
ལིའི་
ས་བབ་
རླུང་འཕྲིན་
གསུམ་ལ་
བརྩོན་ལེན་
▁འགོ་
▁ཤོག་ངོས་
▁དམག་དཔུང་
གཉིས་པོའི་
ལས་དོན་སྤེལ་
▁ཁོངས་
ཉེན་རྟོག་པས་
མི་རིགས་ཁག་གི་
བཏང་སྟེ།
▁ལག་རྩལ་
རྒྱལ་ཚོགས་ཀྱི་
ཞ་
གྲུ་གཟ
▁གྲོང་ཚོ་
མའོ་
ལ་བཀ
ནན་མོ་
▁མདོར་
▁བསྒྱུར་མཁན
▁ཐུབ་
▁ཚོགས་འདུའི་
འཐབ་ཕྱོགས་
ཚོད
ལོ་ཙ
དཔལ་ལྡན་
ཆན་
ནཱ་
མེད་པས་
བརྒྱུད་དེ་
▁དེ
▁ཤོར་
མང་བའི་
ཧི་
▁དབྱང་
ཆེན་དུ་
བར་སྣང་
▁དགོངས་
ཀུན་སྤྱོད་
▁འགྲིམ་འགྲུལ་
▁སྟེ་
རོགས།
ཁོངས་ཀྱི་
▁ཀྲུང་གོ་དང་
▁དྲན་
ཉི་ཟླའི་
ཚབ་པ་
ཐང་དུ་
▁ཐེབས་
རགས་ཙམ་
གནང་བ་དང་།
འབུར་
པོད་
བྱ་ཆེད།
སེམས་པ་
ཚོགས་ཆེན་ཐེངས་
འཚོག་
ཕེབས་ནས་
ཐེན་
བཙུགས་ནས་
འཐབ་རྩོད་
གཞན་དག་
ཀུ་
ོ་བཀོད་
དང་དེའི་
ཉིང་ཁྲི་
▁ཞིང་འབྲོག་
▁དགུ་
སྟེང་ནས་
▁འབྲོག་
གཅིག་ཀྱང་
▁གོང་འཕེལ་
▁ཉོ་
དཔེ་ཆ་
བྱེ་བྲག་
རྒྱལ་ཁབ་རིམ་པའི་
འབབ་འཕར་
གྲོས་མཐུན་
ལྟ་བུར་
▁ཆེན་མོ་
གྲུབ་མཐའ་
འགྱུར་གྱི་
གཞི་ནས་
མངར་
འཁྲིད་
བརྩེགས་
གང་ཡང་
དེ་དག་གི་
ཞིམ་
ཁྲོམ་ར་
ལུ་
པོ་ཏ་
མཛད་སྒོར་
རེག་
▁དེ་དང་
ནས།།
པ་ཞིག་རེད།
སེམས་ཀྱི་ཉི་ཟླ་
བོད་རིག་པ་
▁གནོད་འཚེ་
བ་སོགས་ཀྱི་
མིག་སྔར་
བྱུང་བ་ལྟར་ན།
སྐེ་
བཅས་སུ་
ལྔ་པའི་
པ་སྟེ།
བྱེད་ཀྱིན་
ལས
▁དྲག་ཆས་
སྤོབས་
དང་བླངས་
▁ཞང་
ལྷོ་ཁ་
པར་གྱུར་
གྱེས་
མི་ལ་
དམ་པོར་
ཁང
ཆོ་ག་
བླངས།
▁སྡོད་
▁གཞོན་པ་
རྒྱུད་གཅིག་
མཁན།
▁སྤྱི་ཚེས་
ོས་པ་
▁གནམ་གྲུ་
ཟིང་
སྤྱིར་བཏང་
▁ཁྲོམ་
བདེ་འཇགས་ཀྱི་
ད་པ་
ཨ་མ་
བཅུ་བཞི་
བྱུང་བར་
དང་ལས་
བློ་བ
▁འབྲེལ་
▁ལས་ཞུགས་
ལ་གཞིགས་
དེང་རབས་ཅན་གྱི་
རུབ་
སྐྱེད་སྲིང་
སྒོར་དུང་ཕྱུར
གྲོང་ཁྱ
ཞལ་འདེབས་
ཙ་
རི་སྐྱེས་
འཚོ།
▁དུས་མཚུངས་
ཡས་མས་
པའི་ལོ་
▁ཆོས་ལུགས་
སློབ་གླིང་གི་
▁རྒྱལ་སྤྱིའི་
ཡོད་ལ་
ཞེས་པ་ནི་
▁འགན་སྲུང་
གྲུབ།
ས་དང་
▁སྟེ
མིན་གྱི་
གསར་བརྗེའི་
ཚུལ་ཁྲིམས་
ངལ་གསོ་
ཚོམ་
སིལ་
▁ཆེ་བ་
ཏོན་
▁ལན་
ཧྲ་
ཞིང་ཆེན་གྱིས་
གྲུ་གཟིངས་
འགྲེལ་བཤད་
▁སྲུང་སྐྱོང་
འགྲུལ་སྐྱེལ་
ཀུན་གྱི་
དྲུང་ཡིག་
འོ་ཞན་
གྲིབ་
▁ཚིག་
ས་ཞིང་
རྒྱ་ཡིག་
བདག་གི་
མི་དམངས་ཁྲིམས་
མིའི་རིགས་ཀྱི་
ཁུལ་དང་
དངོས་མང་
དུ་ཕྱིན་
▁བརྩ
སྡེར་
ུའུ
སྤུས་ལེགས་
▁འཇབ་རྒོལ་
བྱས་པ་མ་ཟད།
▁གསུམ།
ཀུན་གྱིས་
དམངས་ཀྱི་
ཆེ་གྲས་
ལྷུག་
བཞིན་པ་
སློབ་མར་
མཚམས་འཇོག་
▁བཟའ་
▁འདས་
རིམ་གྱིས་
རྩོམ་པ་
ཁྲིམས་ལུགས་
བཀོད་འདོམས་
བཅོས་བསྒྱུར་
ཆད་པ་
བཞེད་
གཟི་བརྗིད་
རབ་བྱུང་
རྩལ་ནུས་
བརྗོད་བྱ་
དུས་མཚུངས་ལས་
གཞུག་
རྩ་འཛུགས་ཀྱིས་
གློ་བ
▁སྒྲུབ་
▁མཐོ་རིམ་
▁རང་བཞིན་
ཆེ་མོ་
དཔེ་ཀློག་
དགའ་ལྡན་
▁གཉིས་པ།
འཆང་
བཙན་པོ་
ཡོད་ན་
གདེང་འཇོག་
ལས་ཀྱི་
འགྲམ་གྱི་
ཆིངས་
འགྲོ་འོང་
འགྲན་རྩོད་
▁གལ་ཏེ་འགོད་
གྲགས།
འཕྱུར་
བཅུ་དྲུག་
▁ཟས་
▁ཨང་
ལྡིང་
ཤོས་ཀྱི་
བཤད་པ་རེད།
ཡལ་
ལྡན་པ་
སྲོང་བཙན་
དཀོན་མཆོག་
▁དགོས
སྨྱུག་
མང་པོས་
ཉིན་དེར་
སྤྱད་ནས་
ཙམ་གྱི་
རྒྱུད་གཅིག་ལམ་
▁ཨ་རིའི་
ོས་པའི་
▁ལུས་རྩལ་
▁སྒྲ་
མི་ཆད་པར་
དོན
སྒྲོལ་མ
དགུང་ལོ་
▁ནུས་
ཟིན་པ།
བསྐྲུན་པའི་
ིམས་
སྐབས་སུ།
ངོ་བ
ཐིན་
གི་ཡོད།
ངེས་པར་
ས་གནས་ཀྱི་
ཁག
ལ་ཡང་
ེ་རི་ཁ་
ཏུ་གྱུར་
ཁི་སི་ཐན་
བརྟེན།
ཁེ་ལས་ཀྱི་
▁རང་རྒྱལ་གྱི་
ཐོན་པ་
གཏན་ཁེལ་
མཚོ་བོད་
པ་ལ།
ལ་བསམ་
ལྟར་ན་
▁སེམས་ཀྱི་ཉི་ཟླ་
དོ།།
ཡོང་།
དངུལ་ཁང་
གཡོག་
བཟོ་རྩལ་
ཟིན་ཡོད།
ཏུ།
སླད་
རྟོན་
ནས་ཕྱིར་
སྤྱི་པའི་
ཁྱབ་ཁོངས་ཀྱི་
ཏག་
སྐུར་
ཙོང་ཁ་
▁བསྐྱར་
▁ཀུང་
རམ་འདེགས་
སྤྲོ་སྣང་
མོན་
ཞུགས་པའི་
འགྱུར་བའི་
གལ་ཆེའི་
▁ལྟ་སྐུལ་
གཞིག་
བརྡ་སྤྲོད་
ལམ་ཐིག་
▁གསུང་
འཚོགས།
ཤེས་བྱའི་
▁གཞིས་རྩེ་
བའམ་
▁བོད་ལྗོངས་ཀྱི་
▁ཡ་
མཐའ་བར་གསུམ་དུ་
ཚངས་
རང་དབང་
ལུས་ཀྱི་
▁རྒྱལ་ཡོངས་ཀྱི་
▁རྒྱ་ཆེའི་
ཁྲིམས་སྐྱོང་
མཇལ་འཕྲད་
▁ཕན་ཚུན་
པའི་ཚེས་ཉིན་
ཏའོ་
མཚོན་པའི་
གསར་འགྱུར་གྱི་
སྲུང་སྐྱོང་གི་
ཇུས་གཞི་
འཚར་ལོངས་
ཉི་འོད་
ལ་བརྩི་
▁གསུམ་པ་
བྱ་རྒྱུ་དེ་
▁ལོ་ཙཱ་
བརྟག་ཞིབ་
▁རྐྱེན་ལམ་
བཟོ་བའི་
བཀོད་པ།
སྔར་ལས་ལྷག་
ུབ
ཏིང་
ཡིན།།
རུང་།
▁འོད་
འགྲོའི་
▁ཉུང་
གང་སར་
▁རྔ་བ་
སྤྲས་
▁སྐབས་དེར་
རྔ་བ་
ཁ་གཏད་
སྒོ་འབྱེད་
ལྗོངས།
འཛུགས་སྐྲུན་ལ་
▁གསང་
▁མཚོན་
མཁས་དབང་
▁ཆ་
དགོས་ལ།
དུར་
▁འདྲ་
གཟུགས།
▁མིག་སྔའི་
སྲུང་སྐྱོང་དང་
གྲོས་གཞི་
ཇིའི་
ིགས
ཁོལ་
ནག་གི་
དམར་པོ་
ཡིན་ཏེ།
དཀའ་བའི་
མཁའ་འགྲུལ་
ིལ།
གསོན་ཤུགས་
སྒྲིག་སྲོལ་
མཁྲེགས་གཏོར་
འགྱངས་
▁གསུངས་
བློན་ཆེན་
རྒས་
ཆེ་ཞིང་
ཡིན་པ་དང་
▁འགན་འཁྲི་
ཁྲུའུ་
དབུལ་པོ་
གུང་ཁྲན་ཏང་གི་
ཆེན
པའི་སྒོ་ནས་
པྲོག་གསར་གློ་ཚད་
▁ལས་ཀ་
སྟོན།
གྱི་ཡོད།
▁ངེད་
ཡུལ་ཤུལ་
སྐྲག་
▁གཞུང་ལམ་
གིན་
མི་ཐེངས་
▁ཀ་
▁ཐུབ་པ་
▁དེས་ན་
ཆོས་ཉིད་
▁པེ་ཅིན་
རྫོང་དང་
▁ཙུང་ལི་
ཚུལ་དུ་
བཏང་བའི་
སྤྲོ་སེམས་
སུས་
▁རེ་བ་
དུས་ནས་
ཀྲུང་ཧྭ་མི་དམངས་
རེད
གོང་མ་
དང་སྐར་མ་
ཟླ་བའི་
▁འགྲན་བསྡུར་
▁ཞུས་
རྒྱལ་བ་
དམ་བཅའ་
▁སྤྱི་ལོ
▁རྫ་
▁རྩྭ་ཐང་
བྱེད་ནུས་
སྒྲུབ་པའི་
▁དབྱི་སི་རལ་
▁ལིས་
བླུགས་
▁སྟག་
ཕུར་
གཅོག་
སྔོག་འདོན་
རོ།
རང་ལ་
▁དང་པོ།
དུའང་
དོན་དག་
དྲག་ཏུ་
▁ཡོ་རོབ་གླིང་
ཁྲོད།
བཏང་ཡོད།
▁ཡེ་
▁ཧུར་
ཁེབས་
ཉེས་གསོག་
▁བདེ་སྐྱིད་
སྐྲན་
གཞན་ལ་
རྒོན་
མ།།
ིང
གཙོ་བོ་ནི་
བསླུས་
ཁོང་དུ་
གཞུང་གི་
▁མིག་སྔར།
ཁྱོད་ཀྱིས་
སྨན་ཁང་དུ་
ཚན་ཆུང་
མཛད་སྒོའི་
ཁག་ཅིག་
བྱུང་ཞིང་།
▁བཅའ་ཁྲིམས་
▁འཇམ་
བུ་ཕྲུག་
▁དགུང་ལོ་
ལོངས་སྤྱོད་
ལ་བསྡ
ཐུབ་པ།
བཤད་པ།
ཚོ་ཆུང་
▁དེ་རིང་
རོལ་དབྱངས་
འཁྲུངས།
ཉར་ཚགས་
▁པར་རིས་
▁ཨར་
བྱེད་བཞིན་པའི་
▁སྦ
▁སྐྱིད་
ཕ་མ་
ཁུལ་ཨུའི་
གྲོས་ཚོགས་ཀྱི་
དགུའི་
བོན་གྱི་
འདི་འདྲ་
ཡོད་མེད་
ཐུབ་པ་དང་།
བྱས་པ་ལྟར་ན།
ནས་གློག་འཕྲིན་
མི་རྣམས་ཀྱིས་
སྟེགས་བུ་
ཕན་པ་
འཕགས་པ་
གཞི་གྲངས་
དྲག་པོ་
སྟོན་པ་
བཏང་བ་དང་།
འགག་སྒྲོལ་གྱི་
ཟིན།
བཀོད།
ལོའི་ཟླ
ནམ།
ལེ་ཚན་
སྨན་ཁབ་
བྱུང་བ་རེད།
ལེན།
འཕེལ་རྒྱས་གཏོང་
ཇི་བཞིན་
གྱ་
▁མནའ་
མངོན་མིན་
▁མཛད་སྒོ་
གདོད་
མ་པ་
▁རྡོ་རྗེ་
ཁོ་རེ་
གཞོན་པའམ་
ཚེགས་
འཕུར་སྐྱོད་
ཞོ་
མཇུག་ཏུ་
ཟིན་པ་དང་།
བྱས་པ་བརྒྱུད་
ཚད།
མཆིས།
རབ་དང་རིམ་པ་
▁ཅིང་
ལས་བྱེད་པའི་
▁དབུལ་སྐྱོར་
▁ཁུལ་ཨུའི་
▁དབུལ་ཕོངས་
གྲས་སུ་
དཀར་པོའི་
ཀྲའོ་
ལ་འབྱོར་
བསྐྱར་དར་
▁རང་ལྗོངས་
ལྷག་བསམ་
ཇོ་མོ་
བརྒྱད་པའི་
རྒྱུད་འཛིན་
རྒྱུའི་སྐོར་གྱི་
གཡུལ་
ཙུགས་
ཱ་ལེ་
▁བྱ་སྤྱོད་
ཤང་གི་
ཚོགས་འདུར་ཞུགས་
ཟངས་
ུའུ་ཁི་
▁རྩྭ་
འཛིན་བཟུང་
ཅན་ལ་
གནང་བར་
ཞིག་དང་
ཁྲིན་ཧུའེ་
▁སྒྱུ་རྩལ་
དང་ཟུང་འབྲེལ་
▁ནོར་སྲིད་
ཚན་པ་
ཉམས་ལེན་
དགེ་བཤེས་
ཁ་ལོ་
བརྒྱའི་
སྨྲས་
ཐུགས་རྗེ་
▁ངོ་སྤྲོད་
རུལ་
▁འབྲུག་
གོང་མའི་
སྤེལ་ནས་
ཡོད་པ་མ་ཟད།
བསིལ་
▁ལིའུ་
འཚེར་
གྲུའི་
བཀོད་པ་
ལས་དབང་
སྒོར
ན་ཡང་
ལ་བདེ་
ལན་གྱི་
རྩམས།
ལས་སྟེགས་
▁གནས་སྐོར་
ཅེས་པ་
བཙལ་
ཆགས་པའི་
▁མཛེས་སྡུག་
ནུས་པ་འདོན་སྤེལ་
དོ་ཁུར་
མཇུག་འགྲིལ་
ཁག་ལ་
མཁན་གྱིས་
ལག་ཤེས་
བྱས་ཡོད་པ་རེད།
▁མངའ་རིས་
▁ཐོན་ཁུངས་
▁དྲིལ་བསྒྲགས་
འཇུག
རིགས་གཅིག་
བརླག་
▁ཚང་མ་
དགེ་རྒན་གྱི་
སློག་
ཀུན་ལ་
ཞི་ཅིན་ཕེན་
ལུགས།
དོན་ལ་
བར་ཐག་
▁མིན་
ོང་ག
གནས་སྐབས་
▁རོལ་
ོད་པ་
སྔོན་དུ་
སླེབས་ཡོད།
དཔལ་འབྱོར་གྱི་
ཧྲིན་
སྒྲུང་གཏམ་
ཡིན་ལ་
ཕོག་པའི་
བལྟ་
རྩལ།
▁ཡོང་བ་
སྤར་
ུད
པ་ན།
བསྡུ་ལེན་
▁ཅང་
གསལ་བཤད་
▁གལ་ཆེན་
ལྟ་སྐུལ་དོ་དམ་
ཕུལ།
ཤུགས་རྐྱེན་ཐེབས་
ལས་གཏོད་
སྔ་རྗེས་སུ་
མི།
སོལ་
▁འཆར་གཞི་
ལབ་
བྱ་དག
ཀུང་སི་
རེ་རེ་བཞིན་
▁ལི་ཁེ་ཆང་
ལག་ཏུ་
མི་འབོར་
ཁམ་
▁དམར་
▁ཤིན་
ཡིག་སྒྱུར་
རྩིས་བྱས་ན་
བོད་སྐད་ཡིག་
▁ཚུགས་
འཚོ་བཅུད་
འབྱུང་ཁུངས་
བཞག
བཞུད་
རྒྱལ་བའི་
ཟླཔའི་ཚེསཉིན་
▁སུམ་
བཟུང་བའི་
སྒྲིག
མྱུར་དུ་
སྙན་སེང་
རང་ལྗོངས་ཀྱི་
ཐུམ་
རྒྱུད།
▁དབུས་
ལྟད་མོ་
སྤེལ་འཕྲིན།
ལྗིད་
ཞེས་བྱ་བ་
ཁུལ
ཕུན་ཚོགས་
བཟོ་བཅོས་
ནས་ཡོང་བའི་
འབངས་
▁གསར་གཏོད་
མེར་
གདན་དྲངས་
ལྷང་
སྨན་པ་
བྱས་ན།
ཕྱིར་གཏོང་
▁གཟུགས་
ཚོགས་ཁང་
སྐུལ་ཁྲིད་
དབུ་བརྙེས་ནས་ལོ་
མྱོང་བའི་
གསལ་པོ་
ཐུགས་ཁུར་
མང་དུ་ཕྱིན་
ཀོན་ཆུས་
▁ད་ལྟའི་
▁ལག་ལེན་
འཁྲུག་རྩོད་
ཁང་ལ་
གསལ་བའི་
སྒུལ་ཤུགས་
བློས་
▁རེད་
བཟང་།
ཟེར་བའི་
ཅིབ་
གཅིག་ནས་
བྲིས།
ཐའོ་
▁ཁྱད་
ཨོ་རྩལ་
དང་བསྡུར་
ལས་སྒྲུབ་
བཞུགས།
དེར།
▁འགོ་ཁྲིད་
ཁམས་ཀྱི་
དབྱེ་བ་
དེའི་ནང་
དུས་ཡུན་རིང་
ཞིབ་ཚགས་
དྲིལ་སྒྲོག་
ད་རུང་
མཁོ་སྤྲོད་
ཞིབ་འཇུག་གི་
དང་མ་
▁རྩིས་
ལེགས་ཆ་
རི་མོའི་
བུས་
དྲུག་གི་
བརྒྱ་ཆའི་
དན་
ཕ་རོལ་
མྱ་ངན་
▁ཉིས་སྟོང་
དམ་ཟབ་
ཟིལ་
མཚེའུ་
ལྗོངས་ཡོངས་ཀྱི་
▁ཚེ་རིང་
ཅན
བཀླ
ཅོག་
▁ཤུགས་སྣོན་
བྷ་
འོག་གི་
ཐོབ་ཡོད།
བསྙེན་
▁ཡིན་ནའང་
ཕན་ནུས་
▁འཛུགས་
ཀྲུང་གོར་
དང་ཞིང་ཆེན་
ཕྲད་
▁འགན་
ཚུལ་གྱི་
འོད་ཟེར་
བཞིན་འདུག
▁བློ་བཟང་
སྨོན་འདུན་
འདིར།
མི་སྣར་
▁ད་ཐེངས་ཀྱི་
གསལ་བོར་
དགུང་
བཤད་ན།
ྲ་
པགས་
▁མ་འོངས་
རྒྱུ་ཡིན་པ་རེད།
བསྩ
ལྡང་
▁བསླ
▁ཡིན་པ
འཆད་ཁྲིད་
རིན་པོ་ཆེའི་
ཙམ་ལ་
ཐུན་མོང་ཐོག་
མཚན།
དང་བོད་
▁ང་ཚོའི་
ཤིས།
རྙོག་
ཨུ་རུ་སུའི་
ཆོས་ལུགས་ཀྱི་
▁བཞུགས་
འཇུ་
རྐོས་
ཡམས་
ཀྲེན་
རྣམ་འགྱུར་
ཆེ་བས་
སྐྱིད།
སྟོན་པའི་
ངོ་།
ཨུ་ཡོན།
གཙོ་གཉེར་
ཡི་གེའི་
▁འབྱོར་
རི་བོའི་
གོ་བ
▁གཏིང་
བཞི་བའི་
སད་
གྲོག་
བཞག་ནས་
གྲོང་གི་
མི་ཚེ་
དངུལ་བུན་
ལོའི་ཟླ་ཚེས་ཉིན་
གླུ་གར་
པར་ལེན་
ཧྲུའུ་ཅི།
གྲངས
ཚད་དང་
དེ་ཡིན།
▁ཁཱ་
ཚད་མ་
▁མང་པོ་
ལྟ་སྐོར་
▁དགོང་
ཚོགས་འདུ་འཚོགས་
ཞིའི་
ཉིན་མོ་
▁ཁྲག་
▁རང་གི་
▁སྡེ་བ་
དུས་རབས་ཀྱི་
མི་དམངས་ཀྱིས་
▁ཕྱུགས་
བསྡོམས་འབོར་
འགུག་
མཚོན་པར་
▁གཙོ་གནད་
ལྡན་པའི་ངང་
སྡང་
བཤད་ན་
དམག་གི་
དུ་འཇུག་
དབར་གྱི་
▁མགྱོགས་
ཇེ་ལེགས་སུ་
མི་སྲིད་
▁ལས་བྱེད་པ་
▁།ཞེས་
ཡིག་ཚང་
རྒྱུ་ཡིན།
▁ཁུལ་ཡོངས་ཀྱི་
སྔོན་ཆད་
རྗེ་བཙུན་
གང་དུ་
རོང་འབྲོག་
▁སྲིད་འཛིན་
བྱེད་པ་ནི་
མོ་ནས་
སྟོང་ཕྲག་
ཧྲིལ་བ
ལས་སྣོན་
རྨས་སྐྱོན་
▁དྲོད་
དུས་རིམ་
མེ་སྐྱོན་
འཁོར་སྐྱོད་
ལག་པ་
ཚུལ་ལ་
བསྡུའི་
ཆིག་
ལྷ་ཁང་
▁གཞིས་
བཞི།
མིང་ལ་
གདམ་
མཐའ་དག་
བཀོད་པའི་
▁འཕྲོད་བསྟེན་
ཡུལ།
▁གེ་
ཁྲིའི་
ཁྱོད་ལ་
▁འཚོགས་
ལྷ་ས་ནས་
སེ
སྐད་ཀྱི་
མོད་
ཆེ་བར་
དཔྱད་ཞིབ་
སྨི
▁ཧྲང་
རིང་ལ།
ཉིང་ལག་
པར་རིས་
▁དམག་དོན་
འགར་
པར་སྐྲུན་
▁དབྱི་ལིང་
▁ཁོང་གི་
དུ་གཏོང་བ།
སྤྱི་བདེ་ཅུས་
▁ཐོན་རྫས་
ཕྱེས་
▁ཐུར་
དཀྱུས་
ནུབ་བྱང་
བརླན་
སེམས་སུ་
ཉིས་སྟོང་
▁མར་
▁བཏང་བ་
ཧྲིལ་པོར་
ལྷའི་
ཁྱེད་ཀྱི་
མགར་
ཙམ་ལས་
ཡུལ་མི་
ཉིང་རྡུལ་
ལེགས་བཤད་
▁ངེས་པར་དུ་
བདག་གིས་
▁སླེབས་
ཏུན་ཧོང་
གསོ་སྤེལ་
རྒྱལ་ཁབ་ཀྱིས་
སྡིག་
གཏུགས་
▁གསུམ་པ།
མི་དམངས་ལ་
མཐོན་པོ་
▁ཆུ་ཚོད་
མ་འཇོག་
མི་ཉུང་
▁འགྲོ་བ་
སྩ
ཡོ་བྱད་
ལས་འཛིན་
ལུད་
སྤེལ་བ་
པོའི་ངང་
▁བསྐྲུན་
བཏོན་པའི་
བཤེས་གཉེན་
འཕྲིན་ཡིག་
ཟོས་
གཡུང་
ནད་གཞི་
རང་བཞིན་དང་
སྙེ་
བཏང་བ་རེད།
དགྱ
མཉམ་སྤྱོད་
པའི།
▁མདུན་
ཞིབ་དཔྱད་
▁སྡོད་ཁང་
ཙན་
གཅིག་པ་
གཞན་དུ་
▁བྱེད་པ
▁མཆོད་
མཚོན་ན།
སྤྲོད་པའི་
▁ཞུགས་པ་
དགུན་དུས་
དང་བསྟུན་ནས་
▁གྲོང་རྡལ་
གློག་རྡུལ་
▁སྒོས་
གསལ་གྱི་
འགྲོ་བར་
ཚུགས།
འཚོའི་
ནི་བོད་
རྒྱལ་སྲུང་
གསར་འགོད་པར་
བྱེད་སྒོར་
ལྡེབས་
བཞག་པའི་
▁ནེ་
དཀར་ཆག་
མཚམས་སྦྱོར་
རེངས་
ལམ་ལ་
ལྔ་པ་
དཔེ་མཛོད་
སུན་
གླུ་གཞས་
▁རྨང་གཞི་
ཉི་ཤུ་པའི་
སྐྱོན་ཅན་
ོ་བ་
བཞིར་
ལུའོ་
རྒྱུན་ཨ
སྤྱོད་པའི་
ཁག་ཏུ་
འགྱིག་
▁བཏང་བ
བླ་མའི་
བསམ་འདུན་
སྐྱིད
འཕྲལ་སྡོམ་
▁སྲོལ་རྒྱུན་
དང།
འཐོར་
སྣང་།
▁ཕྱིན་
གཞུང་ཚབ་
▁ཆེད་དོན་
ོམ།
པ་མ་
རྒྱུར
▁སློབ་ཁྲིད་
བཀར་
བཀྲམ་
སེམས་ཅན་
ཤཱ
▁ལྗང་
བྱམས་པ་
▁སྤྱིའི་
གཏན་འཇགས་
ཚུལ་དང་
▁ཉིན་དེ་
གྱང་
ཀྲིན་
དྲུག་པ་
གོམ་སྟབས་
དེད་
དངོས་ཡོད་
▁ལམ་ལུགས་
གྲོན་དངུལ་
ཀྲུའུ་ཞི།
▁ལྷ་སའི་
འགོའི་
▁ཨན་
སྤྱང་
དཔྱད་རྩོམ་
▁ལོར།
མིང་གི་
▁བྱ་དགའ་
གཟའ་འཁོར་
ལར་
ཕོགས་
▁སེར་
▁ཉི་མ་
▁དཔེར་ན་
▁མང་ཚོགས་ཀྱི་
ནུས་པའི་
▁ལྟེ་གནས་
གྲུ་བཞི་མ་
འཇིགས་མེད་
འབྲེལ་འདྲིས་
▁ད་ཆ་
▁འོས་
ཁྱིམ་ཚང་གི་
འཛུགས་སྐྲུན་དང་
ལ་བརྩ
▁ཤིག་
གཅིག་བསྡུས་
བདག་དབང་
རྒྱ་བསྐྱེད་
དེའང་
▁འབྲ
ཞབས་བྲོ་
འཕར་སྣོན་
བསྐྱོད་དེ་
རྒྱུ་ཡིན་པ།
ཀུན་ནས་
ལས་བཟོ་
བྱུང་སྟེ་
ཆས།
▁ཏང་ཡོན་
གི་སྤྱི་ཁྱབ་
དགེ་བའི་
བགྲོད་ལམ་
▁དམིགས་བསལ་
མཚོ
ཐུབ་བསྟན་
ཟམ་མི་ཆད་པར་
▁རྨས་
▁ཁ་པར་
རྩོམ་རིག་གི་
▁སྒ
ངས་པ་
མྱུར་སྐྱོབ་
▁ས་ཆ་
▁ཁྲེན་
ཁ་དོག་
པའི་ནང་
འབྱུང་བའི་
སློབ་སྦྱོང་གི་
ེ་ཅང་
ཏང་ཙུའུ་
▁བསྒྲགས་
ཤུགས་བསྣན་
▁རྟེན་འབྲེལ་
གྲོས་ཚོགས་སུ་
▁ཕྱིས་
ནུས།
འཕོ་འགྱུར་
ཏང་ཨུད་ཀྱི་
རྒྱ་གར་གྱི་
ཐོ།
སམ།
ུམས་
བྱུང་བ་དང་
ཚོགས
▁ཆང་
ལོ་སར་
▁གནམ་གཤིས་
▁ཡག་
ས་བོན་
ཡོད་མོད།
མཐིལ་
འགྲོ།
སྦྱང་
པའམ་ཡང་ན་
▁གོམ་
རྒྱག་པའི་
▁རྒྱུ་མཚན་
དཔྱད་པ།
གྲས་ཤིག་
མངགས་གཏོང་
ངེས་པ་
རྡུང་རྡེག་
ནད་ཀྱི་
མདོ་སྨད་
འཚམས་འདྲ
ེན་པ་
▁ཁྲེང་
དམངས་སྲོལ་
▁ཁྱབ་ཁོངས་
ཅུའི་
ལ་བའི་
▁ཏང་གི་ཚོགས་ཆེན་
ཅུང་ཙམ་
མཚོན་རྟགས་
གཞིར་བཟུང་།
ཁྲུན་
འགྱེད་
དྲན་གསོ་
གསུམ་གྱིས་
བཅུ་དགུ་པའི་
བཙུགས་ནས་ལོ་
▁ཕྱག་
བརྗོད་པའི་
བྱ་དགོས་ཞེས་
ཁཱ་
མོ་ཞིག་
ཤུར་
སིམ་
▁ཁྱོད་ཀྱིས་
ཱན་
▁ཞལ་
གྲྭར་
ཇོ་བོ་
▁འབུམ་
▁ཡིག་གཟུགས།
ཁྱད་ཆོས་ཀྱི་
འགྱུར་བར་
སྐྱེས་པའི་
བརླིང་
▁ནད་པ་
ཨུ་ལྷན་གྱིས་
འཐག་
སྐས་
ཁི་ཆང་
བར་དུ།
སྤེལ་བ་རེད།
རིང་དུ་
གས་གཏོར་
ཆེད་མཁས་
ཕེབས་པའི་
མདུན་སྐྱོད་
▁སྙན་ཞུ་
གོ་ལ་ཧྲིལ་པོའི་
ཁག་གཅིག་
སྤུས་རྟགས་
ི།།
ངས་པའི་
▁གྲུབ་
▁བློན་
ཅུས་ཀྲང་
དཀའ་གནད་
སྔོ་ལྗང་
དགེ་སློབ་
ཡིད་ལ་
གྲངས།
མཛད་པ་
གནའ་རྫས་
བཤད་པའི་
སྟོང་གི་
ཆོས་འཕེལ་
རྟག་ཏུ་
ཐེབས་པའི་
ལོ་ལྔ་ཚན་
▁མཁོ་
ང་ཚོར་
ཕྱི་ནང་
ཁྱིམ་གྱི་
▁བསྡུས
བྱེད་དགོས་པ་དང་།
པས
གསོ་བ་
རྟ་རྒྱུག་
ཡུལ་དངོས་སུ་
▁དུག་
མི་རྣམས་
གྲོང་སྡེ་
དང་འདྲ་བར་
ཐེངས་དང་པོ་
▁རྟགས་
▁སྔོན་ཆད་
པ་ཞིག་ཡིན།
▁ནུས་ཤུགས་
གཞོགས་འདེགས་
བླང་བྱ་བཏོན་
▁མཐར་
ཕྱིན།
ེངས།
▁ལས་འགན་
མན
བ།།
ཆོན་
མེད་པས།
ཁྲིམས་སྲོལ་
འཕང་
▁རྙ
ལས་ལ་
འབུངས་
གནས་ལུགས་
▁གློག་བརྙན་
མཁའི་
སྟབས།
གཏན་ལ་
གངས་ལྗོངས་
ཇོ་མོ་གླང་
ཆེན་པོ་ཞིག་
ཟི་
ཆུ་བོ་
སྙིང་པོ་
མི་དམངས་ཚོགས་ཁང་
གཤོག་
▁འབའ་
དགའ་བའི་
མཆོག་གི་
▁རྒྱབ་སྐྱོར་
རེད།།
མོ་དང་
གས་བཙོག་
གསེས་
འགངས་
ཐབས་ཤེས་
▁སྲ
གླིང་།
ཁུལ་དཔོན་
▁རྩོམ་རིག་
མན་ངག་
ལས་ཀྱང་
གདོད་མའི་
བྲན་
འཆར་ཟིན་
རྡོ་རིང་
བྲིས་པའི་
▁དུས་ཡུན་
ཁྱོན་བསྡོམས་
▁”
མཁན་ལ་
ལོ་ཆུང་
རྣམ་པས་
པ་མ་ཟད་
གཉའ་
ེགས།
རིག
ཕིན་
▁གདན་
ར་བའི་
ོགས་པ་
▁བཏོན་
གཟབ་རྒྱས་ངང་
ཨའོ་
ལོ་རེར་
▁བརྙན་འཕྲིན་
▁འབར་
▁སྟོད་
གཙང་པོའི་
▁ཡུལ་ཤུལ་
སྡེ་ཁག་གི་
དགག་
སློབ་མས་
ཀྱ་
པ་ཚོས་
གླིང་དུ་
དམངས་ཕན་
པ་བཅས་ཀྱི་
བསྲེས་
བཞི་དང་
བཀག་སྡོམ་
ཀྲུའུ་ཞི་གཞོན་པ་
ཀྲུང་ཨུ་
▁ཞི་བདེ་
དྲ་ཐོག་
རེ་རེའི་
བཅུ་བདུན་
ཆེ་རུ་གཏོང་
ཆུ་དང་
རྨོངས་
སོང་བ་
ཞང་ཞུང་
མ་ཡིན་པར་
▁ཆ་འཕྲིན་
ཁྲུ་
མཚོ།
ཨང་།
▁ཆེ།
དང་པོ།
▁མཛུབ་
བརྡ་ཁྱབ་
ལོ་ཙཱའི་
སྦྲག་
ཨེ་ཤེ་
བཞི་ལས་
ཚོང་ཁང་
ཤོར་བའི་
དམིགས་ནས་
རང་རང་གི་
གཙང་གི་
བརྒྱད་ཀྱི་
ལ་སོགས་པའི་
བླང་
མངོན་པའི་
▁འཁྲབ་སྟོན་
▁དཔོན་
▁འབྲིང་།
▁ལོའི་ཟླ
ཐུ་
རྫི་
སྡེ་ཚན་གྱིས་
ནད་པ
དག་ཐེར་
ལ་ཁ་གཏད་
འཁོར་རྒྱུག་
ཨ་ཁུ་
དགའ་སྟོན་
▁མུའུ་
བླ་ན་
ཐོབ་པ།
འབད་པ་
▁དབྱེ་
▁མཐུན་
ལྟེ་གནས་སུ་
སྦག་
▁ཟུར་
གྲྭ་ཚང་
ཆབས་ཅིག
▁ཟ་
ཇེ་ཉུང་
སུམ་སྟོང་
སྣང་བརྙན་
མིའི་རིགས་
▁དབྱངས་
ཐུར་
པ་དེས་
དཔའ་བོ་
དུས
སྨར་
དགར་
པར་གཞི་
མི་སེར་
ཚད་མཐོའི་
འབོར་ཆེན་
སྤྲུལ་སྐུ་
དཔེ་མཚོན་
ཀྱི་ནུས་པ་
འདྲེ་
ལ་ཉན་
རྒྱུན་ལྡན་
དགོས
འོ།།
▁མེས་
བཏང་བ་
འབད་འབུངས་
པ།།
▁མཐོང་
རེ།
མཆིན་
ལྭ་
དམན་
རྔུལ་
▁བརྟེན་
▁མཁར་
གསར་འགོད་པའི་
སྒོ་བ
མཛེས་པའི་
ཁྲེང་ཏུའུ་
འཇོན་ཐང་
མགོ་བརྩམས་
▁རྒྱུད་
གླུ་དབྱངས་
དཔྱིད་གསར་
▁དྲང་
འཁྲིའི་
མེད་པ་དང་།
འཕྲུལ་འཁོར་
ཏང་ཀྲུང་དབྱང་གི་
ནག་པོ་
▁ཀྲའོ་
མི་ཐུབ་
▁མཐོ་སྒང་
གནས
▁པེ་
གཞུང་སྒྲུབ་
འགའ་ཞིག་
ཀན་ལྷོའི་
ཙམ་ཡང་
▁གཏེར་
▁རུ་ཁག་
▁མཐུན་སྒྲིལ་
དྷ
ཞུ
རུམ་
སྨྲ་བ་
ཡིན་ནོ།
▁སྡེ་ཁག་
བྱས་རྗེས།
དམག་འཁྲུག་
ཆེ་བ།
ཧྲང་ཧའེ་
▁ཇ་
གཉིས་ནི་
ཧང་
བྱུག་
▁ནག་ཆུ་
ཅིན་ཕིང་
སྲོལ་ཡིག
དབང་ཕྱུག་
སྤེལ་བར་གཞིགས་ན།
བཞི་པ་
▁ཧུར་ཐག་
ཚད
འཚལ་
ལེར་
སྐད་དང་
འདོད་པའི་
སྙན་སྒྲོན་
གཙང་སེལ་
▁ངོ་རྒོལ་
རྟན་འགྱུར་མེད་
ཐང་ག་
འགྲུས་
འགྲན་ཞུགས་
འབུའི་
▁མ་ལག་
ཁ་བསླུས་
ལེགས་པའི་
དཀར་མཛེས་ཁུལ་
ཐོའི་
ཚོང་གཉེར་
▁རང་ལྗོངས་ཀྱི་
ཁང་པ་
བ་ནས་
པའི་ཟླ་
ཕྱོགས་དང་
འཐུས་མིའི་
དགོན།
ན་དེ་
གཞན་ཞིག་
སྤྱི་ཕན་
སློབ་གྲོགས་
རྗེ།
སྒྲའི་
▁ཕྱོགས་གཉིས་
ཚོགས་འདུའི་ཐོག་
ཤོར།
ན་མི་
དམིགས་བསལ་གྱི་
▁དུ
ལྟ་ཚུལ་
བཤམས་སྟོན་
▁པད་
ལོ་ལྔའི་
▁ཚེས་ཉིན་
གོན་
ལས་བྱུང་བའི་
མཚོ་སྔོན་གྱི་
དབྱིང་
སྐྱེས།
སྦྲགས་
དམ་པའི་
དུ་བཅུག་
སྒྲིག་ལམ་
སྨན་ཁང་གི་
ཧའོ་
▁བཀག་
རང་ཉིད་ཀྱིས་
▁མཱ་
▁གཡུ་
གང་གི་
གལ་ཏེ་
བཀྲ་ཤིས།
བྱས་དོན།
སོན་པའི་
ཐོན་ལས་ཀྱི་
མདོར་བསྡུས།
ལོ་ནས་
བསྐྱུར་
བྲལ་བའི་
ཀུང་སིའི་
▁སྐལ་བཟང་
རྒྱང་སྐྱོད་
མགོན་པོ་
▁བསྡུ་
ལ་ངོ་རྒོལ་
རྟའི་
ཤུའི་
རིམ་པ་དང་
སེམས་ཁྲལ་
སྤོ་ལོའི་
▁ལུང་
གོ་ལའི་
གནས་སྤོས་
བསྟན་ཡོད།
▁བསམ་བློ་
ལས་དོན་ཡག་པོ་
▁ངོ་
བཅའ་ཁྲི
སུ་གྱུར་
རྒྱལ་ཁབ་དང་
▁དེབ་
མེད་ལ།
ཀན་ལྷོ་
འགྲོགས་
▁ཚད་གཞི་
ཉམས་འགྱུར་
གང་ལ་
▁ཚུལ་
▁འགྱུར་
འཕྲིན་གཏོང་
ཆབ་སྲིད་ཅུས་ཀྱི་
ཏོག
གཡོལ་
འཇོམས་
▁ཟིན་པ་
བེ་
ལྷ་མོའི་
གཡུང་དྲུང་
གྲངས་འབོར་
སྦྲུམ་
ལ་བརྟན་
ཏོག་གསར་
བདེ་འཇགས་ལ་
འཇའ་
ལྷམ་
▁འདི་ལོ་
▁ཚང་འཛོམས་
བྱ་རྒྱུ་དང་།
ཆེན་པོར་
ལོ་ཙཱ་བ་
འདུས་པའི་
ཉོས་
▁གློ་
འགལ་བ་
འབྱིན་
མེ་ཏོག་གི་
སྤྱི་དམངས་
སྣེ་ཁྲིད་དེ་
བྱར་
འགོ་འཛིན་
སྤེལ་བ་དང་།
སྐུལ་འདེད་བཏང་བ།
ེའུ་ཁུང་
▁དོན་དངོས་
རེ་འདུན་
▁ངག་
རེ་བཞིན་
ལས་བྱེད་པས་
བྱིས་པར་
ཚོགས་ཆུང་གི་
▁ཉོ་ཚོང་
ལ་ཞིབ་འཇུག་
ཚིག
▁གྱུར་
ཡིན་ནམ།
སྤེལ་བར་
རྗེས་དྲན་
དང་ཀྲུང་གོའི་
བགོ་
ནག་ཆུ་
ནད་རིགས་
དགོས་ཤིང་།
སུངས་
པའི་ཁ་
བཏོན་ནས་
རྩོམ་གྱི་
རྩྭ་ཐང་གི་
▁དྭ
སྔ་དྲོ་
ཕུལ་བའི་
གོང་།
ནུའི་
མི་རབས་
ོ་བོའི་
སྔ་དྲོར།
▁མནའ་འབྲེལ་
ལྔ།
▁འཇར་མན་
ཏེན་
འདུམ་
དམངས་གཙོ་
མི་ཚེའི་
རྒན་རྒོན་
འབྲེལ།
དེ་རིང་
▁ཐོག་མ་
མངའ་ཁོངས་
▁བཤད་རྒྱུ་
བོད་ཁུལ་གྱི་
གུའི་
སྙེག་
ཉི་མའི་
མེ་གསོད་
རྣམ་གྲངས་ཀྱི་
ཆུ།
▁དབྱི་རག་
གཡར་
ཆོས།
ཞེས་བརྗོད་
གྱི་དགོངས་དོན་
དྲོད་ཚད་
▁མཁའ་མཚོ་
རྒྱ་ཆེ་བའི་
མངལ་
མི་འདང་
བཅུག
▁རྒྱབ་
ཡོང་ནས་
▁འཇར་པན་
དང་བཅས་པ་
དངུལ་རྩའི་
ཟག་
▁བསང་
▁མཚོ་བོད་
དང་རིག་གནས་
བོད་ཀྱི་རིག་གནས་
པའེ་
འདི་ནས་
ཚོར་བ་
▁མ་ཟད་
ཀུན་དགའ་
▁བྲིས་
འཛེག་
▁གཉེན་
ཤིས་ཚིག་
ལྷག་པར་དུ་
སྙན་ངག་གི་
བོད་ཡིག་གི་
སྟེང་།
ཟིན་ནས་
འཇིགས་སྐུལ་
ིས་ཅིན་ཕིང་
འགྲན་ཚོགས་ཀྱི་
ཞིབ་ཕྲ་
དྲ་ཚིགས་
▁བདེ་ཐང་
ཧཱ་
ཨེར་
མཁན་པོ་
▁བརྟག་དཔྱད་
པ་ནི།
ཞེ་ན།
མེད་ན་
རེད་ཟེར།
དགོན་སྡེ་
▁ངལ་རྩོལ་
ཅིས་
སྐད་དུ་
བཟའ་བཏུང་
ལྷོད་མེད་
མགོ་བོ་
ཡོད་པ་ནི་
བྱེད་སྒོ་སྤེལ་བ།
ཁྱོ་
ཀུའེ་
▁ཆེད་ལས་
▁བེད་
མཇུག་སྒྲིལ་
དྲུག
དྲི་བ་
ཡོད་དམ།
ཤིག་གི་
ཏང་ཨུ་དང་
དང་ཞིང་
ཤིག་ཏུ་
གསལ་བར་
ེབ་གོང་
ལེན་པའི་
གྲོན་ཆུང་
▁རྩེ་
▁ཐུགས་
▁དུད་
བསྒྲིགས།
ཧྲིལ་པོ་
བསྡུ་བའི་
ཡུལ་སྐོར་གྱི་
སྐད་གཉིས་
སྟོབས་ལྡན་
བརྒྱུད་བསྒྲགས་
ཏོ་
ཡིད་ཀྱི་
ཚོ།
མེད་པ།
གསོལ་བ་
ཞེས་པར་
ཞོལ་
རྒྱལ
མིང་རྟགས་
རྣམ་རྒྱལ་
▁ཁུ་
ཆེན་རྫོང་
བསྒྱུར་བཅོས་
ཞིག་ཏུ་གྱུར་
ཀརྨ་
ཁྱབ་སྤེལ་
▁མགོ་ལོག་
མགུར་
▁ཡོན་
▁ནགས་ཚལ་
བཤམས་མཛོད་
▁སྤྱིར་བཏང་
▁མགར་
▁ཐོག་མར་
▁ཁྲའོ་ཞན་
འབག་
ཧྭའི་
་རན་སི་
མིག་གི་
པ་ལས།
▁ཅིག་
ནད་དཔེ་
▁ཁྱད་ཆོས་
མེན་
བསྐོའི་
ས་འགུལ་
མངག་
འཇུག་པའི་
ཡུལ་ལྗོངས་
པ་དང་འབྲེལ་
འགོག་རྒོལ་
▁ཕྱོགས་ཡོངས་ནས་
▁ཁོའི་
རྟགས་ཅན་གྱི་
འཐུ་
▁མའོ་
ཉམས་སུ་
ངན་པ་
གསུམ་པ།
བཅོ་བརྒྱད་པའི་
▁གཅ
སྟར་
ཐིང་གི་
▁དཀར་མཛེས་ཁུལ་
ལྡབ་
ལས་མངོན་
གསུང་འབུམ་
▁བརྒྱ་ཆ་
ལུས་སྦྱོང་
ལེགས་སྒྲུབ་
ཚོམས་
ཨ་མའི་
ཚེ་བརྟན་
འདྲ་བའི་
མཐོང་རྒྱུ་
▁ཀྲུང་གོས་
ཁོར་
ཆེན་མོ།
རྟེན་རྫས་
▁པུའུ་ཀྲང་
གཅིག་སྒྲིལ་
ོའོ་
རང་རྒྱལ་
ུའམ་
▁འདུག
བརྩམས།
ལམ་ལུགས་ཀྱི་
ིའང་
▁གཉེར་
རྒྱག་པ།
▁ལྟ་ཞིབ་
ཀུའུ་
▁འཆར་འགོད་
ཁོང་དུ་ཆུད་
ཏང་ཀྲི་
ཁོངས་མི་
གནད་སྨིན་
མཉེན་
▁ཚན་པ་
ལོངས་སུ་
རྒུད་སྐྱོབ་
བྱི་
▁གེ་སར་
གླིང་ཕྲན་
ཀེ་
ཐབ་
ཚ་བ་
བདུན་པ་
གནང་ཞིང་།
ཁྱིམ་གཞིས་
རོམ་
ལ་རོལ་
རྗེས་ཤུལ་
གློག་འཕྲིན་ལྟར།
གཏོང་བ་
ཡར་རྒྱས་
རྣལ་འབྱོར་
བོ་བ
གནང་ནས་
ཉེ་བའི་
ཞུས་ནས་
སྡོད་པའི་
▁མཇལ་འཕྲད་
▁ཞི་ཅིན་ཕེན་
སྦས་
ཁ་གསལ་
འཛིན་གྱི་
གལ་ཆེན་ཞིག་ཡིན་
ཀའོ་
ཀྲན་
ཕྲའི་
དང་ཆུ་
འབྱོར།
གཅིག་པུ་
▁དེ་རྗེས་
འཛུམ་མདངས་
སྤྲོའི་
རི་དྭགས་
གཙོ་སྐྱོང་གནང་བ།
མུས་
གཉིས་པར་
ཉིན་གྱི་ཕྱི་དྲ
སྒྲོ་
▁ཐ་ན་
རེ་ཞུ་
བརྩེ་དུང་
སྔོན་རྩིས་
གང་ཐུབ་
དེ་སྔའི་
ནང་ཁུལ་གྱི་
▁གྲྭ་
དགེའི་
ཞོར་དུ་
སྔོན།
གསོ་བཅོས་
རྒྱ་མཚོས་
སྔོན་དཔག་
ཤ་ཡ་
མཐོང་།
▁ཕུལ་བྱུང་
ཁོ་རང་
བླ་བྲང་
ལྡན་འདས་
རྩྭ་དགུན་
འགོ་བཙུགས་
ཞིང་ཆེན་དང་
ཞེས་འབོད་
རྩམ་
མྱུལ་
མགོ་ལོག་
བཞུགས་པའི་
མཇུག་འབྲས་
ལྷག་ལ་
ལས་གཉེར་
དང་མཉམ་
▁སློབ་དཔོན་
པ་རྣམས་ཀྱིས་
མཛད་དེ་
ར་སྤྲོད་
ཚན་ཁག་གི་
མཚོན་བྱེད་
མཚེས་
▁ཕ་ཡུལ་
འགག་སྒོ་
བཟླ
ན་མ་
ལ་བུ་
▁གཟི་
▁མཛོད་
སྤེལ་ཏེ།
ཚོགས་རྒྱུན་ལས་
དེ་གར་
གནོད་པ་
རིགས་དང་
རྒྱ་བོད་
▁ཨུ་རུ་སུ་
རྒྱལ་རབས་ཀྱི་
ཆུ་ཚོད
ཉེ་ཆར་
ངོས་ལས་
དམག་གིས་
རྣམ་ཤེས་
རྩེ་རྫོང་
ཏང་ཀྲུང་དབྱང་
ནོ་
བཟོ་ཚོང་
ཆ་ཤས་
འགེལ་
ཁྲིད་པ་
བྱུང་ན་
སྐྱེ་བོ་
ཁོ་ནར་
སེང་གེ་
བྱས་ཤིང་
▁ཕོ་བྲང་
ཡིག་རྙིང་
▁ལྷན་ཚོགས་
ནས་ཐོན་པའི་
▁སུའུ་
རྨ་ཆུའི་
བཙུགས་པའི་
ཞུས་པ་རེད།
འགྲེམས་སྤེལ་
ཆུར་
བརྒྱན་
▁བཤེར་
སྙིང་རྗེ་
ཡོང་སྒོ་
སྲིད་པའི་
ོ་བོས་
མཇུག་གི་
ཕྱིར་ལོག་
▁བློན་ཆེན་
རྨོ་
གཅོང་
▁ཁམས་
ཡོད་ཀྱང་
སྐོར་ཞིབ་
▁གཟའ་འཁོར་
འདེགས་སྐྱོར་
པད་མ་
དཀའ་ཁག་
ཁེར་རྐྱང་
▁ཏུན་
གྲོང་མིའི་
བསྒྱུར་བའི་
སྐོར་བཀོད་པ།
དོན་སྙིང་གལ་ཆེན་
▁ཞེ་
སྔགས་ཀྱི་
ཁྲུང་ཁྲུང་
ལྟ་ཞིབ་ཚད་ལེན་
བགྱིས་
ལྔ་བཅུ་
ཁོ་རེ་ཡ་
བསྐྱངས་
རྩ་ཁྲིམས་
▁དགོངས་དོན་
གནག་
ཞབས་འདེགས་ཞུ་
▁རང་སྐྱོང་ཁུལ་
མཐུ་
▁བཞི།
ཐུབ་ཡོད།
ཆེ་རུ་ཕྱིན་
ངོམ་
བཤིག་
ཀྲུང་གོས་
ཉོ་སྒྲུབ་
▁སྤྱི་བདེ་
བསྒྲིལ་
གྲམ་
དང་ས་
བརྩེ་བ་
ཡིད་རྟོན་
དབྱི་སི་རལ་
ཚུན།
▁རྨི་
རུ།
པ་ན་
▁ཤི་
གཤེན་
▁རུས་
བདེ་འཇགས་དང་
གཱ་
ལོར།
གཉེན་སྒྲིག་
ཕེབས།
ཆེན་མོར་
མདོ་དབུས་
▁འཐབ་ཇུས་
▁འགྲེམ་སྟོན་
▁ཁ་བ་
▁སྐར་
▁ཆར་
དེ་དང་
དཀར་གྱི་
རྒྱལ་མཚན།
སློབ་ཁྲིད་ཀྱི་
མིང་།
ཁང་དང་།
དེ་རེད།
འགོ་ཚུགས་པའི་
བཞེས།
དང་རྒྱལ་ཁབ་
ཤིག་ཡིན།
སྤྱོད་ཚུལ་
ོངས
སི་རི་
འབྱུང་བ་
ཕུགས་བསམ་
སྣ་ཚོགས་ཀྱི་
བྱེད་དགོས་ཞེས་
བླངས་ནས་
ཕྱེད་ཀ་
སྤྱི་གཉེར་
ཡ།
▁ཨ་མ་
བྱང་ཚད་
ཨ་རབ་
གསོ་ཚགས་
ཐེབས་རྩ་
ལི་ཁེ་ཆང་
རྒྱ་སྐྱེད་
ཁུན་
ཨ་རི་
བཙུགས།
▁ཤོར་བ་
བདེན་དཔང་
ལ་མཚོན་ན་
▁རོང་འབྲོག་
མ་བྱུང་།
སྒོ་བྱང་
▁མཛའ་
▁ཕེབས་
▁བདེན་
རྒྱུན་མཐུད་ངང་
ཤོ་
དགྱེས་
པོ་ཆེ་
མཐུག་
རེ་རེར་
འཚོ་གནས་
རྒྱལ་གཅེས་
▁ཁྱོད་ཀྱི་
བྱེད་སྤྱོད་
ཅིའི་
གཙང་མ་
གཙིགས་
ཉིན་རེར་
ནི་མི་
དང་ལྡན་
ཚོགས་པ།
སྡེ་དགེ་
ཡོང་རྒྱུར་
▁ཕུན་
དར་བའི་
འཛིན་གྲྭའི་
▁བཞུགས་མོལ་
ཇེ་མགྱོགས་སུ་
ཏུ
མཐོ་རུ་གཏོང་
▁ཁྲུང་
བདམས་ཐོན་
ཇེ་དྲག་ཏུ་
བའང་
ཐད་གཏོགས་
འཚོ་སྡོད་
▁ཧྲུའུ་ཅི་
དམག་དཔུང་གིས་
ཁ་ནས་
བཙོན་
གླེགས་
བབ་དང་
བསམ་གཞིག་
མཐོ་ཚད་སྨི་
མ་རེད།
▁ས་ཡོམ་
ལ་དབང་
▁བྱམས་
དངོས་ཀྱི་
ཡོད་པར་མ་ཟད།
ཕྱིར་འཐེན་
སུང་
▁ཐོ་
གཏོང་གི་
འབྲིང་རིམ་
འཛོལ་
▁འཇོག་
▁སྤུས་ཚད་
གསར་འགྱུར།
བྱ་རྒྱུ་ནི་
▁ཁོ་ཚོས་
བོད་རིག་པའི་
▁སྤྱི་ཚོགས་ཀྱི་
གཤེར་
མི་བདེ་
ཆགས་ཡོད།
གསར་བརྗེ་
གསར་བ་ཞིག་
ཁོར་ཡུག་གི་
འགུགས་
གངས་རི་
གྲོང་ཁྱེར
སྐད་གྲགས་
ནན་གྱིས་བསྟན།
ཁྲིར་
ཐིགས་
མཛོད།
དབང་དུ་
▁གནས་བབ་
▁འདུ་
དཔེར་ན།
ཁྲོན་བོད་
▁གཏིང་ཟབ་
འགོ་འཛུགས་
ལུགས་མཐུན་
ཐོད་
གནང་བ་དང་
ལ་ཉེ་བའི་
▁གལ་སྲིད་
ལྷས་
▁ཆོག་
▁བཀོལ་
རེ་སྒུག་
▁སྒྲིག་ཆས་
སྲོག་ཆགས་ཀྱི་
ཚིམ་
ཐུབ་པ་དང་
མྱོང་ཚོར་
བཅད།
མང་།
རྒྱལ་ནང་གི་
དང་གྲོང་རྡལ་
བྱས།།
དག་པའི་
འདྲ་མཉམ་
བརྩེ་སེམས་
སྤེལ་མི་རུང་།
ཤེས་ལྡན་མི་སྣ་
རྩིག་
▁འདེམས་
ཉིད་ཀྱི་
དེབ་ཐེར་
མིག་ཟུང་
བཀག་འགོག་
ཕྱོགས་གཉིས་
མ་ལུས་
སྡེ་ཁུལ་
▁རྒྱུགས་
བུད་མེད་ཀྱི་
▁ཚོགས་འདུའི་ཐོག་
མང་ཙམ་
བཞིན་ཡོད་པ་རེད།
▁རྒྱག་
གཙང་སྦྲ་
སོང་བའི་
བྲི་
འོ་མ་
རྟགས།
བརྩེའི་
ཐེངས་གཅིག་
འདྲི་གཅོད་
▁བུ་མོ་
གསོས་
སླེབས།
▁ཤུགས་
འབུར་དུ་
དུས་མཚམས་
ཡོངས་ཁྱབ་
བྱེད་ཅིང་།
སོགས།
ལྡན་ཡོད།
སློབ་ཐོན་
དང་བསྡུར་ན་
▁ཕྱོགས་བསྡུས་
ཤིག
མཚུངས།
གནས་མཆོག་
རྒྱས་པའི་
མཆུ་
▁ཅོ་
སྐད་ཅིག་
དཀའ་སྤྱད་
ཨ་མེ་རི་ཁའི་
ཅཱ་
མཐུན།
དབྱེའི་
སྒོར་མོ་
▁སྔོན་འགོག་
ཚོགས་སྐབས་བཅུ་
ཏང་འཛུགས་སྐྱོང་
ཧ་ལམ་
སྐུའི་
མེས་རྒྱལ་
རྩུབ་
▁བྱ་ཐབས་
▁རང་རེའི་
སི་ཐན་གྱི་
ཁྲིམས་མཐུན་
ཅི།
ཕྲུ་
▁གཡང་
▁དཔུང་
བྱུང་།།
ཅན་གྱིས་
མི་སྲིད།
རོགས་དངུལ་
▁འཇིགས་སྐུལ་
▁གཤམ་
གསང་བ་
དབྱིངས་སུ་
རྒྱུན་གཏན་
གློ་བུར་དུ་
ཆེ་ལ་
བརྡལ་
ལྷག་པར་
རིར་
གཙོ་བོ།
▁བསྡུས་པ
▁བསྟན་དོན
གཏན་འབ
▁ད་ལོའི་
བསྡོམས་རྩིས་
གདོན་
▁ཁོ་ཚོ་
ཐེངས་མང་
▁ཁྲིམས་འགལ་
དེབ
སྤྱོད།
ས་གཞི་
གནས་ཚུལ།
གས་པ་
དབེན་
སྐུ་མགྲོན་
▁མདའ་
▁གཟིགས་
སྙན་ཞུའི་
སྟོན
ོམས།
ཐོབ་པར་
རང་མོས་
ཚོང་ཟོག་
མཚོན་ཡོད།
མཛའ་གྲོགས་
གཞུང་ལམ་གྱི་
གསར་པ།
བདེ་སྲུང་
གློག་ཤུགས་
ཞིབ་འཇུག་དང་
བཅུ་གསུམ་པའི་
བསམས་
གོ་དོན་
དེང་གི་
བྱེད་ཤུགས་
གྲོང་སྡེའི་
ལས་གྲུབ་པའི་
བཅུ་གཉིས་པའི་
ཨ་ཕ
སྒྱུར
གྱོང་ག
▁འཁྲབ་
གནས་སྐོར་
འབྲེལ་གཏུག་
▁དེར་བརྟེན་
དབུས་སུ་
ཁེའི་
ཅོ་ནེ་
དཀྲོལ་
▁ན་གཞོན་
▁བདེ་ཆེན་ཁུལ་
བཅོས།
བཏིང་
མི་ཆོག་
འགན་བཞེས་
ལ་སྲུང་སྐྱོབ་
▁སྣ་
ཡུལ་གྲུ་
དང་བསྟུན་
ྭ།
སྒྲིབ་
ཁོ་ཚོའི་
བོད་རྒྱ་
ཉེན་རྟོག་པ་
བོད་ལ་
འཕྲོས་
▁བཟོ་སྐྲུན་
▁ཁྱབ་བསྒྲགས་
རྒྱལ་མོ་
འཐབ་འཛིང་
▁ལོའི་ཟླ་པར་
ངོར་
ནད་ཡམས་
འདུག་ལ།
སྟོན་གྱི་
ཞིང་སྡེའི་
དང་མི་རིགས་
▁བྱེད་བཞིན་
▁རླུང་འཕྲིན་
ན་ནིང་
ཕྱི་མ་
ལྔ་དང་
བྱུང་བས་
▁དགོན་པ་
གཉེར་བའི་
གཉིས་མཐུད་
བྱེད་མཁན་གྱི་
ཀན་ལྷོ་བོད་རིགས་
དོང་
བརྡའི་
▁ཕུགས་
▁སྤྲིན་
དུག་སེལ་
དངོས་གནས་
མཆོག་གིས་
▁ཡུས་ཧྲུའུ་
▁དབུལ་སྒྲོལ་
ཐོན་སྐྱེད་དང་
འགོ་ཚུགས་པ་རེད།
མངོན་གསལ་དོད་པོ་
▁བཞག་
ལྟེ་གནས་ཀྱིས་
ཆུ་ལོག་
དགོས་པ།
▁མཐའ་མཚམས་
▁ཀྲུའུ་
ལ་ཞིབ་བཤེར་
ཉིན
སྔ་མོ་ནས་
ཆུང་ངུ་
གས།།
འཇར་མན་
འགྲོ་ལམ་
འོས་སྦྱོར་
ལྟོ་
▁སོག་
མཁས་གྲུབ་
རྒྱུན་འཛིན་དང་
ན་ཟུག་
འཚམ་པའི་
རྡུ་
འཕྱོངས་
ཀྲུང་ཧྭ་མི་རིགས་
སེའི་
▁འདམ་
▁ཕུའུ་
འདི་རུ་
རྩ་ཆེན་
གྲོག་རོང་
གདན་འདྲེན་
འབྲི་ཆུའི་
གྷ
པུར་
རིལ་
ཤུག་
བསྐུལ་
འཕར་ཚད་
གྲངས་གཞི་
མདོར་བསྡུས་
འབྱུང་བར་
▁དགའ་ལྡན་
ལ་བརྟན་པོར་
▁སྟོབས་ཤུགས་
འཁོར
▁ཞབས་
▁སྨན་ཁང་
དགེ་རྒན་གྱིས་
▁གདོང་
སྦྱོར་བ་
▁ཉ་
བྲོས་
ན་གསལ།
འབྲུམ་
▁བརྒྱབ་
ེ་རི་ཁའི་
▁སྣ་ཚོགས་
བསྐྱོད་པའི་
ཡིབ་
ས་ལ་
▁བགྲ
ན་ཡང་།
རྗེ་རེས་
ཁྲི་ལྷག་ཙམ་
ཁང་གི་ཙུང་ལི་
▁ལེའུ་
▁སྐར་མ་
ནམ་མཁའི་
གསོན་ཉམས་
ཁྱད་དུ་
▁མཁས་པ་
མཛེས་རྩལ་
རང་ཁུལ་གྱི་
ས་གཤིས་
འབྱུང་འགྱུར་
དྲ་བ་
ཡོད་ཀྱི་
▁ཚགས་པར་
མཐུན་པའི་
ལྗོངས་ཁུལ་
▁མཚོ་ལྷོ་ཁུལ་
རྡོ་བ
སྟངས།
བདེ་ལེགས་
སྲིད་གཞུང་དང་
པའི་ཚེས་ཉིན་གྱི་
ལ་བཏང་
མགྲིན་ཚབ་པ་
མི་ཉུང་བ་ཞིག་
ཚན་ཁག་
▁འབྲས་
ནོར་བུའི་
གནོན་ཤུགས་
དངོས་གྲུབ་
སྒྲུབ་ཀྱི་
མ་བྱས་
རྩིའི་
སི་ཁྲུ་
ཞེས་བཤད།
ཡུལ་སྲོལ་
རྒྱལ་ཕྲན་
▁ལིས་ཁི་ཆང་
ོའི
ཆུང་བ་
གྲོས་ཆོད་
ཉིན་མོའི་
ཚིག་མཛོད་
མང་པོ་ཞིག་གིས་
མངོན་སུམ་
▁སྒྲིག་འཛུགས་
ཁྲིན་ཧུའེ་ཡིས་
ཉིད།
འཁྱུག་
ཞིང་སྡེ་
ལ་གཟིགས་
ལས་གཞིའི་
མཛེས་ལྗོངས་ཁུལ་
གྱེར་
ཟུངས་
འཇིག་
དུས་བབ་
▁ཁ་གསབ་
ཐོབ་པ་རེད།
རིམས་ནད་ཀྱི་
སིར་
▁སྣང་
གསུངས་པ་
དྲུག་ཅུ་
འོས་འཚམ་
དགོས་པ་དང་
▁མོས་
▁རླབས་
ཚོར་སྣང་
རྣམ་བཤད་
སྒྱུར་བཀོད་
ཁ།
དང་།།
ཞུས་པ།
ཡིན་ཡང་
▁དཀའ་ངལ་
གསར་འཛུགས་
དབྱིན་ཇིའི་
ཚང་མའི་
གཞན་གྱིས་
མཉམ་ལས་ཀྱི་
གསུམ་ལས་
སྐོམ་
མིག་ཆུ་
▁ཚང་མས་
དུས་རབས་གསར་བའི་
བཏབ།
སུའོ་
བརྒྱ་ཆ
ཇེ་མང་དུ་སོང་
ལ་རྒྱབ་སྐྱོར་
ཐག
▁འོག་
དགོས་མཁ
སེམས་ཁུར་
▁ཁྱད་ལྡན་
མཉམ་ལས་ཁང་
བར
གཞོང་
འཕངས་
གཞོན་པའི་
བྱུང་སྟེ།
▁མི་གྲངས་
སྦྲེལ་མཐུད་
རྡོའི་
དགེ་འོས་
གསར་པ་དང་
དམངས་དོན་
ཉེ་བའི་ལོ་
ས་ཚིགས་ཀྱི་
▁སྣ
ེའོ་
ང་ཡི་
འབྲལ་
ཀུང་སིས་
འོད་སྟོང་
དཀར་རྫོང་
ལྷད་
གནས་སྤོ་
རོལ་རྩེད་
▁གཅིག་གྱུར་
▁ཞིང་སྡེའི་
སྤྱི་ལོ་ལོར་
བའ
ནད།
གཡུག་
བགྲང་
ུད་པ་
ལོ་ཏོག་
རྒྱས་པར་
ཧྲན་ཏུང་
ཤུགས་སྣོན་རྒྱག་
ཐ་མག་
བཏུས་
རྒྱུད
བརྡ་ཆད་
▁ས་འགུལ་
བཅའི་
དེ་དུས་
དབུལ་པོའི་
▁་
དོན་ཆེན་
འཇམ་དཔལ་
སྒ་
ཧྲེ་
འཕེལ།
གཞོན་ནུའི་
འབྲེལ་མཐུད་
▁ཚད་ལྡན་
མཛད་རྗེས་
སི་ལན་
སྤྲོས་
བསམ་གཏན་
ཚན་ཆུང་གི་
ཁེ་ལས་ཀྱིས་
དམངས་གཙོའི་
▁སྣོད་བཅུད་
ལ་སྲུང་སྐྱོང་
ཟིན་པ་དང་
འཚོགས་པ་རེད།
ལོ་རྒྱུས་དང་
▁མགྲིན་
ཚོགས་སུ་
▁གཞོན་ནུ་
བྱེད་རྒྱུ་རེད།
ཐང་།
ཐོབ་པ་
ཐང་ཆེན་
སྤྱི་ཟླ་
▁ཞི་ཅིན་ཕིང་གིས།
སྦྲུལ་
བལྟས་ན་
དཔེ་བཟང་
བསམ་ཚུལ་
དེ་དག་གིས་
བདག་སྐྱོང་
བརྗོད་པ་རེད།
▁འཛམ་གླིང་གི་
ལྔ་བའི་
ངོ་གདོང་
བཞི་བཅུ་
དགེ་སློང་
འགན་འཁྲིའི་
▁པའི་ཚེས
▁རྒྱལ་པོ་
སློབ་གསོ་དང་
དེས།
འཐད་
▁ཟབ་
མང་ཆེ་བ་
འཕར་ཡོད།
ལག་རྩལ་གྱི་
གསུངས་པ་རེད།
རྩར་
▁བླ་མ་
དབང་བོ་
རབས་ཀྱི་
སྤྱི་སྤྱོད་
ཙམ་དུ་
ཡིན་ན།
གྲང་ངར་
▁གྲོང་མི་
ཐེག་པ་
སྒོ་མོ་
ཁྱིམ་བདག་
གནས་ཚུལ་ཡིན་པ།
གཅན་
▁ད་ནི་
ཞུ་གཏུག་
ནུས་པ་དང་
བྱེད་འདོད་
ཐུག་འཕྲད་
རང་འགུལ་ངང་
ཕན།
ཞིབ་ཏུ་
བརྗོད་པ་
▁ཚོད་ལྟ་
བྱེད་སའི་
སྦགས་བཙོག་
བཙའ་
བསླབ་བྱ་
འདྲ་མིན་
གོམས་སྲོལ་
ཐཱ་
ལའེ་
འཛེམ་
ལྗོན་
བགྲེས་
ཆེས་ཆེར་
ནམ་རྒྱུན་
བརྩམས་པའི་
ད་བར་
སྤྲེལ་
ཤེས་པར་
▁སྐད་ཆ་
▁ཡུན་རིང་
ཕྱི་ཕྱོགས་
ཤར་གཏོང་ཐུབ་
▁གྲོང་གསེབ་ཀྱི་
མེད
ཤྭ་
སྐྱི་
▁བྱིས་
འཕྱོངས་རྒྱས་
▁ཆུ་ཚད་
གཡས་གཡོན་
རྫོང
འཕྲལ་མར་
ཚོགས་གཙོ་
གསར་འགོད་པས་
གོ།
རིས།
མ་ནི་
མི་སྣ་དང་
▁དུས་ཚིགས་
གནད་དོན་ལ་
སྲིད་སྐྱོང་
▁བརྩམས་ཆོས་
གསར་གཏོད་ཀྱི་
རྒྱལ་མཚན་གྱིས་
སྐད།
བྲིན་
▁ཤེས་རབ་
གུང་གསེང་
ལ་དམིགས་ནས་
▁བསྡོམས་པས་
དམིགས་ཡུལ་ནི་
▁ཧ་ཅང་
རྒྱ་ནག་
སྐྱེ་བ་
ཚུད་པའི་
བཏང་བ་དང་
འབྲེལ་བར་
བྱིན་རླབས་
▁ཚེས་ཉིན་གྱི་
འགྲན་བསྡུར་གྱི་
▁ག་
གཟེར་
སྨྲ་བའི་
བྱེད་སྐབས།
རྙོག་འཛིང་
▁ཁྱེད་ཀྱི་
▁སློབ་མའི་
▁ཁྱོན་ཡོངས་
བཅུ་གཅིག་པའི་
སངས་རྒྱས་ཀྱི་
ཏའི་
འཕར་བ།
▁འཕུར་
ཐོན་ཚད་
དོན་གཉེར་
རྒྱལ་དམངས་
▁སློབ་ཆེན་
ཞིག་ཡིན་པ་དང་།
ཆེ
མངོན།
ལྡེམ་
ཡོད་དོ།
མཐོ་སློབ་
གཞི་རིམ་གྱི་
དུ་གཏོང་བའི་
མ་དངུལ་སྒོར་ཁྲི་
ཡིའུ་
གསལ་བོ་
ཡུག་རེན་
▁གསར་འགོད་པར་
གང་འདྲ་
▁བསྐྱོད་
ཤུགས་ཀྱིས་
▁བརྩོན་
དེ་དག་ལ་
བདུན་གྱི་
དང་འགལ་
ནགས་ལས་
▁སི་རི་ཡ་
ལྷུན་གྲུབ་
▁གངས་ལྗོངས་
▁གྲ
གས་པའི་
ཟིན་ཐོ་
ཐད་གཏོང་
ལོགས་སུ་
▁སྔར་ལས་
བཅའ་ཁྲིམས
▁གཏན་འཁེལ་
▁བཅོ་བརྒྱད་
▁ཅུའུ་
རིམ་པར་
ཧུར་བརྩོན་
ཀྲང་གཞོན་པ་
དུ་གཏོང་བ་དང་།
དུན་
རྣམ་པ།
དམངས་འཚོའི་
▁དྲུང་
▁གོ་རིམ་
ཆེ་གེ་མོ་
▁ཀྲུང་དབྱང་དམག་
བཀུག་
ཆུ་བེད་
བཟང་པོའི་
བྱེད་ཐུབ།
ཤར་ལྷོའི་
མ་རྐང་
རམས་པའི་
ཤིག་རེད།
རིང་ཚད་ལ་
ཡ་གྱ
གངས་ཅན་
མཐོ་ཤོས་
རང་བྱུང་ཁམས་
▁སང་
▁ལུག་
དཔྱད་པ་
▁ད་རུང་
འབར་བའི་
ཆུ་རྫོང་གི་
ཕྱི་རྒྱལ་གྱི་
དྲུང་ཡིག་ཆེན་མོ་
▁རྔ
▁ལྔ
ར་བ།
དུངས་
དངོས་པོའི་
བརྒྱབ་པའི་
ཡོད་པ་སྟེ།
རྡོར་
ལྡུམ་
གན་རྒྱ་
ལྟ་བའི་
སྤྱི་ལེ
མིག་སྔའི་
འགག་རྩའི་
འགོ་ཚུགས།
བསྐོས་
འགྲུལ་པ་
▁སློབ་གྲྭའི་
བཙུགས་ཏེ་
འཕགས་པའི་
སྒེའུ་ཁུང་
▁ཁྲིམས་འཛིན་
ཡོངས་རྫོགས་
▁བེད་སྤྱོད་
ཚའི་
ངག་གི་
འཕྲེད་
ཡུལ་ལ་
▁ཡག་པོ་
ཁྱོད་རང་
རྒྱན་གོས་
དམག་དཔུང་གི་
ཕེ་
མ་བུ་
▁སྒྲུང་
ལགས་ཀྱི་
▁སངས་རྒྱས་འཚོ།
ལོན་པའི་
དྲན་སྐུལ་
ནུས་ཁུངས་
▁གསལ་བ
པའི་ཚེས་
བཅུ་ཕྲག་
གཏམ་སྤེལ་
ནུས་རྒྱུ་
ུའུ་ཁི་ལན་
▁ཕྱོགས་ཡོངས་
▁སྤེལ་བ
གནའ་ཤུལ་
ཅེས་བཤད།
ཆོས་རྒྱལ་
▁དྭངས་
ལྷོ་ནུབ་
▁བཟོ་ལས་
▁འཚོགས་པ
▁ཁོངས་གཏོགས་
ཡུ་
ཐང་རྫོང་
ཕན་ཐོགས་
གཙང་གསུམ་
པར་མ་ཟད་
ཕེབས་ཏེ་
ཕྱིན་ནས་
དཔའ་བོའི་
བདུད་རྩི་
སྐབས་དེར་
ཞུན་
རོག་
རེའུ་
▁ཆགས་
ཉེས་ཅན་
མ་ལག་གི་
▁ལྷག་ཙམ་
བསྐྱར་དུ་
འཁོལ་བའི་
རང་ཉིད་ལ་
རིམ་བྱོན་
ལྟ་འདོམས་
བྱ་དགོས་པའི་
▁ཟླཔའི་ཚེསཉིན།
▁ཉེ་བ་
སྤོ་ལོ་
མཉམ་སྡེབ་
རྒྱང་རིང་
གཞོན་པ་དང་
▁གྲོང་ཁྱེར་དང་
འཁོར།
གས་ཟམ་
བང་སོ་
ཕྱུགས་ལས་
སོ
ན་ཆུང་
ལུས་ལ་
བཟོས་ནས་
ཆུ་ཚོད་དང་སྐར་མ་
འཇོ་
སྤྲིངས་
འབྲིང་གི་
ཚང
ཀྲོང་
▁བོན་
འཛེགས་
རིག་གནས།
ལམ་བུའི་
ཆེན་མོ
▁བྱེ་བ་
རང་རྟོགས་
རྐང་རྩེད་
མིའི་ཐོབ་ཐང་
▁བསྡོམས་རྩིས་
རྫོང་ཡོངས་ཀྱི་
▁དབུལ་ཐར་
▁སྦྱོང་བརྡར་
ཉམས་གསོ་
རིགས་ཀྱིས་
▁ཅ་
ཐ་ན་
འཐོབ་
གནད་འགག་
ངེས་ཀྱི་
བདག་ཉིད་
▁རྟེན་གཞི་
མནར་
ད་དེ་
དང་རྣམ་པ་
ཁྱབ་ཁོངས་སུ་
▁ཀན་ལྷོ་ཁུལ་
སློབ་འབྲིང་གི་
ཚོང་ལས་
ཆད་གཅོད་
མི་རུང་བའི་
སྤ་
བ་མ་ཟད།
ཉེས་དོན་
རྒྱལ་པོས་
དུ་བཏང་ནས་
ནོར་འཁྲུལ་
བསྡུས་པའི་
▁སྐྱ
ལོ་རྒྱ
▁ཞུ་བ་
སྐད་ཆའི་
ལྷན་ཚོགས་ཀྱི་
ལ་བཏ
ཕྱི་རྒྱལ་
སྔ་དྲོའི་
▁བྱ་རྒྱུ་
གཏོང་རྒྱུ་
བསྐྲུན་ནས་
ཡང་དག་པའི་
རྡོ་རྗེའི་
ཐོན།
རྔམ་
པའི།།
བར་གྱུར་
རྩད་ཆོད་
སོ་སོ་དང་
ཞིག་ཡིན་ཞིང་།
སྐབས་དང་པོའི་
▁ཉེན་ཁ་
ཆོས་རྗེ་
འཁོར་དུ་
རྒྱ་ཁྱབ་
▁ས་ཁོངས་
▁ལོའི་ལོ་
ཞིག་ཡིན་པ་
▁དམའ་
བར་ཆད་
མེ་ཏོག
▁འཐུས་
ཅིག་ཏུ་
ལོ་རིམ་
ཞི་མཐུན་
རང་བཞིན།
མི་རྣམས་ཀྱི་
ངང་ནས་
མི་ཆོས་
བཀོད་ཡོད།
ཐོབ་པ་དང་།
རེའི་ཆ་སྙོམས་
གྱོན་ཆས་
ཐོན་ཡོད།
མི་འདུག་
▁ཨུ་རུ་སིའི་
དོམ་
བྱས་འདུག
▁ཐུར་ཁེ་
ཕ་ཡུལ་དུ་
ཐེངས
ཨ་ཕ་
བར་ལ་
འཇོལ་
ས་སྐྱ་
དགོན་གྱི་
ལས་གྲྭའི་
ཕ་ཡུལ་གྱི་
གསོལ།
▁ད་ལོར་
▁ཨེ་ཅིབ་
སྤྲོ་གསེང་
གཟུགས་བརྙན་
བཅའ་ཁྲིམས་ཀྱི་
དར་ཁྱབ་
མིང་གིས་
འཚོ་བ་དང་
ཁྲིད།
▁བསླབ་
▁གོང་གི་
▁ས་ཚིགས་
ཏིས་
ཐུའུ་
▁ལུགས་
གངས་རིའི་
དེ་འདྲའི་
ལ་རྒྱལ་ཁ་
ནི་བོད་ཀྱི་
ལས་དོན་སྐོར་གྱི་
རྒུ་
གཤིན་
ཞིབ་འཇུག
▁ཆ་རྐྱེན་
བྱེད་རྒྱུའི་
རླུང་གིས་
འཚོགས་ཤིང་།
རྒྱུན་ཨུའམ་
▁ལྗོངས་ཡོངས་ཀྱི་
རུའི་
▁དམངས་འཚོ་
ལ་རོགས་སྐྱོར་
ཞིང་ཆེན་རིམ་པའི་
དངོས།
ིན་རྡུ་
མེད་པ་དང་
རྐྱེན་ངན་
▁སྨན་རྫས་
▁སི་རི་ཡཱ་
▁ཁྱེད་ཀྱིས་
མོག་
བག་ཆགས་
ཁང་སོགས་
སྤེལ་ནས།
ཚུལ་བསྟན།
བཞེངས་པའི་
སྡེ་ཁུལ་གྱི་
རྟེན་འབྲེལ་ཞུ་
དཀའ་ངལ་ཡོད་པའི་
རྗེས་གཉིས་མཐུད་
འདར་
བྱའོ།
སོའི་
▁ང་ལ་
དང་པོ་ནས་
ཆགས་པར་
ཉིང་སྐྱུར་
ཆགས།
▁ཚོ་
......
དམའ་རུ་
ཁམས་པའི་
བཟུང་སྟེ་
ཡོད་ཀྱང་།
▁རང་ཉིད་ཀྱི་
རིམ་རྩིས་བྱས་ན་
ཐབས
ལན།
སྨོས་
▁འཆར་
བསམ་པ་
▁ལྷག་པར་
▁རྗེས་སུ་
བདེ་ཐང་གི་
སྐབས་དེའི་
སློབ་གསོར་
བཞད་པའི་
རིན་མེད་
▁ཕན་འབྲས་
▁གཙོ་སྐྱོང་
ལང་ཚོ་
སྒྲོན།
རྣམ་གཞག་
སྲིད་ཇུས་ཀྱི་
དྲངས།
དར་མདོ་
ཕྲེང་བ་
ཡིན་ཟེར།
གྱོད་དོན་
ཁྲོམ་གཞུང་
བསྐྱོད་ནས་
ལ་གཞིགས་ནས་
ཕྱུག་འགྱུར་གྱི་
མཐོང་བ་
བྱུང་བས།
དགོང་མོར་
▁ཧི་
ཚོགས་ལ་
རིམ་གྱི་
གློག་འདོན་
ཁར།
ཅུས།
ལྷུ་
བྱེད་ས་
རིམ་ཁག་
▁བསམ་འཆར་
▁རིན་ཆེན་
▁སྐྱེལ་འདྲེན་
བྱོས།
ད་ཐེངས་
▁མཚོ་ནུབ་
སྟོབས་ཆེར་
བཞིན་ཡོད་ལ།
བརྟན་བརླིང་
སྲོང་བཙན་སྒམ་
རིག་པ།
ཁྱེད་ལ་
མིང་དུ་
རྟགས་མ་
ཞིང་པའི་
ཟིན་པ་དེ་
སྐྱོན་བྲལ་
▁སྲུང་
སུམ་བརྒྱ་
▁གྱོད་གཞི་
ཐཱན་
▁རིན་ཐང་
▁ལྗང་མདོག་
ཁོ་ལ་
རམས་པ་
▁ཡོད་པ
ཞིང་གི་
ལ་སོགས་པ་
སྲིད་དབང་
འགན་འཁུར་བ་
ཞེས་པ་དེ་
སྐྱེས་བུ་
▁གསར་སྤེལ་
▁པདྨ་
སྟོད་དུ་
རྒྱལ་རོང་
སྒྲིག་འགལ་
▁ཤུལ་
འཚེའི་
འགན་གཙང་
འགན་ཁུར་བ་
སན་
▁བསྒྲ
སྙན་གྲགས་
སྤྲོ་སྐྱིད་
བྲོའི་
▁ཏང་དང་
དེ་གཉིས་
མཛའ་མཐུན་
ལེགས་པོར་
རྩོམ་པ་པོའི་
▁ཐོབ་པ་
ཡོད་ཅིང་
གར་སྟེགས་
སྒྲིག་སྦྱོར་
སཱ་
སེམས།
མཁན་དང་
ཐིང་གིས་
བདེ་སྐྱིད་ཀྱི་
དགའ་པོ་
གཏན་ལ་ཕབ་
▁བྱིས་པའི་
▁འཛད་སྤྱོད་
ཐུགས་རྗེ་ཆེ་
ཐོན་རྫས་ཀྱི་
ཞིག་ཡིན་པའི་
བཀྱ
▁ཕལ་
བརྒྱད་པ་
▁ནང་བསྟན་
▁སྔོན་ཐོན་
ཉིན་རེའི་ཚགས་པར་
བྱ་རྒྱུ་ཡིན་ཞེས་
ནའི་
མི་ཆོག
▁རྒྱུར
▁ཡི་གེ་
རྡོ་རྗེས་
ནུབ་རྒྱུད་
▁གསལ་སྒྲོག་
ཅིན།
མཁྲིས་
ཨར་ལས་
▁མྱོང་
འཕེལ་བར་
འཚོལ་བསྡུ་
ེབས
གེའི་
ལྟ་ན་
གས་ཀྱི་
དྲན་པའི་
▁རྒྱལ་ས་
་རན་སིའི་
འཇོག་པའི་
ཐག་ཆོད་
ཐང་ཆེན་དུ་
བརྒྱུད་པའི་
ཁུར།
སྐུལ་ལ
བྱུང་གི་
བྱེད་པའི
ཡོད་པ་དེ་
▁བཅུ་གཉིས་པ་
▁ཨུ་རུ་སུའི་
ཅུས་ཀྱི་ཅུས་ཀྲང་
▁ཡོང་འབབ་
འཚོ་བ་རོལ་
དངོས་མང་སྟོན་
མཛད་སྒོར་ཞུགས་
གཏམ།
མཆོག
བསླངས་
▁གཙོས་
སྤྱི་བསྒྲགས་
སྲེག་
▁དོགས་
གཙང་པོ་
▁གནའ་བོའི་
▁ཞི་ཅིན་ཕིང་གི་
▁ཅོ་ནེ་
སྤུན་ཟླ་
▁ཤིན་ཅང་
རྩེན་
རབ་འབྱ
ཁྲི་སྲོང་
དཔལ་ཡོན་གྱི་
ཚིལ་
རྐྱེན།
ཀན་ལྷོ་ཁུལ་
ཐོ་བ
ཤཱཀྱ་
སྦྱོར།
ཅི་འདྲ་
བཟོ་གྲྭ་
ཞིང་ཁམས་
གྲལ་བཤེར་
སྐོར་ཞིག་
བརྫ
ི་ཏ་
དབོར་
འབྲོང་
མཆོད་པ་
ལས་སྒོ་
སྐད་འཕྲིན་
གཙོར་
ཆེ་བ་དང་
བརྗོད་ཀྱི་
རྒྱང་སྒྲོག་
▁སྒྱུར་བཅོས་
ལ་ལ་
ཧྲེན་
བྱས་པའི
དཔུང་ཁག་
བྱེད་རྒྱུ།
འགྲན་སློང་
▁དེང་སྐབས་
▁རྒྱལ་སྲུང་
མཐོར་འདེགས་སུ་
བརྟན་པོར་
དཀྱིལ་འཁོར་
སྲིད་ཁྲིམས་
▁དོན་འཁྱོལ་
རྣམ་པ་གསར་པ་
འུ།
རྒུན་
བལྟས་ན།
སྲང་ལམ་
སྒྲུང་གི་
རྒྱུན་གྱི་
རླངས་འཁོར་གྱི་
ཅུད་
མཚན་མོ་
མིན་པར་
ལུས་ཕུང་
ཡིག་འབྲུ་
▁བསྡོམས་པ་
གཟིགས་སྐྱོང་
▁མཚོ་སྔོན་པོ་
རྒྱུ་ཡིན་པ་དང་།
ཆམ་
སྤྲོད།
▁འགན་ལེན་
ཏང་གི་ལོ་རྒྱུས་
པ་འདི་
སེམས་དང་
▁བཟང་བོ་
རྩིས་ལེན་
འཚོགས་པའི་
ཏང་ཙ
མ་ཐུབ་
དུ་མའི་
འགྲོ་གྲོན་
ཤེས་རབ་རྒྱ་མཚོ།
ནོ།།
ནང་ལ་
འཐབ་ས་
ལྡན་པ།
དུ་གནས་
▁ཕྲུ་གུ་
གྲངས་འཛིན་
སྐྱོད་པའི་
མཐུན་རྐྱེན་
ཞིག་ཡིན་པས།
ུག་པ་
གསུམ་པར་
ཡར་ཀླུང་
ཐེར་འདོན་
གཞུ་
ཕུད།
▁ལོ་ཙཱ་བ
རྩད་གཅོད་
▁འཚོ་བའི་
ཁྱེད་ཀྱིས་
གསུང་རྩོམ་
ལུས་པོ་
ལྷག་གིས་
▁ཀུང་སི་
བཞུགས་སོ།
▁གྲོས་བསྡུར་
ཁྲེང་ཀོན་ཆུས་
ལྡན་པའི་སྒོ་ནས་
ང་དང་
▁རྒྱ་ཆེ་
འགན་འཁྲི་འཁུར་
▁ཏ་
ཁུགས་
བྱ་དགའི་
▁ལོ་གསར་
དགེ་ལེགས་
ཡག་པོ་ཞིག་
▁ཚོད་འཛིན་
བྱེད་པ་བཅས་
པདྨ
བཞོན་
སོང་།།
སྒྲེང་
པ་ནས་བཟུང་
མཉམ་སྐྲུན་
▁མངོན་གསལ་
ལུགས་གསོ་རིག་གི་
འཚང་
དང་པོ
གཞན་པའི་
འོད་སྣང་
བརྩོན་འགྲུས་
གཞུང་ལུགས་ཀྱི་
ཇོ་མོ་གླང་མའི་
ཁོམ་
དྲ་བ།
རེ་ལ་
▁ཐབས་
ཡ་གྱལ་
གསུང་རབ་
རྒྱལ་ཁའི་
འབྱུང་གནས་
ཡིད་དབང་འཕྲོག་
ལྷ་ས་ནས་གནས་ཚུལ་
▁ལྷ་མོ་
གཏམ་བཤད།
སྒོ་ཕྱེ་
ཆེན་གྱིས་
པ་ཞིག་གིས་
▁མཁའ་མཚོ་སྐྱིད
བཀལ་
ཞོན་
གཞོལ་
▁འཕེལ་
རིང་བའི་
▁ཀླུ་མོ་
སྲོལ་ཡོད།
མནའ་འབྲེལ་གྱི་
ཞིང་ཆེན་ཏང་ཨུའི་
ངོ
ཆའང་
འདི།
སྡུག་གི་
གླེང་མོལ་
སྤྲད་པ་རེད།
▁ལོ་རྒྱུས་ཀྱི་
མྱེས་
ུགས།།
ཤ་སྟག་
ཚད་མེད་
རིག་གནས་ལ་
གཟེངས་རྟགས་
ཕོ་མོ་
འཆད་ཉན་
བསྡུས་པ།
ཞིབ་ཕྲའི་
དཔྱད་གཞིའི་
▁འགྲེམས་སྟོན་
▁འཆི་
གང་དག་
▁ཟུང་
བདེ་བ་
བཟོ་བཀོད་
▁ཉིན་དེར་
▁དངུལ་ཁང་
གཅིག་མཚུངས་
གློད་
སྟུག་
ཁྱབ་པའི་
ཡུལ་ཤོག་
གཞི་འཛིན་
རིམ་སྤོར་
ཚི་
▁མག
ཤོང་
རྒྱུད་ལ་
འཛུགས་པའི་
▁གྲོས་མཐུན་
ཟླ་ཚེས་ཉིན་གྱི་
སུའང་
ལྟ་བུ།
▁ཧན་གོ་
གང་མགྱོགས་
ལ་གནོད་འཚེ་
ཁྱབ།
ཞུར་
ཡོངས་དང་
སྙིང་གི་
▁བྱེད་མཁན་
གསར་འགོད་པ་
མཐུན་སྒྲིལ་གྱི་
མགོར་
ཟིན་པ་
བབས་པའི་
འདུ་འགོད་
ལྷོ་ཁ་གྲོང་ཁྱེར་
ས་བཅད་
དགུ་བའི་
རྫོང་མཁར་
གནམ་གྲུའི་
ཞིབ་བཤེར་དང་
▁པོ་
▁སེ་
ི་ལི་
▁དྲིན་
མཚོན་ཆ་
ཁང་གི་ཨུ་ཡོན་
དང་སློབ་སྦྱོང་
བསུས་
▁རི་མོ་
འོས་པའི་
▁ཤེས་བྱ་
དཀའ་ཚེགས་
མགོ་བརྩམས།
ལ་དམ་འཛིན་
ལས་མ་
▁སྔོ་
ཚེསཉིན།
ཞེས་དང་།
▁ཡིན་ཡང་
ལོའི་ཟླ་པར་
▁རང་ཁུལ་གྱི་
འདིང་
▁ལུའུ་
ཚོགས་པ་དང་
དུང་དཀར་
དུས་གཏན་
དུས་བཀག་
ཞུགས་ནས་
ངེས་ཅན་ཞིག་
▁མངོན་འགྱུར་
ངེར་
དར་ཆ་
▁སྐྱ་
དྲན་པ་
གནམ་ཐང་
བྱང་བུ་
བཟའ་བཅའ་
▁རྩོམ་པ་
གཏན་ཚིགས་
ཧུར་ཐག་གིས་
དང་དཔལ་འབྱོར་
སྐྱབས།
▁གོ་ལ་
▁བསྟན་པ་
རྙེད་པའི་
▁ཁྱད་པར་དུ་
ཀྱི་འདུ་ཤེས་
ཚོ་བ
རྟིང་
▁ངེས་
▁བརྒལ་
▁ཉེ་ལམ།
སྡེ་ཚན་གྱི་
དང་ཡུལ་སྐོར་
▁གར་
བསམ་འཆ
དམག་མི་
དེ་མིན་
དོགས་ཟོན་
འདུས་གྲུབ་
▁ཀྲུང་དབྱང་གི་
▁ཐན་
▁ལོ་ལྔ་
དེ་དག་ནི་
འགོ་ཚུགས་ཤིང་།
ཚད་ཡོད་ཀུང་སིའི་
བ་བཅས་ཀྱི་
▁ཀྲུང་གུང་
▁རྒྱུན་མཐུད་
དམངས་ཁྲོད་ཀྱི་
ད་ཆ་
▁ཞིན་
བརྒྱད་ཅུ་
སྲོལ་ཡིག་
▁འོན་ཀྱང་།
ཟླཔའི་ཚེསཉིན།
བྱེད་པ་སོགས་ཀྱི་
ནོར་ལུག་
མྱུར་ཚད་
དྲ་སྦྲེལ་
▁གཞན་ཡང་།
གསལ་བསྒྲགས་
ཀན་སུའུ་ཞིང་ཆེན་
ལྟ་བུ
གཟབ་ནན་
གསར་བར་
པ་དེ་ནི་
སློབ་ཆུང་གི་
གཏམ
▁སྤང་
དག་ནི་
ཁྲོད་དུ།
བརྒྱ་ཕྲག་
▁ཡོང་ཁུངས།
▁སློབ་གསོའི་
གཟར་
མགོའི་
ཐང་གའི་
དཔང་ཡིག་
པ་ནས་བཟུང་།
དང་འབྲེལ་ཡོད་
བྱ་ཆེད་
▁ཐག་
▁ཕུ་
དབྱངས།
ལ་བརྟག་དཔྱད་
▁ལེགས་འགྲུབ་
▁འཛིན་
གྲུབ་པ་
ད་ལོའི་
རིག་ནུས་
ཆེ་བ་ཞིག་
ོབ
རུ་མི་
ཁ་སྐོང་
པ་ཞིག་ལ་
སྤྱོད་ཀྱི་
ཆེས་ཆེ་བའི་
རྒྱལ་ཡོངས་སུ་
ཐོན་སྐྱེད་ཀྱི་
▁ཆེད
▁དྲིལ་
▁འདེམ་
གྱུར་པའི་
མོས་མཐུན་
རྒྱར་
བསྒྲགས།
སྐྱེས་པ་
བརྟན་སྲུང་
▁སྔོན་དཔག་
རླུང་གི་
ཉིས་བརྒྱ་
▁རིག་རྩལ་
▁བསྒྲགས་པ་
▁ཁྲིམས་ལྟར་
ཆག
ཞུམ་
ཁོང་ལ་
ཀློག་པ་
དྲུག་དང་
▁ཡུལ་སྐོར་བ་
ཁྲོམ་རར་
ཆེ་མོའི་
ལོ་ལེགས་
གནང་བཞིན་པ།
▁ང་ཡི་
▁རི་བོ་
▁རྨི་ལམ་
▁འཛིན་གྲྭ་
གོང་འཕེལ་གྱི་
འབྱར་
ཁྱེད་རང་
གང་བྱུང་
ལོ་གཅིག་
མགྲོན་ཁང་
▁གཏན་འབེབས་
དཀར།
བཟི་
ུབས།
▁དཀྱ
ཤིང་གི་
སྨན་གྱི་
▁སླར་ཡང་
མུའུ་ཁྲི་
▁ཆ་སྙོམས་
གཙོ་གནད་དུ་
གསོ།
རམས་
སྒྲུབ་པ་
▁སྒོར་མོ་
ལ་བརྟེན་ནས།
ཨུ་རུ་སིའི་
དུ་བྱུང་བའི་
འགྲོ
ཚེ་དབང་
གཏོགས་པའི་
མཐོ་རྒྱུགས་
བརྟན་པོའི་ངང་
ལོངས་སུ་སྤྱོད་
འདུས།
ཁ་བའི་
ཏང་གིས་
བདག་པོ་
▁ད་རེས་
རྡོ་རྗེ།
རྒྱུད་དང་
▁གྲ་སྒྲིག་
འབོ་
▁གཟབ་
▁ཚབས་
▁ཡུམ་
ལ་འགྲོ་
ཚོང་རའི་
འདིའི་ནང་
▁གྲངས་ཉུང་
མཇལ་འཕྲད་གནང་།
མདེལ་
མཛེས།
མང་ཤོས་
སྤྲོ་བ་
▁བླང་བྱ་
སྐྱོན་ཅན་གྱི་
དྲུབ་
▁འདྲེན་
མི་སྒེར་
པ་ཞིག་ཏུ་
གས་ལམ་གྱི་
དགའ།
གོམ་པ་
ཤེས་པ་
འཛིན་པ།
▁འཁོར་བ་
▁རྒྱ་མཚོ་
དབུ་བཞུགས་
དེང་རབས་ཀྱི་
▁ཙ
ོབ།
▁ཧེ་
རྣམས།
ཤོག་ངོས་
བཏོན་ཡོད།
▁ཐོག་མའི་
▁ཕྱིས་སུ་
སྒྲུབ་ཐབས་
རིམ་པ་སོ་སོའི་
ཀས་
འདུན་པ་
རིག་འཛིན་
དང་ལྷན་དུ་
བྱས་པ་ཡིན།
▁དམངས་གཙོ་
▁བྱེད་རྒྱུ་
ཅན་དང་།
▁ལས་བྱེད་
རི།
བྱེད
སྦུག་
▁སྐྱོ་
མདུན་ནས་
སི་ཁྲུ་ལི་
མི་སྒེར་གྱི་
མིང་ཐོ་
ཡག་ཤོས་
ཡིད་དུ་
ཅུའུ་ཡི་
▁གང་ལྟར་
དོ་དམ་གྱི་
ཀྲུའུ་ཞིའི་
ལྷག་ཏུ་
▁མགྲོན་
བཀྲ་བའི་
▁ཇི་ལྟར་
འདུ་ཚོགས་
▁ཧྲང་ཧའེ་
མཐར།
ག་མདངས་
རིག་ཚན་
▁མདོར་ན་
ནང་སྦྱོང་
རུལ་སུངས་
བཀའ་འགྱུར་
འབྲོག་པའི་
སྐོར་གླེང་
▁ལི་ཁེ་ཆང་གིས་
ཁྱབ་བསྒྲགས་བྱས།
བཙུགས་པ།
ཟིན་བྲིས་
འཚོ་བ་སྐྱེལ་
བྱུང
▁ཕག་
ུའུ་ཡིས་
སློབ་དེབ་
▁མི་རིགས་ཀྱི་
བཤད
རྒྱ་མ་
ཁྲེན་ཏུའུ་
རྒྱུའི་རེ་བ་
ལ་སློབ་སྦྱོང་
རྨང་གཞི་བརྟན་པོ་
སི
▁མཆ
དྲི་མ་
▁འཕྲིན་
བྱས་ཀྱང་
ཕྱིར་དྲན་
འབྲི་གཡག་
སྤྱི་འདོམས་
▁བང་
▁བཅོ་
དྲིལ་བ
དྲ་རྒྱ་
རྒྱུ་ཡིན་ཞེས་
▁རུང་
མི་ཉག་
དེབ་དང་
དགོན་དུ་
ཨེ་ཤེ་ཡ་
རྩོད་གཞི་
▁རྫས་
དཔོན་དམག་
▁སྤྱི་ལེ་
▁རྩོམ་ཡིག་
བྱས་ཡོད་པ་དང་།
རབས
དཔོན་པོ་
སྐུ་བརྙན་
▁རང་ཁུལ་གྱིས་
▁འཕེལ་རྒྱས་ཀྱི་
ཆར་པ་
▁འདུས་
དགོན་པར་
པ་ཞིག་ཡིན་
པེ་ཞིང་ཆེན་
གཞིར་བཟུང་ནས་
དང་རྒྱབ་སྐྱོར་
འགྱོད་
སྒྲིལ།
འདུག་པ་
རྣམ་དག་
གླེགས་བམ་
བཅངས་པའི་
འཕེན་གཏོང་
ལས་དོན་མི་སྣས་
ཏོ།
རེད་ལ།
འཁྲུགས་
བོད་ཁུལ་
སྦྱིན་བདག་
▁བཅོས་སྒྱུར་
རིགས་སོ་སོའི་
▁འཚ
▁ཅུང་
དང་ཁུལ་
ཡུལ་ཚོ་
མཚམས་བཞག་
སྐྱོང་བའི་
བོད་ལྗོངས་སུ་
རྩལ་བ
ནས་ཉིན་
གཞུང་ལས་ཁང་
བྱས་ནས
བློའི་
སྟ་
བྱུང་ལ།
སླ་བའི་
མེད་པ་རེད།
ཏོག་དབྱིབས་
བལྟ
ཞེང་
ཁྱམས་
གཙོད་
ལྡན་པར་
བསྟུན་ནས།
རང་ལྗོངས་
སྙན་རྩོམ་
▁གཉིས་ནས་
ཁྱིམ་མཚེས་
སེམས་འགུལ་
བྱེད་རྒྱུར་
རྐྱེན་ལམ་དུ་ཤོར།
མཛངས་
▁ཟངས་
▁ཨ་ཁུ་
ཕུག་ལམ་
གེགས་སེལ་
བྱས་པ་ལས་
འབྱེད་པའི་
ུའུ་དབྱིང་
▁གཙང་གསུམ་
རྩྭ་དགུན་འབུ་
སྲོལ།
གནས་འདིར་
སྒྲོན་མེ་
སླད་ཕྱིན་
བསྩལ་
▁བདུད་
▁བཅའ་སྡོད་
སྒེག་
▁རེས་
དད་ལྡན་
རྒྱ་རིགས
▁ཁྲོམ་ར་
▁རྗེ་བཙུན་
ཁོངས་གཏོགས་ཀྱི་
བསླུ་
▁ཨའོ་
གཏོགས།
▁ཉི་ཟླ་
▁སེམས་པ་
▁གཞུང་ལས་
འན་
▁དད་
གདུགས་
འོན་ཀྱང་
ཆེ་བ་དང་།
▁གསོ་རིག་
▁དམངས་ཁྲོད་
▁བཅོས་བསྒྱུར་
བྱོལ་
དེ་ཙམ་
འགྱིང་
ཚུད་ཡོད།
འཛུགས་སྐྲུན།
སྡེ།
▁ཨུ་
མེད་ལ་
ཨང་རྟགས་
▁ཉེ་དུས་
གནད་བསྡུས།
གནོད་སྐྱོན་
▁ཞེས་གསུངས་
ཉི་ཞི་
མྱོང་རོལ་
▁འབྲོག་པ་
ཏང་ཙུའུ་ཡི་
ེབ།
མ་རྩ་
སྤོང་
ནས་ཀྱང་
ནུས་པར་
རིང་མོ་
སྡོམ་པ་
ཅིག་གིས་
ཡིག་ཆའི་
འགོག་པའི་
སེམས་ཤུགས་
▁གཤ
ལ་ལས་
▁སྦྲ་
ཐོན་པར་
ཤིག་ཀྱང་
▁ཉི་འོད་
འཆར་གཞིའི་
▁གྲོགས་པོ་
རྒྱབ་ལྗོངས་
བཞིན
གཤགས་
མདའི་
དད་པའི་
དེང་སང་
▁ཅེས་པ་
འདབས་ཀྱི་
བཙུགས་པ་དང་།
ཨེན་
གཡོགས་
སྤྱོད་པ་
ཆུ་ཚད་མཐོ་རུ་
མོར།
གྲོ་གུང་
དེ་བས་ཀྱང་
ཁྱད་ཆོས་དང་
བདའ་
ོབས།
ནང་མི་
ཤིག་ལ་
བསྟན་པ།
མུ་ཏིག་
ཉེན་བརྡ་
དཔྱད་གཞི་
ལྷིང་འཇགས་
རྗེས་སུ་འབྲ
▁འབྲུ་རིགས་
དགེ་རྒན་ཆེན་མོ་
མར།
▁གྲུ་
▁དེའང་
▁སྤྱད་
▁བདག་གི་
▁མེ་འཁོར་
ཁྱབ་སྒྲོག་
ཨང་དང་པོར་
ལེགས།
ལ་བཀའ་
▁སྣུམ་
ཟུང་དུ་
▁ཉིང་རྡུལ་
རང་བྱུང་གི་
▁བརྟན་ལྷིང་
ལ་བདེ་སྐྱིད་
ཅིག་གི་
དཀོན་པའི་
ཚིགས་བཅད་
ལ་ཞུགས་པའི་
▁གླེང་སྟེགས་
”“
ཐར།
ཁ་བྱང་
སྤུས་ཀ་
དབྱང་གིས་
ཡིག་རིགས་
▁གཉིས་པོ་
▁སྐད་ཡིག་
ཆེ་ཤོས་ཀྱི་
བཅོ་བརྒྱད་པ་
མཁོ་བའི་
སུས་ཀྱང་
ཕྱོགས་སྡོམ་
སྒྲིག་གཞིའི་
འདུག།
▁ང་ནི་
▁སྡོང་
འབབ་པའི་
དབྱངས་ཀྱི་
གཙུག་ལག་ཁང་
ཐོན་ཁུངས་ཀྱི་
▁བྱུང་བ
མེ་འགོག་
དཔུང་སྡེ་
བསྐྲུན་པ།
མཇལ་འཛོམས་
མངའ་ཁོངས་སུ་
▁དེ་བཞིན་དུ་
དམུ་
རྒྱལ་དབང་
ལྷན་སྐྱེས་
▁དཔྱིད་གསར་
ཡིས
པེར་
ཤུད་
ཞུའེ་
▁གཏོར་
▁པད་མ་
དུས་ལྟར་
དང་མཉམ་ལས་
ཞིས་ཅིན་ཕིང་
དབུལ་སྐྱོར་གྱི་
གདན་ཞུ་
པོ་ཡོད།
▁ཉིན་ལ།
▁ཡན་ལག་
བྱེད་པ་སོགས་
རལ་གྲ
གདན་ས་
བཞི་བ་
ཆེད་མཁས་པ་
དཔྱད་འདེམས་
ཟིན་ཡོད་པ་རེད།
ལ་སྐུལ་འདེད་བཏང་
རླན་
དད་པ་
དཔོག་
▁གཞས་
སྐྱིན་
རེ་ཞིག་
བརྗོད་པ།
དོ་དམ་དང་
མཐོན་པོར་
▁ཚེ་སྲོག་
འགོ་བརྩམས།
བསྐྱར་སྐྲུན་
ལྤ
▁ཧོར་
པའི་བར་
ལྡན་ཞིང་
དགའ་སྤྲོ་
རྣམ་པ་ཞིག་
▁མངའ་ཁོངས་
མི་དགོས་པར་
▁བཅོ་བརྒྱད་པ་
སྲུང་སྐྱོབ་དང་
དངུལ་གྱི་
རེས་སྐོར་
▁བོད་སྐད་
སྐེད་
▁འགའ་
▁སྐོང་
བླངས་ཏེ་
ཀློག་པ་པོ་
བརྒྱབ་སྟེ་
▁འགས་གཏོར་
དངོས་འབེབས་
ཤུན་
▁མེད
དྲོན་
བརྟན།
མཚོན།
ཡར་ལངས་
བུ་མོའི་
▁ཡུལ་དངོས་
▁མི་དམངས་ཀྱི་
གཞལ་
ལ་བལྟ་
གཞན་དང་
ཕྲག་ཏུ་
བཏང་ཞིང་།
ཡར་ཐོན་གྱི་
སྒྲིག་བཅོས་
མཚོ་སྔོན་པོའི་
གེ་སར་རྒྱལ་པོའི་
པའོ།།
པུའུ།
▁ངོས་
མཁའ་ལམ་
བཙོང་
▁ཅིན་
སྡེ་བར་
རྒྱ་ཁྱོན་ལ་
ཉིལ་
མྱི་
རིམ།
སྤོགས་
གཏོར་བརླག་
▁ཕྱི་རྒྱལ་
ཚོགས་ཆུང་གིས་
ཚུལ་དང་།
ས་ཁུལ་དང་
གཙོ་སྒྲུབ་
འདེམས་ཤོག་
རྐོ་
ཐུབ་ལ།
ལ་བྲེལ་
ནང་བཞིན་
ཡིད་ཚིམ་
གྲྭ་བཙུན་
▁ལས་འཛིན་
▁གྲོས་གཞི་
ལོ་གསར་གྱི་
གཅིག་གྱུར་གྱི་
ང་།
▁གཟེ
གང་ཟག་
གཉིས་ལས་
བྱེད་ཕྱོགས་
གདུལ་
མེད།།
ངས་ནས་
▁གཟེངས་
ཕྱིར་ཚོང་
▁ནུབ་བྱང་
▁དྲིལ་སྒྲོག་
▁ཉིན་ཤས་གོང་།
ངག
ཀྱི།
བའི་དུས་
རྩོམ་པའི་
▁རྒྱ་ཁྱོན་
▁འཁྲུག་རྩོད་
ཚད་ཡོད་ཀུང་སི་
སྐྱའི་
མིག་གིས་
ཡུལ་སྐད་
རྡོ་སྣུམ་
མི་འདྲ་བར་
རྒན་གསོའི་
གྲོས་ཚོགས་ལ་
རྔན་
རྐྱལ་
▁འདབ་
▁རྒྱན་
ཡུལ་ནས་
དེ་རིགས་
འཕར་བ་དང་།
ལྟེ་བར་
ཐོས་བསམ་
ཚོད་དཔག་
གྲོས་འགོ་
གེར་
▁ཐལ་
ཁ་དང་
སྒུར་
▁གོས་
▁གློ་བ
འགོས་ནད་
འདུག་པས།
གནས་ཚུལ་དང་
▁བག་
▁ཕ་མ་
ལོ་འཁོར་
▁ལས་གནས་
གཟུགས་ཀྱི་
རྡོ་བརྐོས་
རྩོམ་སྒྱུར་
▁འབད་བརྩོན་
ཆུ་རྫོང་གིས་
ིན་རྡུ་ཉི་ཞི་
མཐུན་ཚོགས་ཀྱིས་
གཤོང་
ལམ་བུར་
རྗེས་མར་
ཤར་ཕྱོགས་
འགྲོ་བཞིན་
གྲོང་རྡལ་དུ་
ལའོ་
▁ཏིང་
▁འགོག་
པུའུ་དང་
བྲག་ཕུག་
ཤེས་པའི་
གཞིགས་ནས་
མངོན་ཡོད།
▁འདུ་ཤེས་
▁ཚོགས་ཆུང་
▁རིག་དངོས་
▁རྩོམ་པ་པོ་
ཐད།
ཉོན་
▁འུ་
གནམ་གྲ
ཉེ་བར་
གོང་འོག་
▁མིག་སྔ་
▁མཚོ་སྔོན་གྱི་
ཤའི་
▁བརྗ
▁དགྲ་
ཚན་པའི་
ལ་དོ་སྣང་
▁སླར་གསོ་
ཀྲུང་ཧྭའི་
ཆེས་མཐོའི་
ཕོ་བྲང་པོ་ཏ་
བསྔགས་བརྗོད་
ང།
དུ།།
ལྔ་བ་
རི་ཆུ་
ཤི་རྨས་
གཞུག་ཏུ་
ཆུང་གྲས་
མེད་ཀྱང་
དབྱངས་ཅན་
སྨྱན་བྱད་
གཏོང་བ་བཅས་
ནི་ཀྲུང་གོའི་
▁མུན་
▁འོན་
ས་ཆའི་
དབང་གི་
ཙམ་ཞིག་
ཧི་མ་ལ་
དྲང་བདེན་
གྲོང་ཁྱེར།
རང་སྐྱོང་ཀྲོའུ་
པར་མི་
▁ཁ་གཏད་
མ་ཡིན་པར།
▁དཔེ་དེབ་
བྱས་ཡོད་ལ།
བཟང་པོ་ཞིག་
དང་འཕེལ་རྒྱས་
བཅོམ་ལྡན་འདས་
ངེ་
བན་
▁ཕྱ
ཨུས་
གཤེད་
བཤུས།
ལས་ཐར་
གསོག་འཇོག་
▁སློབ་ཆུང་
གཅིན་
སྔ་མ་
▁ཐེན་
▁མཁན་
ཚད་ཀྱི་
ཕྱིན་ཡོད།
མི་ཐེངས་ཁྲི་
སོས་
མ་མྱོང་
བབས་ཚུགས་
བསྒྲགས་པ་ལྟར་ན།
▁དེ་དང་ཆབས་ཅིག་
▁ཡབ་
▁གྲོ་
▁སྤུ་
བྲིས་པ་
དམའ་བའི་
བར་མ་ཟད།
བློན་པོ་
བརྩེ་བའི་
རྐང་འཁོར་
ཁང་གི་ཀྲུའུ་ཞི་
ཚའེ་
དཀའ་བ་
དང་རང་
ཡ་རབས་
དར་གྱི་
མཐའ་ཡས་
ལོན་པར་
ཡུལ་ཚོའི་
▁སྐྱེ་དངོས་
སྔོན་འགོག་གི་
བསྐྱོད།
བདུན་ཅུ་
དུག་འགོག་
སོགས་ཀྱང་
འདི་དག་གི་
▁ཁྲིམས་ལུགས་
ལག་བསྟར་བྱེད་
ལྡེའུ་
▁ཟློས་
▁ཁྱད་པར་
དུ་སླེབས་
ངུའི་
ཉུང་བ་
ལམ་དང་
▁རབ་བྱུང་
བྱ་ཡུལ་གྱི་
ཞིག་ཀྱང་ཡིན།
▁དམིགས་འབེན་
ངོས
དབན་
རིག་པ་དང་
▁སྤྱི་ལོ་ལོར་
རྒྱན།
གསལ་བ་
གཉིས་ཀར་
ཐུབ་ཀྱི་
ལོག་པའི་
ཤེས་ཡོན་
པོར་གྱུར་
ལྟ་སྐྱོང་
▁ཡིད་ཆེས་
▁ཁས་
འབྲི།
འགྲེལ།
མེས་པོ་
▁ཐོན་པ་
རྩ་ཆེའི་
▁གཞི་ཁྱོན་
ཚེསཉིན་གྱི་
གཞི་གཅིག་ཏུ་
མིག
ཆོས་ལ་
བྱས་ལ།
རེབ་གོང་
ལྔ་བརྒྱ་
གཏོད་པའི་
▁དཔེ་སྟོན་
ལ་བརྟག་ཞིབ་
དུབ་
འཇོག
ཁ་བརྡ་
མ་ཞིག་
ཨུ་ཡོན
▁འཕྲལ་
རྒྱས་པ་
ལོ་རབས་
སི་ཡིས་
▁གཏོང་བ
འདུག་པས་
རྣམས་ནི་
དབྱི་ལིང་
ལས་བརྒལ་བའི་
འཇིག་རྟེན་གྱི་
རྫས།
བཀྲུ་
འདེབས།
ཉིན་ནས་
ཐེ་ཚོམ་
སྤྱན་རས་
ཚན་རིག་གི་
སྐྱིད་ཀྱིས་
བདེ་ཆེན་ཁུལ་
དུ་གཏོང་དགོས།
མཛེས་སྡུག་གི་
ཏེ།།
▁ཉག་
གཞིས་ཀ་
སྔ་ཕྱི་
ཆོས་འཁོར་
ནས་ལོ་བར་
དགའ་སྤྲོའི་
དཔྱད་བསྡུར་
ལ་ངོས་འཛིན་
དང་གྲོས་མོལ་
དམར་པོའི་
འཕྲད་པའི་
▁ལྗར་པན་
ཚེ་སྲོག་གི་
ནས་ཤེས་རྟོགས་
▁གཅེས་
དྲག་ཆར་
གླུ་ལེན་
ལང་ཚོའི་
ལྡེ་བཙན་
ལས་རྣམ་པར་
དཔེ་སྟོན་ཁུལ་
བཟས་
▁ཐའེ་
འདབས་སུ་
▁ཉེས་ཅན་
བཟའ་བཅའི་
སོལ་རླངས་
▁ཡང་བསྐྱར་
ཞིང་འབྲོག་པའི་
མཐར་ཐུག་
མཚན་མོའི་
▁ཕུན་སུམ་
གསོ་བ་རིག་པའི་
▁ཉེ་བའི་ལོ་འགའི་
ཱི་
ཞོག་
སོང་ན་
རྩ་བ་ནས་
སྐོར་ནས་
གཏན་འགོག་
འཕེལ་བའི་
▁དགོང་མོ་
▁རིན་གོང་
ཡིག་རྒྱུགས་
སྤྱིར་བཏང་གི་
ལེགས་སྐྱེས་འབུལ་
རྫིང་
▁སྣེ་
▁སྤེལ
པ་ཡིན་ལ།
བཟུང་ནས།
མཐའ་སྲུང་
སག་
རྗེན་
▁ཁེར་
▁ཧོང་
ཁོ་ཚོས་
ཚན་ཞིབ་
ཕྱག་འཚལ་
ལྷག་པའི་
▁སྔ་དྲོ་
ཡོ་བ
འབོད།
▁གཡས་
▁བློ་བ
འཐུང་ཆུ་
སྤྱི་དང་
དམངས་སྲིད་
▁རྫོང་ཡོངས་ཀྱི་
རྒྱུ་མཐའ་འཁྱོངས་
ཏེང་
ཡུར་
དུམ་བུ་
སྲིད་པ་
བཅས་ཡིན།
དུ་འགྱུར་
སྐུ་གཤེགས་
▁ཨ་མེ་རི་ཁའི་
ཡི།
མིང་དང་
དབུས་གཙང་
དོགས་གཞི་
ལྡེབས་རིས་
གཡོད་
མཁོ་ཆས་
འགན་ནུས་
སྒོ་དབྱེ་
རླུང་འཕྲིན།
▁རིམས་འགོག་
▁པཱ་
▁ཚྭ་
ཁེ་སི་
ཕྱོགས།
ཚད་འཇལ་
ལ་ཕན་པ་
ལྷག་ཙམ་གྱི་
ཞིབ་དཔྱོད་ཁང་གི་
འར་
▁ཉིན་རེ་
འཛོམས་པའི་
▁མཛུབ་སྟོན་
▁ཏང་ཀྲུང་དབྱང་
ཐལ།
ཐིམ་
▁ལྔ།
▁ནན་ཏན་
▁དེ་དུས་
▁ཚན་ཆུང་
གནོད་འཚེའི་
དུ་ཡོད་པའི་
ལ་འགྱུར་ལྡོག་
སིང་
▁གསལ
▁སེང་
འདོད་པ་
ཡར་སྐུལ་
ཕྱུག་པའི་
ཁྱོན་ཡོངས་
དུས་ཆེན་ལ་
དྲོ་སྐྱིད་
འཕེལ་རྒྱས།
▁ཡིན་ནའང་།
དང་བོད་ཀྱི་
་ཆེན་སྐུ་ཕྲེང་
དགེ་མཚན་ལྡན་པའི་
ཀློག
གྱེན་
▁འབབ་
འགྲོ་བ
བྱ་འགུལ་སྤེལ།
རྨང་གཞིའི་ཐོག་
▁ཕོག་
ཇེ་བཟང་
མེད་ཅིང་།
ལས་ཁུངས་བོད་སྐད་
ཀན་ལྷ
▁གཡག་
དད་མོས་
གྱོང་གུན་
འཁོར་ལོའི་
རྗེས་འཇུག་
ལྔར་
▁ས་ཡ་
ང་ཧུའུ་
ཡབ་སྲས་
ཉུང་མཐར་
སྙམ་པའི་
དོགས་ཡོད་
སྒྲོལ་མས་
ཁང་པེ་ཅིང་
སེམས་ཀྱིས་
སྙོམས་སྒྲིག་
ཧ་ཅང་ཆེན་པོ་
དཔེའི་
ཙོང་ཁ་པ་
འོད་ཀྱི་
▁ཀྲེ་ཅང་
པའི་ཁ་གྲངས་
▁སྒྲིག་གཞི་
▁སློབ་གླིང་
བྱས་པར་མ་ཟད།
རྒྱུགས་སྤྲོད་
ཤུགས་ཐོན་ཁུངས་
མནན་
ཚང་།
གཤིས།
གནད་ལ་
གཟུངས་
གློག་དྲ་
ཐོག་མ་དེ་
བསྡུས་ནས་
རྒྱ་མཚོར་
ཁྲེ་
ཐོལ་
འདུད་
ཅི་ཐུབ་
མ་བྱུང་
ཞི་བའི་
པར་གྱུར།
མངོན་མེད་
དར་རྒྱས་ཀྱི་
ལི་ཁེ་ཆང་གིས་
▁བསྒྱུར་བཅོས་
▁ཧྲིན་
གཉིས་ནས་
མདོག་གི་
རབ་བརྟན་
རྒན་གསོ་
▁ཏུན་ཧོང་
▁ཚེས་ཉིན།
ནུས་པ་གལ་ཆེན་
མཉ
ནག་ཉེས་
ཅི་རིགས་
▁མང་ར་བ།
ཉིད་ཀྱིས་
ཕྱོགས་གང་
བྱེད་ཆེད།
མྱུལ་ཞིབ་
▁ཟས་རིགས་
བྱིན་གྱིས་
▁དགེ་འདུན་
▁དགོན་པའི་
ོ་བྲག་
ཅན་ཞིག་
བྱས་ཚེ་
མཁས་པས་
▁མདོར་ན།
▁སྡེ་དགེ་
ཡུན་ནན་ཞིང་ཆེན་
ར།།
ཆའོ་
བསྡུས
▁རྒྱུ
ཀྲེ་ཅང་
གླ་ཕོགས་
མི་མཐུན་
ལ་བརྩོན་
སུ་འཇུག་
བདག་གཉེར་
ལ་གནོད་པ་
ཡུན་རིང་བདེ་
ལག་བསྟར་གཏིང་ཟབ་
▁བཅིངས་
ངེས་རེད།
གཉིས་ཀའི་
དཔྱིད་ཀྱི་
འགྲུལ་བཞུད་
▁བཀྲ
གཟིག་
པར་མ་
▁རྟག་
བརྩི་སྲུང་
▁དབྱིན་ཇི་
ལེགས་པོ་ཞིག་
ཆར
བསྐལ་
ཁོ་ཚོ་
རྒྱགས་
ཞེས་བྱ་
རྣམས་སུ་
།།མཚོ་སྔོན་
རླབས་ཆེན་གྱི་
▁ཕར་
ཀྱོག་
ཏག་ཏག་
བསྒྲིགས
ཆུང་བའི་
སྒྲོལ་མ།
བྱ་ཡུལ་དུ་
▁།།
མོ་ལ་
ལོ་ན་
དོད་པའི་
སྨན་པའི་
དཔེ
མཛོད
▁གིས
ཁ་བཏགས་
མི་དགོས་
རྒོལ་གཏམ་
གཅེས་སེམས་
འགྲེམས་ཚོགས་
འཚམས་འདྲིའི་
ཡོས་
▁གླ་
ཞུས་ཏེ་
ཤིན་ཅང་
▁ནོར་བུ་
གསལ་བྱེད་
ཨུ་དང་ཁུལ་
▁གསུང་བཤད་
དེང་རབས་ཅན་
བསམ་བློ་དང་
ལས་ཁུངས་དང་
བློ་ལ་བརྟན་པོར་
སྦ་
གྲངས་ཀ་
ཀུན་མཁྱེན་
ཐམས་ཅད་ཀྱི་
ཆིའུ་
▁ལིན་
ཤང་ཀང་
གནང་སྟེ་
ངག་རྒྱུན་
བོད་ལུགས་
ཡོད་ཅེས་བཤད།
ཏྲ
ཨི་
མཆི་
འགོད
ལོའི
ག་གེ་
འབུམ།
བྲོ་བ་
མི་ཁྲི་
ཡུལ་དང་
ཅིས་ཀྱང་
▁ཐོབ་ཐང་
སྟོད་ཀྱི་
▁ཀན་ལྷོའི་
མ་འོངས་པའི་
▁མགྲིན་ཚབ་པ་
▁ཁྲིམས་སྐྱོང་
་ཁྲལ་
བཏེགས་
གལ་འགངས་
▁དེང་སང་
སྲིད་དོན་
▁ཏང་ཨུའི་
▁སྣེ་ལེན་
▁འགོ་ཚུགས་
ལ་བབས་
▁གུང་ཁྲན་
རྫས་འགྱུར་
▁དེ་དག་གི་
ནས་ཚེས་ཉིན་
▁བརྗོད་དོན་
འོང་།
སྐྲུན
བསྟན།།
ཡོད་ན།
▁བསྟུད་
དཔྱད་བརྗོད་
སི།
ཟ་མ་
རྨོད་
▁འཐུས་ཚབ་
▁གཏོང་རྒྱུ་
▁བཅུ་གཅིག་པ་
བོ
མ་ལ
ཚེར་
ོགས།།
དམ་དུ་
ཐོབ་མཁན་
ལོ་རེའི་
▁མི་སེར་
གཞི་གཅིག་
སྤྲད་པའི་
▁རང་འགུལ་
རྟོགས་པའི་
བརྙན་ལམ་
▁བྱ་གཞག་
▁ལས་གྲྭ་
སྲུང་སྐར་
ཕྱིན་པ་དང་
འབྱོར་བའི་
▁ངོས་འཛིན་
རྟེན་གཞིའི་
སྐོར་སྐྱོད་
གཡའ་
མའེ་
འདོར་
གདོང་ལ་
བསམ་འཆར
ཆུ་བོའི་
འོང་བའི་
ཤེས་ཀྱི་
གྲུབ་ཡོད།
ཟླ་ཚེས་ཉིན།
དང་གྲོང་གསེབ་
▁རང་ལྗོངས་ཀྱིས་
ཤུལ་བཞག་རིག་གནས་
གདགས་
དར་མ་
▁འགྲན་
དགའ་ཞེན་
འདབ་ཆགས་
རྒྱབ་ཏུ་
སྔོན་པོ་
▁བདེ་བླག་
འཐབ་ཇུས་ཀྱི་
མི་རིགས་སྐད་ཡིག་
གམ།
གཤིབ་
རང་རྒྱལ་གྱིས་
རྦ་
ཟླར་
▁ཁྲལ་
གསུམ་དང་།
དགོས་ཟེར།
བསྡུར་ཚད་
མཐོང་བའི་
▁སྒྲོལ་མ་
ནག
ཐམ་
ཤོག།
▁ལྐོག་
བརྩིགས་
གསལ་སྒྲོག་
སྐྱོན་བརྗོད་
རྨས་སྐྱོན་ཕོག་
དར་གོས་
དྲན་རྟེན་
མཉམ་ལས་ལ་
པར་དུ་བསྐྲུན།
▁ཡོངས་བསྒྲགས་
བཞེངས།
གློ་བུར་
ངེས་ཡིན།
ཉིན་མཚན་
ཞེས་བཤད་
དམངས་འཚོ་
བསྒ
མེ་ལ
སེལ།
དང་ཨ་
ས་མཐོར་
དལ་གྱིས་
དྲུང་དུ་
གདེང་ཚོད་
དམག་དཔོན་
རླབས་པོ་ཆེ་
སྔོན་འགྲོའི་
སྙོམ་
མཐའ་མའི་
སློབ་གསོ།
▁ལེགས་བཅོས་
▁མིའི་རིགས་ཀྱི་
དང་ལ
མུག་
ཕན་བདེ་
ཉི་ཤུའི་
▁བཏོན་པ་
▁དབྱི་རན་
འགྲོ་ལུགས་
བརྩམས་སྒྲུང་
རྒྱུན་ལས་ཨུ་ཡོན།
བརྐོ་
ཚང་ལ་
▁སྐམ་
▁སྲོག་
གཤམ་གྱི་
བཀའ་རྒྱ་
ལེན་གྱི་
དབུ་ཁྲིད་
མཛོད་དགེ་
རྒྱན་གྱི་
ནུབ་ཕྱོགས་
▁འགུལ་སྐྱོད་
ཕྱོགས་བསྒྲིགས་
ཞིབ།
ལོ་མ་
ནང་དུ།
མ་ཉམས་
▁གཞོན་
རང་གཤིས་
བརྩིས་ནས་
ཡིག་འབྲི་
སྟོབས་ཀྱི་
ཞིག་ཏུ་གྱུར་ཡོད།
རྣོ་
འཇགས།
▁ཁྱུང་
▁དཀོན་
བསླེབས་
པར་འགྱུར་
འགོག་ཟོན་
▁ཞེས་པའི་
འབྲེལ་གྱི་
▁འཇམ་དབྱངས་
རྒྱུ་ཡིན་ཟེར།
རྒྱུན་ལྡན་གྱི་
གཅུང་
ཐད་དུ་
བཏོད་པ།
བྱང་ཤར་
ཚོགས་དང་
ལ་བསྟོད་
སྒྲུབ་པར་
ཡི་གེ
ཚུན་གྱི་
▁ཚེ་མཁར་
དཀའ་སྡུག་
ལྟ་ན་སྡུག་
▁བརྗེ་རེས་
ང་ཧུའུ་ཉིང་
▁འཐུས་ཚོགས་
ཉན།
ཕེང་
▁བཅར་
▁དེ་ག་
ནད་ཕོག་
སྐུ་ཞབས་
རྣམས་ཀྱང་
ཀྱིས་ཁེངས་
▁བསྟན་འཛིན་
▁མཐུན་སྦྱོར་
རྫོང་མི་དམངས་
▁ཟམ་
བཞིན་པ
ཚོང་ར་
ཞིག་ནས་
མེད་ཅེས་
ལྟ་བུའོ།
སོགས་ལས་
དོན་གྲུབ།
མཚམས་ཀྱི་
དང་རྩྭ་ཐང་
▁ཉིན་དེའི་
པུའི་པུའུ་ཀྲང་
ཚེ་རིང་བཀྲ་ཤིས།
ཕྱུག
ཁྲའོ་
བཤུས་
གནམ་ས་
དཀྲིས་
དེ་རུ་
མེ་མདའ་
ཆེད་མངགས་
▁གོམ་སྟབས་
ལུང་།
འཇེབས་
མདུན་ལམ་
ལོ་གསུམ་
▁མཛོད་དགེ་
མ་ཡིག་
ཚགས་པར
སུ་བཅུག་
གཟིགས་ཞིབ་
འབྲིང་ཆུང་
▁སྲོག་ཆགས་
ཉིང་ལག་རུ་ཁག་
ཆ་ནས།
▁ཏང་ཨུ་
བུ་བཅོལ་
མཚོ་ནུབ་
ལུང་གིས་
▁ངོ་མཚར་
▁དྲ་ཐོག་
གནང་སྐབས་
གཏུག་བཤེར་
▁གསར་སྐྲུན་
ཕུལ་བྱུང་གི་
བདེ་ཆེན་གྱི་
▁སྤྲ
འཚེམ་
ཁྱབ་པ་
གཏོང་།
མཛད་ནས་
▁ལྟ་བུ་
གྱིས་མི་
མགྲོན་པོ་
ས་ཐོག་ཏུ་
བྲག་བརྐོས་
མཐོ་འབྲིང་
དུས།།
འགྱུར
▁ཞོགས་
ནང་བཅུག་
ལུས་སེམས་
▁འོས་འགན་
ཐམས་ཅད་མཁྱེན་
མཉམ་ལས་ཁང་གི་
འཐུས་ཚང་དུ་བཏང་
མིད་
འདས།
▁བསྐ
གོ་ཆོད་
ཞུས་པའི་
གྲོང་མིས་
▁ཤེས་ལྡན་
གཏོང་རྒྱུར་
བོད་རིགས་ཀྱི་
▁འགྲུལ་སྐྱེལ་
གླེང་།
མ་ཟིན་
ནས་ཐོན་
ཏང་ཙུའི་
ཚོགས་པར་
སྤེལ་ཏེ་
སྦྱར་ནས་
བཅོ་ལྔའི་
བརྗེད་པར་
བྱེད་དུས་
སྐོར་བྲོ་
ནང་ཞུགས་པའི་
རང་བཞིན་གྱིས་
མཁྲེགས་གཏོར་གྱི་
ལོ་ལྔའི་འཆར་གཞི་
▁ཇ
ཁའེ་
མྱང་
ེད་པ་
ཆད་པའི་
རྒན་གྲས་
རྒྱལ་བོ་
གྲབས་གསོག་
དངུལ་ཁང་གི་
ནད་པའི་ཁ་གྲངས་
ལས་རིགས་ཁག་གི་
ཡར་ཞུ་
▁སྤུན་
མྱོང་བ་
ཡིན་མིན་
ཏང་ཨུད་དང་
ལ་སླེབས་པའི་
སོང
བསྐྱོད་པ།
བྱེད་ཆོག་
▁བྱང་ཆུབ་
ཆེ་གེ་མོས་
སློབ་གྲྭས་
▁རྩ་ཁྲིམས་
སྣ་ཁ་
▁སྨི་
▁མཐུན་ཚོགས་
▁དབྱིན་ཇིའི་
ནི།།
སྨན་དོན་
▁དམག་མི་
▁དར་མདོ་
མཐོན་པོའི་
▁ཕྱོགས་ཁག་
▁མིག་སྔའི་བར་
ཀྱང་།།
འཁྱུར་
རྗེས་སུ།
ོལ་བ་
▁རིག་པ་
▁སྡེ་ཚན་
སེམས་དཔའ་
སྒྲ་གདངས་
རྟེན་གཞིར་
སྤེལ་ཞིང་།
འཚམས་འདྲིར་
བྱ་བར་རྟོག་ཞིབ་
ཱ།
སྒོ།
བྱང་།
འཁོན་
གནས་ལ་
བརྒྱ་ཆ་
ལུང་ཅང་
སེར་པོ་
ཚད་བརྒལ་
སྟངས་དང་
གཏོང་ཆེད།
སྲིད་ཀྱི་
དུ་གཏོང་བ་དང་
ཀྲིག་
གལ་ཆེ་
ཉིད་དུ་
འདི་དང་
བཞག་སྟེ་
རྫོང་ནས་
ཀྲུང་གུང་
▁བརྟན་པོ་
ཞིག་ཡིན་པས་
▁དཔྱད་རྩོམ་
ཁྱབ་གདལ་བཏང་
གསར་རྩོམ་གྱི་
▁བའི་
དགུ་པ་
བྱུགས་
དོན་ནི་
ཚང་བའི་
▁བཟོ་བ་
ངོས་གྲུ་
སྤྲིན་པ་
བོད་མིའི་
▁གཅིག་ནི་
འབྱུང་ཡུལ་
ཤེས་རིག་གི་
སུར་
སྲབ་
རྡེབ་
▁བལྟས་
ཆེ་མོར་
ཐོག་ཁང་
སེལ་བའི་
▁ད་གཟོད་
▁མངོན་པ་
རྗེས་མའི་
བསྐྲུན་ཡོད།
▁ཁྱབ་སྒྲོག་
སྐོར་གླེང་བ།
ཆབ་སྲིད་གྲོས་
▁དུས་མཚུངས་སུ་
འདི
ཐང་ལ་
བཟོ་བ་
ཚུན་དུ་
དཔལ་འབར་
སྒྲ་སྙན་
སྤྱད་དེ།
▁ཕྱི་རོལ་
▁དགོན་སྡེ་
རེ
ཟོལ་
གཏོད།
གང་ཡོད་
བུ་ཆུང་
སྲས་སུ་
▁ནང་སོག་
ཆོད་སེམས་
དུས་རྒྱུན་
རྒྱག་པ་དང་
ཉེ་འཁོར་གྱི་
རྩ་འཛུགས་དང་
་དང་
▁འབྲུ་
▁འཚོལ་
ཆེད་དུ།
ཆེན་དང་
ཡོ་བསྲང་
དེ་བས་མང་བ་
ལོ་རྒྱུས་ཐོག་
ཀྲུང་གོ་མི་དམངས་
▁ཉན་
སྐྱོར།
མི་ཐུབ།
འདི་ཡང་
སྟེང་ལ་
▁ཁོ་རང་
དགོས་ཏེ།
འགོ་གཙོ་
མཁའ་དབུགས་
མངའ་སྡེའི་
ཞུས་པ་དང་།
ཉེ་འགྲམ་གྱི་
▁ཞོར་
▁རྗེས
སློབ་མ
བཙུགས་ཏེ།
མདོ་སྔགས་
ཆོས་སྐྱོང་
འདེམས་བསྐོ་
སྲིད་ཇུས་དང་
སྨན་བཅོས་ཀྱི་
ུ།།
དབྱེར་
མ་དང་།
▁ཕྱུག་
བདེ་བར་
བང་མཛོད་
བཀའ་བསྟན་
མིག་ལམ་དུ་
སྒྲོལ་མའི་
▁མེ་སྐྱོན་
དེ་ནས་བཟུང་
▁བཅོས་སྐྱོང་
ེའུ།
ས་མིང་
ལམ་རིམ་
▁ཉེ་ལམ་
རྩེ་ཆུས་
▁ཁོ་མོས་
▁བཙན་པོ་
ཁེ་སྤོགས་
ཡུན་གྱིས་
ལས་དོན་ཁག་
▁ཚེ་མཁར་རྒྱལ
ཤུགས་ཆེན་པོས་
རིམ་པ་དང་པོའི་
བྱེད་སྒོར་ཞུགས་
▁ང
བཅག་
རེས།
▁རོ་
ལྗོངས
དང་བོ་
▁འདོན་
ཕྱིན་པ།
འཇུག་པ་
བྱེད་རིང་
མཛེས་ཤིང་
རྩེར་སོན་
སྡོད་དམངས་
མི་ཤེས་པའི་
ལས་འདས་པའི་
མཚོ་ལྷོ་ཁུལ་
▁ཞུ་དག
ཚད་མའི་
▁སྤྲོད་
ལོའི་བར་
▁མཚན་མོ་
▁ཡེ་ཤེས་
གྲོ་གླེང་
འདུག་ཅེས་
ཆེན་པོ་དང་
རྒྱལ་ཁབ་ལ་
ནན་ཏན་གྱིས་
▁གློག་རྡུལ་
▁ཞིབ་དཔྱོད་
ཆེན་པོ་ཐེབས་
རོན་
ཁྲུས་
རྙེད།
ཟ་བའི་
བཟང་གི་
ཡི་གེར་
▁མི་ཚེ་
གནང་དོན།
བསྒྱུར་བ་
▁རྨང་གཞིའི་
▁མཚམས་སྦྱོར་
ཤད་
▁གུ་
བྱོན།
▁ཐུག་
ཆགས་པ་
མི་སྣ།
ཟེར་ནས་
ཅིག་ཡིན།
བཅུ་པའི་
ཡིན་མོད།
རི་འཛེག་
རྩད་ཞིབ་
ཤིག་གིས་
ཨང་གྲངས་
ཡར་བརྩོན་
རྣམ་པ་དང་
▁ཚོང་དོན་
དང་ལག་ལེན་
▁འཕར་སྣོན་
རྒྱལ་ཁའི་ངང་
ཆོད།
དམས་
མུར་
▁ཚང་
▁བསྐྱ
བསྲེགས་
སྔོན་མ་
གནའ་དཔེ་
སོ་སོ་ནས་
བསྐྲུན་པར་
མི་ཐུབ་པའི་
▁ཀླུ་མོ་མཚོ
ཁང་གི་ཀྲུའུ་
མང་ཚོགས་ཚོས་
པྲ་
དགའ་བ་
▁སྤྲད་
བསྲིངས་
▁ནམ་ཡང་
ཞིག་དང་།
སྤོབས་པ་
ཧྲུའུ་ཅི
▁གསར་དུ་
འབྲིའི་
ལོ་ལྟར་
སྐོར་བ་
གཅོང་ནད་
བཅས་རེད།
ཤེས་ཐུབ།
▁དུད་ཚང་
གཞི་ཚུགས་
རེའུ་མིག་
ལོ་རྒྱུས།
སྒྲིག་ཨུད་
ཞིབ་འཇུག་པ་
།།བོད་ལྗོངས་
ཐེངས་དང་པོར་
པར་བླངས་པའི་
སྤྱི་གླིང་གི་
ས་ཆར་
སྤ་སེ་
ཉིན་མོར་
སྨར་ཁམས་
ཁྱད་ཆོས་ལྡན་
གཏོང་རྒྱུའི་
འཇང་
▁འདིས་
ཁྲག་ཤེད་
སྐད་རིགས་
ཆེན་པོ་ཡོད།
འགོ་ཚུགས་པ་དང་།
དེ།།
དྲྭ་
སེན་
▁མལ་
བློར་
སྐལ་བ་
▁ས་བབ་
རིང་ཚད་
ལས་འགལ་
དེ་སྔོན་
མི་བྱེད་
▁མདོ་དབུས་
ལམ་ཐག་
▁ལྷག་པ་
▁ཁོང་ཚོས་
ཕྱིར་འཚོང་
▁འཆམ་མཐུན་
མང་ཚོགས་དང་
▁ཁུལ་དམངས་ཆེན་
▁མཆན་
གཏིང་ཟ
དྲུག་པ།
ལས་གཞན་
▁མང་བོ་
མངའ་སྡེ་
དངུལ་ལོར་
རྒྱལ་སྲས་
▁ཉིན་རེར་
▁མི་རྣམས་
དངུལ་ཁང་གིས་
ཞིང་ལས་ཐོན་རྫས་
བ་ལྷ
ང་ཟིང་
པ་བཞིན་
ཚོགས་ར་
གཏམ་དཔེ་
དམིགས་ཏེ་
བློ་འདྲི་
▁ཟློས་གར་
▁བརྟག་ཞིབ་
བྱ་རྒྱུ་ཡིན།
▁འཛུགས་སྐྱོང་
བྱ་དགོས་པ་དང་།
རང་བཞིན་ལྡན་པའི་
གཞན།
རྐུ་
ཁང་པའི་
བྱས་པར།
བཅས་ཡོད།
ཡོད་དོ།།
དགོས་ངེས་ཀྱི་
སྣམ་
ལག་ཆ་
▁ཁྲིན་
ལ་བཀོད་
ལེན་པར་
གནས་ཡོད།
གསུངས་པའི་
བརྟན་འཇགས་
བཅས་བྱས་ནས་
ཟིན
སྤངས་
▁གྲང་
ཁྲའོ་ཞན་
འགྲེལ་པ་
▁དང་ལེན་
བསམ་བློ་བ
འཐུས་མིས་
འབུལ་བའི་
གྱི་ནུས་པ་
ཤིག་ཡིན་ལ།
▁རྒྱུ་ནོར་
▁དམིགས་ཡུལ་
ཆོས་ལུགས་ལས་དོན་
འགྲུབ།
འདྲ་པར་
▁བསྡུར་
▁སྨན་པ་
ཕྱིས་སུ་
▁ཁོང་ནི་
མགོ་སྐོར་
སྨན་རྩིས་
བཤད་སྒྲུབ་
▁རི་སྐྱེས་
▁ཁྱོན་ཡོངས་ནས་
བྱས་ཏེ
རེ་བའི་
ཨེ་ཅིབ་
▁སྐྲུན་
དང་ཡང་ན་
ཉེར་གཅིག་
དོན་འགྲུབ་
རྫོགས་པའི་
ཤྲ
▁ཆམ་
འཇར་པན་
▁ས་ཞིང་
ཐུབ་པ་རེད།
▁གྲོས་ཆོད་
ལ་རྡུང་རྡེག་
བླ་ན་མེད་པའི་
▁ལོ་ནས་ལོ་བར་
གནང་ཡོད་པ་རེད།
གྱི།
ནོན་
▁ཕཱ་
དུ་ཞུགས་
བཔའི་ཚེས
ཆུ་འགོའི་
▁ལྷག་བསམ་
བྱེད་པ་དེ་
ཐུབ་པ་མ་ཟད།
འཛུགས་པ་དང་
▁སི་རི་ཡཱའི་
▁རྒྱུན་འཁྱོངས་
མགྱོགས་མྱུར་ངང་
ཀྲེ་
གདན་ཞུས་
ཇེ་བརྟན་
ཐབས་མེད་
ཆིག་སྟོང་
ཡུལ་དངོས།
ཐུལ་
▁དེ་བ་
ཟམ་ཆེན་
རྟགས་ཀྱི་
▁གོ་སྐབས་
གློག་གཏོང་
སྦྱོར་གྱི་
མ་དེ་
▁ཚོར་
▁ཐང་ག་
▁བཟོས་
རིལ་བུ་
པའི་ནད་པ
སྡེ་དགུ་
པ་ཞིག་གི་
འཕུར་མདའ་
▁ཤུལ་བཞག་
▁འབོད་སྐུལ་
བཅས་ཡིན་པའི་
▁བཅིངས་འགྲོལ་
བྱེད་སྒོ་སྤེལ།
ཕྱོགས་གཉིས་ཀྱི་
མཛོ་
རོལ།
བསོད་
▁ཁྱི་
▁གཉིད་
གཏིང་ནས་
པར་བྱེད།
▁ཆུ་བེད་
མི་རྣམས་ལ་
གསོལ་འདེབས་
སྲིད་གཞུང་།
ཞེས་པའི་མིང་
ོས།།
▁ཞོ་
རྩོམ།
▁ལྡན་
ཆར་ཆུ་
▁ཁས་ལེན་
འདི་དག་ལ་
ཐེངས་གཉིས་
རྒྱུས་མངའ་
▁སྣེ་ཁྲིད་
བཞིན་ཡོད་པ་དང་།
ཉང་
ཞན་ཆ་
ཉིན་ལས་
ལུང་གི་
▁ལས་ཁུངས
བཞི་བརྒྱ་
འདོད་ཀྱི་
▁དེའི་ཁྲོད་
▁ཆབ་སྲིད་ཀྱི་
▁འི
སྒོང་
▁ལེན་
པོ་དེ་
སྒྲུབ།
ཁོ་བོས་
▁གཞི་རྩ་
ཡོངས་འཛིན་
དངོས་སྒྲུབ་
ཐེངས་གཉིས་པ།
ཀྲོའུ་གྲོང་ཁྱེར་
ས་ཚ
▁ཁྲ་
པ་ཡང་
གཡུར་དུ་
རྩེད་མོ་
▁དབང་པོ་
མེད་ཀྱིས་
རྒྱལ་དོན་
རྟ་མགྲིན་
སློབ་གཙོ་
བསྐོར་བའི་
▁མཁོ་འདོན་
སྔོན་གཤེགས་
བྱེད་དུ་བཅུག་
བྱུང་བའི་ནད་པ་
སྔར་ལས་ལྷག་པར་
ཚུལ་གྱིས་
འདྲི་རྩད་
རྨད་
འགན་ཁུར།
ཡིན་ནའང་
▁བར་སྣང་
▁རྒྱལ་བ་
དང་འདྲ་བའི་
འགན་འཁུར་བས་
ཡུལ་སྐོར་བས་
གཅིག་ལ
རོང་གི་
▁ཁོ་མོ་
ཡིན་ཞིང་
འདུ་ཤེས་དང་
བྱེད་པའི་ཐད་
▁རྒྱུ་མཚན་ནི་
གཙོ་བོར་བྱས་པའི་
དཔར།
ཟགས་
སོབ་
ད་ལོ་
རྟུལ་
ཁང་གིས
དུ་མར་
དང་མཚོ་
བཟའ་ཟླ་
དོན་ཐོག་ཏུ་
རྒྱག་པ་དང་།
སྤྱན་རས་གཟིགས་
ང་ཅན་
ཁྲིད་དེ་
སྨད་ཀྱི་
གཏོང་རྒྱུ།
གཞོན་པའམ་ཁུལ་
གླ་ཆ་
▁ཧུང་
ཡངས་པའི་
▁མཚོ་བྱང་
▁རིང་ལུགས་
རིན་པོ་ཆེས་
ལྒ
ལོག
བཤའ་
གཤེགས།
ཉེས་པ་
ཐོན་པ།
▁སྒེར་
▁སྨུག་
ཁ་སྣོན་
▁ལེ་ཚན་
ངལ་གསོའི་
དང་བཅས་པའི་
སྐབས་དང་པོ་
དང་གྲོང་ཁྱེར་
ལི།
ཀ་ནི་
བཀླགས་
འདྲ་བ་
ལོ་ཟླ་
▁སྡུག་
གྲོང་དུ་
མ་ལག་དང་
ལས་མང་བ་
ཤན་སྦྱར་
▁ཕྱི་ནང་
དངོས་མིན་
མི་འགྱུར་
རིང་མོའི་
སྔོན་མའི་
▁ཁོ་ཚོའི་
སྐབས་བཅུ་པའི་
▁ཁྱ
ཡ་མཚན་
གཉེར་བ།
ཐབས་ཀྱི་
ཐེངས་རེ་
སྦྲག་སྲིད་
དུས་སྐབས་སུ་
ོམ
▁འཕ
འཕྲི་
རྟེན།
བཟུང་།
མ་མཐའི་
▁འཕྲུལ་
མཇུག་བར་
▁ཐབས་ལམ་
▁ཐོ་འགོད་
▁ཀུན་སྤྱོད་
▁གྲོང་ཚོའི་
བཅུ་གསུམ་པའི
སློབ་ཆེན་དུ་
ནོམ་
བདག་ལ་
བསྡམས་
རག་ལས་
ལ་གྱི་
ཚ་རྫོང་
འདྲིའི་
ཁྲལ་དོན་
ཐེག་ཆེན་
▁ནམ་མཁའ་
ལྟ་བུ་ཞིག་
▁ཁུལ་དཔོན་
སྐུལ་འདེད་བཏང་།
ཤེས་ལྡན་མི་སྣའི་
ས་འོག་
མ་སོགས་
▁གྲོགས་
ཤིང་ཏོག་
གསར་རྙེད་
འགོད་པའི་
▁སྒྲོག་འགྲེལ་
ུའུ་ཁི་ལན་གྱི་
དར།
རྒན་པ་
ཟེར་ཞིང་།
གྱི་རྣམ་པ་
བཀྲག་མདངས་
སླེབས་པའི་
▁རིམ་བཞིན་
གླིང་སྒྲུང་
▁དཔེ་སྐྲུན་
སྐུལ་འདེད་གཏང་
སྲུང་སྐྱོང་ཁུལ་
ལེན
དྲིས།
སྐར་མ
སྤྱོད
དག་ཀྱང་
འདི་ལས་
ཁེ་ལས་དང་
བྱུང་རིམ་
འཁོད་པའི་
བསམ་གཞིགས་
▁རིགས་གཅིག་
▁ཞུགས
ཕྱག་ལས་
▁བཞི་པ།
བཟང་བོར་
མཛོད་ཁང་
དོན་གཅོད་
བསྡུ་རུབ་
▁ཆོག་མཆན་
▁སྡེ་བའི་
ཐུམ་འབུའི་
▁དམངས་སྲིད་
རྒྱུ་ཡིན་ཞིང་།
མཐོང་ཐུབ།
འབྲོག་ལས་
ཡིན་པ་མ་ཟད།
འབྲེལ་ཡོད་ཀྱི་
གལ་ཆེན་ཞིག་ཡིན།
ཚན།
རྩལ
སའེ་
▁ཧྭ་
ལྤགས་
ངང་གིས་
ཐག་བཅད།
བོད་མི་
བློ་རིག་
མིག་དམར་
ལ་ཕྱོགས་
▁ཡོད་ཚད་
ཅི་འདྲའི་
ལུས་པོའི་
▁དཔེ་ཀློག་
▁དྲུང་ཡིག་
▁ཁྲུང་ཁྲུང་
▁རྒུད་སྐྱོབ་
ཆོས
ས།།
སོ་བ
མྱུ་གུ་
ཉིན་ལྟར་
འབྲི་བའི་
དྲ་ཐོག་ནས་
གཞི་རིམ་དུ་
བྱམས་བརྩེའི་
▁གསར་བརྗེའི་
བད་
སྡེ
▁..
▁སུ
གྲུབ་པར་
▁ཉིན་མོ་
▁འཕགས་པ་
ཕྱི་དྲོར།
དྲག་སྐྱེད་
བྱེད་དུ་འཇུག་
བཅར་འདྲི་དང་ལེན་
ིལ
ང་ཆི་
དུ་བ་
ཕོ་ཉ་
ལ་བདག་
དཔའ་ངར་
▁ཡིག་ཆ་
ཡིབ་ཆུས་
▁ཆུ་ལོག་
དཀྱིལ་དུ་
▁མཛེས་ལྗོངས་
ཡའོ་
▁མཆིན་
▁འགུལ་
▁ཨ་རབ་
དང་བྲལ་
སྔ་དྲོར་
ལྷག་ཙམ་ལ་
གཞན་སྒྱུར་
ཆེད་ལས་ཀྱི་
བཅས་བྱས་ཏེ་
གཏུམ་
ནས་མ་
ལིའང་
▁ལོ་ཙ
གླུའི་
བཟོ་བ།
གྱི་ལས་
འགྲོ་བ།
ཐོ་བཀོད་
བཟང་བའི་
འབུར་ཐོན་
▁དུས་སྐབས་
བདུད་རྩིའི་
འབྲས་སྤུངས་
▁བཀོལ་སྤྱོད་
ཁེན་
གསན།
སྐབས
▁རུལ་
རལ་གྲི།
དཔལ་གྱི་
བསུ་བའི་
སྐས་རིམ་
གདོང་ལེན་
བསྐོ་གཞག་
▁ཏོག་གསར་གློ་ཚད་
བའི།
བརྙན
མོངས་
▁འགག་
▁ཡུག་
ཚད་ནི་
འགའ་ཤས་
▁དེང་གི་
དམིགས་ནས།
སྐུ་འབུམ་
▁ཡིག་སྒྱུར
ཉིན་རེ་བཞིན་
འདུ་ཤེས་ཟབ་ཏུ་
ལག་ལེན་མཐར་ཕྱིན་
ཚན
ནས་ཟླ་
▁གསོན་
ཁྱབ་པར་
▁ཛ་དྲག་
▁ཤང་ཀང་
ནན་སྟོན་
བཏབ་པའི་
དྲོད་ཁོལ་
བྱུང་ཚུལ་
▁ཕྱི་དྲོ་
གྲོས་འགོ་བ
ཕུན་སུམ་ཇེ་
ལས་བརྒལ་མི་རུང་།
དཔལ།
▁གསོ་
ཇེ་མང་
དགོས།།
མ་ཤེས་
འཁོར་བ་
རྫོང་ལ་
འཁྲུག་ཆ་
ཡིན་ནོ།།
ཅུན་གྱིས་
▁ཁྱོད་རང་
▁འགྱུར་བ་
▁རྒྱལ་ནང་
▁རྔ་བ་ཁུལ་
གབ་
▁ཁང་པ་
ནང་གསེས་
འཕྲལ་དུ་
དེང་སྐབས་
ལུང་བསྟན་
▁དེའི་ཕྱིར་
འེ།
སྡིངས་
དམག་ཁུལ་
དྲི་ཞིམ་
ཟབ་སྤེལ་
▁ཨེ་ཤ་ཡ་
དང་མཚུངས་
མཛད་ཅིང་།
▁བོད་ཁུལ་
སྲ་བརྟན་དང་
ཚལ།
རུ་ཁག
▁ཀྲོང་
གྲོང་ཚོ
ཚང་གིས་
གནའ་རབས་
ལྷོ་མའི་
ཁོང་ཚོའི་
▁ཡར་ཀླུང་
དབྱེ་འབྱེད་
ཡི
ཡོན།
མོའུ་
▁ཁ་ལོ་
▁ལྷུན་
ཨེ་ཤ་ཡ་
དོ་དམ་པ།
མིག་དཔེ་
རེད་འདུག
ལེ་སི་ཐན་
སྐྱིད་པོ་
▁ཡོང་སྒོ་
▁ལོ་རེའི་
▁བོད་སྐྱོར་
ལྷོ་ཁུལ་གྱི་
དོན་གྲུབ་ཀྱིས་
▁ཏཱ་
▁མན་
འཕྲེང་
འཕར་བའི་
ཀྱི་རིགས་
དམིགས་སུ་
འགོ་བསྐྱར་
བདམས་ཐོན་པ་
ཞེས་བྱ་བའི་
▁སྐབས་འདིའི་
▁དུས་ཡུན་རིང་
ཏང་གི་འཐུས་མི་
”(
རྨོས་
ཅག་གི་
ངལ་དུབ་
མན་གྱི་
▁དབུགས་
གནས་ཤིང་།
▁ཁྱེད་རང་
▁བཙུགས་པ་
དྲན་གསོའི་
འཐུང་ཆུའི་
འབྱེད་ཀྱི་
འབྲས་སྐྲན་
དང་ཞིབ་འཇུག་
སྲུང་སྐྱོབ་ཀྱི་
ཤུལ།
ཁ་ཟས་
▁གླང་
འཁྱུད་
ཚ་རླབས་
པར་བླངས།
མཉམ་འཇོག་
▁མིག་དམར་
བ་ཞིག་རེད།
རྣམ་དཔྱོད་
ཕྱོགས་སྟོན་
ཱ་ལེ་སི་ཐན་
▁ཕྱི་ཕྱོགས་
འགན་འཁུར་བའི་
དལ་བ
པས།།
མངས་
ཚེག་
▁ཐར་
རྔོན་
ུང་བ་
གཟིགས།
རྙིང་པ་
ལམ་དུམ་
ཁོ་མོའི་
ལུས་ཁམས་
འཛུགས་པར་
▁བདག་གིས་
▁འདི་ལྟར་
རྒྱལ་མཚམས་
རོགས་འདེགས་
འབོད་སྐུལ་བཏང་།
ུའི
སྣར་
▁གན་
འགོད།
འདྲ།།
བཞིན།།
བསླབས་
ཕྱི་རུ་
སྐེ་ནག་
སྣང་ཆེན་
གཞན་དག་ལ་
▁དཔལ་ལྡན་
དང་ཐོན་སྐྱེད་
ཧུ་
གསའ་
སྙི་
འདུར་
▁ཚོན་
▁ཧྲི་
དག་ལས་
ལྡན་བུ་
ལས་ཁུངས་ལ་
▁ཇི་
བརྗེས་
མི་ལོ་
ལག་པས་
གངས་དཀར་
མི་ཚོགས་
སྔར་གྱི་
དབྱངས་རྟ་
བརྡ་འཕྲིན་
རྒྱལ་སྲིད་
སྐྱིད་པའི་
ཤེས་རབ་ཀྱི་
▁དེར་བརྟེན།
བསྒྱུར་བཀོད་
རྒྱག་བཞིན་པ།
ཁྲིམས་འགལ་གྱི་
དང་རྣམ་པ་ཀུན་ཏུ་
▁རྣ་
ཡིག་དང་
་་་་་་་་
འཇུག་གི་
གསང་སྔགས་
སྲུང་འཛིན་
▁ལྗོངས་ཡོངས་
ཕྱོད་
དམ་པོ་
འདྲུད་
▁དགུང་
བདེ་བའི་
ཞིང་བྲན་
འགྲེལ་བ་
གདོང་ཐུག་
ཅུའུ་ཡིས་
དར་རྒྱས་ལ་
བྱེད་དགོས་ལ།
ཆུང
དཀའ།
▁ཐེམ་
འཁྱོངས།
ལེགས་པ་
གསང་བའི་
▁བོད་དུ་
བཟུང་སྟེ།
བསམ་གྲུབ་
ལྗོན་ཤིང་
▁བྱེ་བྲག་
རྒྱག་དགོས།
ལྡན་པ་ཞིག་
▁རིག་གཞུང་
ཞིང་ཆེན་དུ་
རྒྱ་ཆེན་པོ་
ཡོ་རོབ་གླིང་
དཔལ་འབྱོར་དང་
ཕུན་སུམ་ཚོགས་པ་
དེབ།
པོ།།
སྒལ་
ངོམས་
▁པའི་
ཁོ་མོ་
ཕ་མའི་
གོང་ནས་
བཞག་ཡོད།
མཁན་ཆེན་
ཡིད་འོང་
▁དེ་ཉིད་
▁བྱ་བའི་
སྦྱོང་གི་
ཡུས་ཧྲུའུ་
སྔ་ཉིན་ལས་
བར་གྱི་འབྲེལ་བ་
ལྟ།
▁བྷ
ནེའི་
དང་ཡང་
ལེ་ཞི་
▁ཐ་སྙད་
▁ས་སྐྱ་
རྟགས་ཅན་
སྙན་པའི་
ཤིང་འབྲས་
▁རྒྱ་གར་གྱི་
ཙག་
མགུལ་
ཡན་ཆད་
▁བཅོམ་
འདུ་ཁང་
པར་བྱེད་
ལྷང་ལྷང་
བསྟེན་ནས་
▁ནམ་རྒྱུན་
རྒུན་འབྲུམ་
པའམ།
གང་ནས་
གྲོངས་
དེ་སྔ་
མི་མེད་
གཅིག་ཉིན་
སྡེ་ཚོགས་
བརྗོད་ཡོད།
སྦྱངས་འབྲས་
▁གྲུ་གཟིངས་
ལུང་བདེ་ཆེན་
ཟའི་
▁ལོག་
རྫུན་མ་
ཡོད་པ་ལས་
རྒྱུན་པར་
ལུང་རྫོང་
▁གཏམ་བཤད་
སྒྲོལ་དཀར་
སྐྱིད་སྡུག་
དང་རྒྱུ་ནོར་
བསྐྱར་དར་གྱི་
ཁང་བ་
འགྲིག
བརྒྱད།
ཆེན་པོ།
ཚན་གྱི་
གནོད་མེད་
གསར་རྙིང་
གྲངས་ཆུང་
དོན་གྱིས་
སྲུང་བའི་
▁འགན་ཁུར་
སྐྱེས་ཆེན་
སྟེགས་བུའི་
མཇུག་བསྒྲིལ་
བཅོས་སྐྱོང་གི་
ང་ནི་
བསྡད།
པ་སངས་
གང་གིས་
རྩོད་པ་
བསྒྲེངས་
▁གཅིག་ནས་
འདྲེན་པའི་
▁མེས་རྒྱལ་
ཞར་
སྒོ
གཟིམ་
ཐོག་ལ་
བཀྲུས་
རྐང་པ་
ལྟོགས་
དུས་སུ།
▁སྒྱུར་
ཉམས་ཉེན་
སྣང་བའི་
▁བཀོད་པ་
▁མཉམ་དུ་
མངགས་བཅོལ་
ཁོར་ཡུག་དང་
མ་དངུལ་གཏོང་
▁ཀྱ
▁།དེ་
▁བབས་
ཕྲ་མོ་
སྐར་ཆ་
དགོས་ན་
དམ་ཆོས་
མེ་ཤུགས་
▁བྱམས་པ་
བའམ་ཡང་ན་
མགོ་འཛིན་
▁ཀོང་ཏུང་
▁དམ་འཛིན་
ཀྱི་རྣམ་པ་
མུ་མཐུད་ནས་
▁།ཞེས་གསུངས་
▁རྒྱལ་ཁབ་ཀྱིས་
སྒྲུག་
དོ་མཉམ་
རིང་པོ་
མཁར་རྫོང་
རྒྱས་བཤད་
▁ཡིག་ཚགས་
དགོས་པ་རེད།
ས་ཁུལ་གྱིས་
ཁྱད་ལྡན་ཐོན་ལས་
▁བོད་ལྗོངས་ཀྱིས་
ནན།
གཙང་སྦྲ
མང་བོར་
མཛེས་པ་
བཟུང་ཡོད།
མགོ་ཚུགས་
སྐྱེད་ཚལ་
དང་ཕན་ཚུན་
▁ཐེངས་འདིར་
རྒན།
ལུན་
ལྟག་
ཁ་བྲལ་
བཅུ་བའི་
བྱ་བྱེད་
པ་ཡིན་ནོ།
ཆེད་སྤྱོད་
བྱེད་དགོས་པ་
ཉེན་རྟོག་པའི་
ཁྱི
▁བལ་
སྙེད་
དོགས་པ་
▁མཚོན་ཆ་
འགས་གཏོར་
ལན་འདེབས་
ཞིག་ཡིན་པར་
ཉུང་མི་རུང་།
བརྒྱུད་སྤྲོད་
ཧྭ།
▁ཞའོ་
ལྷག་མ་
བཏང་བས་
ལ་ཞུགས།
ཁྱད་ཆོས།
རྔུལ་ཆུ་
▁གངས་རི་
▁ཞིང་སྡེ་
གཏམ་རྒྱུད།
བྱ་བ་སྒྲུབ་
བཀོལ
རྟགས
ཤ་མོ་
སྲིབ་
སྲོད་
བསྟེན།
གར་སོང་
ལོག་ནས་
གཞུང་དུ་
རྒྱ་སྐད་
▁པེ་ཅིན།
▁བཟང་པོ་
རྒྱུ་འབྲས་
ལ་གྲོས་ཞིབ་
པར་བྱེད་པའི་
▁མཚོ་སྔོན་པོའི་
ཆུས
▁ཆག་
ཅི་ལ་
▁ཀརྨ་
▁ཏུང་
གླུ་བ་
བཙོངས་
གསར་གྱི་
བརྒྱབ་པ།
བསྒྲུབས།
ནས་ལོ་ངོ་
ཞབས་དྲུང་
སོང་བ་དང་
▁སུའུ་ཏན་
ལོ་བརྒྱའི་
རྒྱ་ཡིག་གི་
འགྲོ་བཞིན་ཡོད།
▁རྩ
▁དང་།
▁སྐབས
ནད་དང་
ཞན་པའི་
ལུག་གི་
ས་ཚུགས་
▁ཚུགས་པ
▁ཨུ་ཡོན
ཀྱང་ཡིན།
བློ་གསལ་
▁དྲུག་པ་
▁རིམ་ཁག་
ཉིན་དེའི་
▁བཀག་སྡོམ་
▁བཅར་འདྲི་
སྟབས་བདེའི་
▁དབྱི་སི་ལན་
འཛུགས་སྐྱོང་ལ་
▁ཁྲེང་ཀོན་ཆུས་
བྷོ་
རྟའུ་
བསུ་བ་
བྱང་གི་
གནས་ཡུལ་
བཏོད་ཡོད།
མ་ཐག་པའི་
ལན་ཀྲོའུ་
▁ནུས་ལྡན་
▁ནུས་ཁུངས་
གནམ་གྲུ་ཐང་
▁འདྲེན་བཀོལ
བ་དང་དོ་དམ་པ།
བོད་ཀྱི་གསོ་རིག་
ཁ་ན་
པིང་
▁ལཱ་
དག་པ་
ནེའུ་
མཐོངས་
▁བཞི་པ་
དམར་དམག་
རྒྱལ་དར་
ངོ་བོ་ཉིད་
ཕྱུགས་ཟོག་
ད་ཐེངས་ཀྱི་
དངོས་གཞིའི་
མང་མི་རུང་།
བྱེད་དགོས་ཟེར།
ཨང
པེན་
དགའི་
ཟམ་པ་
རྐུན་
ག་ཚོད་
ང་ཏུང་
ད་ལོར་
ཁྲིད་ནས་
▁མེ་ཟོན་
▁ལྟ་ཀློག
ཡིད་སེམས་
ཟིན་པ་རེད།
▁དངོས་ཟོག་
བསྟན་པ་རེད།
ལྗོངས་སྐོར་
ཡུལ
སྒྲོས་
བྱས་ཆོག
གཉིས་ཕན་
ལྷུན་པོ་
▁དཔྱད་གཏམ
བྱེད་ཀྱིན་ཡོད།
▁ཟླཔའི་ཚེསཉིན་
▁ཀུ་
ཁུའི་
ཤང་དུ་
དྲོད་ཁང་
ཞིག་སྟེ།
རྒྱུན་རྣམ་
ཧྲིལ་བོའི་
མི་རེའི་ཆ་སྙོམས་
ངམ།
ཅར་
དཀར་ཆག
ནས་བར་
མ་ཡུམ་
▁བསིལ་
▁རྡུང་
▁དཔེ་ཆ་
▁ཚོང་ར་
▁ཞིང་པ་
ཏི་ཨ་རབ་
ལྟེ་གནས།
སྐལ་ལྡན་
▁བཟོས་པ་
ཐེངས་རེར་
བྲི་རོགས།
རོང་རྫོང་
▁ཉུང་མཐའ་
▁དངོས་པོ་
▁བོད་སྨན་
སྡེ་ཁག་དང་
ས་ཁོངས་ཀྱི་
▁དམངས་འཐུས་
ནུས་པ་ཆེ་རུ་
རིམ་བྱོན་གྱི་
སྐབས་དགུ་པའི་
མ་དངུལ་སྒོར་ཁྲི
མང་བས་
གོ་བདེ་
དོན་དང་
འགའ་རེ་
▁མཐོ་བ་
འདུས་ཚད་
▁བསྡུས་པ་
▁ལོ་འཁོར་
▁སྤེལ་དུས
བྱེད་རོགས་
▁སྤེལ་མཁན།
གཞི་འཛིན་ས་
རྒྱུགས་ལེན་
▁པར་འདི་ནི་
དུས་སྐབས་ཀྱི་
▁ལོ
ཏང་ལ་
▁གཉན་
▁སྨད་
དབྱིས་
འཁྱོག་
བསྐྱངས།
མཚན་ཐོ།
ལ་གཅེས་
དྲི་མེད་
ཤང་གྲོང་
ངོ་སྤྲོད།
སྐྱིན་ཚབ་
སྡེ་དགེའི་
▁དཔྱད་གཏམ་སྤེལ་
ཙིར་
གནས་དང་
གྲོས་ཁང་
འཕྲོ་བའི་
ཡིག་འབྲི།
རྐྱེན་པས་
བྱས་ཡོད་པ་
ཞིག་ཡོད་པ་
འཁྱགས་རོམ་
▁བྲིས་ཟིན་
▁བཤེར་གྲངས་
▁བཤེར་གྲངས།
ཁ་སྐོང་བྱོས།
▁ཞིང་ཆེན་ཏང་
▁ལེགས་སྒྲིག་
རྩོམ་སྒྲིག་པ།
▁གཟེངས་བསྟོད་
འཛུགས་སྐྱོང་གི་
སློབ་གྲྭ་ཆེན་མོ་
ཡང
ཧམ་
▁ཨ་ཕ
འཁོལ་
སྒྲས་
ནོར་གནག་
སོགས་ནི་
ཨོ་རྒྱན་
▁ཁོང་ཚོ་
ད་ལྟའི་བར་
མང་པོ་ཞིག་གི་
གསུམ་ལས་ཉུང་བ་
ཚོགས་འདུའི་སྟེང་
ཕིག་
སྲན་
ཁུའུ་
གཉོར་
བསྡུར།
མཚོ་མོ་
▁དབང་ཆ་
ལྟ་ཀློག་
▁གངས་ཅན་
▁བརྩེ་བ་
ཁྲི་སྟོང་
གདང་སྦྲེལ་
དགོང་ཚོགས་
བཅའ་ཁྲིམས་དང་
ཞེས་པའི་ཐ་སྙད་
ཁམས།
ཁ་རས་
གཅེན་
སྦོམ་
▁གྱིས
▁བཏོན
ཀྱང་མི་
ཡིད་བཞིན་
ལོའི་ཟླ་བ་
ལྟ་བུ་དང་།
▁གྲངས་གཞི་
▁རྒྱུན་ཆད་
▁ཡིག་གཟུགས་
...
བཞི་པ།
ཀྱི་ལས་
དཀར་པོ།
དྭངས་གཙང་
ཡུལ་མིའི་
▁ལོ་ལྔའི་
གལ་ཆེ་བའི་
སླར་གསོའི་
སླེབས་སྐབས་
▁ཚོགས་ཞུགས་
ཕྱོགས་བསྡོམས་
བྱ་འགུལ་སྤེལ་
བཀོད་སྒྲིག་དང་
ད་ནི་
ཡིས།།
ཐག་ཉེ་
▁ཆུ་བོ་
▁ཟླབའི་
ུབ་འགོག་
▁ཚུགས་པ་
དམག་མིའི་
བརྒལ་བའི་
མང་པོ་ཡོད།
ལངས་ཕྱོགས་
ལས་ཁུངས་ནས་
སློབ་མ་ཚོས་
གྱི་ཙུང་ཐུང་
མིང་རྟགས་བཀོད་
མང་དག་
མི་ཡི་
▁འགོད་
▁ཁྲི་ཀ་
▁སྟོབས་
ཡོང་མཁན་
▁ཕལ་ཆེར་
▁དང་བླངས་
ཁ་ཤས་ཀྱིས་
ནས་མི་རབས་
འདུམ་འགྲིག་
▁སྤྱི་དམངས་
▁པྲ
དྲན།
▁གད་
གྲྭས་
བཞིའི
ཁོ་ནས་
ནད་པར་
ཁོ་ཚོར་
ནས་ཀྱི་
▁འགྲེམ་
བཟང་པོས་
མི་དགོས།
གནོད་ཐེབས་
སྒྲོག་སྤེལ་
མི་དགོས་པའི་
▁གེགས་
རྩེ་མོ་
སྙེ་མོ་
བཤད་དོན།
ཁ་པར་གྱི་
མདུན་གྲལ་
བརྗོད་བྱའི་
གདུག་
▁བརྩི་
▁མཆོག་
▁ཞིང་བ་
ཅང་སུའུ་
མང་བོའི་
འདམ་རའི་
ཇེ་ཟབ་ཏུ་
མདུན་གྱི་
▁ས་མཐོའི་
▁ཧྲན་ཏུང་
ཞེས་པ་དང་།
འཕྲུལ་གྱི་
▁རྩོམ་ཁུངས
རྣམ་གྲངས་ལ་
▁སློབ་འབྲིང་
ངྒ
▁འབ
ཚོད།
འོས།
བཀག་ཉར་
▁མིན་པ་
▁འབྲོང་
གཤམ་གསལ་
འཛུགས་པ།
བྱ་གཞག་ལ་
ཡོང་བ་དང་།
ཚན་ཆུང་གིས་
སའི་གོ་ལའི་
བྱ་སྤྱོད་སྤེལ་
མྱངས་
▁གཅན་
ཆུང་མ་
▁བདམས་
▁ཉི་ཤུ་
ཁམ་བུའི་
▁དཀའ་ཁག་
སུམ་ཅུའི་
▁དགའ་བསུ་
བ་ཞིག་ཡིན།
སྐབས་གཉིས་པའི་
()()
ཚ་ཚ་
འགས་
བྱེའུ་
རྨ་ཆུ་
རྩེ་གྲ་
ལུས་པའི་
▁ཐེབས་པ་
▁མི་ཆོས་
མཐུན་གྱི་
རེར་སྒོར་
▁ཤར་གཏོང་
བྱུང་རྗེས་
ལ་དགའ་ཞེན་
བསང་ཆུ་རྫོང་
ངུར་
▁ཇོ་
▁ཁུར་
▁སྐྲ་
ཞི་བས་
▁འཇོལ་
▁ལོ་ནས་
ཉིན་བཞིན་
ཕོ་བྲང་གི་
བྱང་ཕྱོགས་
འགྲོ་བ་དང་
ས་ཚིགས་སུ་
▁དགུན་དུས་
▁སྤེལ་དུས།
▁འགྲེམ་སྤེལ་
གླུ།
ཁྲོན།
ཨ་མས་
གྲོང་རྡལ
དང་རྫོང་
མདོ་ཁམས་
རྣམ་དབྱེ་
▁ལྷོ་ནུབ་
ཕུན་སུམ་ཚོགས་སུ་
ཉི་མས་
བཟློག་
ལ་ཐུག་
གནས་དེར་
ངོས་ཟིན་
དུག་རྫས་
བསྡུས་ཏེ་
བཞུགས་སོ།།
བསམ་ཕྱོགས་
ལ་གཞིགས་ན།
དགོན་སྡེའི་
ནས་རྒྱུས་ལོན་
▁དགེ་རྒན་གྱིས་
རྣམ་པའི་ཐོག་ནས་
)(
གྲག་
མོ།།
གྲོལ།
བཟོས།
འཁྲུ་
ཆས་ཀྱི་
བསམ་ཡས་
གསུམ་པོ་
ཡན་གྱིས་
བཙུགས་ནས།
ལྟད་མོ་བ་
བསྒྲུབས་ནས་
▁དམངས་སྲོལ་
▁རྒྱལ་གཅེས་
བྱ་རྒྱུ་ཡིན་པ།
▁དེའི་རྗེས་སུ་
ཞིབ་འཇུག་ཁང་གི་
སྤྱི་ཚོགས་ཀྱིས་
ྱ་
བདེ།
བྱེས་
▁ཧྲེན་
བསྡད་དེ་
ཁྱད་འཕགས་
གྲོང་སྡོད་
ཞིབ་བསྡུར་
གཏོང་སྤྲོད་
འགྲོ་རྒྱུར་
ནི་འཛམ་གླིང་
ཚོགས་འདུར་ཞུགས།
ཕོག
▁ཐོབ
མཆོད།
▁ཆིང་
▁པའོ་
གཞན་པ་
ཞྭ་མོ་
▁ཐོབ་པ
ཨ་མྱེས་
དྲངས་ནས་
བྱས་ཆོག་
བྱུང་ནས།
རྒྱལ་པོ།
རྒྱུ་མེད།
▁མི་སྒེར་
ཆུང་དུས་ནས་
དང་མཐུན་པར་
▁མཁའ་འགྲུལ་
གྲུབ་འབྲས་ལ་
ཆེན་མོའི་ནང་
▁ཧང་
བོགས་
▁ལོ་བ
ཆེན་པོ
▁འོ་ན་
ཡོད་ཚེ་
རྐང་ཐང་
ཕན་ཚུན་ལ་
རྩིས་སྤྲོད་
བྷེ་
རྗེས
▁མ་གཞི་
གནས་སྤོར་
ཚོང་རྟགས་
བརྗིད་ཉམས་
▁ཞལ་འདེབས་
གར།
བསམ་ཟ
▁གཙུག་
▁བླངས་
ཏང་སྲིད་
བཤད་སྲོལ་
མཁའ་དབྱིངས་
གྲོང་ཁྱེར་ལ་
ལ་ཁ་གཏད་གཅོག་
ཕང་
ཕི་
འདའ་
▁མཁྲ
དཔེར་ན་
▁གོང་དུ་
▁མཐུན་པ་
▁ཞོགས་པ་
ཁྲུའུ་ཡི་
ཀྲུང་ལུགས་
▁ཉམས་མྱོང་
དང་མི་མཐུན་
ཅེར་
བུ་དང་
འགྲེང་
▁མང་བ་
ཕུང་པོ་
གནང་སྟེ།
གནས་སྟངས་
ས་ཁུལ་ནས་
▁ཉེ་སྔོན་
གྲོས་ཚོགས་ཐོག་
བཞི་ལ་
▁སྣ་མང་
གྱུར་ཅིག
▁དཔའ་བོ་
དཔྱད་ཡིག་
ལས་སྒོའི་
▁ཉམས་ཉེན་
ཚོགས་ཞུགས་
སྒྲིག་བཤེར་
ནང་ཞུགས་མཁན་
གྱར་
ལྷ་ཡི་
སྒྲོན་མ
གཉེན་ཉེ་
ཆོས་སྡེ་
ཟིན་གྱི་
གྲུབ་ཚུལ་
རྒྱལ་ཁམས་
སློབ་སྟོན་
བྱ་སྤྱོད་ལ་
▁གསོ་སྐྱོང་
གནད་དོན་གྱི་
ཐུན་མིན་གྱི་
ལ་སླེབས་ཡོད།
ིངས།
▁ཀླད་
མཐོ་བ་
ོར་ཏན་
རི་པིན་
གཏོང་དང་
སྐད་བརྡ་
ུན་ཁྲོན་
▁བརྗོད་བྱ་
▁མཐར་ཕྱིན་
མཇུག་རྫོགས་
འབྱོར་ཕྱུག་
རྒྱལ་ཁབ་ཏུ་
ལ་བརྩི་འཇོག་
▁སྨྱན་སྦྱོར་
གྲོང་ཁྱེར་ནས་
ེ་རུ་
▁པར་འད
མུ་འབྲེལ་
ཞི་བདེའི་
འབུམ་གྱིས་
ཨེ་ཤེ་ཡའི་
▁བསྐྱར་འཛུགས་
བྱེད་པ་བཅས་ཀྱི་
ཀ་ར་
ཞེས།
ཤམ་བྷ་
▁འབུལ་
▁སྔར་བ་
ངོགས་སུ་
▁ཞང་ཞུང་
ཀྱིན་ཡོད།
ཚོང་འདུས་
ཞི་བདེ་དང་
▁ཁྲིམས་ཁང་
ཡང་།།
སྣའི་
ཉམས་པ་
▁རྙིང་
ཡོང་གི་
▁སྐྱབས་
ཏུན་ཁྲི་
དབང་གིས།
ལྟ་བ་དང་
▁ལས་ཀའི་
▁དཔལ་ཡོན་
▁པར་འདེབ།
བསྒྱུར་ནས་
བྱས་ནས་ལོ་
སྐྲུན་པའི་
▁རྒྱུན་དུ་
དེའི་ནང་དུ་
རང་ངོས་ཀྱི་
སྐད་ཡིག་གི་
ལ་ཤུགས་བསྣན་
དགོས་མཁོ་སྐོང་
ཁྲོམ་ར་ལྟ་འདོམས་
བས།།
རོ།།
ཤེར་
དཔངས་
བླུན་
ཟླུམ་
ག་འདྲ་
ཇི་ཙམ་
སྒྲ་དང་
གཅིག་ནི་
གསལ་སྟོན་
པ་དེ་རེད།
ལྐོག་རྔན་
སྤྱི་རྒྱ་
ཨུ་རུ་སུ་
▁ནད་རྟགས་
བཞིན་མཆིས།
བརྗོད་གཞི་
ཡིག་ཚགས་དང་
▁ཉེན་རྟོག་པ་
དུས་མཚུངས་སུ་
འབྲིང་ཆུང་གི་
གཙོ།
ཅོན་
▁ཁི་
རྔུབ་
▁གསོལ་
བསྡེབས་
▁རྨ་ཆུ་
ཚིག་དོན་
ལྟ་རྟོག་
ཨུ་རུ་སི་
གཙོ་བོ་དང་
སྐོར་གཡེང་
དཔུང་སྡེའི་
▁སྒྲིག་ཁྲིམས་
▁སྲིད་གཞུང་གི་
ག།
ཆད།
རྒད་
ལི་ཧ
ཞུ་བ་
ལྟ་བ།
▁ཁྲོ་
▁འདུག་
▁རྩེད་
ནད་པའི་
བྱས་ཚེ།
འབྱུང་།
རྦད་དེ་
▁དྲི་བ་
གསོ་བའི་
དང་པོ་དང་
▁དཔོན་པོ་
འཐབ་འཁྲུག་
ལྷོ་ཕྱོགས་
སྔ་གཞུག་ཏུ་
▁ཁྲེང་ཏུའུ་
སྲུང་སྐྱོང་།
▁མུ་མཐུད་དུ་
དགའ་བསུ་ཆེན་པོ་
▁མཚོ་སྔོན་གྱིས་
འཛིན
ཨའེ་
▁ཕྱེ་
ཇུས་གཞི
མདོ་ཙམ་
སྤྲད་པ།
ཐེན་ཅིན་
དཀྱུས་མ་
བར་སྟོང་
འམ་ཡང་ན་
ཁྲུང་ཆིང་
དུས་གསུམ་
བྱུང་ཞིང་
མིང་བཏགས་
ད་ལྟའི་བར་དུ་
རྒྱབ་སྐྱོར་དང་
བཞད།
རེར།
གཉོམ་
▁ཀུའེ་
▁ལག་པ་
▁ཕན་ཅི་
▁ཕྱི་དྲ
མ་མྱོང་།
རི་ཀླུང་
སྙན་ངག་པ་
▁ཡར་སྐུལ་
ཁྱད་པར་དུ་
ལྡན་པ་དང་།
མྱུར་བགྲོད་ལ
▁འགྱུར་ལྡོག་
ནངས་
རྩེ།
▁ཚུད་
▁ལྟ་བ་
མིང་ཚིག་
ལས་རོགས་
གྲོས་རིམ་
རྔ་བ་ཁུལ་
▁རྨ་ཆུའི་
▁འགྲན་སྡུར་
ལམ་བུའི་ཐོག་
རིགས་རང་སྐྱོང་
▁དེའི་ཁྲོད་དུ་
རབ།
མུའུ
མདུད་
ལྡེབ་
སུའུ།
▁ཆོད་
བཏུངས་
མ་དཔེ་
ཞིང་པ་
▁སྐྱེལ་
ཁག་བགོས་
སྦྲང་ཆར་
ཕྱིན་པའི་
འདུལ་བའི་
▁ཚབས་ཆེན་
གཏོར་བཤིག་
▁ཁྲོན་བོད་
འཇར་མན་གྱི་
▁མགྱོགས་མྱུར་
ལ་ལ
དར་ལ
འབུམ
འཆིང་
འཕྱོ་
▁དུར་
དགེ་བ་
ཤང་དང་
ལི་ཡིས་
བཙོག་ཆུ་
གནང་སྐབས།
མཐོན་པོས་
ཡོང་བ་དང་
▁མདོ་སྨད་
གཏན་ནས་མི་
▁རྐྱེན་ལམ་དུ་
ཕྱོགས་ཡོངས་ཀྱི་
དགུན་དུས་ཨོ་རྩལ་
བརྒ
དང་ནང་
འདི་ན་
ཆང་གིས་
དུས་ཚོད
ཆེ་ཞིང་།
བོད་ཡུལ་
▁ཐམས་ཅད་
▁དྲག་པོ་
▁རྒྱུ་ཆ་
གྲོང་ཚོས་
བཟོས་ཡོད།
བྱས་འབྲས་
▁དར་རྒྱས་
▁གྲོས་ཞིབ་
དགུ་པའི་ཀྲུང་ཨུ་
བོད་ཀྱི་ཤེས་རིག་
སྲི་
སུ་བ་
▁ཐེར་
▁ཚུན་
ལོ་དང་
ཕྲ་ཕུང་
▁ཁེ་ཕན་
བཟོས་ཏེ་
སྙན་ཞུར་
གདན་ཞུའི་
ཤུགས་ཆེར་
ཁྱད་པར་ཅན་
▁སྤེལ་རེས་
གྱི་ལས་དོན་
ལོ་ནས་བཟུང་
དང་འགན་འཁྲི་
གསར་པ་ཞིག་ཏུ་
བྱུང་ཡོད་པ་རེད།
ཁུལ་དཔོན་གཞོན་པ་
གསར།
ཏུ་མ་
འབུས་
▁གཡོ་
དམན་པ་
བདེན་པ་
རིག་གི་
བརྗོད་ན་
མཁའ་འགྲོ་
གསལ་འགྲེལ་
དམངས་གཉེར་
ཅན་དུ་འགྱུར་
ཁོངས་སུ་གཏོགས་
ལ་ནི་
ཡི་ནང་
▁ཁ་ཤས་
ཁྱེར་ནས་
ཕར་ཕྱིན་
ཡངས་ཤིང་
ཡོང་ཆེད་
▁སྔོ་ཚལ་
སྐར་གྲངས་
སྒོ་ཕྱུགས་
▁སེམས་ཁམས་
ཧྲུའུ་ཅི་དང་།
ལག་ཤེས་བཟོ་རྩལ་
དབོན་
བྱིན།
རང་རང་
ཐུབ་ནས་
དག་བཅོས་
ཞོགས་པའི་
▁རྒྱ་བོད་
སྡེབ་སྦྱོར་
▁བྱེད་ཤུགས་
གཉིས་ཀྱི་སྲས་སུ་
གྲོས་ཚོགས་བསྡུས།
ཚུལ
ཕུབ་
གཡོས་
ང་ཅུན་
མིང་བརྡ་
▁ཏང་ཨུད་
ཡུལ་དེའི་
ལོ་རྒྱུས་ལ་
ཅུན།
མིག་ལ་
▁བྱིན་
ཁྲག་གི་
གཞན་ལས་
བཟང་ངན་
སྒོ་མང་
ཀྱིས་མི་
གདམས་ངག་
ལས་ཁུངས།
བྱེད་ཆེད་
སྟོད་སྨད་
ཡུལ་གཞན་དུ་
▁སྐབས་དེའི་
▁རོགས་སྐྱོབ་
གལ་ཆེན་ཞིག་ཏུ་
མཛད་སྒོའི་ཐོག་
སྒོར་ཁྲི་ལྷག་ཙམ་
ཚོར།
སྐོར
ཨ་མདོ་
དྲི་བར་
མངོན་པ་
འོག་ནས་
རི་ཁྲོད་
ཤུགས་དང་
གཅོད་པའི་
འགྲོ་སོང་
ལུགས་སྲོལ་
▁ཐུག་འཕྲད་
ལས་བྱེད་པར་
རྒྱུན་ལས་ཨུ་ཡོན་
ཀི
ཙེར་
དྲེག་
▁དྲུག
▁ཤིས་
ང་དབྱི་
སྐུ་ཚེ་
▁དཀྱིལ་
ཉེན་ཁའི་
རླུང་བུ་
ལས་འགུལ་
སྒྲུབ་པ།
▁རྒྱལ་ཁ་
▁མི་འབོར་
བྱས་པ་དེས་
▁མགོ་ཁྲིད་
དམངས་སྤྱོད་
བཏོན་པ་རེད།
མཐོ་སྒང་དུ་
▁ནུབ་རྒྱུད་
སྤྱི་ཚོགས་ལ་
མཐའ་འཁོར་གྱི་
རྒྱལ་མཚན་གྱི་
མཉམ་འབྲེལ་ཐོག་
གལ་ཆེན་ཞིག་རེད།
ཁོའོ་
གྲྭ་བ་
མཛད་པས་
ྭ་ཕྲུག་
འུར་འུར་
རྨས་ཕོག་
ལས་འཛོལ་
ཀུན་འདུས་
མ་འོངས་པར་
སྐུ་འཁྲུངས།
▁འཐབ་ཕྱོགས་
དུས་ཡུན་ཉིན་
འཆར་འགོད་དང་
▁གཞུང་སྒྲུབ་
▁གཞི་རིམ་གྱི་
ཡུལ་སྐོར་ཐོན་ལས་
མདོ།
ཤོས།
ལི་ཐང་
ས་ཁམས་
ཟུར་དུ་
འཇའ་ཚོན་
རྟགས་མའི་
སྐྱོང་གི་
ཉི་ཤུ་བའི་
དཔྱད་གླེང་
འདི་དག་ནི་
བྱ་དགའ་ཐོབ།
ཡོངས་འགྲུབ་
དང་སྐྱེ་ཁམས་
ཕྱི་རོལ་གྱི་
▁འདེབས་འཛུགས་
ཚད་ཡོད་ཀུང་སིས་
ཁད་
ར་མ་
ཆེམས་
རི་ལ་
ལྡོང་
སུའེ་
▁ཡོམ་
བཅུ་པ་
འཁྲུད་
གནད་དུ་
བཏོན་པ།
ས་མཚམས་
གཞོན་པར་
གསར་ཤོས་
བར་བྱེད།
བསམ་ཟོལ་
སྔོན་ནས་
མདའ་རྫོང་
སོགས་ཡོད།
▁ཁེར་རྐྱང་
▁གནས་སྐབས་
▁གུང་གཞོན་
▁བགྲོ་གླེང་
▁ལྷོ་ཕྱོགས་
▁རིག་གནས་ཀྱི་
▁འག
དམས།
ཡིང་
ཐ་དད་
དབུ་མ་
ཞིང་ས་
ཁྲལ་བསྡ
གཞན་ཡང་
མང་ཉུང་
མི་རྟག་
ལ་འཇུག་
▁ཇེ་ཆེ་
འཇལ་བའི་
ཉི་ཤུ་རྩ་
པ་ཡིན་པས་
▁མཁས་དབང་
འགྲོ་བ་དང་།
▁འགྲན་ཚོགས་
འཆལ་
པི་ཡ་
ཟླབའི་
ཅིན་ཐའོ་
ཆད་པ་བཅད་
མཆེད་པའི་
ཟབ་སྦྱོང་
ལེགས་སྦྱར་
མཁས་ཅན་གྱིས་
འདེམ་བསྐོའི་
ལས་དོན་རུ་ཁག་
ཞི་བདེ་རྒྱ་མཚོ་
▁ཚབ་
▁འགལ་
▁ཀུའུ་
བ་ལྷུབ་
དྲིན་ལན་
ལྷད་མེད་
▁རང་དབང་
གུང་གཞོན་
གྲུ་བཞི་མ
མཐོ་ཚད་ལ་
རེ་བ་བཏོན།
▁ཀུན་མཁྱེན་
ཁོད་
བཅས།
ཉི་མ།
ཟང་ཟིང་
▁འགྲུལ་
འཇམ་པའི་
རང་ཚུགས་
སོང་སྟེ་
སྦྲ་གུར་
གསར་བ་དང་
དམིགས་ཏེ།
དུས་སྟོན་
ལྷན་ཚོགས་
ཚོ་ཆུང་གི་
སྟངས་སྟབས་
གང་བྱུང་དུ་
ལ་དབྱེ་ཞིབ་
▁ཀྲུའུ་རེན་
▁བྱང་ཕྱོགས་
▁དེ་ནས་བཟུང་
མེས་རྒྱལ་གྱི་
དྲིལ་བསྒྲགས་དང་
འགྲེམ་སྤེལ་བྱས།
.....
▁འཛམ་
བར་ནས་
▁ཆད་པ་
▁རྩ་བ་
དང་ཐོག་
ནད་ཐོག་
འཆར་ཟིན
མཉེན་ཆས་
ཡུལ་ལུང་
ཀུན་སློང་
ཡང་དག་པར་
▁ཐེབས་རྩ་
ཕྱོགས་བཞི་
▁གཞི་རྩའི་
བཞིན་ཡོད་པ་
ཡིད་དབང་བཀུག་
▁འབྱོར་འབྲིང་
དབྱི་སི་རལ་གྱི་
ལས་རྣམ་པར་རྒྱལ་
བཅུར་
ཁང་ནང་
▁གདོད་
ཁུར་ནས་
ཐོན་ནས་
ཐོབ་ནས་
ཕན་ཡོན་
ཡིན་ནམ་
སྤྲེའུ་
ངོས་ལེན་
ཡོད་མཁན་
རྟོགས་པ་
འགོག་སྨན་
▁སྙིང་སྟོབས་
ཆང་།
ཟ་བ་
རིབ་
▁ཉལ་
▁པྲོག་
པི་ཡའི་
ཁུ་བྱུག་
▁སྲིད་པ་
▁ཉེ་སྔོན།
སློབ་ཞུགས་
བྱེ་བྲག་གི་
བོད་བཙན་པོའི་
འགྲོ་བཞིན་པའི་
བཀོད་སྒྲིག་བྱས།
ཁྱད་ལྡན་ཐོན་རྫས་
བརྐྱ
འགའ།
ཨེ་ཤ་
ལེན་པ།
▁འགྲམ་
ཁུར་པོ་
འཁོར་ནས་
སོགས་མི་
སོགས་དང་།
▁ཞེས་དང་།
ཁོངས་མིའི་
▁བཟའ་བཏུང་
གཞོན་པ་དང་།
ཤེས་དཔལ་གྱི་
རྒྱལ་ཁབ་གཉིས་
བསྲིང་
ལྷ་མོ།
ཉུང་ཙམ་
བྱས་ཐོག
དཔྱ་ཁྲལ་
མུའུ་ཁྲི
ས་ཁུལ་ལ་
སོགས་ནས་
ཁ་ཤས་ཀྱི་
མཆོད་པའི་
གཏན་འབེབས།
གསར་བཞེངས་
ཆེད་དམིགས་
དྲུག་བརྒྱ་
རིགས་དབྱེ་
▁རྒྱལ་དབང་
མེད་པར་བཟོ་
བླང་བྱ་བཏོན།
▁གསལ་བསྒྲགས་
དིང་
བའོ།
▁སྤོ་
དོ་དམ།
འདབ་མ་
གང་བོར་
ལ་གོ་བ་
ལས་གྲུབ་
་རན་སེའི་
འགན་བཞེས།
ཤོག་དྲིལ་
ི་ལི་ཕིན་
སྤེལ་བ་དང་
▁འགོག་སྲུང་
དུ་བཅའ་སྡོད་
▁རང་རྒྱལ་གྱིས་
བྱེད་བཞིན་ཡོད་ལ།
་ལ་
ཙམ།
ཞགས་
གཅོད།
སྟོངས་
ལ་བརྩེ་
སྣང་དང་
གང་མདུན་
ཅིག་རེད།
ནག་པོའི་
སྡེ་སྲིད་
སློབ་ཆེན།
▁ཉིན་གྱི་
▁རེབ་གོང་
མེད་པ་ཞིག་
▁ངེད་དྲ་བ།
བསམ་འཆར་དང་
མལ་གྲོ་གུང་
ལ་བརྩི་སྲུང་
བྱས་ཡོད་ཅིང་།
བཀྲ་ཤིས་འཁྱིལ་
ལྷན་ཚོགས་ཀྱིས་
དབང་པོ་སྐྱོན་ཅན་
མོ་བ་
ལ་བསྐ
▁ཚོས་
བྱང་ཐང་
སྣང་གི་
དཔེ་ཚོགས་
▁འཕྲུལ་ཆས་
ལྗོངས་རྒྱུ་
▁ཤུགས་རྐྱེན་
ལ་གོ་
གལ་ཆེ།
ལྟེ་བ་
དར་ཞིང་
ཧྭ་ཡིས་
ཆེ་མོ་བ་
དགོང་མོ་
ཤེས་གསལ་
དྲག་པོའི་
ན་ཡོད་པའི་
སྒྱུར་གྱི་
འཕེལ་ཕྱོགས་
མི་དམངས་ཤོག་
ོམས
ནུན་
ཉིའུ་
བསུང་
མཐིང་
མིན་པ་
▁འདུལ་
རྒྱན་ཆ་
ཤར་གྱི་
▁སྐྱོན་
པར་འདོད་
བཀོལ་ནས་
བྱས་ཚུལ་
རིགས་དང་།
གསང་སྤྱོད་
གལ་ཆེན་གྱི་
▁མི་རྣམས་ཀྱིས་
སྣོན།
གནས་སྤ
ཕལ་མོ་
བྱིངས་
འགྱེལ་
བཟང་པོ།
ཁེ་ལས་ལ་
བསྟོད་པ་
སྐྱ་རེངས་
མགྱོགས་པོ་
▁གླིང་ཕྲན་
▁བོད་ཀྱིས་
བྱས་ཡོད་པའི་
བྱེད་རྒྱུ་ནི་
དུས་རབས་གསར་པར་
ཆབ་སྲིད་ཅུའུ་ཡི་
ངོ་།།
བྲིད་
འཐུལ་
▁སངས་
ཚབ་ཏུ་
སྨྲེང་
ཨ་རིས་
▁འདྲ་བ་
ཚར་རྗེས་
འཆི་མེད་
གུས་འདུད་
གཏོང་དགོས་
གཤགས་བཅོས་
ཧྲུའུ་ཅིའི་
▁བརྩོན་ལེན་
བྱས་ཡོད་ཅེས་
ཚོགས་ཆེན་ཐོག་
འབུམ་རམས་པའི་
ཅུད
བསམ།
ཁྲའི་
གཅུན་
རྨིན་
བལྟོས་
ཨ་ཕའི་
▁རྡུལ་
ཁང་གིས།
མ་འགོར་
སྒྱོགས་
▁འདི་ལ་
ཕྱི་དྲོ་
མ་ཡིན་པ་
ཡང་སྲིད་
▁ཡོན་ཏན་
ཆོས་གྲགས་
མ་ཡིན་ནམ།
ལྷུང་བའི་
གཅིག་སེམས་
▁སྟབས་བདེ་
ཕྱོགས་ཡོངས་
▁སྤྱི་མཐུན་
དམངས་ཡོངས་ཀྱི་
▁བར
བཏུས
རོའི་
ཞུགས།།
ཟེར་ན།
བདུན་པ།
བུ་ལོན་
དགེ་ཐོན་
▁ནད་གཞི་
ཕྲུ་གུའི་
འཛོམས་ནས་
གང་ཞིག་ཡིན་
▁དཔོན་རིགས་
མང་པོ་ཞིག་ལ་
▁སྤྱི་ལོལོར་
གསུང་བཤད་གནང་།
ཤང་དང་གྲོང་རྡལ་
ུངས
ན་ཡོད།
པང་དུ་
ཆུ་མིག་
དགོན་པ།
བསྡད་ནས་
▁ནད་དུག་
▁གསུམ་ནས་
▁དགེ་སློབ་
ཕྱིན་པ་དང་།
མ་མྱོང་བའི་
གནོད་འཚེ་ཕོག་
▁ཚོད་
བ་ལྟར་
▁ལྷ་ས།
སྔ་དྲོ།
བཅངས་ནས་
ཨ་མདོའི་
ཀྲོའུ་ཡི་
མཆན་བཀོད་
མཉམ་འགུལ་
ཤིང་འཛུགས་
▁དངུལ་བུན་
▁དོགས་ཡོད་
གེ་སར་སྒྲུང་
ཐུབ་པའི་འགན་ལེན་
རཱ་
▁ལན།
ཆོག་ལ།
པ་ལྟར།
▁གྱོན་
ཉེར་ལྔ་
▁གལ་ཆེ་
སྣེ་གདོང་
བྱས་པ་ཞིག་
▁འགན་བཅོལ་
ཐོག་བརྩེགས་
འགོ་ཁྲིད་པ་
▁དཀོན་མཆོག་
བཀྲ་ཤིས་ཀྱིས་
ངོ་ཚ་
མདོ་ལ་
ལ་བཀག་
▁འཇུག་
▁དེ་བས།
ཆགས་སྡང་
▁འདི་དག་
ཁོར་ཡུག་ལ་
ལུས་རྩལ་པ་
དགེ་རྒན་དང་
བཙུགས་ཤིང་།
འཐུས་མི་དང་
འཛིན་པ་དང་།
འཛིན་སྐྱོང་
▁ལེགས་གྲུབ་
སློབ་གླིང་དུ་
གཞུང་ལས་ཁང་གིས་
སྐུ།
▁སའི་
དབྱུག་
བྱིའུ་
▁འགའི་
བླ་མེད་
▁འཕྲོད་
ཉེན་ཟོན་
▁བླ་བྲང་
པ་ལ་སོགས་
བདའ་འདེད་
མཛོད་ཀྱི་
རྩོད་གླེང་
པ་ཡིན་ཞིང་།
ཡུལ་དངོས་ནས་
བོད་མི་རིགས་ཀྱི་
ཡི།།
ཁྲེལ་
འབྲས།
▁གུས་
▁གཡོན་
▁བསྟུན་
ཆེ་བ་ནི་
འབའ་ཞིག་
གྱུར་བའི་
འདུས་ཡོད།
སྐབས་འདིར་
▁དམངས་དོན་
▁མང་ཚོགས་ལ་
གང་མདུན་སྤོས་
འཚོ་བའི་ཁྲོད་
▁དོན
ལ་དང་
▁བུམ་
ཁྱིམ་ཚང
ཐུབ་པས་
ཚད་རིམ་
ཞུགས་པ།
ལྷ་རིས་
བྱེད་པོ་
མཐོ་ཞིང་
སེར་ཤུལ་
ཤིང་སྡོང་
སྐྱེ་ལྡན་
པེ་ཅིན་དུ་
བགྲེས་སོང་
འཁྲབ་གཞུང་
འདི་འདྲའི་
འཛིན་པ་དང་
རྩྭ་ཐང་དུ་
ལ་དབང་བའི་
སྟོབས་ཆེན་
▁དྲ་རྒྱའི་
▁སྐུ་ཕྲེང་
ལ་གྲོས་འཆམ་
སྤྱི་ལོལོར་
གདན་དྲངས་ནས་
སི་ཁྲོན་གྱི་
བསྐྲུན་པ་དང་།
ཟུང་འབྲེལ་གྱི་
▁གོ་ལ་ཧྲིལ་པོའི་
གང་དང་
ཆེ་བས།
ཁོག་གི་
མི་ལུས་
རྒན་པོ་
གླང་ཆེན་
ཐེངས་ཤིག་
གཉིས་པ་དང་
ཟི་ལིང་དུ་
།།ཀྲུང་གོའི་
ཞུ་རྒྱུ་ཡིན།
ས་གནས་ཁག་གི་
▁མཐོ་སྒང་གི་
ནུབ་རྒྱུད་ཀྱི་
ཨུ་ཡོན་ལྷན་ཁང་།
▁པར་ཐེངས་གཉིས་པ།
རྟོགས།
ལ་བཙན་
གོང་དཀར་
ཏང་འཛུགས་
ཟེར་བ་དེ་
▁ཁྱེད་ནི་
གནས་འཕྲིན་
བསྒྲགས་པའི་
བཀྲ་ཤིས་པའི་
▁སློབ་གྲོགས་
དུས་ཆེན་སྐབས་
མངའ་རིས་ས་ཁུལ་
ཞིས་ཅིན་ཕིང་གིས་
ལ་བཙ
▁།ཅེས་
གཤམ་དུ་
ཆོས་དང་
གཙོས་པའི་
གཟུགས་པོ་
ཉིང་ཁྲིའི་
སྤྲིན་གྱི་
▁སྡོད་དམངས་
▁འདེམས་བསྐོ་
ཀེན་
ནེ་ཙ
འཚབ་
▁འཚོ་
གྲ་ནང་
▁རྫོགས་
དྲུང་ཆེ་
▁ས་གཤིས་
བརྡ་རྟགས་
▁བོད་ལུགས་
དམ་འཛིན་ཡག་པོ་
ཐབས་ལ་བརྟེན་ནས་
འོ
བི་
མང་བ།
▁པོད་
ཧེ་བག་
དཀར་ནག་
གཙང་མའི་
ཆུ་གློག་
ནས་བསྡད་
སྦྱིན་པ་
སློབ་བུ་
▁ཡུལ་མི་
ཟིན་ཞིང་།
སྡེ་བ་དང་
▁རྒན་གསོ་
བྱ་དགོས་ལ།
ཞིང་ཕྱུགས་
ཧར་
▁ནི
བྲལ།
ཟ་ཁང་
▁ལ་ལས་
མ་ཆད་པར་
▁བྱེད་ས་
གཏོང་མཁན་
བསྡུས་ཏེ།
ལ་བསྒྱུར་
▁གཉིས་ནི་
ཚིག་སྦྱོར་
ཕྱོགས་གཅིག་ཏུ་
ཆུ
▁བཞི
སྐྱོབ།
འདི་ལོ་
ཁྱིམ་མི་
སྙིང་བོ་
འོད་ཀྱིས་
▁ཅང་སུའུ་
ཚངས་དབྱངས་
འདུག་ཅིང་།
ཧི་མ་ལ་ཡའི་
▁རྒྱ་མཚོའི་
མི་མངོན་པའི་
ཚོགས་འདུ་དང་
སེམས་བསྐྱེད་
▁གཞུང་ལས་ཁང་
▁གུང་ཁྲན་ཏང་
འགོ་ཁྲིད་ཀྱིས་
སྣག་
བདུན།
འདི།།
པ་ནོན་
འཛུགས།
སྦྲགས།
▁ཏུའུ་
ངང་ཚུལ་
ཀོང་ཏུང་
དྲང་གཞག་
ཡིག་མཁན་
▁མཚོ་ཤར་
སྟོང་གིས་
▁གཞུང་ཚབ་
ཟི་ལིང་ནས་
▁འདོན་སྤྲོད་
བྱ་སྤྱོད་ཀྱི་
དང་མཐུན་སྦྱོར་
རྟེན་འབྲེལ་ཞུས།
རྒྱུན་འཁྱོངས་དང་
ཐོས།
བེམ་
ལ་བརྡ
ཤེ་ཡ་
ན་གྱི་
རུ་ཆེན་
ལོ་བཅུ་
སྐད་དུ།
▁ཨ་མའི་
▁ལོ་རེར་
གཉིས་དང་།
དགོས་མཁོར་
▁གཞི་གྲངས་
▁བཅུ་གཅིག་
ཆེས་མཐོ་བའི་
འགོ་ཁྲིད་དང་
ཁང་གི་ཚང་འཛོམས་
འགོག
▁ཀོ་
ལ་ཆུ་
སྐྱོད།
སྣེའི་
པུ་ཡཱའི་
མེད་མོད།
ཞིང་དུད་
རྟེན་དུ་
དབང་གྲགས་
བྱེད་ཅིང་
བྱེད་ཚུལ་
ནུས་པ་ཐོན་
▁ཤར་ཕྱོགས་
གསར་གཏོད་དང་
སོགས་ཀྱི་ཐད་
སྐོར་རགས་ཙམ་
ེ་རི་ཁ་གླིང་
རྫོང་རིམ་པའི་
མཐུན་སྒྲིལ་དང་
མི་རིགས་ལས་དོན་
ལྒང་
སྨག་
པ་ཙམ་
བཏགས།
ཤུགས།
སྣུར་
མ་ཡིན།
སྦྱར་བ་
གཅིག་ལས་
དུ་ཕེབས་
མཚན་གྱི་
ཡུལ་ཁམས་
▁བཅོ་ལྔ་
དཔོན་གྱི་
སྤྱོད་ལམ་
▁ཁྱབ་གདལ་
▁མགོན་པོ་
ཐེངས་གསུམ་
བོད་རང་གི་
ཚེ་ལས་འདས་
གཉེར་བ་རེད།
དང་ཀྲུང་གོ་
▁ནུབ་ཕྱོགས་
ཐབས་མེད་པའི་
▁སྲོལ་རྒྱུན་གྱི་
▁རྭ་
▁ཧཱ་
ཧ་ལས་
བམ་པོ་
ལུང་པ་
▁ཀྲོའུ་
བདེ་ཞིང་
ཞིག་གསོ་
ཉེན་འགོག་
ཐུབ་ཅིང་།
པེ་ཅིན་ནས་
▁གཞ
ཁྲི།
སླ་བ་
འོ་མའི་
ཤས་རིང་
ཁོང་ཁྲོ་
བྱ་དངོས་
བྱ་རིགས་
སྤྱིར་ན་
འདེམ་ཤོག་
▁བྱེད་ཚད་
▁རོགས་རམ་
དཔྱད་གཞིར་
ཡིད་ཆེས་དང་
▁དེའི་རྗེས་
▁རྫས་འགྱུར་
ནན་བཤད་གནང་བ།
▁ཞིས་ཅིན་ཕིང་
བྲ་
གུམ་
བཙས་
▁ཆི་
འཁྱམ་
སྐུལ།
རྩྭའི་
ནང་སོག་
དོགས་ཅན་
བོད་པའི་
གྱོན་གོས་
པ་དེ་ཡིན།
མགྲིན་ཚབ་
འཇམ་མགོན་
གསུངས་ཡོད།
རླུང་འཚུབ་
ལྷུག་རྩོམ་
▁དགེ་བཤེས་
གསོ་རིག་གི་
▁གཏམ་རྒྱུད་
▁ལོ་ནས་བཟུང་
བྱེད་འགོ་ཚུགས་
▁བྱེད་སྒོ་སྤེལ་
ལྦ
འམ།
ཁེངས།
ཐ་ལི་
ལྡན་ལ་
▁མི་ལ་
▁རྒྱས་
པཱ་ནུན་
ལྗར་པན་
▁མྱ་ངན་
གཟན་རྩྭ་
དགོས་པས་
ཡོན་ཀྲང་
ནང་རྐྱེན་
ཡིད་སྨོན་
▁དམངས་ཕན་
ཁག་གཅིག་ལ་
ཏང་ཡོན་གྱི་
སྒོ་དབྱེའི་
▁ཆེས་མཐོའི་
▁འབྲི་ཆུའི་
ུའུ་དབྱིང་ཅེས་
ཀྲོ
▁ལིག་
གང་ལའང་
ཉར་བའི་
བསྐྱོན་
ཡང་ཡིན།
རབ་གསལ་
▁ཕོག་པ་
དཔའ་རིས་
མཆོག་ཏུ་
མཉམ་གནས་
བྱས་པ་དེ་
སྙིང་གཏམ་
གང་མང་ཞིག་
ཚན་རིག་ཁང་
▁དགོས་མཁོ་
ངོ་མཚར་བའི་
དང་བོད་སྨན་
ཐོག་གནས་ཚུལ་
བཅུ་བཞི་པའི་
ལ་རྒྱུས་ལོན་
འཛད་སྤྱོད་པའི་
བྲོ།
སྡུག
འཕུལ་
ཁོ་ནའི་
དར་དམར་
ཚན་པ་དང་
ལྷུ་ཚིགས་
▁རྒྱ་ཡིག་
གཙོ་སྒྲིག་
སྤྱི་ལོའི་
ཀྱི་གནས་ཚུལ་
▁འབྲེལ་གཏུག་
▁ཕཱ་ཁི་སི་ཐན་
གཅིག་སྡུད་ཐོག་
)《
རྒྱས
བཟོ་བ
སྒྲོན
གས་ནས་
འདམ་ར་
གཡུ་ཡི་
གཤིས་ཀ་
ཅི་ལྟར་
གཏང་དགོས།
ཆུ་རྒྱུན་
བརྒྱད་དང་
རྩོད་པའི་
སུམ་རྟགས་
འདྲེས་པའི་
ཉེ་འགྲམ་དུ་
བཙུགས་པ་དང་
ཁྱོན་ཡོངས་ལ་
བྱེད་པའི་བྱ་བ་
ཞིག།
བྱེད་པ
ཡོ་ཆས་
རྫ་ཆས་
ཤིན་ཧྭ་
▁དེ་སྔ་
ངེས་པའི་
▁ལམ་ཐིག་
ཁ་ལོ་བའི་
དབུ་ཚོགས་
སྟངས་ཀྱི་
▁དུས་རིམ་
དཔོན་རིགས་
མང་བོ་ཞིག་
དང་ཁོར་ཡུག་
མཆོང་སྐྱོད་
འཁྲུངས་པའི་
འཛུགས་གཏོད་
▁མཆོད་རྟེན་
ཚོགས་འདུའི་ཐོག
▁གོར་
ཁུལ་ལ་
པདྨའི་
མེད་ན།
ལ་རྒྱ་
▁ལོངས་
དགྲ་ལྷ་
མེད་པར།
ཤང་གིས་
▁དབང་བོ་
▁སྡོད་པ་
▁སྒྲུབ་པ་
གྲོང་བརྡལ་
ཚེ་རིང་གི་
▁བྱང་ཆིངས་
▁ད་ལོའི་ཟླ་
སྣ་ཚོགས་ཀྱིས་
ཕུལ་དུ་བྱུང་བའི་
ཇག་
འཛུ
དཔེ།
བཟོ།
སྔོན
བསྲུང་
▁གོམས་
གདུལ་བྱ་
▁སྐུལ་མ་
གསུང་ཐུགས་
སྲོག་ཆགས་དང་
གྲོས་འགོ་བཏོན་
དགོས་ཞེས་བསྟན།
བའི་མི་
སྤོ་བོ་
▁བརྒྱུད
བརྙན་རིས་
བོད་ཀྱིས་
བྲེལ་འཚུབ་
ནན་ཞིང་ཆེན་
▁བྱེད་སྒོའི་
འཚོས་
འོངས།
ལ་བསླ
གཡུགས་
བསྐྱབས་
ཞིབ་མོ་
སྦྱངས་པ་
གཙང་བོའི་
གྱོན་པའི་
དུད་ཁྱིམ་
བརྟན་པའི་
མེད་ཀྱང་།
འདོད་བློ་
སྦྱར་བའི་
མཆོད་འབུལ་
རིམས་ནད་ལ་
▁འཕེལ་རིམ་
ལ་དམིགས་ཏེ་
རྩོམ་སྒྲིག་པ་
བཅུ།
མདུང་
དེ་རང་
ངལ་ནུས་
འགྲིམས་
སྙིང་སྟ
ཆུས་ཀྱི་
ཕིང་གིས་
མི་གཅིག་
དཔང་རྟགས་
དོ་སྙོམས་
བརྡ་རྙིང་
ཧྲིལ་བོར་
ཨར་སྐྲུན་
▁ཀླུ་འབུམ་
▁བཤད་རྒྱུར
ང་ཧུའུ་ཉིང་།
▁བརྒྱུད་རིམ་
ལས་རིགས་ཀྱིས་
ནོར་སྲིད་ཀྱིས་
གཞི་གྲངས་གསར་པ་
ཉེ།
ཨིན་
ཁྲི་ཀ་
▁བརླན་
སྡེ་མི་
སྲིད་གཙང་
▁དེ་སྔོན་
▁ལེགས་པོ་
འདུས་སྡོད་
ཀྱི་ནང་དོན་
ཁྲིམས་འཛུགས་
གྱི་ཆེད་དོན་
▁གྲོང་ཁྱེར་གྱི་
དཔེ་སྐྲུན་ཁང་ནས་
ས་བབ་མཐོ་ཚད་སྨི་
ཏིན་
ཕངས་
རློམ་
ནུས་པ།
ལ་བློ་
▁བཤམས་
▁མངགས་
▁ཞི་བ་
▁སྒྱུ་
ཕྲན་བུ་
བཞི་པར་
▁ནན་བཤད་
གཞུང་དྲང་
དབུལ་བྲལ་
▁དར་སྤེལ་
གལ་ཆེན་དང་
▁བྱས་རྗེས་
མཛེས་ལྗོངས།
སྤུས་ཚད་དང་
ཆེན་པོ་བྱུང་
དགོས་པ་མ་ཟད།
བའི་མཛད་སྒོ་
མཐའ་འཁོར་དུ་
རྒྱང་བསྒྲགས་
འགན་བཅོལ་གྱི་
སྡེ་ཚན་ཁག་གིས་
འཐབ་ཇུས་ལག་བསྟར་
▁འང་
ནེ་པ་
▁སོང་བ་
བཅས་དང་།
འཐུས་མི།
▁ཇེ་མཐོ་
དང་བར་ཐག་
གཏོར་སྐྱོན་
གནད་དོན་ཐད་
ནས་ཡིན་པའི་
དྭངས་གཙང་གི་
བསྐྱར་འཛུགས་
ཚོས
བགྱི་
ུན་ཅ་
བར་མི་
ཕུལ་ནས་
ལ་ཕེབས་
▁ཚན་ཁག་
གནད་ཁེལ་
ཐོན་འབབ་
▁ནགས་ལས་
▁གཏན་འཇགས་
སློབ་གྲྭ་ཆུང་
▁ཕོ་བྲང་པོ་ཏ་
རིམ་པ་གཉིས་པའི་
ཨ་སྒོར་དུང་ཕྱུར་
སྦལ་
▁ཞྭ་
ལྷུར་
▁ཚངས་
ག་ཀྱོག་
མ་མཆིས་
ཡང་ཡོད།
རེ་རེས་
སྨན་པས་
གསུམ་ནས་
བཙན་གྱི་
འདས་པའི་
གྲོང་རྡལ།
དང་འགྲོགས་
པར་བསྐྲུན་
གཏན་འཁེལ་གྱི་
▁ཁྱོན་བསྡོམས་
རྫུ་
བྱིལ་
འབེབ་
འབེལ་
རྐུབ་
པོ་ནས་
ཕྱིན་པ་
ལྡན་པས་
ངེས་ཤེས་
ཞག་སྡོད་
▁གློ་ཚད་
▁སྟོན་པ་
ཐུབ་རྒྱུར་
ཟོག་འདྲེན་
རྒྱལ་མོའི་
སྒྲ་དབྱངས་
འགྲོ་སྐྱོད་
ནད་དུག་འགོས་
འཕར་ཡོད་པ་རེད།
ལམ་ལུགས་ལག་བསྟར་
ལྟ་བ
སྒྲ།
དངངས་
བརྡ་ཐོ
ུའུ་ཅན་
▁དྲན་པ་
ཀུན་བཟང་
ཉེན་མེད་
མཐོང་གི་
▁དྲ་རྒྱ་
གྱིན་ཡོད།
དགྲ་འདུལ་
འདུ་འཛོམས་
ལས་བྱུང་བ་
▁དོན་གྲུབ་
▁རྒན་རྒོན་
▁སྐྱོན་ཅན་
▁གཅིག་བསྡུས་
ཆེ་རུ་གཏོང་བ།
ལས་རིགས་ལག་རྩལ་
ཚན་རིག་ཞིབ་འཇུག་
ཁ་ལ་
བརྔ་
ལུས།
འདེད།
འཕྲང་
▁ཟོག་
ཧྲུའེ་
▁འཇོན་
པ་རེད།།
འདི་ཡི་
བཀས་བཅད་
མེད་ཅིང་
རེ་གཉིས་
▁སྤེལ་མཁན
ཨང་གཉིས་པ་
▁བཅུ་གཉིས་
གལ་ཆེན་ཞིག་
▁སྒྲུང་གཏམ་
ལ་བརྟེན་པའི་
ས་ཡོམ་རིམ་པ་
སློབ་གྲྭ་དང་
ཕུན་སུམ་ཚོགས་པོ་
ཧྲུའུ་ཅི་གཞོན་པ་
མ་ཐག
ཏུའོ་
ཕྱུང་
རུའེ་
ུ་རུ་
▁སུའེ་
མཁན་ནི་
རོལ་མོ་
ཤོག་བུ་
ཆེན་གངས་
ཐམས་ཅད་ལ་
དབུས་ཀྱི་
▁འཐུས་ཚང་
པར་འགྲེམས་
ང་ཅུན་ཀྲེང་
དེ་ལྟར་བཤད།
བཅུ་གཅིག་པ་
▁ཡིག་སྒྱུར།
རྟོགས་བརྗོད་
དབུས་ཕྱོགས་ཀྱི་
▁ཕབ་
▁ཤོར
ཅ་ལག་
དཔྱད།
ཅི་རི་
གདམས་པ་
ཅུས་དང་
ལྷ་མོས་
▁བགྲོད་
▁མི་དང་
ཆགས་ཀྱི་
བྱ་བ་དང་
རི་རྫོང་
▁གཞིས་ཀ་
པ་ཡིན་ཏེ།
བདེ་སྡུག་
འཚོལ་སྡུད་
▁ཚོང་གཉེར་
བརྒྱུད་ཀྱི་
ལེགས་སྒྱུར་
སོགས་འབྲེལ་ཡོད་
ནང
▁ཞ་
ལེང་
བརྐུས་
ལུང་དང་
ུ་ཀ་ནི་
▁གོང་མ་
བླ་སྲོག་
འདང་ངེས་
▁དོ་སྣང་
▁བདུན་པ་
དགོང་མོར།
པ་ཡིན་པས།
▁ཡིན་ན་ཡང་
དང་ལྡན་པའི་
བྱེད་པ་ཡིན།
▁ཚགས་པར་ཁང་
▁ཕ་ཁི་སི་ཐན་
ཚན་རིག་ལག་རྩལ་
ཁང་གི་རྒྱུན་ལས་
ཀན་སུའུ་མི་རིགས་
མཚོ་བོད་ས་མཐོའི་
ཀྭ་
▁ཁམ་
▁ཞག་
གླུ་མ་
བུམ་པ་
རི་ཉིལ་
སྙིང་ལ་
▁ཆོག་པ་
གཉའ་ཁྲི་
རང་སྲོག་
གྲོང་མིར་
འདོད་ཚུལ་
འཛིན་གྲྭར་
གྱི་ནང་དོན་
ལ་མཐོང་ཆེན་
མེད་པར་གྱུར་
དམངས་ཁྲོད་དུ་
ནི་བོད་ལྗོངས་
ཏའེ་
▁ཧྲན་
ཕྱི་ལ་
▁ཁྲིད་
▁རྫུན་
རང་ངོས་
བརྗོད་ན།
བཤད་ཚུལ་
ཆབ་མདོའི་
སྲུང་ཡོལ་
དགོང་མོའི་
སྐྱབས་ཀྱིས་
ཆེས་ཐོག་མའི་
གདང་སྦྲེལ་ནས་
ལི
རབས།
བདེར་
བཙོས་
ནམ་ཟླ་
མཐོ་ས་
ཙམ་ནས་
རྒྱུ་བའི་
ལྷབ་ལྷུབ་
ཆད་པ་གཅོད་
བ་ཞིག་གིས་
▁གད་སྙིགས་
▁འགན་འཁུར་
ཉུལ་
་ཀྱི་
བའི།།
མཁའ་ལ་
རུས་པ་
▁རྟའུ་
ཞོགས་པ་
དབྱི་རག་
ཕྱུག་པོ་
བྱུང་ཚེ་
བྲག་དཀར་
སྨན་རིན་
▁རང་ཞིང་
ཁུངས་སྣེ་
དང་པོ་དེ་
དབང་འདུས་
ཡས་མས་སུ་
ཡུལ་རྫོང་
སྤྱི་བའི་
བཙུགས་ཡོད།
ལྷོ་རྒྱུད་
▁སྤྱི་པའི་
རྫོང་མི་རིགས་
ཤ་དང་
སྒྲུང
▁བསྟན
▁ཧའོ་
བོ་དང་
རྩྭ་ས་
ཚ་དགོས་
ཅིན་ཧའེ་
ཐོ་རེངས་
▁ཁག་ཐེག་
ཉོན་མོངས་
ཐོབ་པ་དང་
བྱེད་ཐབས།
▁མེ་གསོད་
རྫོང་དཔོན་
བླངས་པ་རེད།
ཁང་གི་ལས་དོན་
ཁ་གསབ་རོགས་དངུལ་
ཕའེ་
གཡེར་
དང་དེ་
བན་དེ་
འབྱམས་
ལི་སྨི་
རང་ཁྱིམ་
སྔ་ཕྱིར་
ཉེར་གཉིས་
ཟུར་ཞུགས་
▁དུས་ཀྱི་
གཞན་དག་གི་
ཅིའི་ཕྱིར་
རྒྱུན་ཤེས་
གནང་བ་མ་ཟད།
དགོས་པ་ཞིག་
གཙོ་འགན་ཁུར་
ལས་འགོ་བསྐྱར་
གཏོང་དགོས་པའི་
མཁའ་དབྱིངས་སུ་
ལས་དོན་འགོ་ཁྲིད་
▁གྲོས་ཚོགས་ཀྱིས་
རིས
མགོ་ལ་
▁བསྟོད་
▁ལོ་སར་
▁སྐྱོད་
ཁྱོ་ཤུག་
གང་དེའི་
རུང་བའི་
▁གདན་ཞུ་
▁མ་འཇོག་
བརྒྱ་ལྷག་
རབ་འབྱམས་
▁བསྒྲུབས་
▁ཐད་གཏོགས་
འཁྲུངས་སྐར་
འགོག་རྐྱེན་
འཛུགས་པ་དང་།
ལྷག་བསམ་ཟོལ་
▁རྒྱལ་ནང་གི་
རྒྱུན་འཛིན་པ་
གུང་ཁྲན་ཏང་གིས་
སྩལ་
▁ད་བར་
ཕོ་བའི་
མི་རེར་
འདི་གར་
གསུམ་ནི་
གོང་རིམ་
ཚུར་སྣང་
འཛིན་གྲྭ
འདུག་སྟེ།
འཕར་བ་དང་
▁ཁོང་གིས།
▁བཟོ་ཚོང་
པེ་ཅིང་གི་
▁ཁྱིམ་བདག་
▁ནང་འདྲེན་
དབྱི་སི་ལན་
སྐོར་གཟིགས་
སྤྱི་བསྒྲགས།
སྤྱིའི་ཆ་ནས་
ས་གནས་ས་ཐོག་ཏུ་
གི།
བདག
▁གཟན་
ཅི་ཙམ་
སྐྱེད།
བྱེད་ལས་
མ་ཐག་ཏུ་
རྒྱ་གྲམ་
མཐོ་བ་དང་
མར་ཁེ་སི་
ཚུལ་སོགས་
▁རིག་འཛིན་
དུས་ཚོད་ནི་
▁བསམ་བློའི་
དང་རྒྱལ་སྤྱིའི་
ས་པ
གྱོང་
ར་དང་
ནད་དཔེ
བཀྲོལ་
▁ཆུའི་
▁བྲེལ་
▁ལྔ་པ་
ཅུས་ནས་
བཏབ་ནས་
མེད་དེ།
འཁྲིགས་
དཀར་ཡོལ་
ཚེ་བརྟན།
སྲུང་གི་
ངེད་གཉིས་
པ་ལྟ་བུའི་
▁རུལ་སུངས་
སྒྲོན་གྱིས་
བསྟོད་བསྔགས་
ཞིག་ཀྱང་རེད།
▁ཉིན་ཤས་གོང་
ངོ་མཚར་ཆེ་བའི་
▁མང་ཚོགས་ཀྱིས་
འཐུས་ཚང་དུ་གཏོང་
གཉེར།
ས་རུ་
ཚད་དེ་
▁རྐྱང་
ཆད་ཀྱི་
ནུས་རྩལ་
རྫོགས་པར་
སེལ་གཤེད་
སྡེ་སྣོད་
▁སྐད་གཉིས་
གཞན་ཞིག་ནས་
ཚད་ལྡན་གྱི་
▁འགྲན་ཞུགས་
མཐོ་ཤོས་ཀྱི་
འགན་གཙང་ལེན་
བྱེད་མི་རུང་།
སྐྱོན་བྲལ་ངང་
ཁེ
ཱི
▁ཛ
ཏྲ་
▁དཀྲ
▁དཔང་
ོས་ནན་
▁ངོ་མ་
བརྒྱབ་ན་
▁དུས་བབ་
དངོས་གཞི་
ཕྱོགས་མང་
བསྐོར་ནས་
▁ཇུས་གཞི་
གློག་སྒུལ་
སྤྱི་ཡོངས་
སློབ་མ་ཚོར་
གཙོ་འགན་ཁུར།
བྱེད་དགོས་པ།
མ་དངུལ་སྒོར་
གཡབ་
ཙིག་
བརྒྱབ།
ཁྲོད་ན་
གནས་རི་
ངོ་ཤེས་
སྐོར་ལ།
གློག་ཁང་
སྒོས་སུ་
གནོད་སེལ་
དར་མདོའི་
བྱོན་པའི་
འགྲུབ་པར་
འབུམ་གྱི་
རྗེས་ལུས་
▁གྲོས་ཁང་
དབང་སྐྱོན་
བརྩི་འཇོག་
བྱུང་རྗེས།
འཇོག་དགོས།
སྐྱིད་ཀྱི་
▁རྒྱང་རིང་
གྲོགས་པོའི་
▁སྤྱོད་ཚུལ་
ལ་འཚམས་འདྲི་
རོགས་སྐྱོར་གྱི་
རྟེན་འབྲེལ་གྱི་
ཅོང་
པོ་ལ་
གས་རྟ་
▁སྟབས་
གཙང་མར་
དྲིས་ལན་
ཕུལ་ཡོད།
དྭངས་ཤིང་
▁ཁམས་པའི་
▁དྲན་གསོ་
▁སྤྱི་ཕན་
ལྷན་འཛོམས་
བསྡུ་སྒྲིལ་
སྟོབས་ཀྱིས་
ོའི་དུས་ཚོད་
རྒྱུན་གཏན་གྱི་
སློབ་མཐར་ཕྱིན་
▁བཅོམ་ལྡན་འདས་
▁ཨོ་སི་ཁྲུ་ལི་
ཏང་གི་སྐབས་བཅུ་
ལྷོག་
ཁྲི་ལ་
རྒྱལ་ཁ
ཁུལ་ནས་
སྟ་གོན་
བདུན་དང་
རིགས་ནི་
དང་ལས་འགན་
གཅེས་སྐྱོང་
རྣམ་དག་གིས་
▁སྤྱི་གླིང་
ཞིང་ཆེན་མཚོ་
▁དེའི་ནང་དུ་
▁རིམ་པ་སོ་སོའི་
འགྲིམ་འགྲུལ་གྱི་
ཐེབས།
སྡེས་
གྱིས།།
མིན་ལ་
སྙན་ངག
ཙེ་ཏུང་
▁ཞུས་པ་
▁ལོ་རེ་
ཞོགས་པར་
▁ཤི་རྨས་
རྒྱབ་ཀྱི་
རྣམ་གཉིས་
སྐྱེ་བའི་
དངུལ་འབོར་
ལས་མངོན་པར།
▁ཕྱིར་གཏོང་
▁སྔོན་རྩིས་
དང་མཚོ་སྔོན་
རྡོ་རྗེ་འཆང་
▁ཕཱ་ལེ་སི་ཐན་
རིག་གནས་ཐོན་ལས་
ཀོར་
བཙོ་
ཆིབས་
ཉེའི་
སྟེ།།
ཁྲུའི་
འཛེམས་
▁ཆ་ཚང་
དང་ཆོས་
ཕན་པའི་
ལུགས་ལ་
ཉུང་བའི་
▁ཏན་ཏིག་
▁དུང་དཀར་
▁རྒྱལ་མོ་
ཡོངས་གྲགས་
▁འཚོལ་ཞིབ་
ངོ་འཁོར་བར་
བཞིན་ཡོད་པས།
ཚོད་འཛིན་དང་
ཕྱི་ཕྱོགས་སུ་
འཛམ་གླིང་ཐོག་
▁བྱེད་བཞིན་པ་
▁ཧུའུ་ཅིན་ཐའོ་
གཞུང
ུའེ།
ཉི་ཡ་
འདོན།
སུ་མ་
▁ཀྱིས
འཐད་པ་
སོ་ནམ་
▁མོའི་
གྲགས་པ།
བཏང་བར་
བསྲུངས་
ཨར་འདམ་
▁ཆུང་བ་
▁ལམ་བུ་
ངོ་གཏུག་
གྲུབ་ཆེན་
ཐོབ་ཅིང་།
རི་རྒྱུད་
ནགས་ཚལ་མེ་ཟོན་
སློབ་ཆེན་གྱིས་
གྲུམ་
མུན་པ་
སྙེགས་
ཉེ་དུས་
དོན་ཅི་
རི་ལུང་
སྲ་ཞིང་
གཡུ་ཐོག་
ཆུད་ཟོས་
ཇི་སྙེད་
ཟབ་ཞུགས་
རྣམས་དང་
ལས་བཤུས།
ཀྲའོ་ལིན་
རྐང་འཛིན་
གདུང་རྒྱུད་
ཁྲིམས་ཁང་གིས་
སྟོད་རྒྱུད་ཀྱི་
ཀྱང
སུག་
ངལ་བ་
ཅིག་ལ་
ཟེར་ན་
ཉིན་ཤས་
དམངས་ལ་
▁འཕར་བ་
གྲགས་པས་
བང་སོའི་
བྱེད་ཆོག
ལྡེ་མིག་
ཕ་རོལ་ཏུ་
བྱས་ཡོད་པས།
ལོ་འཁོར་གྱི་
▁མཐོར་འདེགས་
▁མྱུར་སྐྱོབ་
གཉིས་ལྡན་གྱི་
ཡོང་འབབ་སྒོར་
གླེང་སྟེགས་ཀྱི་
ཡོད་པའི་སྒོ་ནས་
རངས་
ལིན།
ལྷ་མོ
སྤྲད།
སྨོན།
འཚོ་བ།
སྡེ་བ།
▁པུའུ་
▁བཙུན་
ཚོང་རར་
ཤིང་རྟ་
▁བཞི་བ་
གདུང་གི་
དར་སྲོལ་
བསླབ་ཚན་
འབྲེལ་བ།
ས་སྐྱའི་
ཨའོ་མོན་
▁ལོ་ཆུང་
ང་ཆི་ཧྲན་
དུས་འཁོར་
ཚད་གཞིའི་
རོགས་ཟླའི་
འཚོགས་པ་དང་།
རྒྱུ་མཚན་ནི་
རྒྱུ་རེད་ཅེས་
དམྱ
འི།
འཆོར་
སྤྲི་
▁སུང་
ཉམ་ཐག་
ཐོས་པ་
གཞུང་ལ་
ཇེ་ཆུང་
ཚད་བཀག་
རང་ནུས་
མདའ་འཕེན་
གནས་པ་དང་།
བཤད་བྱུང་།
བྱམས་བརྩེ་
ཧྲུའུ་ཅིའམ་
ཏང་རྩ་འཛུགས་
འཁྲབ་སྟོན་པ་
▁བོད་ཡིག་གི་
ཐེངས་དང་པོའི་
གཙུག་ལག་ཁང་གི་
གདའ།
རྒྱུག
གཉིས་པ
དཀྲུག་
ཚུལ་ལ།
གཏོད་པ།
ཇི་འདྲ་
མཚན་ཉིད།
ཡིས་ཚེས་
སོང་ཡོད།
▁ཉེ་དུས།
▁རང་ཁུལ་
ལེགས་ཉེས་
གྲུབ་མཐའི་
འགྱིག་ཤོག་
▁བཀའ་དྲིན་
ཆུང་ཆུང་ཞིག་
ནི་མཚོ་སྔོན་
པའི་སྐབས་སུ་
ཚོང་དོན་གྱི་
འདི་ལྟ་བུའི་
སྨི་ངོས་གྲུ་
▁བཅུ་གསུམ་པ་
བརྙན་འཕྲིན་ཁ་པར་
▁ཏང་གི་ལོ་རྒྱུས་
བཤལ་
ཨ་ཕས་
གནས་པ་
དེ་ཚོ་
མི་ཕམ་
དང་འཚམ་
ཚིག་དང་
གཡོ་བའི་
འདི་གའི་
རེ་སྨོན་
ལྷག་ཡོད།
▁ཏང་གིས་
ཅིན་གྱིས་
གྲོང་ཚོ་དང་
བོད་ཡིག་ཏུ་
ཡུལ་སྐོར་བར་
ཀྱི་འབྲེལ་ཡོད་
གོད་
ཕྲལ་
གསོ་བ
▁བཀྲ་
▁ཉེ་ལམ
▁འཐེན་
▁ས་དེ་
ལངས་ནས་
▁འཁྱགས་
རོལ་བའི་
དབུལ་པོར་
མཚུངས་པའི་
ལོ་ཆུང་གི་
▁མཇུག་མཐར་
བཅས་བྱས་ཏེ།
▁དུས་རབས་ཀྱི་
▁ཟླ་པའི་ཚེས་ཉིན།
ཕྲུག
ཀུ་ཤུ་
ཟླ་རེར་
སྙམ་ནས་
▁ཟབ་མོ་
ཆོད་པའི་
ཞེས་ཀྱང་
དབྱིན་ཇི་
ཕབ་སྐྲུན་
མགོ་རྩོམ་
རྒན་གཞོན་
ལྡན་པ་དང་
ལ་ལྟ་སྐོར་
འཕེལ་འགྱུར་
▁འགྲན་རྩོད་
གཙོ་བྱས་པའི་
ཉམས་སུ་མྱོང་
ཡིས་བཤད་རྒྱུར།
ཞེས་པའི་མཚན་སྙན་
ཱུ
གང་།
▁དུས
བད་ཀན་
▁ཁ་སང་
▁གཏོད་
བཅས་ནི་
ཡོད་དམ་
▁ཞུགས་པ
ཁྲི་ཐོག་
དང་བོའི་
བརྒྱད་པ།
རྒན་རབས་
རྫས་ཀྱི་
ཆོས་སྲིད་
རྒྱུན་ཨུ།
བྱེད་པ་ལས་
ལ་འགྱུར་བ་
ཏང་ཀྲི་པུའུ་
▁གཉེན་སྒྲིག་
ཆེ་རུ་བཏང་ནས་
ལེགས་སྐྱེས་སུ་
▁ཧིན་རྡུ་ཉི་ཞི་
མི་རིགས་རིག་གནས་
གདང་
ཙོག་
རྒྱ།
མཆོར་
ལྔ་ཡི་
ལྷ་ཀླུ་
▁མི་རབས་
▁རང་གིས་
ཁེངས་པའི་
བཀའ་གདམས་
བྱེད་དབང་
ཡོད་ནའང་།
རྩིས་ཀྱི་
སུམ་རྩེན་
▁སྐྱེས་པ་
གེ་སར་གྱི་
▁གྱོད་དོན་
དབྱི་ལིང་གི་
རིམ་པ་ཡན་གྱི་
བྱས་པ་དང་འབྲེལ་
ཁོ།
ུ་བ་
▁ཐོས་
འགྲིབ་
དགོས་ན།
ཞུགས་པར་
སྐམ་སའི་
▁གྲགས་ཅན་
ཇེ་དམའ་རུ་
དངུལ་གཏོང་
དུ་བསྐྱོད་
▁དཀའ་སྤྱད་
▁སླད་ཕྱིན་
དཔྱིད་རྨོད་
འགོ་ཁྲིད་པའི་
▁འབྲེལ་འདྲིས་
ིར
ཀ་བ་
ཞོད་
ཁྱུད་
ཟེགས་
▁བྲོ་
ཀྲི་རི་
མངོན་པ།
སྨྲས་པ།
གཏམ་གྱི་
གནང་མཁན་
ལུང་པའི་
▁སུམ་ཅུ་
དགོངས་པའི་
དཔལ་འབྱོར།
བརྒྱུད་དེ།
ཡོངས་བཤེར་
ལ་ཆོག་མཆན་
སོང་བ་དང་།
སློབ་ཕྲུག་
▁རྒྱལ་དོན་
▁སྔར་བཞིན་
▁སྔོན་གྱི་
འདིའི་ནང་དུ་
ལྷག་ཙམ་གྱིས་
▁རྒྱུ་རྐྱེན་
ཕྱོགས་བསྒྲིགས
ཡུས་ཁྲིན་ཧུའེ་
བརྔ
ཉམས།
ལས།།
▁ཕྲ་
ཀུའོ་
ཆར་བ་
ནང་ན་
བརྡས་
བྱུར་
▁སེལ་
ཐེ་བོ་
པར་ཁང་
ལོ་མང་
བ་རྣམས་
གདོན་མི་
དེང་དུས་
གདམ་གསེས་
བརྗོད་པར་
མཚར་སྡུག་
སྐར་ཚོགས་
སྤྱི་ཆིང་
▁ཆོས་ཀྱི་
▁བོད་རྒྱ་
བོད་སྐྱོང་
ལ་བསམ་བློ་
སྒྲོམ་གཞི་
▁རྒྱལ་ཕྲན་
སུ་ཞིག་གིས་
▁གཞུང་ལུགས་
འདེམས་བསྐོའི་
འཁོར་བར་དྲན་གསོ་
▁ངན་
ཧྲའོ་
▁ཤོད་
ཏང་ནན་
བསྣམས་
འདྲེན།
▁ཚད་མ་
གཞན་ཕན་
བར་དང་།
ཟླ་ཚེས་
ཡི་རིང་
སྙན་མོ་
ཁོང་ཉིད་
▁ཁྱོད་ལ་
▁བའི་ཚེས
འགྲོ་ཚུར་
▁ཧུང་ཡོན་
ཀླུ་སྒྲུབ་
དགོས་པ་ནི་
ཨུ་ཡོན་དང་
▁བརྟན་འཇགས་
ཡུལ་སྐོར་བའི་
▁སྐལ་བཟང་བདེ་
ཕུན་ཚོགས་ཀྱིས་
མངགས་གཏོང་ཁང་གི་
གར
རྣལ་
ང་གི་
དཔོན།
ལྟའང་
ེ་ཐེ་
ཡིག་ཆ།
▁ཉེ་ཆར
▁འདེབས་
ཆ་རྒྱུས་
ནུབ་ཀྱི་
བར་བརྒལ་
ཚུལ་རེད།
འབར་ཁམས་
▁དོན་དག་
གསོལ་སྟོན་
གླིང་རྫོང་
བསྟོད་པའི་
སྟོད་རྫོང་
▁མགོ་འཛིན་
▁ཞིང་ཕྱུགས་
▁རྒྱུན་ལྡན་
གཞི་རྩའི་ཆ་ནས་
བརྩམས་ཆོས་ཀྱི་
▁བབ་
དྲའི་
ཕ་སྐད་
ཙམ་ཡོད།
རི་བོང་
ཤར་ལྷོ་
ནང་སྲིད་
མིང་གྲགས་
དངོས་སྦྱོང་
མ་དངུལ་གྱི་
རྒྱལ་ནང་དུ་
དང་ལོ་རྒྱུས་
བློ་གྲོས་ཀྱི་
▁འབྱུང་འགྱུར་
འཕྲོད་བསྟེན་དང་
▁དབྱི་སི་རལ་གྱི་
གོས།
ོའམ་
▁སིལ་
ཚན་པས་
གཤོག་པ་
ཕྱི་ནས་
ཞིང་དུ་
ངོ་བརྒྱ་
ཆང་འཐུང་
ཞོག་ཁོག་
ལོ་བརྒྱ་
ཧྲིལ་བོ་
གྲངས་མེད་
མེས་པོའི་
རྙིང་པའི་
བྱེད་ཐུབ་པ་
▁དབུ་བཞུགས་
▁ཕུགས་འདུན་
▁ས་གནས་ཀྱི་
བློ་ཡིད་ཚིམ་
ཐེངས་གཉིས་པའི་
ཐེག་པ་ཆེན་པོའི་
རྣམ་པར་བཀྲ་བའི་
འཛི་
དྲུད་
བར་མ་
ཤུབས་
▁བཟི་
ག་ལེར་
སྒྲོལ།
▁ཐ་མག་
▁འགོས་
▁འཛུམ་
▁སྤྲོ་
ཐབས་དང་
▁མི་ཉག་
▁མི་རེ་
ཉེ་སྔོན་
དགོས་སམ།
བ་དང་མི་
གཞུང་ཞབས་
གཟེངས་སུ་
གོང་མཐོར་
བཞི་སྟོང་
གཟུགས་པོའི་
བོད་སྐད་ཀྱི་
▁འཕྲིན་གཏོང་
ལ་རྟེན་འབྲེལ་
གེ་སར་རིག་གནས་
ས་ཁོངས་རང་སྐྱོང་
སི་ཁྲོན་མི་རིགས་
ནུར་
དར་བ་
གདམ་ག་
པོ་ཏི་
ཡི་དམ་
སྒྱིད་
ང་དབྱང་
དྲུག་ལ་
ནས་ཡོད།
བཏང་བས།
ཁྲི་ཕྲག་
བརྒལ་ནས་
ལོ་གཉིས་
བཅོས་ཀྱི་
འབབ་རྒྱུ།
ལ་ཕན་པའི་
▁ཤང་གྲོང་
▁སློབ་ཚན་
གསེར་དངུལ་
སྐུ་འཁྲུངས་
བརྒྱ་ཆའི་གྲངས་
མཛད་སྒོར་ཞུགས།
སྨི་གྲུ་བཞི་མ་
ཞིང་ཆེན་མི་དམངས་
ཚ།
ཚུད།
རླག་
ོ་བོར་
ཐུབ་པས།
སྐུ་ཚབ་
གྲས་ཀྱི་
དད་སེམས་
རོང་བྲག་
ལྔ་སྟོང་
ཨུ་ཚུགས་
▁འགྲེམས་
▁གཙུག་ལག་
▁མཚན་སྙན་
བརྗོད་དོན།
དགོས་བྱུང་།
བཅུ་གཉིས་པ་
རྟོག་དཔྱོད་
▁བཀོད་འདོམས་
གསུང་བཤད་ཀྱང་
ལག་བསྟར་བྱས་ཏེ།
ཚེ
ལ་བས
▁ཀི་
▁གཉའ་
ཞང་ཀང་
▁གདུང་
པར་ངོས་
མཛད་དེ།
▁རྨས་མ་
▁ལི་ཐང་
▁བསྒྲུབ་
▁ཤིན་ཏུ་
ཁྲི་གཅིག་
ཕུའུ་ཅིང་
འཕེལ་གྱི་
རྒྱལ་ཁ་ཕུ་
ལ་བལྟས་ནས་
▁གྲུབ་མཐའ་
▁དབྱེ་ཞིབ་
དཔེར་བརྗོད་
ཕྱོགས་བཞིར་
▁རྨས་སྐྱོན་
རང་བཞིན་དང་།
རྣམ་པ་གསར་བ་
▁ཞིང་ཆེན་དང་
རྒྱུན་ཨུ་ཁང་གི་
བྱས་པའི་གནས་ཚུལ་
ནྡ
འཕར།
རྐྱ་
ས་ནི་
སྩོལ་
གས་རི་
ཨ་རིར་
ཇེ་སྡུག་
པའི་གནས་
ཧུང་ཡོན་
ཆ་མེད་དུ་
འཚེར་བའི་
རྒྱུ་སྐར་
ཐོན་པ་དང་།
སློབ་མ་དང་
▁ཁྲོམ་རའི་
བཙུགས་པ་རེད།
དང་མཇལ་འཛོམས་
མངའ་ཁོངས་ཀྱི་
ཚོགས་འདུ་བསྡུས།
སླ།
ཡུད་
ནས་ས་
རྨ་ཁ་
རྨིག་
▁དམ་པ་
གཉིས་པོ་
ངོ་འཕྲད་
བཏོད་དེ་
ཚིགས་སུ་
▁འཁྲུངས་
▁རྒྱ་ནག་
▁མི་ཚེའི་
བསྒྱུར་བར་
རྒྱུ་སྤུས་
▁དངོས་རྫས་
དང་སྨན་རྫས་
མེད་པར་བཟོས་
གྲོང་གསེབ་ཏུ་
འཛུགས་སྐྲུན་དང་།
ལས་མངོན་པ་ལྟར་ན།
གོལ་
ཐེབ་
ཚིས་
འཚལ།
ལོ།།
བསྩལ།
ལྷགས་
▁ཅུད་
▁སྲས་
ཁ་གྲངས་
ཁུ་སིམ་
བྱང་དུ་
གསེར་རི་
ཏུ་བཅུག་
བཟང་པོར་
▁ལུས་ཀྱི་
གལ་ཆེན་དུ་
ལ་སྣེ་ལེན་
རིགས་རྒྱུད་
མདོ་དབུས་ཁམས་
བྱང་ཕྱོགས་ཀྱི་
ལོང
▁བསྣ
མ་ཟེ་
རྨོག་
རྫུས་
▁སྡོམ་
▁བསམ་པ་
▁ཡང་དག་
ཕུད་པའི་
བོད་ཁམས་
རླུང་རྟ་
▁ཁེ་དབང་
རྣམ་རྒྱལ།
ལོགས་བཀར་
དཔྱད་འཇོག་
བོད་འབྲེལ་
འགན་སྲུང་གི་
▁བྱང་ཁོ་རེ་ཡ་
ནས་ཚེས་ཉིན་བར་
མདས་
འོལ་
སྲིད
བཀླག་
སྤུར་
▁སྔགས་
གཞི་རྒྱ་
ཉི་ཤུ་པ་
ཕྱག་ལེན་
ཡོད་སའི་
སྙིང་ནས་
▁མིང་ཐོ་
▁ཟླ་ཚེས་
▁ལྟད་མོ་
ཡོད་པ་ནི།
ལ་དམ་པོར་
བཟོ་གྲྭའི་
ལ་བཀྲ་ཤིས་
ལག་ལེན་དུ་
སྒོ་བསྟེན་
དང་གསར་གཏོད་
དུས་ཚོད་ཀྱི་
འདི་འདྲ་ཞིག་
མོལ་ཚོགས་འདུ་
ལས་དོན་སྒྲུབ་
ཉིན་བཤད་རྒྱུར།
སྤེལ་རྒྱུ་རེད།
ཁོར་ཡུག་ལེགས་སུ་
རྒྱུར་སྐུལ་འདེད་
སྔ་དྲོའི་ཆུ་ཚོད་
ཕཱ་
སྔས་
བླུག་
རྔོག་
ཙན་དན་
གྱ་ནོམ་
པའི་ལས་
མིན་པར།
སོང་བས་
ཚོགས་མི་
འགྲམ་ནས་
འབྱོར་བ་
རྒྱལ་དང་
གོང་སྤེལ་
▁རྟགས་ཅན་
བདག་སྤྲོད་
ཟེར་བ་དང་།
འཁྲབ་ཁྲིད་
སྦྱོང་བའི་
▁བརྩེ་དུང་
▁མཁའ་འགྲོ་
▁རྒྱལ་སྟོན་
སློབ་སྦྱོང་དང་།
ཁང་གི་ཀྲུའུ་རིན་
ཕོ་བྲང་པོ་ཏ་ལའི་
པུའུ
▁བརྡ
ལེའི་
སྡེ་བ
བཞི་བ།
བསྟུན།
རལ་གྲི་
སྟོང་ཆ་
▁བཏོན་པ
▁ཞང་ཀང་
ཆུ་དྭངས་
བུམ་པའི་
ཞུགས་ཏེ་
▁ཤོག་ངོས
འབོད་པའི་
▁ཡུག་རེན་
འབྱུང་ཁམས་
བུད་མེད་དང་
བྱ་རྒྱུ་དང་
འཇིགས་བྱེད་
འབྲེལ་བ་དང་
ལག་ལེན་གྱི་
ུའུ་ཧན་གྱི་
▁སྡུག་བསྔལ་
གསུངས་རྒྱུར།
འགོག་བཅོས་ཀྱི་
སྟོབས་ལྡན་གྱི་
▁མི་རིགས་ཁག་གི་
ཅན་དུ་འགྱུར་བའི་
▁བཤད
དཔའི་
ནོའུ་
ཁོ་མོས་
དང་རྒྱ་
བང་རིམ་
བཟོ་དང་
སྒོ་བསྡ
གདན་རབས་
བློ་ལྡན་
▁བརྡ་ཐོ་
ནན་ཏན་ངང་
ཐེབས་རྩའི་
དམངས་འཐུས་
ཚབ་ཞུས་ནས་
འཕྲོས་པའི་
ཡོད་པ་ཤེས་
ཕ་ཁི་སི་ཐན་
རྐྱེན་སྲོལ་
ངོ་སྤྲོད་བྱས།
དང་ཧ
ནི་མ་
པ་དག་
པས་མ་
▁ཐིན་
ལྷག་པ་
གཏན་དུ་
དུ་བཅུག
ལག་ཟུང་
རྡོ་སོལ་
ལྡོག་སྟེ་
བྲོས་བྱོལ་
▁དཔྱད་ཞིབ་
ལ་རམ་འདེགས་
▁མཇལ་འཛོམས་
འགན་ལེན་གྱི་
▁སྒྲིག་སྲོལ་
དཔེ་དེབ་དབྱེ་
ཁས་ལེན་གང་ལེགས་
དྲག་ཆས་ཉེན་རྟོག་
▁མཛེས་ལྗོངས་ཁུལ་
ཇའི་
ོར།།
▁ཏི་
ཏུའང་
བརྙས་
ལྔ་པ།
ཀྱང་མ་
▁ཕན་པ་
གཉན་ཚད་
ཆུ་འགོ་
བཅས་སོ།
རྩེ་ནས་
▁ཁ་དོག་
▁རྒྱའི་
བཙུན་མོ་
སྤྲད་དེ་
སྲིད་པས།
གནམ་ས་བླ་
པ་རྣམས་ལ་
པའི་ཕྱིར།
བབ་བསྟུན་
བྱང་ཆིངས་
བྲིན་ཚོང་
མི་དམན་པ་
བཤད་པ་དང་།
ལོ་གཅིག་གི་
པ་སོགས་ཀྱིས་
ལ་ཤུགས་རྐྱེན་
སྣ་མང་རང་བཞིན་
སློབ་གླིང་གིས་
རིང
ཤར།
བཀང་
▁མཁྱ
▁ཞུས
དང་བ་
ལྔ་ལ་
▁གཡུང་
▁འཕེན་
དང་ཕྱི་
བདག་མེད་
ཡོད་རྒུ་
མཁའ་རླུང་
▁ཀྲའོ་ལེ་
རྟོགས་ཐུབ།
སྤྱོད་བཟང་
▁ཁྲུང་ཆིང་
▁ཕུགས་བསམ་
མི་བྱེད་པར་
▁ཕ་ཡུལ་གྱི་
▁མཉམ་ལས་ཁང་
▁རྒྱལ་སྲིད་
▁དུས་ཐོག་ཏུ་
ཁྲིམས་འགལ་ངང་
གྲོང་རྡལ་གྱིས་
མནའ་འབྲེལ་གྱིས་
ནུབ་བྱང་མི་རིགས་
་།
▁སླ
ཀུན།
ཀྲུ་
སུལ་
▁གས་
▁འཇུ་
དགུ་བ་
དུ་མས་
མ་སྟོན་
མི་ནུས་
རྣ་བའི་
ཤེས་བྱ།
▁ཇེ་མང་
▁ཇོ་བོ་
▁སྨྱུག་
ཡོད་ཚུལ་
ཤེལ་གྱི་
▁ཚད་ཡོད་
གྲོང་ཁུལ་
བྲིས་ཡོད།
ལྡན་ཞིང་།
སློབ་ཡོན་
▁བརྒྱབ་པ་
གཤེགས་པའི་
དགེ་རྒན་ལ་
འཁྱིལ་བའི་
རྒྱལ་ཁོངས་
▁གྲངས་ཆུང་
▁འདོན་སྤེལ་
▁ལོའི་ཟླ་པར།
ཡིག་ཚགས་དང་གཱ་
རྩོམ་སྒྱུར་ཅུད
སྐབས་གསུམ་པའི་
བྱེད་པའི་ནུས་པ་
རྒྱལ་ཚོགས་ཀྱིས་
▁ཡུན་ནན་ཞིང་ཆེན་
ཟོར་
ཁ་སང་
སྦྱར།
ཇེ་ཡང་
དག་ཏུ་
འཁྱམས་
འཛོམས།
གནང་ནས།
འཕར་ནས་
ཁོང་ཚོས་
ཐབས་ཀྱིས་
བརྩམས་ཆོས
ཞེས་དྲིས་
▁ཤེས་གསལ་
▁སྔོ་ལྗང་
རྐྱང་རྐྱང་
▁དེ་དག་ནི་
▁དྲག་ཤུགས་
གཡུལ་འགྱེད་
མི་འདང་བའི་
ཐུབ་ཀྱི་ཡོད།
བརྒྱབ་པ་རེད།
མི་བྱེད་པའི་
ཡིན་པར་མ་ཟད།
པར་དུ་བསྐྲུན་
འཁྱུར་ངལ་གསོ་
བྱས་རྗེས་འཇོག་
ྷ་
ཁྲབ་
བདམས།
▁ལངས་
འཕྲོ་བ
ཅིག་ཅར་
▁ཐད་ཀར་
དྲིལ་བསྒྲ
▁བསྟུད་མ་
ཁག་དང་པོའི་
དང་མི་སྒེར་
རྒྱུ་ཡིན་པ་
ལེའུ་གསར་པ་
▁ཕྱུག་འགྱུར་
སྐད་དང་ཡི་གེ་
ངད་
སུ།།
▁སྨྱ
ཁྲིམས།
ཉིན་མོ
ཉི་གཞོན་
ད་བར་དུ་
བར་གྱི་ལ
▁།དེ་ནས་
གྲུབ་ཆའི་
ཤར་རྒྱུད་
སོང་རྗེས་
སྟེར་བའི་
▁རིག་གནས།
རྣམ་འགྲེལ་
▁ཡུལ་སྲོལ་
▁རྟ་རྒྱུག་
དང་པོའི་ཚེས་
དང་མཉམ་འབྲེལ་
ཨོ་སི་ཁྲུ་ལི་
▁ལྷོ་ཁོ་རེ་ཡ་
རྨང་གཞིའི་སྟེང་
གུག་
ཅའོ་
ལུགས
གྲོད་
འདོམ་
▁དོད་
མཁོའི་
མཚན་ལ་
སི་ཁོ་
▁སྦྲང་
གྲིབ་མ་
བྱེ་ཐང་
ཞེས་པས་
རྒྱས་པ།
ཉེན་སེལ་
རྣམ་གྲངས
གཟུགས་སུ་
མཉམ་འགོག་
འདོན་པའི་
སྐྱོ་བའི་
སྡོད་གནས་
གདགས་གཤིས་
གཟུགས་འདས་
དུ་བྱུང་བ་
མཐའ་དཔྱོད་
རྩིས་བཤེར་
▁མཁར་གྲོང་
▁ད་རེས་ཀྱི་
དཔེ་ཀློག་གི་
རིམ་བྱུང་གི་
བྱེད་རྒྱུ་དེ་
འདོད་ཡོད་ཅེས་
▁དགེ་རྒན་གྱི་
གཞུང་ལས་ཁང་གི་
ཉུང་མཐར་ཡང་མི་
དཔྱད་གཏམ་སྤེལ་
སེལ་གཤེད་བཅོམ་
སྡོད་དམངས་ཀྱི་
ལུང་བདེ་ཆེན་ཆུས་
▁གུར་
▁འཇའ་
དེ་ཡི་
བརླབས་
▁སྤྱང་
ཏཱ་ལའི་
བཤད་པར་
སྔ་མའི་
▁ཕྱིའི་
ཁྱབ་རྒྱ་
ཐུན་མིན་
དུས་བཅད་
ཕྲུ་གུར་
རང་བྱོན་
རེད་ཨང་།
ཉིང་བཅུད་
དེ་དག་ལས་
བཏགས་པའི་
མ་ཐུབ་པར་
འདམ་གཞུང་
འཚོལ་བའི་
ལ་མཚོན་ན།
▁འཐུང་ཆུ་
▁རི་དྭགས་
འཁོར་རིགས་
གཏིང་ཟབ་དང་
ཙུང་ཐུང་གི་
ལ་ཞུགས་མཁན་
ལ་རྟོག་ཞིབ་
ཡུལ་དངོས་ཀྱི་
བོད་ཀྱི་སྐད་ཡིག་
མི་རིགས་སོ་སོའི་
ཡོང་བའི་འགན་ལེན་
ཆིལ་
སིལ་བ
▁སྤྱན་
དཀའ་ལས་
ནར་སོན་
སྟེང་ན་
▁མདོ་ལ་
ཆེན་མོས་
ཐོན་གྱི་
ིམས་པའི་
▁ཕན་ནུས་
ཐོགས་མེད་
མཐོང་ཐོས་
འཐུས་མིར་
▁སྐུ་ཞབས་
དམངས་ཕྱུག་
སྟངས་འཛིན་
▁མངོན་མིན་
ནི་ཀྲུང་གོ་
རྩི་ཤིང་གི་
ལ་བཅར་འདྲི་
ཆོས་འཕེལ་གྱི་
ལ་གཟེངས་བསྟོད་
དམངས་དོན་ཁྲིམས་
འཛུགས་སྐྲུན་ཐད་
གཏོད
ཕ་ས་
ཏིའི་
མཚོས་
ལ་བག་
ཁོ་བོ་
འཁྲེང་
ནང་པའི་
བརྡ་ཐོ་
བྱ་སྟེ།
རེ་འགའ་
ཤེ་ཡའི་
གཉིས་པས་
དགུ་བཅུ་
མཚན་མོར་
མི་སྡོད་
རྫོགས་པ་
གློག་ཀླད་
ཇི་འདྲའི་
བསགས་པའི་
མཁར་གྲོང་
མཛའ་བརྩེ་
སློབ་རའི་
གནས་བབ་དང་
ཆོག་པ་དང་།
བྱེད་པོའི་
▁འགོ་འཛིན་
ལག་བསྟར་དང་
ཐོབ་ཡོད་པ་རེད།
ནན་བཤད་གནང་དོན།
ནག་ཆུ་གྲོང་ཁྱེར་
ཟླ།
པིར་
ཀན་ལྷོ
མཚན་མ་
ཉམས་ཞན་
དཔག་ཏུ་
མི་ཞིག་
རྡོ་ཆས་
སྔར་ནས་
▁བསྟན་པ
དྲངས་ཏེ་
བགོ་བཤའ་
བྱོན་ནས་
རྦ་རླབས་
▁མེ་ལོང་
གཅིག་དང་།
གསུངས་སོ།
དཔྱད་གཏམ་
འབོ་གསེར་
རྗེས་འདེད་
སྦྱོར་བའི་
▁བྱེད་འགོ་
དང་འཚོ་བའི་
བོད་སྐད་དུ་
ཞུགས་པ་དང་།
ལོ་གསར་ཚེས་
▁ཀྲུང་ཧྭའི་
▁ཡིག་སྒྱུར་
▁རོལ་དབྱངས་
དང་སྨན་བཅོས་
ཙེའི་
རྒྱད།
▁ཀློག་
གསར་པས་
ཅང་གིས་
བྱུང་ན།
▁ལང་ཚོ་
གཞི་བདག་
དྲུང་ནས་
མང་བ་དང་
སྦག་སྦག་
▁འཇོག་པ་
དྲང་སྲོང་
དྲངས་པའི་
ཡོང་ཁུངས་
སྙིང་དོན་
ནང་བསྟན་དོན།
པ་ཞིག་ཡིན་ལ།
ནུས་པ་ཆེན་པོ་
གཞི་གཅིག་ཅན་གྱི་
ཐར
དུལ་
རོགས
▁ཆད་
ཆུ་ལ་
ན་རེ།
གམ་དུ་
སྐྱེན་
གུང་ཐང་
ཕྱེ་ནས་
བྱ་བཞག་
ཚགས་པར།
རྣམ་ཐར།
ཁོང་ཚོར་
ཉམས་ཞིབ་
པ་ཡིན་ན།
▁ནད་ཡམས་
གཞི་རྒྱུ་
བཞུར་བའི་
འདི་གཉིས་
འདེབས་པའི་
སྔོན་བྱོན་
▁གསེར་གྱི་
ཕྱི་རོལ་དུ་
▁མྱུར་བགྲོད་
མདོ་སྔགས་ཀྱི་
ཅན།།
བསེ་
ཕྱགས་
▁ཉིད་
སྐྱུག་
པར་གསལ།
ཞེས་སུ་
གཅན་གཟན་
གཙོས་སུ་
དགུ་བརྒྱ་
བརྙན་ཐུང་
ཡོད་དགོས།
སྙིང་རུས་
▁གློ་བུར་
དཀྱུས་མའི་
བརྒྱད་བརྒྱ་
བྱས་པ་མ་ཟད་
ཧྲུའུ་ཅི་དང་
སྤྱི་ཚོགས་སུ་
གྱི་གྲུབ་འབྲས་
གཞུང་དོན་ཁང་གིས་
འ།།
ཇུས།
མཁལ་
བཏུས།
ལོ་ལ་
བརྡུང་
བྱའོ།།
རྟ་ཕོ་
▁ཨ་མས་
ཁོང་ནི་
དལ་བུར་
པར་ཤིང་
བཀྲམ་པ།
ཚུན་དུ།
▁ཕྱིན་པ་
གནའ་གྲོང་
རྒྱ་དཔངས་
▁གསུམ་ནི་
▁དངོས་མང་
ཁོ་རེ་ཡའི་
ལས་དོན་ཐད་
སྐུ་གཤེགས།
སྐུལ་འདེད།
མྱུར་སྐྱེལ་
སྐྱེས་ཤིང་།
སྨན་ཁང་གིས་
▁མ་འོངས་པར་
བཅུ་དགུ་བའི་
▁རྒྱུན་འཛིན་
བྱེད་དགོས་ཤིང་།
▁མཁའ་མཚོ་སྐྱིད།
གསེར་གྱི་རྟགས་མ་
▁ལོར
▁ཏེང་
▁ཟེར་
དང་ལག་
ལས་སླ་
སྒྲིམ་
ེའུའི་
▁བརྩམས
དོན་དམ་
ནི་ཆེས་
ཕེབས་པ།
མི་འདོད་
མིག་མངས་
▁མིག་ཆུ་
ཆོ་འཕྲུལ་
བཟོ་བ་དང་
སྐབས་པའི་
སྐྱེས་སུ་
▁དངུལ་རྩ་
▁རོང་བྲག་
ནང་དོན་དང་
ཕྱིར་འབུད་
ཚད་ལས་བརྒལ་
▁ཁེ་ལས་ཀྱི་
▁མཛུབ་ཁྲིད་
གནས་ཚུལ་གྱི་
▁རྨ་ལྷོ་ཁུལ་
སྤྱི་གླིང་དུ་
བོད་ལྗོངས་ཡན་ལག་
བྱས
ཉོག་
ལུམས་
སྲེད་
▁སིང་
བཅུ་བ་
བསྐོལ་
ཚེ་ཐར་
འབྱེད།
སྔ་ཙམ་
ཆུ་ཁོལ་
ཤེས་རབ།
ཤོས་ནི་
▁དཀའ་བ་
ཉུང་ཉུང་
ཚད་གཞིར་
▁གྲུབ་པ་
▁འོན་ཏེ་
▁ལོ་ལྟར་
གཏན་འབེབས
གྱི་རིགས་
གློག་བརྙན
བར་འགྱུར་
བྱེད་པ་ལ་
ལ་དཔྱད་པ།
▁སེར་ཤུལ་
ཞབས་བྲོའི་
▁གཟབ་རྒྱས་
ཀྱི་དོན་ཚན་
སི་རི་ཡཱའི་
བོད་སྐད་ཨུད་
ལས་བྱེད་མི་སྣ་
བཞིས་
རྣ་བ་
▁ཕུག་
▁འཆད་
▁ཨ་ཕ་
སྒར་ས་
▁གཙོད་
▁འཁྱག་
རིམ་པས་
འབྲི་རྫ་
རྗེས་ནས་
སློབ་ཁང་
▁ཁོ་བོས་
བཙན་གྱིས་
དགྱེས་པའི་
▁སྐུལ་སྤེལ་
▁སྐོང་འཚོགས་
▁བསང་ཆུ་རྫོང་
ཁམ་བུའི་མེ་ཏོག་
ལག་བསྟར་བྱས་ཏེ་
ཟེ་
ལད་
དོ་བ
ཞིས་
ཧོས་
ཚབ་མཚོན་
▁གསལ་བོ་
དང་ས་གནས་
མ་བྱས་པར་
རྒྱག་མཁན་
རྩལ་འགྲན་
ལིན་གྱིས་
ུན་ཅ་པའོ་
སྡོང་ཕྲུག་
▁ཇུས་འགོད་
▁ཞབས་ཞུའི་
གཞིས་རྩེའི་
དབང་མེད་དུ་
དུས་མཉམ་དུ་
བརྡ་ཆད་གཙོ་བོ།
འཇབ་རྒོལ་ཐེབས་
ཚན་རིག་ཁྱབ་གདལ་
ཟོང་
▁ཐུབ
ཟིའི་
ཡུའེ་
▁རགས་
གུ་རུ་
▁མགོན་
ཁྱིམ་ལ་
ཕྲེང་བ།
བཀར་ནས་
བླངས་པ།
ཞིང་པས་
འཆར་གཞི
གནས་ཆེན་
གཙང་བའི་
ཏུ་འཇུག་
དང་འཕྲད་
དེའི་ཐད་
སྐོར་དུ་
▁དཀར་ཆག་
གཙང་བཤེར་
བྱམས་པའི་
མིང་ཐོའི་
▁སླེབས་པ་
སློབ་གསོ་བ
▁དཔུང་སྡེ་
བསྐྱེད་པའི་
འཕེལ་སྒྱུར་
འབྱུང་རྐྱེན་
ཐོག་གྲོས་འཆམ་
དགོས་པར་མ་ཟད།
ཚད་ལྡན་ཅན་གྱི་
▁སྲིད་གཞུང་གིས་
ཟླས་
ཅིའུ་
བསྐང་
རྡིབ་
▁ཀའོ་
དྲ་བས་
འདེགས།
དག་ཡིག་
པོའི་ནང་
མཚོ་ཐོག་
▁དཀར་པོ་
བྱེད་དགོས
སྣོད་ཀྱི་
▁སྨོན་ལམ་
སྐྱེལ་བའི་
▁བློ་གྲོས་
དེ་བས་ཆེ་བ་
བསྙེན་བཀུར་
▁འགོག་བཅོས་
བྱེད་སྒོ་དེ་
སློབ་བསྡུའི་
▁སྔ་རྗེས་སུ་
རང་འགུལ་གྱིས་
གཏན་འབེབས་ལྟར་
གནས་ཚུལ་ལྟར་ན།
རྒྱལ་ཁབ་ཁག་གི་
ཧྭ
ན་ཚ་
བ་ལ།
འཇར་
ཧྲན།
▁ཡས་
མཉེས་
▁ཕུར་
▁ཚ་བ་
▁ལྷད་
ཉི་མར་
མེ་ལོང
ཞབས་ལ་
དེད་ནས་
མ་མཐོང་
ལས་རིམ་
▁རྟོགས་
ངར་ཤུགས་
ངོ་བོའི་
ཚེས་བཅུ་
▁ཐེན་ཅིན་
▁འཛུགས་པ་
རིགས་གཉིས་
▁བཟོ་བཅོས་
འབྲུབ་འགོག་
བསྐྲུན་པ་དང་
མཁན་མ་བྱུང་།
ཡག་པོ་སྒྲུབ་
རིམ་པ་ཁག་གི་
སྐུ་གསུང་ཐུགས་
▁ཚོགས་ཆེན་གྱི་
ཞུས
▁པུ་
གནོང་
རྨིས་
གོམ་ཁ་
ཆུ་ཚན་
སུ་མི་
སྲུབས་
བར་ཁྱམས་
ཕྱོགས་ཁག་
འོད་ཤུགས་
རྟེན་གྱི་
སྐུ་གདུང་
གཟུགས་གཞི་
▁སྤེལ་འགོ་
ནས་ལོ་འཁོར་
ཕྱིར་སྐྱོད་
ཙུང་ཐུང་གིས་
སྤྱི་དམངས་ཀྱི་
ལྷན
བཅོས
གསེད་
དགུར་
དབྱངས
ལྡིར་
ཧྲའན་
ངོས་ལ་
ནས་རང་
ཕ་བོང་
ེ་ཡིས་
▁ང་དང་
▁སྟེར་
མང་ཞིང་
སྒོ་ཁར་
ཐབས་མེད།
རིང་ཐུང་
རྒྱལ་ཐང་
▁ས་དེའི་
ཐེར་འབུམ་
▁དྲ་ཚིགས་
▁ཧན་ཀྲེང་
གྲྭ་ཚང་གི་
ས་ཁོངས་སུ་
▁དྲག་ཆས་པ་
▁ཧྲིན་ཀྲང་
ཕྱུགས་རིགས་
བཏོན་པ་དང་།
མཛད་སྒོ་དེ་
དང་བདེ་འཇགས་
བྱ་འགུལ་གྱི་
འགོག་དམག་འཁྲུག་
གོ་སྐབས་དམ་འཛིན་
གཞས།
འདན་
རུད་
ོད།།
▁རས་
གསོར་
འདིས།
འབྲེལ
རྫོབ་
ལྭ་བ་
དང་དུ་
བཟང་པོ
▁ལྷུང་
▁སྒོམ་
ཁོ་བོའི་
བར་གསེང་
རླབས་པོ་
ལ་བརྩིས་
ལོ་ཟླའི་
ཁྱུ་ཚོགས་
གོ་བ་ལེན་
དུ་བཏང་བ།
བྱེད་ཕོད་
ཞུས་ཤིང་།
གནམ་ཐང་དུ་
འདི་ལྟ་བུ་
དང་ཆ་འཕྲིན་
▁འཛིན་བཟུང་
བྲག་ཡིབ་ཆུས་
ཐུམ་འབུའི་ནད་
དང་བེད་སྤྱོད་
ལ་གནོད་སྐྱོན་
སློབ་སྦྱོང་ལ་
གཏོང་རྒྱུ་རེད།
ཚག་
སྤེན་
ཨ་རག་
སྒོ་ང་
བཅས་ནས་
བྱ་ཚིག་
▁ལོན་པ་
ཁྱད་བསད་
ལེགས་ཆར་
ལྟ་བཤེར་
▁ཀན་ལྷོ་
▁གྲོང་ཁྱ
མཚོན་དོན་
▁ལག་ཁྱེར་
བརྩི་བཀུར་
མཉམ་འཛོམས་
རྩལ་བརྩམས་
▁སྐུ་འབུམ་
མཛེས་དཔྱོད་
▁སྐབས་འདིར་
གཏིང་ཟབ་པའི་
དུ་གྱུར་པའི་
ལ་བརྩི་བཀུར་
དང་རྩྭ་ཐང་གི་
ནུབ་ཕྱོགས་ཀྱི་
འགོ་ཚུགས་པ་དང་
དང་འབྲེལ་འདྲིས་
ཆེམ་
ཕོ་ཉ
ནར་མ་
ཀྱིས།།
ཁེ་ལན་
སྨད་དུ་
ཐོན་ཟོག་
དགོས་པས།
དུས་ཆེན།
རྒྱན་དུ་
སྐྲན་ནད་
▁རྣམ་ཐར་
▁ལྷན་ཁང་
▁སྔོན་མ་
དམར་གསོད་
འགོ་རྩོམ་
རིག་མཛོད་
གསུངས་དོན།
ནང་ཁུལ་དུ་
ཕྱིར་སློག་
སྒྲིག་ཡིག་
▁གནད་སྨིན་
མཐོང་བྱུང་།
སྡོད་ཁང་གི་
སྤྲད་པ་དང་།
▁དུས་རྒྱུན་
རྦབ་
རྩོམ
སི་ཐ
ཐུབ་ན་
བརྒྱར་
མ་ཐུབ།
ས་གདན་
ནན་ཅིང་
མངའ་ཐང་
ལོ་ལོན་
སོང་བར་
ཕལ་ཆེ་བ་
སྙིང་ནད་
ཁྲི་བདུན་
ཅེས་པ་ནི་
དགོས་ཀྱི་
▁དེང་དུས་
▁འཚོགས་པ་
བྱེད་རྩིས་
▁འཆད་ཁྲིད་
གོང་འཕེལ་ལ་
ཆོས་དབྱིངས་
▁དེ་ལྟ་བུའི་
ལས་བཤད་རྒྱུར།
ཚུད་ཡོད་པ་རེད།
སྲིད་གྲོས་ཀྱིས་
ཅུར་
མོས།
▁རྨོ་
ཉིད་ལ་
གནང་གི་
འཐུང་ན་
▁གནས་པ་
དགེ་རྒན།
མངོན་དུ་
ཡོང་ཁུངས
▁གླུ་གར་
རྐང་རྗེས་
▁དགེ་མཚན་
▁དྲོད་ཚད་
རྔམ་བརྗིད་
ཚོ་ཆུང་གིས་
▁དངུལ་གཏོང་
▁ཞབས་འདེགས་
▁བཅོས་སྒྲིག་
▁འཁོར་སྐྱོད་
▁རིམ་རྩིས་བྱས་ན་
ཏོར་
ལན་ཆ་
པས་མི་
ལྟ་བར་
▁གདེང་
གོང་བུ་
ལྷ་ཁང་།
སང་ཉིན་
▁ཐེ་བོ་
དུས་མཉམ་
བླང་དོར་
ཕན་བདེའི་
འཇོན་ནུས་
ལས་བཟོའི་
དབྱིན་ཡིག་
མཛད་འཕྲིན་
སེམས་དཔའི་
ཨུ་ཡོན་གྱི་
གྱི་གནད་དོན་
སྐུར་ངོ་གཏུག་
གཟུང་
འབུལ།
▁སུན་
སླེབས་པ་
▁ཟླ་བའི་
གྱོང་གུད་
ཐོགས་པའི་
བདེ་ཐང་ལ་
ཞིང་པ་ལས་
ལ་བརྒྱུད་
སྦྲེལ་ཐག་
▁གོང་གསལ་
▁དེའི་ཚེ་
▁བརྡ་ཁྱབ་
ལྷུན་གྱིས་
▁གྲྭ་བཙུན་
▁དོན་སྙིང་
བཟོ་དབྱིབས་
▁ཡན་ཅིན་ཧའེ་
བརྟག་ཞིབ་གནང་བ།
▁ཕྱོགས་གཉིས་པོས་
ཚེ།།
▁བཤད་པ
▁ཟིན་པ
ཆུ་ཤུར་
དང་སྨན་
▁བཤད་པ་
▁ཨ་མདོ་
མདོ་སྡེ་
མེད་ཟེར།
རིས་ཀྱི་
▁གཉིས་ཀ་
▁བླངས་པ་
ངོས་བཟུང་
ཙུང་ལིའི་
སོག་རིགས་
འགག་སྒོའི་
འདེབས་ཀྱི་
ལས་གནས་སུ་
རིམ་པ་བཞིན་
སྒོ་ཀུན་ནས་
ཁེར་རྐྱང་གི་
རུ་ཆེན་གྱིས་
▁དངོས་འབེབས་
▁སྤྱི་སྤྱོད་
ཚད་མ་རིག་པའི་
ལ་བསླེབས་ཡོད།
▁འདས་ཟིན་པའི་
ཁ་གས
སྦར་
▁པའི
▁ཤྭ་
བཤགས་
ཏང་ཨུ་
ཟུར་པ་
▁གསོག་
ཆོག་གི་
མཛད་དོ།
ཆེན་མོ་བ
བྱ་བ་དེ་
ུན་གྱིས་
▁ཆེ་ཤོས་
▁ཨུ་ལྷན་
ཆུང་ངུའི་
ཡོད་པ་ལས།
▁ཁྱོད་ནི་
▁གསུངས་པ་
▁ཏང་ཙུའུ་
▁ཤེས་དཔལ་
▁སྤུན་ཟླ་
དང་ཁོང་གི་
ཕན་ཚུན་བར་
བརྒྱད་ཉིན་
རུས་རྒྱུད་
ལས་ལ་བྲེལ་
▁བསྐྲུན་པ་
▁གྲོང་བརྡལ་
ཏང་ཀྲི་པུའི་
བ་བཅས་བྱས་ནས་
འཐབ་རྩོད་ཀྱི་
ལྷོ་ཕྱོགས་ཀྱི་
ཚན་རིག་རྟོག་ཞིབ་
▁མཐ
▁ནུ་
ངོའི་
འཇུས་
རློན་
ལཱའི་
▁འཇར་
མ་རེད་
ཐུགས་ལ་
ཟླ་འོད་
ཕྱིན་ཏེ་
བཅུ་ལྷག་
བརྒྱུགས་
ཞབས་ཕྱི་
གཡོ་འགུལ་
དཔེ་ཁྲིད་
ཕྱི་དྲོར་
ཟུར་ཁྲིད་
སྨིན་པའི་
དྲན་བྱུང་།
འགན་སྒྲུབ་
སྲིད་གཞུང་ལ་
བཤམས་མཛོད་ཁང་
མཐའ་འཁྱོངས་ཀྱིས་
.)
སྐྱག་
བགེགས་
ལྷ་དང་
ཀོང་པོ་
གྱུར་པ།
དུས་དང་
འབར་གས་
ས་དེའི་
▁གླེང་བ
▁རེ་རེ་
ཁྲི་ལྷག་
ཐབས་བྲལ་
བགྲང་བྱ་
དཔོན་གྱིས་
▁ཐུར་ཁེའི་
ཉམས་མྱོང་དང་
བསྒྲིགས་པའི་
རླབས་ཆེ་བའི་
ལག་བསྟར་བྱས་
ལས་ཞུགས་ཀྱི་
གསེར་རི་དངུལ་
གཞོན་ནུ་ལོ་ཆུང་
སས་
ཨའི་
ལས་གཞི
▁ཁང་བ་
གནས་བབས་
ཉེ་འཁོར་
རྒྱལ་ཚབ་
གོ་རྟོགས་
བ་ཞིག་ཏུ་
རྒྱུ་ཡོད།
གོ་རིམ་ཨང་
མཛད་པ་དང་།
འདྲེན་གྱི་
ལ་ཁ་ཕྱོགས་
ལྷོད་གཡེང་
སྔོ་འགྱུར་
▁ཐལ་སྤྱོད་
ནི་མི་རིགས་
འཛམ་གླིང་ལ་
ལས་ཁུངས་སུ་
སོགས་ཕྱོགས་
དང་ཞིབ་བཤེར་
▁དཔྱད་གཞིའི་
འགྲོ་ཚུར་འོང་
▁ཞིང་འབྲོག་པ་
མང་དུ་ཕྱིན་ཡོད།
ཆས
ཐིག
རྩ།
ལྷ།
ཤགས་
▁ཚལ་
ཕ་མས་
སྣོལ་
ི་མོ་
ུའོ།།
གསར་བ།
བ་སྟེ།
ཚུན་ལ།
ཐ་ལིའི་
▁གསང་བ་
▁རྗེའི་
▁ལས་མི་
▁ས་མཐོ་
▁སྣང་བ་
པུའུ་ནས་
ཕྱི་མའི་
བག་ཕེབས་
འགོག་ཁབ་
▁ལི་ཀྲན་
ཁུངས་ཀྱི་
ཅི་ཡང་མི་
ཕྱིར་མིག་
བདེ་འཇགས།
ཟེར་བ་ནི་
ཡི་གེ་དང་
སྤེལ་ཡོད།
▁འགག་སྒོ་
▁འདྲ་མཉམ་
བྱས་པ་སྟེ།
སྐད་ཆ་ཤོད་
▁འདི་ལོའི་
▁རླབས་ཆེན་
▁རྩྭ་ཐང་གི་
མངོན་སུམ་དུ་
རང་ཁུལ་གྱིས་
གནང་བ་དང་འབྲེལ་
▁གྲོས་ཚོགས་ཐོག་
རེན།
འཚོར་
པ་སྟེ་
གཡག་རྔ་
དང་པོས་
▁ས་གཞི་
ལུས་པོར་
▁ཕེབས་པ་
གནད་འཁེལ་
གཙིགས་སུ་
གྲངས་ཀྱི་
▁སེམས་ཅན་
སྨན་ཁང་ནས་
རྨི་ལམ་གྱི་
ལ་དམིགས་ཏེ།
ལ་དམིགས་ནས།
▁སྤུས་ལེགས་
འགན་ཁུར་བའི་
▁བདེ་ཆེན་གྱི་
བྱེད་བཞིན་འདུག
འགྱུར་མེད་ཀྱི་
ཨམ་
བཤུ་
མདོང་
འཛོམ་
▁ཕུང་
བཞག་ན་
བརྟགས་
ཐོགས་པ་
པར་བྱས།
བསྣུབས་
ཁུན་མིང་
དཔལ་བཟང་
བསྡུས་པ་
རེ་བ་དང་
ཁྲག་རྩའི་
ན་ནིང་གི་
མཆན་འགོད་
ཧང་ཀྲོའུ་
ཨེ་ཤ་ཡའི་
▁སྡེ་ཁུལ་
འཛུམ་གྱིས་
རིགས་གསུམ་
རྒྱུད་སྡེ་
▁དམངས་ཆེན་
▁བཙན་པོའི་
▁རྟ་མགྲིན་
གཞུང་ཕྱོགས་
ཐུན་མོང་དུ་
བརྟན་པོ་དང་
འདི་དག་གིས་
ལ་བཀའ་དྲིན་
▁སྦགས་བཙོག་
གནས་སྐབས་སུ་
ཆེན་པོ་གསུམ་
▁སྒྲིག་བཀོད་
▁ཤེས་རབ་རལ་གྲི།
ཉིན་གྱི་སྔ་དྲོར།
འཚོ་བའི་ཆ་རྐྱེན་
སྨྱན་སྦྱོར་གྱིས་
▁མིག་སྔར་འདི་རུ་
པོས
གླིང
▁ཤེལ་
ཆགས་པ།
▁ལྷུག་
མ་བཅོས་
འབུ་ཕྲ་
ལྷ་སྐུ་
▁ཉེ་བའི་
གཙོ་ཁྲིད་
▁ཁོངས་མི་
▁སྤྱིར་ན་
ཕྱིར་སྡོད་
▁སྟེགས་བུ་
ལོ་རེ་བཞིན་
སྣང་མེད་དུ་
གྱི་འབྲེལ་བ་
ཕྱི་རྒྱལ་དུ་
ཧུར་ཐག་སྒོས་
▁ཡིག་རྒྱུགས་
བཅས་བྱེད་པའི་
▁ལོ་ནས་བཟུང་།
བརྡ་སྤྲོད་ཀྱི་
སྔོན་དཔག་བྱས་ན་
མིང་དུ་གྲགས་པའི་
ལྷག་གི་ལོ་རྒྱུས་
ཁང་བའི་
ལིན་ཐན་
▁སོ་མཱ་
ངེས་གཏན་
▁གོ་གནས་
▁འཕར་ཚད་
བཞུགས་ནས་
འདི་རིགས་
འཚོགས་ནས་
སྤུ་ཧྲེང་
▁ཆེས་མཐོ་
▁ཞི་མཐུན་
▁ལོ་ཙཱ་བ་
རྒྱ་གར་དུ་
▁སྐོར་ཞིབ་
དཔེ་དབྱིབས་
དུ་མེད་པའི་
▁གཅིག་སྡུད་
▁བསྟན་བཅོས་
▁བྱེད་བཞིན་པ
གཞུང་ལུགས་དང་
གྲས
ལོར
ཀིའི་
ཆེ་ལ།
བུ་ལ་
▁ཧའེ་
ཐབས་ལ་
མཐོ་བ།
▁གཅིན་
གིས་མི་
ནོར་བུ།
འཇོག་པ།
རབ་རིབ་
ལ་ཤུགས་
ལྟར་དུ་
སུ་ཡིན་
▁རྒྱུག་
གཅིག་ཙམ་
གསར་བཟོ་
མངགས་ནས་
ཚོད་ཀྱིས་
རྨང་གཞིར་
ལྷ་སྒྲུང་
མཉམ་བསྲེས་
རྒྱ་ནག་གི་
ལས་དོན་པས་
ཤེས་ལྡན་པ་
སྤྲིན་དཀར་
▁དེ་དག་ལས་
བརྒྱད་སྟོང་
བསྟན་པ་དང་།
འཆར་ལྡན་བུ་
སྡེ་ཁུལ་དུ་
▁མཇུག་འབྲས་
གོ་རིམ་ཁྲོད་
ལྗང་མདོག་གི་
▁ཁྱིམ་ཚང་གི་
སྔོན་ཐོན་གྱི་
གཅིག་ཏུ་སྒྲིལ་
གོ་རིམ་ཨང་སྒྲིག
རྩ་འཛུགས་བྱས་ཏེ་
བཀས་
ཉུང་།
དེ་མ་
སྟེར།
ཧྲུལ་
བྱེ་མ་
ཡེ་ནས་
རྒྱུན།
ལ་དང་།
ས་ཁུལ།
▁ཧྲའན་
ཉམ་ཆུང་
བོད་ཟླ་
རང་དགར་
ལན་བཏབ་
▁ནན་པོ་
▁མཛད་པ་
▁འཛོམས་
ནད་བརྟག་
འཁོར་ལམ་
ཡང་སྙིང་
སིལ་ཏོག་
ཧྲི་ཀྲང་
▁ཚད་ལེན་
ཞུས་པ་དང་
ཕོ་བྲང་དུ་
▁དམིགས་ཚད་
▁དངུལ་རྩའི་
▁བོད་རིག་པ་
▁སློབ་གྲྭར་
མཁས་པའི་དགའ་
ཚ་ཚ་འུར་འུར་
ལ་གྲུབ་འབྲས་
▁ཕ་ལེ་སི་ཐན་
གསོ་སྦྱོང་གི་
གྱོད་གཞི་ཞིག་
▁འཕྱོངས་རྒྱས་
ཕྱོགས་གཅིག་ནས་
འཁྲབ་སྟོན་གྱི་
རུ
བ་མ་
▁སྒྲ
གྲུག་
འཕྱི་
▁རྒས་
ཕུལ་བ།
ཞིང་ཁ་
སྙན་ཞུ
ཀྲུང་གོ
ཅི་ཡིན་
འགག་རྩ་
རྟག་པར་
སྲིད་ལ།
དུ་བཏང་།
བྱང་མའི་
འདུ་ཤེས།
སྔོན་མོ་
▁དམ་བཅའ་
པིན་གྱིས་
རིགས་ཤིག་
ལ་དགའ་བའི་
ལ་འབྲེལ་བ་
གྲོས་གཞིའི་
རྩོམ་པ་པོས་
ནས་ཕྱིར་བུད་
ཞིག་ཏུ་འགྱུར་
ཏུ་མ་བཟུང་བའི་
ཤར་གཏོང་ཐུབ་པའི་
སློབ་ཐོན་སློབ་མ་
ཡུག
གྲུ་ཁ་
བཅས་ལ།
བྱ་ཐབས
▁ལྗིད་
དར་རྩེ་
པོ་དང་།
བཞི་ཡི་
བསྐྱེད།
ཡབ་ཡུམ་
གཤེན་རབ་
ནི་ཧ་ཅང་
སུའུ་ཏན་
སྤྲད་ནས་
ཉམས་རྒུད་
▁མཚན་ཉིད་
▁འབྲས་བུ་
འཛིན་སྟངས་
ལོ་སར་གྱི་
སྐྱིད་གྲོང་
ཞབས་ཞུའི་མ་ལག་
ང་ཅུན་ཀྲེང་གིས་
བྱ་དགའ་ཨང་དང་པོ་
▁རྦ
དོས་
གྲུང་
དམོད་
ས་ཡི་
ལ་བརྡ་
ལང་ལོང་
ལས་རེས་
ཀླད་པའི་
མིག་དབང་
སྤུས་དག་
▁འབྱུང་བ་
དུ་གཏོང་བར་
བྱ་དགའ་ཐོབ་
འགྲན་བསྡུར།
▁གཡུང་དྲུང་
▁གློག་ཤུགས་
བདེ་འཇགས་ངང་
བསྒྲུབ་དགོས།
▁ཅོ་ནེ་རྫོང་
ཡིན་པའི་ཕྱིར།
མཉམ་འབྲེལ་གྱི་
གཅིག་གྱུར་གྱིས་
ཐམས་ཅད་མཁྱེན་པ་
གཅིག་སྒྲིལ་གྱིས་
▁ཆོ་
▁ཐོག
བེ་ཤ་
མིའམ་
ལ་བོ་
▁ཐིག་
ཁབ་ཏུ་
མར་མེ་
པའི་ལམ་
▁དྲིལ་བ
▁འགལ་བ་
དཔའ་བོར་
རིགས་པས་
རེས་མོས་
རྩོམ་རིག
▁ལེགས་པ་
མ་ཡིན་ཏེ།
སྒྱུ་མའི་
སློབ་གནས་
▁ཕྱུགས་ལས་
▁སྲོལ་ཡིག་
བསྟན་འགྱུར་
སྒྱུ་རྩལ་པ་
ཐུགས་ཁུར་དང་
སྨན་ཁབ་རྒྱག་
▁སྲིད་ཁྲིམས་
འགོ་ཁྲིད་འོག་
འཐབ་ས་དང་པོར་
ཡིན་པའི་ཆ་ནས།
གྲོས་བསྡུར་བྱས།
བོད་ལྗོངས་ཀྱིས་
ལག་བསྟར་བྱས་ནས་
ཆོས་ཀྱི་རྒྱལ་པོ་
འདྲ་མིན་སྣ་ཚོགས་
ཤུགས་སྣོན་བརྒྱབ་
ེག
ལེ།
བརྡ།
▁ཉར་
དེའུ་
བཏུལ་
▁མངལ་
བཏང་ན་
མཆི་མ་
▁འཁུར་
གོར་མོ་
ཟབ་པའི་
བཏོན་ཏེ་
མཐུན་པར་
སླེབས་པ།
གཅིག་པུར་
སྤྲོ་བའི་
▁ཤེས་རིག་
▁སྣང་ཚུལ་
བདེ་ཐང་དང་
བྱིས་པ་དང་
སྒྲ་སྦྱོར་
▁དངོས་གནས་
གནད་ལ་འཁེལ་
གོ་སྐབས་སུ་
བསྒྲུབ་པའི་
▁རྒྱལ་དམངས་
གཞུང་དོན་ཐིང་
ལས་འགན་སྒྲུབ་
ཆེད་ལས་མཉམ་ལས་
སྡེ་ཁག་སོ་སོས་
།།བོད་ལྗོངས་ཀྱི་
ཕབ།
▁སྙ
སིབ་
སྲས།
▁དལ་
ཆ་དང་
པས་ན་
པོའམ་
འབྱུང
ལུའི་
ལོ་ཀ་
ཉེ་ཆར།
ཞིང་།།
ཁོང་ཚོ་
གླུ་དང་
ཕྱི་ལོ་
མེད་ངང་
སྒང་གི་
▁མཁྱེན་
གཉིད་ལས་
དཔག་བསམ་
དབུ་མའི་
ལུགས་དང་
སྐྱོང་བ་
ཐུར་ཁེའི་
དང་བླངས་པ་
ལུགས་རྙིང་
གཙོ་བོ་ཡིན།
དང་འགལ་བའི་
ཚོགས་ཆེན་ལ་
སླེབས་པ་དང་།
མང་ཚོགས་རྣམས་
ཀན་ལྷོ་ཁུལ་གྱི་
གནད
འཐེ
བཞུ་
བེར་
འབར།
▁མཛད
▁འདྲ
བཏོད།
མཚོར་
▁གཉིས
▁ལའོ་
སྦྲིད་
སྲུང་།
ི་བའི་
ང་རྒྱལ་
▁གཞོན་པ
དགོས་སོ།
དབྱི་རན་
དེ་མཐོང་
སྣ་ཚོགས།
ེ་ཐེ་ནམ་
▁གན་རྒྱ་
▁དང་ཐོག་
ཇུས་འདོན་
དཔལ་གྱིས་
ནེ་པ་ལའི་
བླུགས་ནས་
ཞུགས་མཁན་
རོལ་མོའི་
སེམས་གསོ་
ཀྱི་ལམ་བུ་
གང་རུང་གི་
ཞང་ཞུང་གི་
འགྱུར་རྡོ་
རྒྱལ་སྤྱི་
▁དེ་འདྲའི་
ལས་ཐོན་པའི་
ཀྱི་རིམས་ནད་
དང་མཛུབ་སྟོན་
བཏང་ཡོད་པ་རེད།
སྤྱི་ཡོངས་ཀྱི་
ལ་མཇལ་འཕྲད་གནང་།
རིམ
ཟིག་
ལོ་ཧ
སིན་
དབང་།
བཤེར།
ཡལ་ག་
ཚ་བའི་
ཞི་ཁོ་
ལེན་པ་
ག་སྐུལ་
དམ་ཚིག་
འཕར་བར་
རྟ་རྩལ་
▁ཁོ་བོ་
དབུས་ཤར་
དབྱེ་ནས་
བཀོད་དེ་
▁དམར་པོ་
ཀྱག་ཀྱོག་
ལྟ་སྦྱོང་
▁ཁ་ཕྱོགས་
▁བརྒྱད་པ་
དགེ་བསྙེན་
བཀོད་གཏོང་
སྐྱེ་འཕེལ་
▁ཁོང་ཚོའི་
▁གདོད་མའི་
▁མཐོང་ཆེན་
▁ཞིབ་དཔྱད་
▁ཧུར་བརྩོན་
དུས་གཅིག་ཏུ་
ནང་སེམས་ཀྱི་
བྱས་པ་ལྟར་ན་
སློབ་ཆུང་དུ་
ལས་དོན་མི་སྣ་
▁འདུགཡོང་ཁུངས
བྱེད་མཁན་གྱིས་
པུའི་མགྲིན་ཚབ་པ་
མཚང་
འཛེར་
རྐེད་
ལ་ནས་
▁ཆིག་
ཧྲུའུ།
▁རྒན་པ་
ཁུལ་གསར་
བདམས་ནས་
རིགས་སུ་
ལྷོ་ཁའི་
སེར་སྐྱ་
▁གང་ཞིག་
▁ཕན་ནུས།
བློ་སེམས་
མཛེས་ཉམས་
▁བུ་ཕྲུག་
▁འཁོར་ལོ་
དགེ་སྒྲུབ་
དེ་རིང་གི་
▁འཚོ་བཅུད་
ཀྱི་སྒོ་ནས་
གྲོང་མི་ཚོས་
རྩོམ་འབྲིའི་
སྔོན་ཆད་ཀྱི་
▁སི་ཁྲོན་གྱི་
ལྡན་པའི་འཚོ་བ་
གཙོས་གྲོང་ཁྱེར་
དོ་དམ་བྱེད་པའི་
མཐའ་མཚམས་དོ་དམ་
གར་སོང་ཆ་མེད་དུ་
ཕོའི་
ཧྲོང་
▁འོ་མ་
▁སྲིན་
དགའ་ཚལ་
རིགས་པ་
▁གདུགས་
གླེང་བར་
ཐིམ་པའི་
སྨུག་པོ་
▁སྤྱི་པ་
དྲུག་ཉིན་
ཕུན་ཚོགས།
ལ་བལྟས་ན།
བསྐོ་འཐེན་
ཚོང་འགུགས་
རྣམ་པ་རེད།
ལྟ་བུ་རེད།
ལམ་ལུགས་དང་
▁དེ་ལས་ཀྱང་
རྒྱུ་དེ་རེད།
སྐྱེ་ཁམས་ཀྱི་
▁རྒྱུས་ལོན་པ་
ཞིབ་འཇུག་སུའོ་
གསར་པ
▁ཚུར་
ནང་ཚན་
གཙང་བོ་
བཅས་དང་
རི་བའི་
ཁྱབ་ཡོད།
དར་རྒྱས།
བདུན་པར་
བཙན་ཤེད་
བརྡ་ཐོ་བ
ཟིན་ཐོར་
ཨན་ཧུའེ་
▁མིག་ཟུང་
▁ལོ་སྟོད་
ཐ་མག་འཐེན་
▁གྲོས་འཆམ་
▁མཁས་གྲུབ་
མི་ཆོག་པའི་
འགན་ཁུར་བས་
▁གཞིས་རྩེའི་
མཐའ་མཚམས་ཀྱི་
སྔར་ལས་ལྷག་པའི་
དུས་ཡུན་རིང་པོར་
▁ལས
ཕྱིང་
སྐོལ་
▁པའེ་
▁འཆམ་
རྣ་བར་
▁དྲིས་
▁ལྷོད་
འགལ་ཟླ་
ཡིག་ཆར་
ཡོད་ཚེ།
ལྔ་ཉིན་
▁ང་ཚོར་
▁དགའ་བ་
གསོན་པོ་
དང་དངུལ་
ནད་འགོག་
པ་ཡིན་ན་
བསྡུར་ན་
རུ་འཇུག་
ཁྲི་གཉིས་
ཧྲེང་གིས་
▁ལས་སྣོན་
གཡང་འཛོམས་
འཇོལ་རྫོང་
ལས་དོན་དེ་
སྤྲུལ་པའི་
▁དམངས་ཀྱི་
མཚོན་པ་དང་།
སྐབས་འདིའི་
དོན་རྐྱེན་བྱུང་
ཱང་
ཐོགས།
འཇིམ་
འཕོས་
ཀྲོའུ།
ཐལ་མོ་
ཞེས་པ།
▁ལོ་ན་
དོན་དེ་
གྲུ་ཁའི་
བཞུགས་སོ
འཛིན་དང་
ཡོད་འདུག
ལ་སྔར་བས་
རིན་སྤུངས་
ལྟ་བུ་ཡིན།
▁གསར་བརྗེ་
▁ཤེས་བྱའི་
ཆེན་པོ་ལྡན་
རྒྱང་རིང་གི་
མཉམ་འགོག་མཉམ་
འགྲན་བསྡུར་ནང་
▁འཁ
བཀབ་
ཨེ་ཛ
སྤྲང་
▁མངག་
མཆོངས་
སྐྲངས་
▁གཤོག་
▁གྲོལ་
▁ལུའོ་
ཤི་བའི་
▁བཞག་པ་
གསལ་ཞིང་
ཕྱག་རྒྱ་
བཀག་རྒྱ་
ཀྲི་པུའུ་
བརླན་སའི་
འཕྲིན་ལན་
སྐྱོང་བར་
▁ཡོད་རྒུ་
བདུན་བརྒྱ་
ཤིན་ཏུ་ཆེ།
སྦྱིན་པའི་
དཔུང་ཁག་གི་
ཞིང་ལས་ཀྱི་
གྱི་འདུ་ཤེས་
དང་འབྲེལ་ནས་
ཕྱོགས་བཞིའི་
▁འདི་ལོའི་ཟླ་
བརྒྱུད་རིམ་ནང་
བབས།
ལྔས་
ེ་ལེ་
འབྱོན་
ཤོར་བ་
▁མཆོང་
ཁྲག་རྩ་
བཤད་ཡོད།
མཚོ་འགག་
▁ཁྲིད་པ་
གྱིན་འདུག
ཆགས་ཤིང་།
བསྐྱལ་ནས་
ལ་བལྟས་ན་
ལམ་ཕྱོགས་
▁ཚོགས་ཁང་
རྒྱལ་སྟོན་
རྗོད་བྱེད་
▁རྒྱལ་རོང་
གནད་འགག་གི་
ང་དབྱང་གིས་
▁ཀྲུའུ་རིན་
དགོངས་འགྲེལ་
རང་ཁྱིམ་གྱི་
སློབ་མ་རྣམས་
ཀྱི་ལོ་རྒྱུས་
རླངས་འཁོར་ཞིག་
ཧིན་རྡུ་ཉི་ཞི་
བཅས་ཀྱི་སྒོ་ནས་
ཐུག
བསུ།
མ་ཟ་
ིའོ་
ཞི་བ་
འཐིབས་
རྩ་བར་
ལས་བྱ་
▁ཞུས་པ
བསྡུ་བ།
འབྲུའི་
ཡོད་དེ་
ཤོག་གི་
གསུང་གི་
རབ་རྒྱས་
ལམ་ལ་ཆས་
ལྟ་སྟངས་
དགའ་སྐྱོ་
བསྟན་པ་ལ་
བླ་སྤྲུལ་
ཚོན་མདོག་
སྐོར་བའི་
སྡེ་ཁག་ལ་
▁དུས་དེབ་
གཏོད་དགོས།
བྱེད་རིང་།
མ་ཐུབ་པའི་
འགྲུབ་པའི་
ལོ་ཙཱ་བའི་
▁གངས་རིའི་
▁བཟོ་འགོད་
དེ་ལྟ་བུའི་
བསྒྲིགས་ནས་
མི་བདེ་བའི་
འཕེལ་རྒྱས་ཐད་
▁མིག་སྔའི་བར།
མཚོན་བྱེད་ཀྱི་
ཕྱོགས་དང་མཉམ་དུ་
མིལ་
མཛད་པ།
ཡོང་བ།
སྦྱིན།
དབང་ཕྱུག
ཞིག་ཡོད།
ཧོ་རྫོང་
▁དྲག་ཆར་
▁ལིན་ཐན་
གན་རྒྱའི་
ཐིན་གྱིས་
དབྱར་དུས་
རྙིང་མའི་
སྲོལ་བཟང་
གྱེར་འདོན་
སྣ་ཚོགས་ལ་
▁དངོས་གཞི་
དཔེ་མཛོད་ཁང་
ཁྱད་དུ་འཕགས་པའི་
ཕྱོགས་གཉིས་པོའི་
བདེ་ཆེན་ཁུལ་གྱི་
ཞིབ་དཔྱད་ཚད་ལེན་
ང་ཞའོ་
ཇེ་ཞན་
རི་མོ།
ཀུན་ལས་
ཐུང་ངུ་
དང་དོན་
གསེར་རྟ་
ཐར་གྱིས་
ནག་ཆུའི་
རུ་ཁག་ལ་
རྒྱལ་ནང་
ཁ་ཚ་དགོས་
ཆུ་འདྲེན་
སེང་གེའི་
གསོལ་མཆོད་
ཏང་ཡོན་དང་
ཚབ་བྱས་ནས་
འགལ་རྐྱེན་
ལག་རྩལ་དང་
▁བསྐྱོད་པ་
▁ཚོགས་ཐོག་
▁མཉམ་འདྲེས་
▁འབྱུང་ཡུལ་
▁སྙན་ངག་གི་
ཞེས་པའི་དོན་
འཁྲབ་ཁྲིད་པ་
སྒོ་བྱང་བཀལ་
ཞབས་བྲོ་འཁྲབ་
སེམས་ཁམས་ཀྱི་
ལོའི་ཀྲུང་གོའི་
ཏང་རྩ་འཛུགས་ཀྱི་
ཞེས་གསུངས་པ་རེད།
ཟོ་
ཁ་ཆེ་
བསྟར།
▁བཅད་
མིན་ལ།
རྡེའུ་
ས་པའི་
▁ལྔ་བ་
ཁ་ལོ་བ་
གོ་འཕང་
བཟོ་ལྟ་
ཟས་ཀྱི་
འདྲ་བར་
ཡུལ་ལྷ་
རང་བཙན་
བཞིན་དུ།
བརྩོན་པ་
▁ནང་ཁུལ་
▁ཡེ་མིན་
མིང་སྲིང་
ལུང་རིགས་
ཤོག་གྲངས་
ཞིང་ནང་དུ་
ཡུལ་ཡིན་པ།
རྩོམ་འབྲི་
སི་རི་ཡའི་
སྒྲ་སྒྱུར་
ཧྲུའུ་ཡིས་
བསྡུས་ཤིང་།
སྙན་སེང་ཞུ་
སྡོང་འཛུགས་
ཐེངས་གཉིས་པ་
བསམ་གྱིས་མི་
བསྐྲུན་དགོས།
ཧ་ཅང་དགའ་པོ་
▁ཀྲའོ་ལེ་ཅི།
གསོལ་བ་འདེབས།
▁མཚོ་ནུབ་ཁུལ་
ཁྱོན་ཡོངས་ཀྱི་
འཁོར་དང་བཅས་པ་
རབ་དང་རིམ་པའི་
བཅུ
ར་བར་
སྙོར་
དེས་ན་
ལག་གི་
སྣེའུ་
གནད་ཚིག
ཇེ་རིང་
ཏིང་ངེ་
ལག་རྩལ།
གངས་ཤུད་
ནད་ཀྱིས་
པའི་ཆོས་
ཚོང་རྫས་
རྟགས་སུ་
ལ་བསྔགས་
དངོས་འཐབ་
ཞབས་རྗེས་
འཁྱེར་ནས་
ཡིན་དགོས།
སྐད་གདངས་
འཕྱུར་བའི་
འཚོལ་བཤེར་
སླེབས་དུས་
▁གྲོན་ཆུང་
▁ནུས་རྒྱུ་
▁བདུད་རྩི་
དབོར་འདྲེན་
སྙོམ་སྒྲིག་
▁ནེ་ཀྲི་རི་
བཅུ་དྲུག་པའི་
བསམ་བློ་གཏོང་
ལམ་དུ་བསྐྱོད་
བཞིན་ཡོད་ཅིང་།
ཕྱོགས་སུ་བསྐྱོད་
ཁལ་
གྱོ
ཤལ་
▁ཚེ
ཆོག་པ་
སྦྱངས།
ེ་ནེ་ཙ
▁གཤིས་
▁ནེའུ་
▁ལྔ་པ།
འདོན་པ།
ལོ་སྟེ་
ཤུལ་དུ་
ཧྲང་ཧེ་
▁ཁ་བའི་
བསྟན་ནས་
འོད་གསལ་
རྫོང་ཁག་
▁ཐང་ཆེན་
ངོགས་ཀྱི་
དྲག་ཤུགས་
བསྟན་འདུག
ལྷ་ཁང་གི་
སྐར་རྩིས་
སྟོབས་དང་
▁བོན་གྱི་
▁ལྟ་སྐོར་
གཞུང་བཞེས་
བློ་སྦྱོང་
འགོག་སྡོམ་
སྙན་འཇེབས་
▁དེ་ལས་གཞན་
དུ་འགྲོ་བའི་
བྱས་ཡོད་ཟེར།
▁རྨ་ཆུ་རྫོང་
▁ཧུར་ཐག་གིས་
འབྲི་རྫ་གསུམ་
རྒྱུགས་འཕྲོད་
གང་ལེགས་བྱས་ཏེ།
སྤུས་ཚད་མཐོ་རུ་
རྩ་འཛུགས་བྱས་ནས་
རྒ་
ཤིང
འཁང་
▁ཏག་
▁ཐུ་
སྟེགས
སྦོལ་
▁ཁུན་
▁གསུམ
▁ཆིན་
སྐམ་ས་
པ་གཉིས་
ཟིན་པས་
འདུལ་བ་
ལ་བྲིས་
གོས་སྐུ་
བཀོད་ནས་
བྱས་མཐར།
རྒྱང་དུ་
▁ཅོར་ཏན་
▁བརྒལ་བ་
ཀྱིས་ཀྱང་
དབང་པོའི་
དྲིན་ཆེན་
ཡུལ་འདིར་
▁སྒོས་སུ་
བསམ་འདུན་མ་
སྤྲུལ་སྐུའི་
དངོས་ཡོད་ཀྱི་
ཚན་རིག་ཁང་གི་
འབྲོག་ཁུལ་གྱི་
མི་དམངས་སྨན་ཁང་
ཡིད་དུ་འོང་བའི་
སྲུང་སྐྱོང་དང་།
བརྒྱུད་རིམ་ཁྲོད་
བྱས་ནས་གྲོས་འཆམ་
འདུས
▁སྐེ་
མ་ཟེར་
ཚན་པར་
▁བསྡད་
▁རྙེད་
▁ཨེ་ཤ་
ངོ་བོར་
དཀྲུགས་
མ་རྙེད་
ཕྱིར་རོ།
བྱ་སྤྱོད
མི་སྤྱི་
ར་བ་གྲུ་
རྒན་ཡོལ་
ཧན་གོའི་
ཐེབས་ཡོད།
ཐོན་པ་དང་
འོད་མདངས་
རྒྱལ་སའི་
དུ་བཏང་ནས།
རྗེ་ཙོང་ཁ་
སྒྲོལ་བའི་
▁གྲོས་འགོ་
▁ཆོས་རྒྱལ་
ཀུའེ་ཀྲོའུ་
ཐོག་དང་པོར་
▁རྫོང་ཡོངས་
▁སྒོ་འབྱེད་
འདས་ཟིན་པའི་
གནས་ཚུལ་དངོས་
རྨང་གཞི་བརྟན་
ཤར་ཕྱོགས་ཀྱི་
▁བརྩོན་འགྲུས་
དང་བཀོད་སྒྲིག་
བྱ་བའི་སྙན་ཞུ་
བྱེད་རྒྱུ་དང་།
དྲིལ་བསྒྲགས་ཀྱི་
ཚད་ཡོད་འགན་འཁྲི་
སྐྱེལ་འདྲེན་གྱི་
འུ
ཤེས
ལྟད་
པོའང་
ལེའང་
ཆང་རག་
ཉེན་ཁར་
པའི་ཚེ་
བརྡུངས་
ཀློང་དུ་
གླིང་དང་
ཉིན་གུང་
ཏུང་གིས་
ཞོ་སྟོན་
▁དོ་ཁུར་
གཉིས་ཉིན་
གདུང་རབས་
ཙམ་ཡང་མི་
▁བྲག་དཀར་
ན་མེད་པའི་
སྡེ་དགུའི་
དབང་བསྒྱུར་
▁སྐུལ་སློང་
ཁོར་ཡུག་ཅིག་
གི་ལོ་རྒྱུས་
ཟིན་གྱི་ཡོད།
▁ཉི་ཟླ་རྫོང་
རྫོང་ཁོངས་ཀྱི་
འགོ
རྫས
ལོམ་
གིས།།
ཕ་རི་
བཙའི་
▁ལྟོ་
ཞུ་དག་
འབྲོམ་
ལམ་ལམ་
ཁྲི་ལོ་
མི་ཚོས་
རང་མཚན་
ལ་བདམས་
མངའ་བདག་
ཞུས་ཡོད།
འཆར་འགོད
རྟ་མཆོག་
▁བཙུགས་པ
གླིང་གིས་
བསྟན་དོན་
མོའུ་པའོ་
འགོར་བའི་
ལམ་བར་དུ་
▁བརྩམས་པ་
▁ཚོང་ཟོག་
དངོས་ལུགས་
དམའ་འབྲིང་
མ་འགོར་བར་
མི་བྱེད་པ།
▁ཁུལ་ཡོངས་
ཁྱིམ་རྒྱུད་
ཇི་བཞིན་དུ་
བསྡུ་སྒྲིག་
མཁས་ཅན་གྱི་
མགྱོགས་པོར་
འབྱུང་སྲིད།
ལྟེ་གནས་དང་
སྒྲུབ་བྱེད་
ཨུ་ཡོན་དང་།
▁སངས་སྐྱབས།
རྨོས་ལོ་ཏོག་
ལས་གཏོད་ཀྱི་
གཞིར་བཟུང་ནས།
ནར་མ་སོན་པའི་
ཞུ་བའི་ཚོགས་ཆེན་
འཚོ
ནི་ཡ་
ི་རག་
མ་གནས་
འཐུངས་
▁གཅོད་
▁བཟོད་
ཀང་གིས་
གར་གྱི་
ཆོ་གའི་
མེད་དོ།
རིག་པས་
ུ་གུའི་
དྲོན་མོ་
བརྒྱད་ལ་
ཡིད་གཟབ་
གནམ་གྲུར་
ཚོམས་ཆེན་
སོག་པོའི་
▁ཉུང་མཐར་
▁རྩལ་ནུས་
རྒྱུ་མ་ཟད།
▁དགེ་ལུགས་
ཆེར་བསྐྱེད་
བར་བྱེད་པའི་
བྱེད་མི་རུང་
མིང་ཐོ་འགོད་
ཚད་ལྡན་ཡིག་ཆ་
གཏོང་རྒྱུ་དང་།
ཐུབ
བསད།
བྲིས
ལིམ་
སྲོལ
▁ཞན་
པས་ན།
ཐ་ཚིག་
ཞལ་ཐང་
འཕྲོར་
▁བཙོག་
གལ་ཆེན།
ཉི་ཧོང་
ཐར་ཐོར་
བོ་ཞིག་
མཐའ་ཡང་
ཡོད་དོ་
སླད་དུ་
▁ལྟེ་བ་
གཉིས་ཀས་
ཆུ་མཛོད་
བཞུགས་པ་
མི་སེམས་
ཞེས་ཟེར།
རྒོད་པོ་
རྒྱུད་པ་
རྩེད་ཐང་
▁ངལ་གསོ་
དྲི་བསུང་
མཐའ་འཁོར་
འཁོད་ཡོད།
ཡིན་པ་ལས་
▁ཁུལ་གྱི་
▁གླུ་གཞས་
▁ཏོག་གསར་
▁མི་ཤུགས་
བྱུང་བ་ནི་
འགྲོ་འདུག་
▁ཀྲུང་གོར་
▁གནས་མཆོག་
▁ཉེས་གསོག་
ཚབས་ཆེ་བའི་
སྐྱོབ་བཅོས་
བསྒྲུབས་པའི་
ཞིང་འབྲོག་པ་
འཕྲིན་སྦྱོར་
▁རྒྱང་སྐྱོད་
▁ལེགས་སྐྱེས་
▁དེང་རབས་ཀྱི་
ལ་ཕྱོགས་ཡོངས་ནས་
ལོ་རྒྱུས་ཐོག་གི་
རྒན
ཁྱིམ
ག་པ་
▁()《
དངུལ།
དེའོ།
▁གྱང་
ཁག་ནས་
ཕྱེ་མ་
སྨྱོན་
▁བཞུར་
ཉི་ཟེར་
ལ་བསྡད་
ནོར་བུས་
མིང་བྱང་
འདོད་ཡོད།
རྟགས་མཚན་
གཟུགས་མེད་
དཔྱད་དཔོག་
བསྒྲུབ་པར་
མིང་འདོགས་
ལས་རིགས་ལ་
▁དུས་མཚམས་
▁མཐོ་སློབ་
བཟོས་པ་དང་།
རིགས་ཁག་གི་
▁བརྩེ་སེམས་
གཙོ་གནད་ཐོག་
གོང་འཕེལ་དང་
ཚོམས་ཆེན་དུ་
▁རྒྱ་བསྐྱེད་
པ་བཅས་བྱས་ནས་
མཉམ་འབྲེལ་སྒོས་
ངོས།
བེའུ་
ཆས་དང་
མི་མང་
ཡང་དང་
སི་ཏུ་
ེ་བོང་
▁ལོ་ནས
གསར་དར་
ནམ་མཁར་
ཞིན་ཅང་
མཁར་གྱི་
ཚིག་གིས་
ལ་བརྗོད་
▁གཅོད་པ་
▁མཐོ་ཚད་
ཁག་དང་པོ་
མ་ཡིག་གི་
རྒྱུ་ཆའི་
སྒོ་རྩིས་
སྤྱི་ཁོག་
▁ཁོ་མོའི་
མཚུངས་ཀྱི་
▁གྲངས་འཛིན་
རིག་གནས་ཤུལ་
སློབ་གསོ་ལག་ལེན་
བགྱ
ཁ་བས་
མ་ནས་
▁ཁ་ན་
དུས་ལ་
རི་དང་
སྐྲོད་
▁ལོ་ས་
ཁ་ཤས་ལ་
ཁྲི་ཙམ་
ངོས་ནས།
ཐོན་མི་
ཞེ་སྡང་
▁བརྗིད་
གནས་སའི་
བར་བྱེད་
ཡུན་ཧྲན་
ས་ཕྱོགས་
ཁྱེད་ཉིད་
གི་ནུས་པ་
ཕྱག་བྲིས་
སག་སི་ཐན་
ཞེས་བརྗོད།
སྤྱོད་གཙང་
▁འདམ་གཞུང་
དུས་ཆེན་དང་
དེ་བཞིན་དུ་
ཟོག་འགྲེམས་
འཛུགས་དགོས།
རྒྱུ་ཡིན་ལ།
▁གཟི་བརྗིད་
པ་དང་མཉམ་དུ་
རིག་གཞུང་གི་
གཅིག་པའི་བོད་
རྗེས་སུ་འབྲང་
ཉིན་གྱི་ཆུ་ཚོད
དུད་ཚང་དབུལ་པོ་
ནི་རང་རྒྱལ་གྱི་
མདུན་སྐྱོད་ཀྱི་
ཚོགས་འདུ་འཚོགས།
དྷ་
ལྟར
གླག་
གྷི་
མཉན་
མཐོ།
ར་ལ་
ོན།།
▁ཚེས
གཏུབ་
གྲོས།
ལ་ཐེ་
དྲེགས་
ཞལ་ནས།
འགྲོ།།
ཡི་རང་
ཁམས་སུ་
ཡག་པོར་
▁ལེན་པ་
བསྐོར་བ་
ལོ་ཚིགས་
སྐར་ཁུང་
▁རྩ་དོན་
▁ལས་འགོ་
དབྱར་མཚོ་
བདུན་ཉིན་
བརྩམས་པའི
འགངས་ཆེན་
རྣམས་དང་།
སྐབས་ཤིག་
པ་ཞིག་ཀྱང་
ཤེས་བྱ་དང་
སྙིང་པོའི་
སྤུན་མཆེད་
ཇེ་སྡུག་ཏུ་
དབང་དུ་བཏང་
མདུན་ལྗོངས་
ཚེས་བཅོ་ལྔ་
བརྒྱུད་སྤེལ་
ཁྲེང་ཏུའུ་རུ་
དང་ལྷག་པར་དུ་
ཧུར་ཐག་བྱས་ནས་
འཕེལ་རྒྱས་མྱུར་
གསར་འགྱུར་ཁང་གི་
བྱིན་གྱིས་བརླབས་
འདུ་ཤེས་བརྟན་པོ་
ཤོས
འཕྲིན
▁ཆབས་
▁ལགས་
ཕོག་པ་
བསུ་མ་
བློ་ལ་
ཚོང་པ་
འཚང་ཁ་
▁ཀྱིན་
དེ་ཉིན་
མཐའ་ནས་
རྒྱ་ཆེ་
སློབ་མ།
ཅུད་ཀྱི་
སིལ་ཚོང་
རང་བརྟེན་
སྦྲེལ་ནས་
▁དཔྱིད་ཀ་
བའི་སྒོ་ནས་
▁ཟུང་འབྲེལ་
ཐག་གཅོད་པའི་
▁ཀུའེ་ཀྲོའུ་
▁སོ་ཏི་ཨ་རབ་
གྲོང་ཨུད་ཀྱི་
ང་ཏུང་མིང་གིས་
མེད་དུ་མི་རུང་
▁ཕྱི་རྒྱལ་གྱི་
དོ་དམ་ཚོད་འཛིན་
ལ་སློབ་སྦྱོང་དང་
ེང
ཚོར
ལགས
ུར།།
▁ཟི་
ཇི་མ་
མེའི་
ལུའེ་
▁ཁེངས་
གཡར་ནས་
མཉམ་དུ།
རྣམ་པའི
▁གླུ་བ་
ཁྲི་ཆེན་
གསོག་ཉར་
གྱུར་ནས་
ཕེབས་པར་
ས་གང་དུ་
▁ཐག་རིང་
▁ཚོང་ལས་
པུའུ་དང་།
བདེ་སྡོད་
བརྒྱ་ཇུས་
མཁྱེན་རབ་
འབྲས་ཀྱི་
▁འཆར་ཟིན་
གཞུང་ཁོངས་
དང་ཐོན་ལས་
ཞེས་གསུངས།
ཐིང་གི་ཐིང་
ཚད་མཐོ་བའི་
ཡིད་དུ་འོང་
▁ལོའི་ཟླཔར་
ཁུལ་རིམ་པའི་
དོན་འཁྱོལ་ནན་ཏན་
རིག་གནས་དར་སྤེལ་
གཞས
རྡང་
ལྡན་ལ།
▁སྦྲུམ་
གཉིས་བར་
དཔག་མེད་
ཕྱི་དྲོ།
བགོས་ནས་
མཐོང་ནས་
སམ་ཡང་ན་
སྒོ་ཕྱེས་
དང་བཅས་ཏེ་
ཕྱི་དྲོའི་
བདེ་ཐང་ངང་
འདེམ་བསྐོ་
ེ་ནེ་ཙུའེ་
▁ཤུགས་ཆེན་
ནི་རྒྱལ་ཁབ་
མང་ཤོས་ཀྱི་
▁མཐོ་འབྲིང་
ནོར་སྲིད་ཀྱི་
▁སྤྱི་ཟླཔའི་ཚེས
གོག་
▁ཐུང་
▁ཡངས་
▁ལོན་
ས་དང་།
▁བཤེས་
▁སྨིན་
མཛད་པར་
▁དེ་གར་
▁ལྷོ་མ་
འདི་སྐད་
རེས་ཀྱི་
ལམ་སྟོན་
▁དག་ཐེར་
པར་འགྱུར།
མི་བརྗེད་
རོལ་མྱོང་
ལུས་ཟུངས་
▁བཟའ་བཅའ་
།།བོད་ཀྱི་
ཅེས་གསུངས་
ཕུལ་བ་རེད།
སྒྲིག་བཟོ་
སླེབས་པ་དང་
འཁྲུག་ཆ་དོད་
རིང་ལུགས་དང་
▁མཐོ་རྒྱུགས་
དགོས་ཀྱི་ཡོད།
བསྐྲུན་རྒྱུར་
ཞིང་འབྲོག་ལས་
▁བོད་ཁུལ་གྱི་
གཏམ་རྒྱུད་ཀྱི་
དང་སྟོབས་ཤུགས་
འཛིན་སྐྱོང་སྤེལ་
ལྐ
ཁ་ཏ་
འོན་
▁ཞིག
པེའི་
▁ལོའི
བསླེབ་
མིན་ན་
རེ་རེ།
རྩམ་པ་
གང་འཚམ་
ཐིག་གི་
▁ལྷ་ཁང་
ཁུར་བའི་
ནད་བཅོས་
བཀའ་མོལ་
ཟངས་ཀྱི་
ཡོད་སྟབས།
སྐོར་དང་།
དཔེ་བསྡུར་
བསླུ་བྲིད་
མཇུག་མཐའི་
སེམས་འདུན་
▁ཡིད་རྟོན་
གཞིས་ཀ་རྩེ་
བཅུ་བཞི་པའི
▁གཞན་ད་དུང་
▁གློ་བུར་དུ་
བྱ་བ་བཟང་བོར་
འཕྲོད་བསྟེན་གྱི་
▁གཙོས་གྲོང་ཁྱེར་
བཅས
མམ་
▁འ་
འཕན་
བརྒྱག་
བསྒོམ་
ཅག་གིས་
བསྙེགས་
འདི་ལྟ་
རིག་པར་
རྒད་པོ་
རྒན་མོ་
སྐྲ་ལོ་
▁།དེའི་
ཆུ་ཤུགས་
དུ་གྱུར།
བྱ་བ་ནི་
མ་གཏོགས།
མང་དྲགས་
མི་འདུག།
འབུལ་ཞུ་
ལག་ཐོགས་
▁ངས་ཀྱང་
རྣམ་རྟོག་
ལ་བསྐྱོད་
སྡུག་པའི་
▁ཨན་ཧུའེ་
རླབས་ཆེའི་
ལས་བརྒལ་བ།
▁མིང་རྟགས་
ནགས་ཚལ་གྱི་
འཕྲལ་སྒྲུབ་
ཡུལ་ལས་འདས་
ཉུང་དུ་ཕྱིན་
ཐུབ་པར་མ་ཟད།
ནུས་ལྡན་གྱི་
རྩེ་གཅིག་ཏུ་
སྦྱོར་ཕྱི་མ་
བྱ་དགོས་ཤིང་།
▁ཡུལ་དངོས་སུ་
▁སྐབས་དེ་དུས་
མིའི་ཚོགས་ཆེན་
འགོག་གེགས་སེལ་
▁སློབ་ཁྲིད་ཀྱི་
འི།།
▁ཏན་
བཞེད།
ཙིའི་
ཨ་ཏི་
▁གྲལ་
ཁ་འབབ་
ཚོ་དང་
ལས་ཤག་
སྐད་ལ་
བཟའ་མི་
▁ཕ་རོལ་
▁ཚོགས་པ
དྭ་ཕྲུག་
བསླབ་གཞི་
མཐོང་ཆུང་
རྩེ་གཅིག་
སུ་འགྱུར་
ུའུ་ཧན་དུ
གཡུ་འབྲུག་
མཛེས་རྒྱན་
ཆུ་རྫོང་དུ་
བཅུ་གསུམ་པ་
ཡོད་པ་རེད།།
▁བརྡ་སྤྲོད་
བརྒྱབ་པ་དང་།
བཤད་པ་ལྟར་ན།
ཚོགས་འདུ་དེ་
▁དམངས་གཙོའི་
དར་ཆ་མཐོན་པོར་
སློབ་མ་རྣམས་ལ་
ལྷག
ངུས་
བོ།།
བརྙན།
ལ་བསྙ
ཆ་མེད་
▁འཕྲད་
ཆོས་དད་
རྒྱུ་བ་
ལྷ་ལྡན་
ཧོར་ཟླ་
▁ཁོ་རེ་
གཉིས་ཙམ་
ཕྱི་རབས་
ཟབ་མོའི་
རྒན་པའི་
ཤན་ཤུགས་
▁ངག་དབང་
▁ཆེ་དགྲ་
གཏོང་ཆེད་
བ་ཞིག་གི་
ཟུངས་ཁྲག་
འབྲེལ་ཐག་
དང་བཅས་པས་
བཟོ་བ་དང་།
བརྒྱུད་ནས།
འཚོགས་ཚུན།
རིགས་སོགས་
དང་དར་སྤེལ་
ཚོགས་པ་དང་།
སྒྲིག་གཞིས་
▁གློག་འདོན་
རྔ་བ་ཁུལ་གྱི་
རྣམ་གཉིས་ཀྱིས་
གཅིག་ཏུ་བསྒྲིལ་
བཅིངས་འགྲོལ་དམག་
འཕྲལ་སྡོམ་དོ་དམ་
མའང་
ཡེར་
▁འགྲ
▁འམ་
ཁ་རུ་
དམུལ་
ལི་ཡ་
ཉེ་ལམ་
ཕུལ་བ་
བཅས་པ་
ཟོས་ན་
དགུན་ཁ་
དུང་གི་
ལོག་པར་
གནམ་གྱི་
དྲུག་པར་
འབྲི་ཆུ་
རིགས་ལམ་
ལོ་རྒྱུས
▁འཛིན་པ་
བདེན་པའི་
བཙན་འཛུལ་
བརྩིས་ནས།
མ་ཉམས་པར་
མང་ཆེ་བར་
འཕྲིན་ལས།
▁ཁྲག་ཤེད་
གང་ཡིན་ཡང་
གཙོ་བོ་ནི།
བཅུ་དགུ་པ་
རྩིས་རྒྱག་
རྫོགས་ཆེན་
ཨང་གསུམ་པ་
▁སྤྲོ་སྣང་
འགན་ལེན་དང་
རྒྱ་ཆེ་ཞིང་
▁འདྲི་གཅོད་
མཐའ་མཇུག་གི་
བྱེད་ཐུབ་པའི་
རྫོང་ཁོངས་སུ་
སྤྱི་ཁྱབ་བཟོ་
▁དོན་དངོས་སུ་
སྐོར་གྱི་གྲོས་
གནད་དོན་གལ་ཆེན་
དཔེ་མཛོད་ཁང་དུ་
དུས་གཏན་མེ་འཁོར་
ཡ་མ་
ཤང་།
▁སྒང་
སྦུབས་
པའི་བར།
ཕུར་བུ་
ཕོག་ནས་
རབ་གནས་
ལ་ཉེ་བ་
ལོ་ཆེན་
ལྡན་པས།
ཀུན་ཁྱབ་
རིག་ལྡན་
ལས་བགོས་
▁རྗེས་མ་
▁སྐྱེ་བ་
གསོ་རླུང་
དོན་གཅིག་
བྱེད་དུས།
མིང་གཞུང་
ཚུལ་བཞིན་
ཞུགས་ཡོད།
བསམ་འགྲུབ་
སྒྲོན་གྱི་
▁རིམ་རྩིས་
གནད་དོན་དང་
སྦྱིན་སྲེག་
▁ཁྱིམ་མཚེས་
▁མིའི་རིགས་
དུས་མཚམས་སུ་
བཔའི་ཚེསཉིན་
བྱས་པའི་ནད་པ
སྐབས་བཅོ་ལྔ་
▁མི་སྒེར་གྱི་
བྱེད་དགོས་པ་དང་
ཚན་རྩལ་གསར་གཏོད་
ིབས།
དབྱིག་
ད་ལྟའང་
འདི་ནི།
▁བཅུའི་
▁བདེ་བ་
▁ལོ་ཟླ་
ཁྱད་མཚར་
གལ་སྲིད་
བྱིས་པས་
ཞིང་གསུམ
ཡིན་འདུག
གནམ་གྲུས་
བླངས་ཡོད།
འབྲི་གུང་
▁གནའ་རྫས་
ཡིད་འཕྲོག་
སྔོན་འགྲོ་
▁དངོས་ཡོད་
▁རིགས་པའི་
བསྒྲུབས་ཏེ་
རུ་ཆེན་གྱི་
གདན་དྲངས་ཏེ་
བརྩེ་དུང་གི་
སློབ་གྲྭ་ནས་
གཏན་འཁེལ་བྱས།
▁མགོ་ལོག་ཁུལ་
ཞི་ཅིན་ཕིང་དང་
▁བོད་ལྗོངས་སུ་
རིག་གནས་ལུས་རྩལ་
ཐང
དུང
ོག།
▁སཱ་
མ་ཚད་
སི་ཅི་
སྤྱིན་
བཙལ་ནས་
རང་བདག་
▁ད་ལྟར་
▁བཅུ་པ་
གཡས་ཀྱི་
ཐུགས་དམ་
འཁྲབ་ཚན་
རུས་པའི་
▁ཁོང་གིས
▁རྒྱག་པ་
ཁྲི་དྲུག་
གདམས་པའི་
གླིང་ཁུལ་
དུས་འདིར་
འདི་ལོའི་
▁གཞན་གྱི་
▁དགེ་བའི་
▁འགྲུལ་པ་
▁རེ་འབོད་
ཁྱིམ་ཚང་ལ་
གསལ་འབྱེད་
ཡོད་པ་དེས་
རེ་བ་བཏོན་
སྐྱེས་ཀྱི་
▁དགེ་སློང་
ནུས་པ་འདོན་
མེ་ཏོག་བཞད་
ཡེ་ཤེས་ཀྱི་
རྒྱུན་ཨུའི་
སྒྲུབ་གཉེར་
▁ཆོས་འབྱུང་
རུ་ཁག་གི་རུ་
▁གནས་སྐོར་བ་
ལོ་རྒྱུས་སྟེང་
བྱེད་འགོ་བརྩམས་
སྤྱི་ཁྱབ་རུ་ཁག་
འཐུས་མི་ཚོགས་པས་
ཨུ
ཆུན་
སེ་ར་
ད་ལྟར་
དེ་མི་
གནང་བས་
ཉིན་རེ་
ལ་བྲེལ།
གདོང་གི་
དགེ་ལྡན་
དབུས་ནས་
དེ་རྣམས་
པ་དང་མི་
▁རང་མོས་
▁ལས་དབང་
དགོས་དོན་
བར་མཐོངས་
ཚིག་རྒྱན་
འཁོར་སྐར་
གཟུགས་པོར་
སྐྱིད་སྣང་
ཀྱི་རིན་ཐང་
དང་ལག་བསྟར་
བྱེད་པ་རེད།
རྒྱ་ཁྱབ་ངང་
ཀློག་པ་པོའི་
བེད་སྤྱད་དེ་
▁ཨུ་ཡོན་ཀྲང་
དགུན་དུས་ཀྱི་
རྣམ་རྒྱལ་གྱིས་
▁ཚོགས་འདུའི་ཐོག
ཞིང་ཆེན་ཡུལ་ཤུལ་
ཁྭ་
གཞག
ནང་མ་
དང་ཆེས་
མདོར་ན་
འོག་ཏུ།
▁ན་ཆུང་
▁བསུ་བ་
བྱ་ཁྱུང་
བླང་བྱར་
མཐོང་བས་
ཞིང་བའི་
ལྟ་གྲུབ་
▁འདོད་པ་
གཡོན་གྱི་
▁ལོ་གཅིག་
▁སྐྱེ་བོ་
ཁྲག་རྒྱུན་
ཉེར་སྤྱོད་
དགོངས་འཆར་
རྩིས་འཁོར་
▁དབྱངས་ཅན་
▁སློབ་ཐོན་
ཉུང་མཐར་ཡང་
བཞིན་ཡོད་པ།
ཨུ་དང་རྫོང་
▁མཉམ་སྤྱོད་
ཆེད་བསྒྲིགས་
མགྲིན་ཚབ་པས་
འཛུགས་རྒྱུར་
སྒོ་འབྱེད་ཀྱི་
ནན་སྟོན་གནང་ཡོད།
▁ཏང་གི་སྐབས་བཅུ་
ློ་
འཕྱ་
ཁ་ཆད་
ག་ནས་
ན་སོ་
ནད་ལ་
▁ཁོག་
▁མངར་
ཀླུའི་
ལུ་གུ་
▁ཕྱེད་
▁རྡོག་
བཟོས་པ་
ཞིབ་པར་
▁ཨར་ལས་
བལྟས་ནས་
▁མེས་པོ་
བསམ་བློར་
མང་བ་དང་།
ཞིབ་གཅོད་
ཞེས་བྲིས་
འདུག་པའི་
སྒྱུ་རྩལ།
▁ཉེ་འདབས་
▁དམག་འཐབ་
▁སྐབས་དེ་
ཞིག་ཡིན་ན་
སྔོན་མོའི་
སྣེ་འདྲེན་
▁ཕུན་ཚོགས་
བླངས་པ་དང་།
ཚན་རྩལ་གྱི་
▁སྐུ་མགྲོན་
པོའི་སྒོ་ནས་
མཚོ་སྔོན་པོ་
ཅི་ཡང་མེད་པར་
ཕྱོགས་བསྒྲིགས།
ཐོབ་ཐང་ལག་ཁྱེར་
ཡོ་རོབ་གླིང་གི་
ལ་ཤུགས་སྣོན་དང་
ཞིབ་བཤེར་ས་ཚིགས་
ཨུ།
རྟི་
གཡུར་
མ་རུ་
ཟློག་
འཛུགས
བརྟོལ་
ཟླ་པར་
འདྲིལ་
ནང་ཆོས་
ལགས་སོ།
གཉེན་པོ་
ནང་འཇུག་
བློ་བདེ་
ཚིག་རྐང་
རྗེས་འབྲ
ཧུང་གིས་
▁གོར་མོ་
▁བུ་ཆུང་
▁ལག་ཤེས་
ཁེངས་ཡོད།
ནང་དོན་ལ་
སྡེ་དམངས་
▁མཚོ་ལྷོ་
རྔུལ་ཆུའི་
▁གྲོང་སྡེ་
▁ཤོག་གྲངས་
ཐམས་ཅད་ཀྱིས་
སྤྱི་དམངས་ལ་
ཐུབ་རྒྱུ་རེད།
▁རོང་འབྲོག་པ་
གོང་འོག་ཚང་མས་
ལྷན་སྐྱེས་ཀྱི་
གསེར་རི་དངུལ་རི་
ཤུ
▁སྨ
ཁྲམ་
ཟིམ་
ོ་བཏ
ོའང་
མ་བྷ་
བརྡོལ་
མང་བར་
▁ཁུངས་
གཅོད་པ་
གྲོང་ཚོ།
དྲན་ཤེས་
ནན་གསུང་
ཡོད་ནའང་
སྦྱར་ཏེ་
གཤིས་ཀྱི་
སྔོན་བརྡ་
སྤྱད་པའི་
སྤྱི་དོན་
ཐུབ་པ་ཞིག་
འཁྲབ་སྟོན།
ལེན་པ་དང་།
ལྐོག་གྱུར་
▁ཐུགས་རྗེ་
▁རྗེས་དྲན་
བཟང་བོ་ཞིག་
▁དགོང་ཚོགས་
▁རྡུང་རྡེག་
ཁག་གཅིག་གིས་
དུས་བཀག་ལྟར་
གནམ་གཤིས་ཀྱི་
དུས་རྒྱུན་དུ་
ཞིང་ལས་ཐོན་ལས་
འགྲན་སྡུར་གྱི་
རང་ལྗོངས་ཀྱིས་
ཆ་འཕྲིན་ཅན་གྱི་
མགུ་
སེངྒ
ས་དེ་
▁གྲས་
ཞུ་བར་
རྣམ་ཐར
▁བསྐོ་
བརྐྱངས་
མྱོང་ལ།
ཞབས་ཞུ།
ཟིན་པས།
སྐྱོང་།
སྡེ་བས་
▁མཚེའུ་
ཁ་ཤས་སུ་
པར་རྒྱག་
▁དེ་འདྲ་
གཉིས་ཡོད།
ངོ་བོ་དང་
▁འབད་འཐབ་
▁སློབ་མས་
དྲ་ཐོག་ཏུ་
བྲེལ་མྱུར་
ཡིན་པ་ཤེས་
ནན་ཏན་སྒོས་
རི་མོ་འབྲི་
།།རྒྱལ་ཡོངས་
གྲགས་ཅན་གྱི་
མཉམ་གནས་ཀྱི་
སྣེ་ཁྲིད་ནས་
གཞིར་བཟུང་སྟེ།
འཕེལ་རྒྱས་དང་།
དཔོན་རིགས་ཀྱིས་
ཆིས་
ལ་བད
གཟུར་
ཆེའོ།
བཙིར་
བླའི་
▁བྱི་
དར་བར་
ས་མཐོ་
ཅི་དགར་
དུ་གཏང་
དྲག་ནས་
རིང་བར་
ལོ་མའི་
དཀར་པོས་
ཚོ་དཔོན་
རྫོང་གིས
ལྗིད་ཚད་
སྟོན་མོ་
▁མེ་མདའ་
ཀྱིན་འདུག
གསུམ་ཉིན་
གྲོལ་བའི་
ཆོས་འབྱུང
▁ཞོ་སྟོན་
དགའ་ཕྱོགས་
དགོས་པ་ལས་
བཅའ་ཁྲིམས།
ཞེས་པ་ལྟར་
▁དཔེ་རྙིང་
▁སྡེ་ཚོགས་
ཚོགས་སྒྲིག་
སྙིང་སྟོབས།
▁དམངས་ཡོངས་
▁སྐད་འཕྲིན་
▁སྤྲོ་སེམས་
གཅིག་ལ་གཅིག་
དང་འཛམ་གླིང་
ཡུག་རེན་གྱི་
གྲོང་ཁུལ་གྱི་
ཤིག་ཡིན་ཞིང་།
▁སྤྱིར་བཏང་གི་
དང་མི་མཐུན་པའི་
▁ཙ་
མ་ལག
▁ནཱ་
▁ཁོར་
▁བྲང་
བསྐངས་
འཁྲིས་
ཁང་མིག་
ཁྱབ་ཚད་
ཟུང་གི་
རན་པའི་
▁ཡང་ཡང་
▁ཧོ་པེ་
གོང་གསལ་
པའི་དོན་
བྱས་མཐར་
མཛད་རྣམ་
པ་ཡིན་ནམ།
མཚོན་ཚུལ་
ཟུར་གསུམ་
རྡུལ་ཕྲན་
སེམས་པའི་
ཟབ་མོ་ཞིག་
སྒྲོ་འདོགས་
▁ལེ་པཱ་ནུན་
དཔལ་འབྱོར་ལ་
བཞིན་ཡོད་པས་
བོད་མི་རིགས་
▁མལ་གྲོ་གུང་
སྨི་རྒྱ་དཔངས་
།།རང་རྒྱལ་གྱི་
གེ་སར་རྒྱལ་པོ་
སྲོལ་སྲིད་གཙང་
ཞབས་ཞུ་མཁོ་འདོན་
ཏུན
ཚོས།
ོའེ་
ལོ་ངོ
▁བདུན།
དགའ་བས་
དགོས་ལ་
དར་མའི་
འདོད་ན་
སོང་ནས།
སྦ་གསང་
▁རྩྭ་ས་
ནམ་ཟླའི་
ཕོག་ཐུག་
འགྲན་ཟླ་
རྫོང་ནི་
གླིང་རྗེ་
ཅུས་ཀྱིས།
ཆིངས་ཡིག་
སྤྱན་སྔར་
▁མི་སེམས་
▁ལོ་མཇུག་
ཁག་སོ་སོར་
གཏམ་བརྗོད་
▁ཐེངས་འདི་
▁བདེ་སྲུང་
བཞུར་རྒྱུན་
བོད་བརྒྱུད་
བླང་བྱ་ལྟར།
མིང་ཐོག་ནས་
▁བྱེད་སྟངས་
མི་གྲངས་ཁྲི་
འགའ་ཞིག་གིས་
▁གླིང་སྒྲུང་
▁ཚོགས་ཐོག་ནས་
དངོས་སུ་སྤྱོད་
▁མངའ་རིས་ས་ཁུལ་
དཔེ་སྐྲུན་ཁང་གི་
ལན
བྱ་བ།
ཟེའུ་
མཁྱེན།
འཕིགས་
ལས་དང་
▁ཧ་ལམ་
ཆེས་སྔ་
བྲག་རི་
སྟངས་ལ་
▁ཏག་ཏག་
▁ནང་གི་
▁པ་སངས་
▁བོད་ལ་
▁མི་ལོ་
གཤེགས་པ་
ཆ་སྒྲིག་
ཉོ་འཚོང་
མངའ་བའི་
རྟགས་དང་
མཛེས་རིས་
▁ཀུན་བཟང་
བརྒྱན་པའི་
འཕྲོ་བརླག་
འབྲོག་གཡུ་
ལིས་ཁི་ཆང་
▁དྲ་སྦྲེལ་
ཆེད་མཁས་པས་
མངོན་རྟོགས་
▁སྒེའུ་ཁུང་
གྲོང་རྡལ་དང་
▁འགན་འཁུར་བ་
ངོས་བཟུང་བའི་
མཆོག་ཏུ་གྱུར་
སྨན་བཅོས་རུ་ཁག་
ཀྲུའུ་ཞི་གཞོན་པ།
ཱར་
གཤེ་
པར།།
པོས།
འབབ།
ི་བ་
མ་ཟས་
འགྱུ་
སྐྱོང
ཉི་ཤར་
▁སྤོས་
གཏེར་ཁ་
ཉུང་ཤས་
དཀར་མོ་
དུས་ནི་
ནང་ཚུད་
ཡུལ་ནི་
ལན་རེར་
ལྷག་དང་
▁དེ་ཡི་
ཁོངས་ནས་
ཡོང་སྟེ་
▁ཐོག་ཁང་
▁པར་ལེན་
▁མཚོན་པ་
▁ཚིག་གི་
དགུན་ཁའི་
པ་བརྒྱུད།
ཞེས་པ་དང་
འཚོ་རྟེན་
ལེགས་ཤོས་
ཁྲོམ་སྐོར་
གཙང་སྦྲའི་
མགོན་པོའི་
སྟབས་ཀྱིས་
▁བགྲོད་ལམ་
▁རྒོལ་གཏམ་
གྱོད་གཞིའི་
དགོངས་པ་དང་
ཕན་ཚུན་གྱི་
ལ་གནོད་པའི་
▁དམག་འཁྲུག་
མཐའ་མེད་པའི་
རེད་ཅེས་བཤད།
སྤུས་ཚད་མཐོ་
དུས་མཚུངས་སུ།
གཡུར་དུ་ཟ་བའི་
བཅོས་སྒྲིག་གི་
ལྷོ་རྒྱུད་ཀྱི་
སྙིང་སྟོབས་དང་
ཕར་འགྲོ་ཚུར་འོང་
▁ཟླ་པའི་ཚེས་ཉིན་
སིག་
སྤེལ
དབྱི།
བསྙལ་
▁ཐེག་
▁སླར་
གྲྭ་པ་
ཞིག་ལ།
འབིགས་
ས་གཙང་
ས་ཚིགས
▁འགོར་
▁སྡིག་
ཁོག་ཏུ་
ཕ་མ་དང་
བཀླུབས་
ལམ་སེང་
སྐམ་པོ་
སྨན་པར་
དངུལ་རྩ་
ཡིག་ཚངས་
སོ་བདུན་
▁ཁོ་ཚོར་
▁དོན་དུ་
པར་བརྟེན་
བྱུང་འདུག
མནར་གཅོད་
རྒྱུད་ནས་
རྟོགས་པར་
▁ཀན་སུའུ།
▁དངོས་སུ་
▁འཆི་མེད་
ཅིག་ཡིན་ལ།
དེ་ལས་ཀྱང་
པ་མེད་པའི་
བློ་སྤོབས་
སྟོང་གསུམ་
▁ཀུན་གྱིས་
▁འཁོར་བའི་
▁ལས་སྒྲུབ་
ཆེ་གེ་མོའི་
དགོས་པ་ཡིན།
ལ་འགན་སྲུང་
ཨང་དང་པོའི་
▁སློབ་གཉེར་
བརྗོད་པ་དང་།
གནང་བཞིན་ཡོད།
ཉེན་ཁ་ཆེ་བའི་
བཅས་བྱེད་དགོས།
▁ཀྲོང་ཡན་གྱིས་
སོགས་ཀྱི་ཐད་ནས་
▁ཕྱི་འབྲེལ་པུའུ་
རམ།
བ་ན་
ཁྲིམས
ལྟོས།
ཆེན་ལ་
དར་ལ་མ་
ཚད་ལོན་
▁གཞན་པ་
▁དེ་ལྟ་
དེ་མ་ཐག་
བྱེད་སར་
མཚན་བྱང་
སྐྱོད་པ།
▁ལོ་རིམ་
གནས་བརྟན་
གསར་འབྱེད་
བླུགས་པའི་
འགོ་བརྗོད་
རྟེན་མཛོད་
རྫུ་འཕྲུལ་
སྒྱུར་བའི་
སྨན་སྦྱོར་
▁དྭངས་གཙང་
▁སྲིད་པའི་
མང་ཆེ་བ་ནི་
ཆེན་རྫོང་གི་
མཚོ་སྔོན་དུ་
རྒྱ་བོད་ཡིག་
གཅིག་དང་བྱེ་བ་
མངོན་གསལ་གྱིས་
རྩལ་བརྩམས་ཆོས་
སློབ་འབྲིང་དུ་
ཇུ་
མདོ
ྙན་
གིར་
ཙ་ན།
▁སྤ་
འཇོར་
ལས་འག
ལེའོ་
▁ཀྱེ་
▁མྱི་
▁སུས་
ཙམ་དང་
འགེབས་
ཐར་གྱི་
ཐུང་གི་
པས་ཀྱང་
བཙུན་པ་
བྱེད་ན་
མཛད་པའི
རི་རྩེ་
▁ཨ་རིས་
དབུལ་ཞྭ་
▁ཀོང་པོ་
▁བསྡུ་བ་
ཆུ་ཚད་དང་
དམངས་གླུ་
འབྱོར་ནས་
རྡུང་ལེན་
རྩོམ་ལུས་
▁ལས་གཏོད་
▁སི་ཁྲོན།
བགྲོད་པའི་
བྱ་གཞག་གི་
སྟོང་གཅིག་
▁གནོད་ཐེབ་
▁པར་སྐྲུན་
དེའི་ནང་གི་
མངོན་པ་དང་།
འགྱུར་ཁུགས་
རྐུབ་སྟེགས་
ལ་བཅངས་པའི་
▁འབད་འབུངས་
གདན་ཞུས་ལྟར་
སྒྲོམ་གཞིའི་
སྨན་བཅོས་དང་
དང་རྒྱལ་ཡོངས་
ནད་པ་དུང་ཕྱུར་
བྱེད་པའི་རྣམ་པ་
▁སྔོན་དཔག་བྱས་ན་
“”
ཧཱུ
ེགས
ཅང་།
དགོ་
བྲེ་
ཧྲག་
ཆེ་ན་
▁དྲོ་
ཁ་གསལ་བ
ཆགས་ནས་
ཐག་གིས་
བབས་ནས་
བཟོས་པ།
མཚོ་དང་
སྲས་མོ་
▁སྦྱོར་
རྒྱག་གི་
རྒྱབ་ནས་
གཟབ་མཆོར་
གློག་འོད་
དང་འབྱུང་
ཛ་དྲག་གི་
གསར་འགོད་པ།
གྲངས་གཞིའི་
གྲོས་ཁང་གི་
དུ་བཏང་སྟེ་
བཀའ་བརྒྱུད་
ཞིག་ཡིན་ཏེ།
▁དམག་ཕྱོགས་
ཡུལ་སྐོར་དང་
གསང་སྔགས་ཀྱི་
དང་མཛེས་སྡུག་
བཤམས་སྟོན་ཁང་
འཛུགས་རྒྱུའི་
ལྷོ་ཕྱོགས་སུ་
ཁོང་དུ་ཆུད་པར་
སྤེལ་བཞིན་ཡོད།
རྩྭ་དགུན་འབུའི་
ཁོངས།
ཕ་རྒན་
བསྲེག་
ཡག་ཏུ་
དབྱིན་ཇ
དོམ་ཁྲ་
རྩ་གནད་
▁ཅི་ཡང་
ཡིན་ཡང་།
ཱ་ལེ་པན་
▁གྲུབ་ཆ་
མཚོ་འཕགས་
མིས་བཟོས་
མྱོང་ཡོད།
ཞིབ་འབྲི་
ལེན་པ་དང་
▁ནམ་མཁའི་
ཉོ་ཚོང་གི་
དགོན་པ་དང་
མཁའ་སྐྱོད་
འཛིན་དགོས།
ལ་རོགས་རམ་
བཅས་བྱས་ནས།
རྒྱ་མཚོ་དང་
རྩ་སྡེ་དགུ་
▁དེའི་ཕྱིར།
འགོ་ཁྲིད་འོག
སྐྱེ་སྟོབས་ཀྱི་
བཤམས་མཛོད་ཁང་དུ་
ཞེས་པ་བརྗོད་དོན་
ལྷོ་ནུབ་མི་རིགས་
ང་ཧ
ུག།
རེབ་
ཤོན་
▁བེ་
འབྲོ་
འཚིག་
ལྗགས་
ང་སྐྱ་
མོ་ནི་
ཨ་རིག་
ཅི་ཡོད་
ལུང་དུ་
སོག་པོ་
སོང་བས།
▁གྱོང་ག
ཐག་པ་ནས་
བཟང་བོ་བ
བྱས་ཐོག་
མ་བྱས་ན་
རང་མདངས་
ལན་གཅིག་
ཤོ་ལོ་ཀ་
སུན་སྣང་
སྔོན་དུ།
▁གཉེར་བ་
ཉེན་གཡོལ་
བསྟན་གྱི་
མྱུར་མོར་
འབྱུང་གི་
རྒོད་ཀྱི་
སྐྱེ་འཚར་
ཀོང་ཀྲོའུ་
མཐའ་བསྡུར་
▁གནོད་སེལ་
▁སྒྲིག་ལམ་
▁རོགས་དངུལ་
ལོ་གསུམ་གྱི་
▁དཔྱད་འདེམས་
རབ་འབྱམས་པའི་
འབྱུང་ཡུལ་གྱི་
གླུ
ཏར་
དག།
ཆོག།
བཞོ་
▁ཐབ་
ང་ཡང་
འབོལ་
རྨིད་
ཤྭ་བ་
ོ་བསྡ
▁ཁྲང་
▁འུར་
བརྫིས་
བྱ་དགའ
བྱ་དང་
རྨས་མ་
སེལ་བ།
སོང་བ།
བྱ་ཚུལ་
རྔ་བའི་
▁བགྲེས་
▁ཡ་རབས་
ཁུལ་དང་།
དམག་ཞབས་
རྟེན་དང་
ལག་བྲིས་
▁གནོད་པ་
▁སང་ཉིན་
ཆའང་རིགས་
མཚེའུ་ཡི་
ལྷུག་པོར་
▁དཔའ་རིས་
བསྐྱར་གསོ་
རང་ཁུལ་དུ་
ཨ་མེ་རི་ཁ་
▁བཀག་འགོག་
▁རྒྱལ་རབས་
▁སྐབས་དེར།
མཛད་སྒོ་བསྡ
འབྱུང་སྲིད་
ལ་གཞིགས་ཏེ་
▁དམངས་གཉེར་
ཚིགས་སུ་བཅད་
ཞིང་ཨུད་ཀྱི་
▁དམངས་འཚོའི་
ཁྱབ་གདལ་གཏོང་
བཅུ་བདུན་པའི་
ངོགས་གཉིས་ཀྱི་
དབུལ་སྐྱོར་དང་
རྣམ་པ་སྣ་ཚོགས་
བསྡོམས་འབོར་གྱི་
▁།མ་
▁ཅཱ་
ཁུ་བ་
མཚེར་
ཞུ་བ།
▁སོན་
ཐང་དང་
བགྲངས་
བསྐྱལ།
▁ད་ལྟ།
བཀྲོངས་
བྱེད་ལ།
བླ་ཆེན་
མི་ཉམས་
མི་ཤེས།
ལགས་ནི་
སྲུང་བ།
▁ནམ་ཟླ་
གིན་འདུག
གློག་གི་
དང་སྐར་མ
ནད་པ་དང་
མཐེ་བོང་
ཞེས་ཟེར་
སྲིང་བལ་
དབྱར་གྱི་
བྱུང་མེད།
མིག་མཐོང་
འབབ་ཚུགས་
འབྲི་ཚུལ་
▁ཨ་མདོའི་
།།རྒྱལ་ཁབ་
ཁྲིན་ཏུའུ་
མཐོར་གཏོང་
ཚབ་བྱས་ཏེ་
▁བཟོ་ཚོགས་
▁སྡེ་དགེའི་
རིན་ཐང་ལྟ་བ་
སྟོབས་འབྱོར་
▁འཁོར་རྒྱུག་
དང་འབྲེལ་གཏུག་
རླངས་འཁོར་འཇོག་
མདང
སྨན།
▁མུས་
ལག་ནས་
ལངས་ཏེ་
▁ཕུལ་བ་
▁རེ་ཞུ་
དེ་རྗེས་
མེ་ལོང་།
ཚོར་བའི་
འཇོག་པར་
འབར་མའི་
ཤས་རིང་།
སོགས་གང་
▁ཚོང་ཁང་
གསར་གཏོད།
ཆེད་གཉེར་
ཐུབ་པ་ནི་
ཐོན་རྗེས་
རིགས་རུས་
▁སྤྱོད་པ་
དབུལ་གྲོལ་
རྫོང་དེའི་
▁མཛའ་མཐུན་
▁ཨར་ཅི་རི་
མའོ་ཙེ་ཏུང་
སྒྲུབ་པ་དང་
གྱི་གནས་ཚུལ་
མཚོ་ཁོངས་སུ་
ཤིས་ཞིང་ཆེན་
དོན་དངོས་ཀྱི་
འགོ་ཚུགས་ཡོད།
རྒྱུན་འཁྱོངས།
ལག་བསྟར་བྱེད་པ།
ཐུབ་པ་བྱེད་དགོས།
ཏ།
སྐ་
ཀེར་
གཟུ་
ཞལ་ལ
ལིར་
རྨེན་
རྩིད་
ལ་ལར་
སྦྲེལ
ཧྲུན་
▁འབུ་
ཁྱོ་ག་
དཔལ་ལ་
སོགས།།
བྱོན་པ་
མང་བོས་
ཟླ་མཚན་
དབང་བའི་
འཆམ་འཆམ་
ཡུལ་སྡེ་
རུ་བཅུག་
སེམས་ནང་
▁ཕན་བདེ་
▁ལོ་དེར་
▁ལོ་རབས་
▁ཧྲང་ཧེ་
གཅིག་ལྟར་
དང་དོ་དམ་
བརྔ་བསྡུ་
རྒྱལ་པོར་
སྡོམ་ཚིག་
སྒྲུབ་ཕུག་
སྣང་བ་ཞིག་
དུ་གནས་པའི་
ལ་བརྟེན་ཏེ་
སྲོག་སྐྱོབ་
སློབ་སྐྱོར་
ཁྱབ་ཁོངས་ནང་
སྒྲིལ་གླེང་།
མཐའ་འཁྱོངས་དང་
ཧོ་པེ་ཞིང་ཆེན་
མི་རིགས་དགེ་འོས་
འང
ཚགས།
ཞང་།
ལྷན།
▁གྱ་
བར་ན་
འགགས་
ལྔ་བ།
བླ་མར་
ཞི་བར་
རྫོགས།
▁རྩོད་
གཞན་པར་
པད་མའི་
བསླབ་པ་
འཕེལ་བ་
རྒྱུ་མ་
ོག་གཏམ་
དམག་སྒར་
བཅས་པའི་
ཡིག་ཐོག་
རྣམ་བཞག་
▁ད་སྐབས་
▁དད་ལྡན་
མངག་གཏོང་
འཐེན་པའི་
རྒོལ་བའི་
ཞིག་ཡིན་ལ་
ལ་ཡིད་ཆེས་
▁གནས་སྤོས་
▁དེར་མ་ཟད་
རྨ་ཆུ་རྫོང་
▁ཁྲེན་ཏུའུ་
ཉུང་དུ་གཏོང་
དོན་དངོས་སུ་
▁མ་འོངས་པའི་
ཟིན་ཐོ་གསར་པ་
ལམ་རྒྱུད་ཀྱི་
སྔར་བས་ཆེ་རུ་
གསུང་འབུམ་གྱི་
འབབ་རྒྱུད་ཀྱི་
ཤིག་ཡིན་པ་དང་།
གཙོ་སྐྱོང་གནང་།
བརྟན་དུ་གཏོང་བ།
ལོ་ངོ་སྟོང་ཕྲག་
སོགས་ཀྱི་ནང་དོན་
རྐ་
ཁའོ་
མཐུན
ཇ་ལོ་
དེ་ན་
སྦྱོར
▁ཚའེ་
པུ་ཡཱ་
ཚང་དུ་
རེ་དང་
ལས་སུ་
ལྔ་པར་
ཤོག་ལྷ
སྡེ་ཁག
▁འདྲི་
ཆ་གཅིག་
ཉེས་ཆད་
▁བན་དེ་
▁ཚོར་བ་
▁ཤེས་པ་
ཕྱིར་དུ་
ཟླ་བ་དང་
ཆོས་གཅེས་
པའི་སྐབས་
སྐབས་འགར་
སྨོན་ཚིག་
▁རྩི་ཤིང་
ཆེད་སྦྱོང་
ཐེངས་གྲངས་
དང་ཞིང་ལས་
དམངས་ཡོངས་
དུད་ཚང་གི་
པ་བཅས་རེད།
རིན་པོ་ཆེ།
རྟིང་རྩོད་
ལྷུན་པོའི་
སྣེ་འཁྲིད་
▁ཐུབ་བསྟན་
▁དྲིན་ཆེན་
སྡོད་ཁང་དང་
ནང་བསྟན་གྱི་
ཞིག་ཏུ་གྱུར།
ནས་མི་རབས་བར་
རྨང་གཞིའི་ཐོག
དོ་སྣང་ཆེན་པོ་
ཞིག་ཡིན་པ་རེད།
▁གྲོས་ཚོགས་སུ་
ཉར་ཚགས་བྱས་པའི་
དམིགས་ཚད་ལས་འགན་
དེས
ང་ག་
སྔུན་
ཨ་མར་
ཆུ་ཡི་
དང་དྲ་
▁བཅུག་
བདུན་ལ་
ཚར་བའི་
ལས་ཤོར་
ཤར་བའི་
སྤྱི་ཟླ
▁ཐེ་ལན་
ཐུབ་མིན་
དང་དངོས་
དངུལ་ཆད་
དམག་གྲུ་
སྔོ་ཞིང་
▁དབྱིན་ཇ
དང་ཁ་བྲལ་
མ་ལག་གིས་
སྤྱི་སྐད་
▁བཟོ་གྲྭ་
▁ཡིད་ཀྱི་
རྨོ་འདེབས་
ལྡན་པ་རེད།
ཤིན་ཏུ་མང་
འཕྲིན་སྟེགས་
བོད་སྨན་ཁང་གི་
ཕུན་སུམ་ཚོགས་པར་
ལག་གདང་སྦྲེལ་ནས་
བ་ན།
རུ།།
ཕིགས་
▁ཆུས་
▁དུམ་
ངག་ནས་
ངོ་མར་
ཆུ་མོ་
མཐའ་མ་
ཐི་ལོས་
བསམ་པར་
འཐུས་མི
གཙོ་བོས་
བར་གྱུར།
སྔོ་ཚོད་
▁བརྩམས་པ
▁ཞིབ་ཕྲ་
ཕྱེད་ཀའི་
འགག་གཏོར་
སྦྱངས་ནས་
▁མི་ཚོགས་
▁སྒོ་བྱང་
བྱེད་སྲོལ་
མང་དག་ཅིག་
འབུམ་གསུམ་
▁བཅུ་དྲུག་
▁རོལ་རྩེད་
མཚོ་ངོས་ལས་
ཐེངས་གཅིག་ལ་
མི་བརྗེད་པར་
འཁོལ་བའི་ངང་
ཡིས་ཉིན་དེར་
རྒྱུ་དེ་ཡིན།
དང་ས་གནས་ཀྱི་
བརྙན་འཕྲིན་ཁང་
སྐྱེ་དངོས་ཀྱི་
གྲོས་ཚོགས་སྟེང་
ནི་རྒྱལ་ཁབ་ཀྱི་
རྒྱུན་མི་ཆད་པར་
དབང་བོ་སྐྱོན་ཅན་
བསམ་པའི་དཔལ་ཡོན་
ད།།
ཇེ་ཆེ་
དབྱུང་
ཕུ་བོ་
སྡེ་པ་
▁གནོན་
▁དགོད་
ཆུ་ཕྲན་
བཅད་ནས་
ཞུས་པས།
སུ་ཡིས་
མཛད་ཅིང་
ལིམ་ཕིག་
སྐྱེ་བར་
ཨར་གྱིས་
ཁྲི་གསུམ་
གཞིས་ཆགས་
དབྱེ་བའི་
དམར་འབྱར་
བྱང་སེམས་
འཕུར་བའི་
སྐྱེས་ནས་
▁ལོ་ཙཱའི་
གནད་བསྡུས་
ཆེད་བསྐོས་
ཧྲུའུ་ཅིས་
▁དཔོན་དམག་
▁སྙིང་རྗེ་
གློག་སྒྲོན་
བྱུང་བ་ཡིན།
མཚམས་བརྒྱད་
▁བཤེས་གཉེན་
ལ་ལྟ་བཞིན་པ།
དགོངས་དོན་དང་
སྟོང་གཅིག་དང་
ངོས་ནས་བརྗོད་ན་
དམག་ཕྱོགས་ཀྱིས་
བོད་སྐད་ཡིག་གི་
པ་ཅན་
ཟླ་བ།
ལམ་ཁ་
ཁྱེའུ་
ས་ཞིག་
པ་མཚོན་
བརྡར་ཤ་
བུ་ཡུག་
ཤར་མའི་
ུ་རུའི་
ཀློང་ནས་
ཐཱན་ཉུང་
ཡངས་པོར་
རེ་འབོད་
▁ཁྱེད་ལ་
▁ཐུན་ཏེ་
གསར་རྐྱང་
གླེང་བའི་
བཅོས་ཐབས་
ཞེས་པ་ལས་
འདོད་ཅེས་
རྫོང་དང་།
▁སློབ་གྲྭ
▁སློབ་མར་
ཆེ་གེ་མོར་
ཆེ་ཤོས་ནི་
ཉམས་གསོའི་
འདོན་ཐེངས་
འབྲི་ཀློག་
ལུང་རྟོགས་
ས་ཡོམ་གྱི་
▁སྙན་ཞུའི་
གང་ཡིན་རུང་
ཆབ་སྲིད་དང་
རིན་མེད་ངང་
ལ་གཞིགས་ནས།
ལ་ཚོད་འཛིན་
▁ལྷུན་གྲུབ་
རང་རྟོགས་ངང་
ལྟ་བུར་གྱུར་
འཛུགས་བསྐྲུན་
གཏོང་དགོས་ཞེས་
གྲུབ་འབྲས་ཐོབ་
བྱ་འགུལ་སྤེལ་བ།
ཡག་པོ་བྱེད་དགོས།
ཡོང་བ་བྱེད་དགོས།
ལས་རིགས་སོ་སོའི་
བམ།
ནོར།
བསྔོ་
བླ་མས་
ལོ་ཡི་
ས་ངོས་
སོང་ལ།
ཁོ་མོར་
ཆོས་ཅན།
བཟོ་བར་
མཉམ་པར་
ཚུལ་ནི་
སུ་ཞིག་
▁སྒྲོག་
ཀྱི་དོན་
ཁྲལ་འཇལ་
བཞི་དང་།
ཚིག་ཕྲད་
▁དགུན་ཁ་
དབུལ་བའི་
▁ཆོས་རྗེ་
▁འཇམ་དཔལ་
▁ཨེ་ཤེ་ཡ་
ཅེས་བརྗོད།
བཞག་པ་དང་།
ཟེར་བ་ཞིག་
འཚོལ་སྙེག་
སྐྱེས་སྐར་
སྨན་ཁང་དང་
སློབ་གླིང་།
འབུར་དུ་ཐོན་
སེམས་ཀྱི་ཉི་
གཏན་འཁེལ་བའི་
རྟོག་ཞིབ་བྱས།
སྤྱིར་བཏང་དུ་
▁ཁུལ་མི་དམངས་
བ་དང་བསྟུན་ནས་
སྣ་མང་ཕུན་སུམ་
ཕྱོགས་གཉིས་ཀྱིས་
▁ཨོ
བྱ།།
ཁྲོལ་
▁།མི་
▁མཛོ་
ཁོ་ཐག་
བོད་པ་
རྣལ་མ་
ལ་མཁས་
▁ཕྲེང་
ནམ་ཞིག་
ཨ་སྔོན་
ཞི་ལྷོད་
ལུགས་སུ་
▁བཟུང་བ་
གནས་པ་དང་
དགོན་ཆེན་
ཕྱུག་པོར་
བརྟན་པོས་
▁ཧྲིལ་པོ་
དཔྱད་འབྲས་
དཔྱིད་ཀའི་
ཕུལ་བ་དང་།
བརྩམས་ཆོས།
▁ལེགས་བཤད་
གཏོད་རྒྱུར་
ནུས་ལྡན་ངང་
ངོས་འཛིན་དང་
བྱུང་བ་མ་ཟད།
མགྲོན་ཁང་དུ་
བརྒྱུད་སྒྲོག་
འཆམ་མཐུན་གྱི་
▁འདི་ལྟ་བུའི་
▁སྤྱི་བསྒྲགས་
གཞུང་ཚབ་ཆེན་མོ་
དཔེ་མཛོད་ཁང་གི་
བྱེད་འགོ་ཚུགས་པ།
གྷ་
དབལ་
ཚའོ་
▁ཤན་
ཀོང་ཇ
ཙམ་ལ།
ལ་བབ་
ཤེ་ན།
▁བྱེད
བཞག་པ་
ལ་བསྐྱ
སྔ་མོ་
ཚེ་རབས་
▁བོད་པ་
▁མཁྲིས་
གྲངས་ཚད་
པར་འདོད།
འཛིན་པར་
གདོན་མི་ཟ
རིམ་རྩིས་
མཐོ་བ་དང་།
རྒྱུའི་ཐད་
▁བདེན་དཔང་
▁རྒྱལ་བའི་
ཁ་གཏད་གཅོག་
བཀོད་པ་དང་།
བོད་ཁུལ་དུ་
ཉིན་གཅིག་གི་
ཉེན་རྟོག་པར་
སྒྲུབ་པ་དང་།
རིག་གནས་ཀྱིས་
གནོད་འཚེ་ཐེབས་
དགའ་སྤྲོའི་ངང་
པོར།
▁ཀྱི
▁ཅེ་
▁བན་
ཁུག་མ་
ཁྱིའི་
ཚིག་ལ་
ཡང་དུ་
ལེ་ལག་
དགུ་དང་
དེ་སྐད་
བུ་མོས་
རྗེས་མ་
ཤར་ནུབ་
▁དགུ་པ་
▁དམ་པོ་
▁འགྲིམ་
གས་རིགས་
དཔེ་ཆའི་
དམའ་རིམ་
སྦྲེལ་ཐག
▁བྱ་ཡུལ་
▁མགོ་བོ་
▁ཨ་མྱེས་
ཐོན་མིའི་
ཡོང་རྒྱུ་
ལོ་བཅུའི་
ཨུ་རུ་སུར་
གཉེར་བ་དང་།
ཕྱག་འཚལ་ལོ།
འགྱུར་གྱིས་
▁ཕྱུགས་ཟོག་
▁རྒྱལ་ཁོངས་
དེ་ཡོངས་ཀྱི་
དོན་གྲུབ་ཀྱི་
བ་བཅས་བྱས་ཏེ་
བྱས་རྗེས་ཀྱི་
བྱང་རྒྱུད་ཀྱི་
རང་དབང་མེད་པར་
▁ཉིན་རེར་ཐེངས་
ཅན་དུ་འགྱུར་བར་
མཇལ་འཕྲད་གནང་བ།
ལོ་ལ་སླེབས་པའི་
གཅིག་བསྡུས་ཀྱིས་
མི་སྣ་གསོ་སྐྱོང་
ྭན་
ཐའི་
བའམ།
སོགས
ཧྲིང་
ཁ་ཅིག་
ཁམ་ཕུ་
ཆང་གི་
ཕ་མེས་
གང་ལྟར་
གྱི་མི་
ཡིག་ཏུ་
རའི་ནང་
སྙན་ཞུ།
▁དེས་ན།
▁མ་ཡུམ་
ཉིང་གིས་
བཞི་ཉིན་
ཡོད་པའང་
རྨོ་ཞིང་
ཐེངས་ཁྲི་
དགོངས་ཞུ་
བྱས་པ་ནི་
ཞེས་གྲགས་
ལེན་དགོས།
ལྗོངས་སུ་
གནས་སྤོའི་
རྒྱུན་རིང་
ཁོངས་མི་དང་
གྲོང་ཚོ་ནི་
བཏང་བ་མ་ཟད།
ལ་སྣེ་ཁྲིད་
སྐྱབས་མགོན་
གཤམ་གསལ་གྱི་
བྱས་ཟིན་པའི་
▁དབྱེ་འབྱེད་
དམ་འཛིན་གྱིས་
ཁུལ་ཨུ་དང་ཁུལ་
ལེགས་སྒྲིག་དང་
ལྟ་ན་སྡུག་པའི་
བེད་སྤྱོད་གཏོང་
སྐབས་བརྒྱད་པའི་
མར
མེང་
ལེ་ཧ
▁བསྙ
▁ཚར་
གཙགས་
▁འཐབ་
ང་བའི་
དགུ་པ།
མ་ཟོས་
ངས་ཀྱང་
མཁན་ཡང་
མཐོ་པོ་
ེ་རི་ཡ་
▁རི་ཆུ་
ཁས་བླངས་
མཛེས་པར་
མོང་གོལ་
འབུམ་ལྔ་
སྙན་ཚིག་
▁གཤམ་དུ་
▁དོད་པོ་
གླིང་ཆེན་
ཉེར་གསུམ་
དུམ་བུའི་
སྤྲི་དཀར་
▁ཧུའུ་པེ་
པའི་ནང་དུ་
བྱུང་འཕེལ་
རྒྱ་ཆེ་རུ་
རྒྱལ་བོའི་
སྤྱི་སྡོམ་
▁བསྡུ་ལེན་
▁མཚན་མོའི་
▁ལམ་ཕྱོགས་
ནས་བོད་ཀྱི་
པ་བཅས་ཀྱིས་
རང་ཁྱིམ་དུ་
▁འགན་ཁུར་བ་
▁ཡུལ་ལྗོངས་
གོང་གསལ་གྱི་
ཇུས་འགོད་དང་
འགྲན་ཞུགས་པ་
ལྡེ་བཙན་གྱི་
སྲོང་བཙན་གྱི་
དང་འབྲེལ་མཐུད་
དང་རྒྱལ་ཁབ་ཀྱི་
འཐབ་ཇུས་མཉམ་ལས་
རྒྱ་ཆེའི་ཏང་ཡོན་
རོ
ཟན་
གྲུབ
ཏུར་
ས་ན་
ཀྱི།།
གཤོམ་
ང་རོ་
བསྣན།
▁དོར་
བརླགས་
ལྷུངས་
དངོས་ལ་
འདུན་མ་
ལེགས་པ།
གར་འཁྲབ་
ཆོད་དོན་
ཕྲག་དོག་
ཤུགས་ཚད་
ཤུལ་གྱི་
སྤྱོད་པ།
▁བོད་མི་
▁མིག་སྔར
དབེན་པའི་
དུ་བཞུགས་
མི་ཐུབ་པ་
འབྱུང་རྩ་
སྤུ་རྒྱལ་
▁པདྨ་འཚོ།
གསར་པ་དང་།
འབུམ་གཉིས་
འཚོ་སྐྱོང་
རྣམ་པར་ཐར་
དང་ཕན་འབྲས་
མེ་ཏོག་གིས་
ལྟེ་གནས་ནས་
སྙིང་རྗེའི་
ལག་བསྟར་བྱས།
གནས་སྐབས་ཀྱི་
དང་བོད་ལྗོངས་
དམིགས་ཡུལ་དུ་
ཚེས་བཅུ་དྲུག་
▁ཆོས་ལུགས་ཀྱི་
▁འབའ་ལུང་རྫོང་
▁ལྗོངས་ཏང་ཨུད་
ངག་དབང་བློ་བཟང་
ལོའི་རྒྱལ་དམངས་
བྱེད་པའི་ཐབས་ལམ་
ཅིང
ིངས
ཟོམ་
བ་ནི།
མྱུག་
ལ་བཀྲ
དང་ལྷ་
ལན་དུ་
ལམ་ཚད་
བཅད་དེ་
སྐྱེམས་
སྤྱི་ལ་
ོགས་སུ་
ཀུན་གསལ་
ཁྲི་དགུ་
གཡང་གཟར་
གྱོན་ནས་
ནུབ་མའི་
པ་ལྟ་བུ་
བར་སྐོར་
འབྱོར་བ།
ཡིན་ཟེར་
རེ་འདོད་
ལ་བསྐུར་
▁འགོད་པ་
▁སེང་གེ་
དགུན་གྱི་
ཚིགས་ཀྱི་
ཚོན་མདངས་
ཞེས་འབོད།
ཡུལ་སྐོར།
▁གཞུང་དོན་
ཁག་གཅིག་གི་
གསར་པའི་ནང་
དང་བླངས་པས་
བྱུང་ཡོད་ལ།
མཐའ་འཁྱོངས།
ཡོ་རོབ་ཀྱི་
▁གྲོང་མིའི་
▁ཕྱིར་འཐེན་
ཁུལ་མི་དམངས་
ཇོ་མོ་གླང་མ་
ཏན་ཞབས་དྲུང་
ཐུབ་པ་བྱུང་།
▁གཉེར་སྐྱོང་
ཁྲེན་ཏུའུ་རུ་
ཞིག་ཡིན་པ་དང་
▁རྔ་བ་ཁུལ་གྱི་
ཐོན་རྫས་རིན་ཐང་
འཐུས་མི་ཚོགས་པ་
བྱེད་པའི་ལས་དོན་
ཅི
དི་
རྣག་
ུད།།
▁ཡུ་
གླེན་
ནས་ཁ་
ས་ཁུལ
མོས་པ་
ཞང་གི་
འཁུམས་
འཕྲུག་
སོ་སོ།
▁ཨ་ཕས་
▁བརྗེད་
ཁྱོད་ནི་
ཅིག་ཀྱང་
ཆམ་རིམས་
ཉག་གཅིག་
ཐོན་རྫས།
དགུ་ཉིན་
དར་འཕེལ་
མུན་པའི་
ལྷོ་བྲག་
▁དྲ་བའི་
གཏམ་གླེང་
གཞིགས་ནས།
གྲོང་ཚོའི
དྲུག་གིས་
བསྐལ་བཟང་
རིམ་སྤེལ་
▁བདག་དབང་
ཀློག་འདོན་
ཆགས་པ་དང་།
ཆོག་པ་རེད།
དུས་ནམ་ཡང་
བྱུང་མྱོང་
▁དྲང་བདེན་
གངས་ཅན་གྱི་
གྱི་སྒོ་ནས་
དང་འཚམ་པའི་
ཡོངས་ཁྱབ་ཏུ་
ལས་འགན་འཁུར་
ཤར་ཕྱོགས་སུ་
▁བོད་སྐད་ཡིག་
ཡིག་གཟུགས་ཀྱི་
▁སྤྱིར་བཏང་དུ་
ཕྱོགས་གཉིས་པོས་
བཙུགས་ནས་ལོ་ངོ་
མིའི་རིགས་ཀྱིས་
འཛུགས་སྐྱོང་དང་
དཔྲ
དྷི་
▁པྲ་
ཁེ་ལས
ད་རྫས་
བྱེད།།
འཕར་བ་
རྫ་ཆུ་
▁རྙོག་
▁སྤུས་
ཕབ་པའི་
▁བཞི་བ།
གནས་གཞི་
གཞས་ཀྱི་
དབང་ཆེན་
བསམ་ཤེས་
མཁན་ཚོས་
▁སློབ་ར་
དཔལ་མགོན་
བརྒྱད་པར་
▁མ་ལེ་ཞི་
▁འདི་ཉིད་
གཏེར་མཛོད་
ཆེད་སྒྲིག་
དེའི་ཁྲོད་
བཤད་པ་ལྟར་
སྦྲེལ་བའི་
▁མཛེས་པའི་
▁འཕྲིན་ལས་
གི་དུས་ཚོད་
འགན་འཁུར་བ།
ཡོད་པ་མ་ཟད་
གཤམ་གསལ་ལྟར།
དུས་ཆེན་རིང་
ཁང་གྲོང་ཁྱེར་
སྣེ་གདོང་ཆུས་
▁བུད་མེད་ཀྱི་
འཚོ་བའི་ཁྲོད་དུ་
རང་བྱུང་ཁམས་ཀྱི་
ཱེ་
གྲེ་
ཙ་ན་
ངག་ལ་
▁གྲི་
ཀ་མེད་
པགས་པ་
བསྙོན་
བྱང་ཆ་
▁ད་ཕན་
▁ལོ་མ་
གཞན་ནས་
བསྡོངས་
མགོ་ནས་
མཐའ་རུ་
འཕྲོའི་
ཡི་ཡོད།
དཔྱིད་ཀ་
དྲག་པོས་
ཕོ་མོའི་
བཏོན་ནས།
བཟོ་པའི་
ཡོང་ཆེད།
རྩྭ་སའི་
ལོ་ཙཱ་བ།
ལྷོ་བྱང་
སེར་གྱི་
▁ཁ་ལོ་བ་
▁དྲུག་པ།
▁ཧི་མ་ལ་
གི་རྣམ་པ་
དགོས་ངེས་
དྭངས་གསལ་
བཟོ་འགོད་
རྐྱང་པའི་
སྨན་དཔྱད་
▁དེ་སྔའི་
བཞག་པ་རེད།
བཟོད་སྒོམ་
མཐུན་ཚོགས།
འགྱུར་ཁུག་
སྤུ་ཙམ་ཡང་
▁ཞུགས་མཁན་
བརྒྱབ་རྗེས་
བྱེད་མཁན་ལ་
▁ལུས་སྦྱོང་
ཁྱད་དུ་འཕགས་
བཀའ་དྲིན་ཆེ་
བྱེད་པ་མ་ཟད།
▁གཟིགས་སྐྱོང་
དྲག་ནས་སྨན་ཁང་
ཡོད་ཅེས་བརྗོད།
ཚོགས་འདུར་ཕེབས་
ལག་ལེན་དུ་བསྟར་
ཀཱ་
ཀིན་
གཅོད
པ་དང
▁ཁྲོད
▁ཐུམ་
ཁ་ཐོར་
གསར་བརྗ
དམར་པོ།
ན་ཡང་།།
ལེ་དབར་
▁བསྐུར་
གངས་ཀྱི་
ཇོ་བོའི་
ཐའེ་དབན་
དང་སེམས་
དཔེ་རིས་
ནོར་གྱི་
སྐད་སྒྲ་
སྐྱོན་ཆ་
སྨན་རྩྭ་
བསླབ་དེབ་
ཞེས་པ་ནི།
ལེགས་ལྡན་
ལྷན་རྒྱས་
སྟག་གཟིག་
▁རྡོ་རིང་
▁རླུང་བུ་
དབང་སྒྱུར་
ཚོང་ཁང་གི་
འགོར་རྗེས་
ཡོད་པ་ཞིག་
སྐབས་འདིར།
▁མགྲོན་ཁང་
བུ་ཕྲུག་གི་
ཨེ་ཅིབ་ཀྱི་
གནའ་རབས་ཀྱི་
གློ་གཅོང་ནད་
པུའུ་ཀྲང་གི་
ལུས་རྩལ་གྱི་
ནས་རླངས་འཁོར་
གཉིས་དང་བྱེ་བ་
ཆུ་ཚད་ཇེ་མཐོར་
ཆེད་ལས་ལག་རྩལ་
སློབ་གྲྭར་འགྲོ་
▁སྟ
གཙེས་
ཅི་མ་
ཉེ་བ་
ཕིང་།
མ་མོ་
▁སྟར་
▁སྲན་
རི་རབ་
ལ་བུད་
གླིང་ལ་
ནུས་པས་
པར་མཛད།
པོ་གཡུ་
མིན་ནམ།
ཚོང་ལམ་
རྒྱ་མཚོ
▁སྦྱོང་
དབྱི་སི་
དུས་ཐོག་
བྲིས་ནས་
སོགས་དང་
▁ཚོགས་ར་
གཞིགས་ཏེ་
གཞུང་ཆེན་
ཏིང་འཛིན་
▁ལས་གཉེར་
ཏན་ཏིག་ངང་
དགོས་མཁོ་བ
ཚ་སྡེ་དགུ་
སྤུན་ཟླའི་
▁གཏོང་ཐབས།
▁ཞོགས་པའི་
འདུར་རྒྱུག་
སྐོང་འཚོགས་
ཨ་མེ་རི་ཁས་
ཉེ་འདབས་ཀྱི་
བཅུ་གཉིས་པའི
▁ཐུན་མོང་ཐོག་
རིག་གནས་འཚོ་བ་
སྤྲིན་པ་མང་པོ་
▁རླབས་ཆེན་གྱི་
བབ་དང་བསྟུན་ནས་
འགྲན་བསྡུར་ཁྲོད་
འདེབས་འཛུགས་ཀྱི་
ལེགས་པའི་སྒོ་ནས་
དགུ།
བགར་
▁པང་
ཚ་གྲང་
སྟེགས།
▁གྱེས་
▁རྡོ་བ
།།ཀྲུང་
།།ལོའི་
ཞིང་པར་
འདུས་པ་
རྐང་ལག་
▁དབང་མོ
གཞུང་དང་
རྣམས་ལས་
▁ཐག་བཅད་
▁རང་ངོས་
▁ལུས་པོ་
▁ས་མཚམས་
▁སྤྲད་པ་
གཞི་རྟེན་
པར་བརྟེན།
མཚོན་གྱི་
སྟོང་ཉིད་
▁ཚོད་དཔག་
▁ཞབས་བྲོ་
▁རྨས་ཕོག་
▁ལྷད་མེད་
པ་ཙམ་གྱིས་
བོད་ཞི་བས་
འདྲེས་མའི་
འཕུར་མདའི་
▁གསར་རྩོམ་
ཏན་ཏིག་ཏིག་
ནུས་རྒྱུའི་
སྔོན་སྐྱོད་
▁མཆན་འགྲེལ།
དང་བསྟུན་ནས།
མིག་མཐོང་ལག་
ཚབས་ཆེན་ཕོག་
ཡོད་པ་དེ་དག་
རྩ་བའི་ཆ་ནས་
གནམ་ས་བླ་འོག་
བསྒྱུར་བ་དང་།
སྤྱི་ལོ་ལོའི་
▁དབྱི་ལིང་གི་
ཆ་འཕྲིན་ལག་རྩལ་
ནད་དུག་གསར་བའི་
བྱང་ཆུབ་ལམ་གྱི་
རྗེ
གཏའ་
གདབ་
བསྟན
མཇིང་
སྨྱོ་
ཁང་ནི་
དྲ་ལམ་
བཟང་ཆ་
བས་མི་
ཞལ་སྔ་
ལ་ཟེར།
ཤེས་ན་
དབྱེ་ན་
ཚུལ་ནི།
ལྟེ་གནས
སྔོན་ལ།
▁སྦྲེལ་
གཙང་ཞིང་
ཕྱེ་བའི་
མཚོན་ནས་
རྒྱལ་ལམ་
གྲོང་ཨུད་
ཕྱིས་ཀྱི་
རྣམ་གསུམ་
▁ཀྲང་ཀའོ་
▁ཉེས་དོན་
▁བཅུ་བཞི་
གངས་འཁྱགས་
འཚེམ་དྲུབ་
ཡོད་པ་ཡིན།
རིམ་བརྩིས་
སྲོལ་གཏོད་
▁སློབ་གསོ།
ཁྲལ་བསྡུའི་
མི་རིགས་ཁག་
འགྲེམས་ཚོང་
▁རྒྱུན་གཏན་
▁ལོའི་ཟླ་བ་
གསུངས་པ་ལྟར་
པའི་གནད་དོན་
པའི་ཟླ་མཇུག་
འབུལ་ཞུ་བཅར་
རང་བཞིན་བཅས་
ཤིས་ཚིག་ཕུལ།
གཏན་ལ་ཕབ་པའི་
རིང་ཚད་ལ་སྨི་
དོ་ཁུར་ཆེན་པོ་
ཤིན་ཏུ་ཆེ་བའི་
ཐུབ་པ་བྱུང་ཡོད།
ཤེས་དཔལ་ལག་ལེན་
འབྱུང་འགྱུར་གྱི་
ལག་བསྟར་བྱས་པའི་
ལོའི་ལོ་མཇུག་ཏུ་
ཧབ་
བཤས་
རྦད་
དབྱེ།
སྒྲོག
▁ཙོང་
འབྲེག་
▁མོང་ག
ཆུ་རགས་
བཞི་རུ་
ཡུད་ཙམ་
ལྷོ་ཨ་ཧ
གྱེན་དུ་
ཇེ་རྒྱས་
དར་མདོར་
ནང་དུའང་
རོག་གེར་
རྒྱང་ལྟ་
▁ནམ་ཞིག་
▁རི་པིན་
ཀློག་དེབ་
གཙོ་འཛིན་
མགོན་པོས་
མཐའ་དག་ལ་
ཞིང་གྲོང་
སྔ་ཕྱིའི་
▁བཟོ་རྩལ་
▁ལོ་དེའི་
དང་གོ་རིམ་
དཔོན་སློབ་
▁རང་རྟོགས་
བྱེ་བྲག་ཏུ་
▁འབྲོག་པའི་
དེ་གཉིས་ཀྱི་
སློབ་གསོ་ནི་
སྙིང་ཐག་པ་ནས་
ཀྲུང་དབྱང་དམག་
རང་མི་རིགས་ཀྱི་
བྱང་བུ་བཟོས་པའི་
མཐོ་རིམ་ནང་བསྟན་
ངར་ལ
དམར།
ཕོ་བ་
བསུབ་
ཚ་བོ་
འཐིམ་
ལོབས་
▁བཞད་
▁མཚར་
▁སྨྲ་
གྱར་བ་
ཕབ་ནས་
▁ཆར་བ་
ཏོག་ཙམ་
ཐིག་ལེ་
ནི་ཡའི་
རི་མོར་
▁གླེགས་
དངོས་ཚན་
▁ཞིན་ཅང་
གནམ་དཔྱད་
བཀའ་སློབ་
བསྒྱུར་བ།
ལག་འཁྱེར་
སོ་བརྒྱད་
སློབ་ཐུན་
▁གསེར་རྟ་
▁ཉིན་མཚན་
▁ལོ་ལེགས་
▁ལྷ་ས་ནས་
ཆུ་ལོག་གི་
བཤད་རྒྱུན་
མཁས་ཅན་དང་
སྐྱེས་རབས་
▁ཕུའུ་ཅིན་
▁རྒྱལ་སྲས་
དགེ་འདུན་པ་
དམ་པའི་ཆོས་
དར་རྒྱས་སུ་
འདི་ལྟ་སྟེ།
འཕྲུལ་སྒུལ་
འབྱིན་རྔུབ་
རྐྱེན་གྱིས།
དུ་སྡོད་པའི་
བསྡུས་པ་དང་།
ཞིག་ཡིན་རུང་
རླངས་འཁོར་ལ་
དམངས་ཆེན་གྱི་
ར་བ་གྲུ་འདེགས་
▁དེ་དང་ཆབས་ཅིག
དོ་དམ་ཅུས་ཀྱིས་
ཞིབ་འཇུག་སློབ་མ་
རྨ་ལྷོ་བོད་རིགས་
པ་བ་
པེད་
མའམ་
ཁ་པར།
ནི་ས་
མེའོ་
ན་བཟའ་
ནད་པས་
ཀུན་ཕན་
བཞག་ནས།
མ་སོང་།
འབོད་པ་
ཡངས་སུ་
གསེབ་ཏུ་
ཆུང་དུས་
དང་ཁྱིམ་
མཐོ་དམན་
རྒོལ་ལན་
རྩེ་མོར་
སོང་སྟེ།
སྐོར་དང་
སྡོད་མལ་
▁བཞི་ནས་
▁ཚན་ཞིབ་
▁ཚོ་ཆུང་
▁རྟགས་མ་
གཞི་བཅོལ་
▁རིག་ནུས་
▁རྣམ་ཤེས་
གསུམ་སོགས་
དམག་སྦྱོང་
མ་བྱས་པའི་
སྤྱོད་མཁན་
▁ཁྲེན་ཆོན་
▁འགྲོ་འོང་
དུ་བཏང་སྟེ།
ཡོང་གི་ཡོད།
ཐུན་མོང་གིས་
▁སྔར་ལས་ལྷག་
ལྷིང་འཇགས་ཀྱི་
▁སྒྱུ་རྩལ་གྱི་
དྲ་ཐོག་ཚོང་དོན་
རྐང་རྩེད་སྤོ་ལོ་
▁དགེ་རྒན་ཆེན་མོ་
ངང
འོད།
རྒྱན
▁སར་
གང་ན་
▁ཞོལ་
▁འཇང་
པཱ་མཱ་
བཀྲམས་
བརྟུལ་
ི་རྡོ་
▁ཀློང་
▁ལྷིང་
ཁོར་ཡུག
བཙན་ལྷ་
ལམ་ཡིག་
ལོག་གི་
སྤང་ཐང་
▁ཡས་མས་
གིན་ཡོད།
དུམ་བུར་
དྲིས་ལན།
སའི་གནས་
▁ཏིང་ཡེ་
གླེང་གཞི་
ཆ་ཚང་བའི་
དང་མཚུངས།
བསྡུ་རྒྱུ
ཤེས་དགོས།
སྣུམ་གྱི་
▁མི་སྣའི་
གསུམ་པ་དང་
དངུལ་སྒོར་
ལོའི་ཟླཔར་
▁བོད་མིའི་
▁ལྷ་སྒྲོན་
གཞོན་སྐྱེས་
ཅོ་ནེ་རྫོང་
དེ་འདྲ་ཞིག་
ཙམ་ཡོད་པའི་
▁ཀྲུང་ལུགས་
▁སློབ་གྲྭས་
ཕྱོགས་སྒྲིག་
▁འབྲས་སྤུངས་
བྱང་ཕྱོགས་སུ་
སྣེ་ཁྲིད་འོག་
བྱ་དགའ་ཐོབ་པའི་
▁བཀྲ་ཤིས་བཟང་པོ
▁དཔྱད་རྩོམ་འདིར་
ཐོང་
དཀྲི་
ཕྱེས།
མདོས་
འགྲུབ
ཡན་ལ་
ཇོ་ནང་
▁འཐུང་
ཐིགས་པ་
མདུད་པ་
ཞིང་ནང་
འབབ་ཚད་
རང་གཞན་
▁དྲི་བ།
པའི་ཐོག་
ལོན་ཏོན་
སྙིང་དུ་
▁ཀུང་ཟི་
གསུངས་ནས་
གྲོགས་སུ་
བདག་པོའི་
▁ཡིད་དབང་
▁རེ་སྒུག་
ཀྲིན་ཧྲིན་
ཅེས་བརྗོད་
བསྒྲུབས་པ།
འབུམ་གཅིག་
སྐད་ཆ་བཤད་
སྤང་ལྗོངས་
▁མཚོ་སྔོན།
▁ལོ་ལྔ་ཚན་
དངུལ་སྤྲོད་
མཐར་ཐུག་གི་
འཇོག་པ་དང་།
འབུམ་རམས་པ་
ལ་བསམ་གཞིག་
གནམ་གྲུ་འབབ་
ལྷབ་ལྷུབ་ཏུ་
▁གནོད་སྐྱོན་
མཇུག་འགྲིལ་བ།
ཤེས་རྟོགས་དང་
ཀྱི་སྙིང་སྟོབས་
བྱ་རྒྱུའི་རེ་བ་
ཟླ་པའི་ཚེས་ཉིན་
ཅེ།
ཧུང་།
ཕ་ཡུལ།
སྐྱིལ་
▁མཉེན་
▁འཕགས་
ཁག་དང་།
གངས་ལྷ་
དུས་ཆེན
པར་བཤད་
བདེ་མོ་
བོད་ཟས་
ཙམ་དང་།
འོ་ཡུས་
ལ་ཁ་པར་
ཤ་མོའི་
▁འདས་པ་
ཁྲི་ཚོ་བ
གནང་ཞིང་
ཞིང་ཞོར་
ཡོད་ངེས་
བྱུང་ཚུལ།
མཐོང་ཐོས།
སེལ་རོགས་
སྣ་འཛོམས་
▁ཀྲུང་ཨུ་
▁དུག་རྫས་
▁མེ་འགོག་
དྲི་བར་ལན་
བསྐྱོད་དེ།
འབྲི་སྲོལ་
ལ་ཕན་ཐོགས་
སྤེལ་དགོས།
གྲིབ་གཟུགས་
ཀྱི་ཁྱད་ཆོས་
ཁྲིམས་ཁང་གི་
ཉེས་གསོག་གི་
རྒྱུན་སྤྱོད་
▁ལོངས་སྤྱོད་
ཀྱི་དགོངས་དོན་
གནོད་མེད་ལྔའི་
རྣམས་ཀྱིས་ཀྱང་
ཚན་རིག་རིག་གནས་
བརྗོད་བྱ་གཙོ་བོ་
གསོ
པོའི
བརྟན
ལིག་
མཐེབ་
▁མིས་
▁ར་བ་
གཟན་ཆས་
དྲ་མིག་
མེད་ཚེ་
ལ་དཔྱད་
སྤྱད་ན་
སྦྲ་ནག་
ཁོངས་མི།
ཁྲི་ཀའི་
ཉེ་འགྲམ་
མཁན་ཞིག་
ལྷན་ཅིག་
སྟེང་དུ།
སྡོང་བོ་
▁རྩ་བའི་
ཉིན་གཉིས་
▁དབྱི་ལང་
▁སྐད་ཅིག་
གྲོང་སྡེར་
བརྗོད་བྱར་
འཇིགས་སྣང་
▁འཐབ་འཛིང་
སྐྱོད་སྐབས་
སྒྲུབ་དགོས།
▁སྤྱོད་གཙང་
གསུངས་པ་ལྟར།
རིགས་དབྱེའི་
ཡིན་པའི་ཆ་ནས་
རྒྱུ་ཡིན་པའི་
འགྱུར་ལྡོག་གི་
བདེ་འཇགས་དོ་དམ་
བྱེད་ཐབས་སྣ་མང་
སྲུང་སྐྱོང་གཉིས
ཞིབ་འཇུག་ཁང་གིས་
སྲ་ཞིང་བརྟན་པའི་
མྦ
ཆི།
གཡོན
ཕྱེ།
▁རག་
▁ཨི་
ཁེགས་
ཁོའུ་
▁ལ་ལ་
ཁ་རུབ་
བྱུང་བ
ཨ་ལོང་
ོ་བདེ་
གདུང་བ་
གོང་མར་
བརྒྱུས་
རྩེད་ར་
གཏམ་གསར།
ཅི་ཡང་མ་
ཅེས་བཤད་
དོན་ཡོད་
བར་འདོད་
ལན་གསུམ་
སྲོག་གི་
གང་ཡང་མི་
གསར་སྣོན་
ཐུགས་ཀྱི་
མགོ་ཁུངས་
མིང་མཛོད་
རིག་བྱེད་
▁དེའི་ཐད་
ཕྱིར་ལྡོག་
བརྙས་བཅོས་
ཞུགས་པ་དང་
སྟེགས་བུར་
▁མཚོ་ཁོངས་
ཉིན་ཤས་གོང་
མ་བྱུང་བའི་
ཚད་མཐོན་པོ་
འཇར་པན་གྱི་
འཕྲལ་བསྟུན་
རྒྱུད་སྤེལ་
རླབས་རྒྱུན་
སྒྱུ་འཕྲུལ་
རིག་པའི་གནས་
དཔེ་སྐྲུན་ཁང་
▁ལོའི་ལོ་མཇུག་
ཚན་རིག་དང་མཐུན་
▁གཞུང་སྒྲུབ་ཁང་
▁སློབ་སྦྱོང་གི་
གྲུབ་འབྲས་གསར་པ་
▁དུས་དེ་ནས་བཟུང་
གཤག་
ཏུའུ།
ས་ཆུ་
▁དམུ་
དང་ལོ་
བསྟོད།
མི་ཉན།
རྩ་ཆག་
སི་ཁི་
སྐྱོན།
སྙེ་མ་
▁ཐུའུ་
▁པོ་ཏ་
▁མགུར་
ཁུག་ཏུ་
ལམ་ཆེན་
ཤོར་ནས་
▁ཆགས་པ་
▁ལྡེབས་
▁ལྷ་སར་
གྱར་བའི་
བྱེད་ཐབས
བློ་དཀར་
▁ཉི་མའི་
▁མཛེས་པ་
དབང་རྩའི་
བསྐོ་བཞག་
འཁྱོལ་བར་
འདས་མཆོད་
འབག་བཙོག་
འབྲས་བཟང་
▁དངུལ་ལོ་
▁ཚེ་འཛིན་
▁འབྲི་ཆུ་
ནད་དུག་གི་
དང་ལྟ་སྐུལ་
བཟོས་པ་རེད།
འདུ་ཤེས་བཞི
▁དཔྱིད་ཀྱི་
ཉུང་གཏོང་གི་
སྤེལ་རེས་དང་
གསར་བ་ཞིག་ཏུ་
ཕ་ཡུལ་དུ་ལོག་
ཁོངས་གཏོགས་ཀྱིས་
▁དུས་རབས་གསར་པར་
སར
མགྲ
ེེ་
གཏོ་
ཆོལ་
▁ཡཱ་
ཅེ་ན།
བ་དན་
མ་ཧཱ་
ཁང་དེ་
བསམ་ན་
ཟིན་ལ།
རེ་བས་
ཨ་ལགས་
▁བཙོན་
▁ཟམ་པ་
ཇ་འཐུང་
བེམ་པོ་
མི་གྲངས
ཡང་རྩེ་
རྟགས་ཅན
ཞུ་བ་དང་
ཤིག་ཡིན་
སྣ་ལྔའི་
▁མཁའ་ལམ་
གཟི་བྱིན་
ཡོད་ཚད་ལ་
▁བོད་ཡུལ་
▁མཐོན་པོ་
▁རེས་གཟའ་
▁ལོ་ཟླའི་
གྲུབ་ཅིང་།
ཆེར་སྐྱེད་
བྱང་རྒྱུད་
རྫོང་གྲོང་
སྡེ་ཚན་དང་
▁རེས་སྐོར་
▁རྡོ་སྣུམ་
ཉེ་འཁོར་དུ་
བཟུང་བ་དང་།
▁བརྡ་འཕྲིན་
▁མཁོ་སྤྲོད་
ནས་བཟུང་སྟེ་
བེད་སྤྱད་ནས་
རིག་གནས་དང་།
གྱི་འབྲེལ་ཡོད་
▁ཁུལ་ཨུ་དང་ཁུལ་
▁དམངས་ཁྲོད་ཀྱི་
གལ་ཆེའི་རང་བཞིན་
དབར་གྱི་འབྲེལ་བ་
མཚན་ཉིད་རིག་པའི་
ཞིང་ཆེན་མགོ་ལོག་
ཨ་མ
▁...
▁ཆན་
▁པི་
ཉིང་ལ
བརྩམ་
འཐེན།
ཡང་མ་
ཨ་ཅེ་
ཙེ་ཨོ་
ཞིང་བ་
ཟླ་བས་
ཀོང་ཇོ་
ཅ་དངོས་
འོས་མི་
རི་མོ་བ
རྨས་ཕོག
▁ནན་མོ་
▁ལོ་ཤས་
གསུམ་པས་
ཆུ་འཐུང་
ནད་གཡོག་
བརྩེ་བས་
མི་མངོན་
ལས་ཀྱིས་
སྨན་ཁང་།
།།ཨ་རིའི་
གཤོག་ཟུང་
དེ་ཡིན་ལ།
འཛུམ་པའི་
རླུང་ཁམས་
ཤར་བགྲོད་
ད་ལོའི་ཟླ་
འགྲོ་རོགས་
སོང་བ་རེད།
ཐང་རྫོང་གི་
བརྡ་ཐོ་བཏང་
བྱུང་ཡོད་པ་
རྒྱུན་སྡོད་
▁གཅེས་སེམས་
▁བདེ་སྒྲོན།
▁འཕྲིན་ཡིག་
ཕྱོགས་ཁག་གི་
ཞེས་པའི་དེབ་
ལུས་སྟེང་གི་
རྒྱུན་མཐོང་གི་
ཁྲིམས་སྐྱོང་གི་
ཀལ་
ཏན།
ལྡན
ང་བ་
ནུའོ་
བསུས།
བསླད་
▁ཕྲག་
▁ཞོག་
པར་བྱ།
རྒྱ་ཆེ
ལོ་ནི་
▁ཡང་ན།
ཐུར་དུ་
དང་དུས་
དང་བོར་
ཁྲི་ལྡེ་
དཀར་དམར་
དགའ་ཚོར་
བར་གསུམ་
བྱས་པ་ན།
རང་ལུགས་
▁ཡར་ཐོན་
ཆོག་འཐུས་
བྱེད་ཡུལ་
མཚོ་སྐོར་
མཚོན་ནའང་
འཕེན་པའི་
སྒུལ་ནུས་
▁ཏེང་ཞའོ་
ཆེན་མོ་ལས་
དུ་བྱས་ནས་
ནང་ཞུགས་པ།
བསླངས་པའི་
ལས་འགལ་བའི་
སྤྱོད་སྟངས་
▁གདེང་འཇོག་
▁ཕྱོགས་བཞི་
དཔྱིད་འདེབས་
▁འགོ་ཁྲིད་པ་
པ་དང་ཆབས་ཅིག་
འགོ་བཙུགས་ཏེ་
སེམས་གཏིང་ནས་
སྐབས་བཞི་པའི་
གཞིར་བཟུང་སྟེ་
གཞུང་ཚབ་ཆེ་མོ་
▁རྒྱལ་ཡོངས་སུ་
ཡག
ཁན་
ཆོད
▁མི
གཙག་
འདག་
ཚོ་ལ་
ལ་བསྲ
▁ཕྲན་
གནམ་ལ་
ཐེ་ལན་
པར་ཆས་
བསྐོར།
▁སློང་
ཐིང་ནས་
དང་ཡུམ་
དབྱེ་བ།
མིན་ནམ་
ཡོད་སར་
ཨེར་ཏེ་
▁ཆར་ཆུ་
▁འགྲུབ་
བྲལ་གྱི་
▁གྲགས་པ་
▁སྙེ་མོ་
གཏམ་རྒྱུད
གནས་སྡོད་
པ་སོགས་ལ་
འབྲུག་གི་
རྒྱས་ཤིང་
ལ་ཞུགས་པ།
ལས་བཟོ་བ་
སྐད་ཆ་དེ་
▁ཆུང་ཆུང་
▁དུས་བཀག་
▁མོང་གོལ་
▁འགྲོ་ལམ་
ངེད་ཚང་གི་
ཅི་ཡང་མེད།
བོད་འགྱུར་
སྐྲུན་གྱི་
▁གླེང་མོལ་
▁བསམ་གྲུབ་
ཞིང་ཆེན་ཏང་
རིག་གནས་ནི་
ཨོ་ལིམ་ཕིག་
▁གནོད་ཐེབས་
▁ཡིན་ན་ཡང་།
གཡས་གཡོན་དུ་
བརྩམས་ཆོས་ལ་
སེམས་ཅན་གྱི་
▁འཇར་མན་གྱི་
ཚེ་བརྟན་གྱིས་
ས་བབ་མཐོ་བའི་
སོགས་གཙོ་གནད་
ཀུན་སྤྱོད་ཀྱི་
ཏང་ནང་ཁུལ་གྱི་
▁དེ་ལྟར་བྱས་ན་
པ་མ་ཟད་གཏམ་བཤད།
བརྙན་འཕྲིན་གྱི་
བྱ་རྒྱུ་དེ་རེད།
མངོན་པར་བྱས་ཡོད།
འབུར་དུ་ཐོན་པའི་
ཙང་
རྟ།
་རོ་
མདོག
▁སྒ་
ཡོའི་
རྭའི་
▁གདམ་
▁དོམ་
གསུམ་པ
གུ་གེ་
བགྱིད་
▁དུངས་
ཉིད་ནས་
ནན་གྱི་
ཞིག་ལས་
ས་འཛིན་
ག་ལ་ཡིན།
གཟི་འོད་
གོ་མཚོན་
པ་བཅས་ལ་
འགའ་རེས་
རྒྱལ་བུ་
རྩ་གཉིས་
གང་ཞིག་ལ་
བཞེས་པའི་
བྲོ་འཁྲབ་
འབུམ་བཞི་
▁ཁོ་རེ་ཡ་
▁རྒྱ་གྲམ་
འཁོར་བ་དང་
ཡུལ་ཕྱོགས་
ཅན་དུ་གྱུར་
འབྱོར་རྗེས་
འགོ་ཁྲིད་ཀྱི་
བཞི་དང་དགའ་ཞེན་
དོགས་ཡོད་ཉེས་ཅན་
ཧོན་
▁ནར་
ཀྱའི་
བུ་ག་
ཚིགས།
▁རྫོང
གནུབས་
ཐོར་བུ་
པར་རིས།
ཙག་ཙིག་
ལ་བསྐོ་
▁ཕོ་ལན་
གལ་ཆེ་བ་
བྲག་འགོ་
མཚམས་མི་
རིན་ཆེན།
སེལ་གྱི་
སྔ་མོའི་
སྙམ་སྟེ།
▁བྱང་ཤར་
▁ལས་ཀྱི་
▁སྤྱི་ཟླ
བྱེད་དཀའ་
མཛེས་བཟོ་
▁གངས་དཀར་
▁ཏང་སྲིད་
ནི་གཙོ་བོ་
པ་ཞེས་པའི་
ཕྱུགས་ཀྱི་
འགན་ཁུར་བ།
▁ཉིས་བརྒྱ་
▁ཤར་རྒྱུད་
▁སྐབས་འགར་
ནི་དུས་རབས་
འཛུལ་སྒྲོལ་
སྐྱེས་པ་དང་
གནང་བར་ཕེབས་
ཉིས་བརྒྱ་དང་
དང་ཆོས་ལུགས་
ཟློས་གར་གྱི་
འགན་སྲུང་དང་
རྗེ་ཙོང་ཁ་པ་
ཆེན་པོ་བྱུང་།
ཚེས་བཅུ་གསུམ་
སྡེ་ཚོགས་ཀྱི་
ངེས་ཅན་ཞིག་གི་
ཞིང་ལས་ཚན་རྩལ་
ཧུར་ཐག་བྱས་ཏེ་
▁དུས་མཚུངས་སུ།
ཉེ་བའི་ལོ་འགའི་
བཅའ་སྡོད་ལས་དོན་
མིན
ཞོག
མས།།
ཡེ་ཧ
ཡོག་
གས་ཀྱ
འཁོད།
རྔ་པ་
སྟག་གི་
ཁྱིམ་ནས་
དུ་འཛིན་
བཞག་སྟེ།
མི་གཤིས་
རྒྱུ་ཡིན
ལ་རག་ལས་
▁ཟླ་མཇུག་
▁རང་སེམས་
གནོད་འགོག་
དུ་འགྲོ་བ་
མེ་ཏོག་དང་
གྲུབ་པ་དང་།
སྲུང་སྐྱོབ།
སྐབས་དེ་དུས་
ཁག་དོན་འཁྱོལ་
བཅུ་གཉིས་ཀྱི་
རིགས་སྣ་ཚོགས་
རྒྱུ་མེད་པའི་
སྔར་བས་ཟབ་ཏུ་
ཆུ་ཚད་མཐོ་བའི་
འདུ་ཤེས་གསར་པ་
སོགས་ཕྱོགས་གང་
ཱ་ལེ་སི་ཐན་གྱི་
▁རྒྱུད་གཅིག་ལམ་
ལས་འཁྱུར་ངལ་གསོ་
▁གཟའ་འཁོར་འདིའི་
ཁྲིད
ན་བ།
ཙུན་
ཡུན།
ལྔའི
ཐིང་།
བའོ།།
བརྒྱད
བསྟི་
ཤར་བ་
ཤྲཱི་
▁བཞིན
ཅན་དེ་
གུས་པས་
ཕུང་བོ་
བའི་ཐད་
མཐུན་པ་
ཞང་གིས་
འཐབ་དང་
▁ངེས་པ་
▁ན་ཟུག་
ཐེབས་ནས་
མཚམས་སུ།
ཚའེ་ཡིས་
རི་གྲོང་
རེད་སྙམ།
ལས་ཕྱིར་
▁མཁྲེགས་
དུར་ཁྲོད་
དྲ་གྲོགས་
དྲན་གདུང་
ནུས་ཀྱིས་
མཚོ་བོད་ལ
ཟེར་བཞིན་
སོར་འཇོག་
▁འབར་ཁམས་
དམིགས་པའི་
▁གསོ་སྤེལ་
གང་རུང་ཞིག་
དབྱིབས་ཀྱི་
མཆོང་རྒྱུག་
མི་སེར་གྱི་
རྒྱ་ཁྱབ་ཏུ་
ཤ་དཀར་པོའི་
གསུངས་པ་དང་།
ཁྲི་བཞི་སྟོང་
ཚེས་གཅིག་ཉིན་
རྒྱུ་ནོར་གྱི་
ཀྲུང་གོ་དང་ཨ་ཧ
མཐོང་རྒྱུ་ཡོད།
ལག་ཤེས་བཟོ་ལས་
བྱ་ཐབས་སྤྱད་དེ་
རང་སྐྱོང་ལྗོངས།
དུས་ཡུན་རིང་བོར་
ནད་རྟགས་མེད་པའི་
པབ་
ས་པ་
ཧའེ།
བསྲན་
སོ་མ་
▁ཇུས་
ཕུ་ནུ་
མི་བུ་
རོལ་ཆ་
གཡས་སུ་
ཐུར་ཁེ་
བཟུང་བ།
མུན་ནག་
འཆར་ཅན་
འཛམ་བུ་
རེ་ཡོད།
▁ས་བཅད་
དང་དམངས་
འགན་དབང་
འགན་ལེན།
རེ་རེ་ལ་
རྟེན་གཞི
ལས་གྲོལ་
གནས་བབ་ལ་
བཞུགས་ཏེ་
བོད་སྤོས་
སོང་ཞིང་།
སློབ་གྲྭ།
▁དཀའ་གནད་
རླབས་ཕྲེང་
ལས་ཞུགས་ལ་
གློག་སྤྱོད་
རང་རྒྱལ་དུ་
▁ཚུལ་ཁྲིམས་
ནོར་བུ་གླིང་
ཚོ་དང་མཉམ་དུ་
རླངས་འཁོར་དང་
སློབ་གསོ་དང་།
▁ཀླུ་ཆུ་རྫོང་
▁མི་རྣམས་ཀྱི་
▁འདི་ནི་ཉེ་ཆར་
ལྷག་བསམ་རྣམ་དག་
མཚོན་པར་བྱས་ཡོད།
དམག
ངས།།
མདོ་བ
སེའུ་
▁ཀྲི་
པར་ཡང་
▁ལྡེབ་
གྲལ་དུ་
ཞིམ་པོ་
ཞོར་ལས་
སྟོང་པ་
▁ཚུད་པ་
ཆུང་གིས་
དང་དགོང་
བརྒྱ་རྩ་
ཚབ་བྱེད་
འགལ་བའི་
འདུ་འཛི་
སོན་བཟང་
▁།ཞེས་པ་
▁ལས་བཟོ་
གཅིག་པུས་
གཉིས་ཀྱང་
ལྷུར་ལེན་
སློང་བའི་
▁དོན་གྱི་
གཤམ་སྤྲོད་
གློག་སྐུད་
བརྒྱབ་སྟེ།
བསྒྱུར་ཏེ་
རྩད་ཆོད་པ།
ལུས་སྟོབས་
དེ་ཉིད་ཀྱི་
བྱས་ཡོད་དེ།
མཇུག་སྒྲིལ།
ཡོད་དོ་ཅོག་
ཤིག་ཡིན་པས།
སྒྲིག་གཞིར་
▁སེམས་ཤུགས་
གཡུར་དུ་ཟ་བ་
ཕྱོགས་སྒྱུར་
བྱུང་སྟེ་མི་
ནང་འདྲེན་གྱི་
དམག་ཁུལ་ཁང་གི་
བྱེད་ཐབས་སྤྱད་
ལག་བསྟར་ནན་མོ་
་ཆེན་རིན་པོ་ཆེ་
བསྟན་འཛིན་གྱིས་
དོ་ཁུར་བྱེད་པའི་
མཁས་པའི་དགའ་སྟོན
མའི
ཕྱྭ་
རྡོལ་
ལྟུང་
སྐྱོད
གཞོན་པ
བདེ་ལ་
རྨེའུ་
▁བརྗེ་
▁ཡཱའི་
▁སྡེབ་
ཆུ་རུད་
ཐོག་ནས།
ཕོ་གསར་
ཚན་གཙོ་
▁ངོ་བོ་
▁དཀྱུས་
▁འབར་མ་
▁རང་རེ་
▁སྒྲིལ་
ཕྱི་ཚུལ་
ལམ་ལུགས།
སྐར་མའི་
▁ཐོན་ཚད་
▁བསམ་ཡས་
གུས་བཀུར་
བཅུ་གྲངས་
བསྒྱུར་ན་
བྱས་ཀྱང་།
འགྱུར་དང་
རྒྱབ་ཀླུ་
གཏོང་སྐབས་
གོམ་འགྲོས་
དོན་འགྲུབ།
བཙོན་འཇུག་
འབྲོག་ཁུལ་
འབྲོག་སྡེ་
སྐྱེ་འགྲོ་
▁དེའི་རིང་
▁འབྲིང་རིམ་
འགོ་ཁྲིད་པས་
སྙིང་ཉེ་བའི་
▁ཨ་མེ་རི་ཁས་
དང་བདེ་སྐྱིད་
པ་བཅས་བྱས་ཏེ་
བཞིན་པའི་སྒང་
བརྟག་དཔྱད་དང་
ུ་ཀ་ནི་སི་ཐན་
དབུལ་ཕོངས་ཀྱི་
▁རྫོང་རིམ་པའི་
བྱེད་པར་བསྐྱོད་
ཏང་གི་བོད་སྐྱོང་
ཐང་གའི་སྒྱུ་རྩལ་
ཏི།
གུན་
▁ཤོ་
ཁ་ལག་
བཀྭན་
འགྲེལ
རྩིས།
དཀར་ལ་
བརྩོན།
མནའ་མ་
▁མཛད་པ
ཁང་ཞིག་
བབས་ཏེ་
མཛེས་པ།
མི་གསལ་
རྙིང་བ་
ལས་མིས་
ལྟ་བུས་
སྒོ་དང་
ཨང་རིམ་
▁བཅས་པ་
གཏོད་པར་
གནས་མཇལ་
གཞིགས་ན་
གླུ་སྐད་
ཉམས་སྣང་
ཐུང་ཐུང་
དབང་ལུང་
ཕོད་པའི་
བྱས་ཉེས་
མ་ཡིན་པ།
རུ་གྱུར་
རླུང་དང་
འགན་འཛིན་
▁བློན་པོ་
གཉེན་སྟོན་
བྱུང་བ་དེ་
སྐྱེས་མའི་
▁ཆབ་མདོའི་
▁ན་ནིང་གི་
▁འཇིགས་མེད་
ཙམ་མ་ཡིན་པར་
▁དམངས་སྤྱོད་
གཏོང་རྒྱུ་དེ་
ཚུར་སྣང་ལན་ཆ་
ཡག་པོ་བྱས་ནས་
ལྗོངས་ཏང་ཨུད་
སྐབས་བདུན་པའི་
སྤུས་ལེགས་ཀྱི་
གཉི་
ཅི་ལ
དང་བ
འཚག་
▁ཡིས
ཀྲིར་
བཤོལ་
རི་ཡ་
ལེའུ།
སེང་ག
▁ཟ་མ་
བཏིངས་
ཡིག་ལ་
སུམ་པ་
▁སྦྱར་
བརླན་ས་
སི་ཕེན་
སྐྱ་བོ་
▁བར་ཐག་
▁ལོ་མང་
ཐེག་པའི་
བཟོ་མཁན་
མཉམ་མེད་
འདི་ཡིས་
འཛེམ་པར་
ཡོན་གནས་
རང་འདོད་
རྩེད་ཆས་
ལོའི་བར།
སྦྱིན་པ།
▁ཀླུ་ཚང་
ལས་བརྩོན་
▁དབུལ་པོ་
པ་ཞིག་སྟེ།
བློ་སྟོབས་
ཡོང་བ་རེད།
▁མ་འོངས་པ་
▁ཁྲིད་སྟོན་
▁གང་མགྱོགས་
▁སྒྲིག་འགལ་
གཟབ་ནན་གྱིས་
བཀྲ་ཤིས་ཀྱི་
བསྐྲུན་པ་རེད།
ཚེས་བཅུ་བདུན་
སྐད་གཉིས་ཀྱི་
སྨི་གྲུ་བཞི་མ
ཉེན་རྟོག་པ་དང་
གཏོང་དགོས་པ་དང་།
གླེང་སྟེགས་སྐབས་
ཆེ་རུ་གཏོང་དགོས།
ལེགས་འགྲུབ་བྱུང་
ངེས
ོབས
ཅོར་
སྐྱ།
ོལ།།
གཅེས།
གསེག་
ཕྲིན་
མཐོ་བ
ལ་བས།
སྦིས་
གོང་ལ་
དག་དང་
ན་ཚོད་
ཕག་གི་
མ་འདས་
▁བསྣན་
པར་ཙིར་
བྱ་བ་ལ་
མིག་ནད་
འཚོལ་བ།
སྟོན་པ།
▁ད་ལོར།
གཉེར་ནས་
གནད་དོན།
དམུ་དགེ་
བཙན་པོས་
ཡར་ངོའི་
རྒྱ་ཆེན་
ལས་གཞིར་
ལུག་ཁྱུ་
ཤིག་ཤིག་
ཧུའུ་པེ་
▁དེ་ཉིན་
▁ལས་སྒོ་
ཁམས་གསུམ་
གཉིས་ལྡན་
གཡུར་ཟའི་
ཉམས་ཀྱིས་
མཁས་པ་དང་
ལས་མ་འདས་
▁གཏན་ཁེལ་
▁ཉིན་དེར།
▁དམིགས་པ་
▁བགྲང་བྱ་
དུ་སོང་ནས་
བཞི་བཅུའི་
སྟོང་གཉིས་
སྟོན་གྲངས་
ཨ་ཆེན་གངས་
▁རིམ་གྱིས་
ཁ་གསལ་བཏོན་
ཁྲིམས་བསྟར་
མཐིལ་རྟོགས་
དུ་གྱུར་བའི་
སྤྱི་བསྡོམས་
པ་བཅས་བྱས་ཏེ།
འཆར་འགོད་ཀྱི་
ཤར་རྒྱུད་ཀྱི་
▁བོད་བཙན་པོའི་
གཙོ་བོའི་ཏང་གི་
དར་ལ་མ་བབས་པའི་
▁ཕྱོགས་གཅིག་ནས་
▁ཧོ་པེ་ཞིང་ཆེན་
བྲག་བརྐོས་རི་མོ་
བླང་བྱ་བཏོན་ཡོད།
རིག་གནས་དུས་ཆེན་
གསར
ཨཱ་
▁འཛ
ཆེས།
ཚིང་
གསིང་
བསྒར་
ཚེ་ན་
འཕེར་
རྩེག་
སྣེར་
▁བོར་
ཀ་ཕོར་
མ་ནོར་
ཞལ་ནས་
ལྷུང་།
▁ཁུའུ་
ཆོག་པར་
རང་རྐྱ་
▁འདམ་ར་
ཀོང་ཤིས་
ག་གེ་མོ་
ཕ་ཡུལ་ལ་
ཚོང་དུད་
▁གྱུར་བ་
▁གྲང་ངར་
▁འདི་ལས་
བུད་སོང་།
ཚོགས་རའི་
རྩ་འགྲེལ་
ལ་བག་ཆགས་
▁སྙིང་གི་
བཀོད་སྒྲིག
བཟུང་ཞིང་།
རྒྱུད་བཞི་
▁འདེམ་ཤོག་
དུ་སོང་བའི་
ཞུགས་པ་རེད།
འདུག་པ་དང་།
ཡུལ་ཤོག་གི་
ལ་བཀག་སྡོམ་
▁འཕྲལ་སྡོམ་
▁ཧེ་ལུང་ཅང་
གཞོན་པ་དབྱང་
མེ་འཁོར་གྱི་
ཐག་བཅད་པ་རེད།
ཡིས་བསྟན་དོན།
ལྷོ་རྒྱུད་དུ་
སོགས་རྒྱལ་ཁབ་
ཆིའུ་སྤོ་ལོའི་
ཆོས་འཕེལ་གྱིས་
བྱས་པ་ཞིག་རེད།
མཉམ་འདྲེས་ཀྱི་
གང་ལེགས་བྱས་ཏེ་
ཕྱོ
བཟང
མོས
ཆེ།།
དངོས
ཟིས་
ལྡོག
ཕ་མར་
མང་ན་
ར་ནས་
རྩེས་
བསྐོས།
རྒྱུས།
ལམ་བུ།
▁ལིའི་
པའི་ཆུ་
བསྐལ་བ་
བོན་པོ་
ཟིན་ཐོ།
▁དགོས་པ
▁འཕྲོག་
ཆོག་སྟེ།
ཕྱག་བཏབ་
མཐོ་གསར་
▁རྟག་ཏུ་
▁སྤོ་བོ་
གྲྭ་སྐོར་
ཆོས་ཀྱིས་
བཤད་རྒྱུ་
རེ་རེ་ནི་
ལ་བསླེབས་
ཤེར་ཕྱིན་
▁ཁྱིམ་མི་
གདུགས་དཀར་
དང་འདྲ་བར།
བློས་གཏོང་
དང་རང་བྱུང་
ཟམ་ཆེན་གྱི་
འགྲེམས་སྟོན
ཡར་སྔོན་དུ་
གཉིས་མཉམ་དུ་
དུས་དེབ་ཀྱི་
འབྱུང་བ་དང་།
རྩེད་མོ་རྩེ་
▁ལི་པུ་ཡཱའི་
གྱི་ལོ་རྒྱུས་
▁རང་བྱུང་ཁམས་
གཙོ་འགན་ཁུར་ནས་
ཆེ་རུ་ཕྱིན་ཡོད།
པ་ཞིག་ཡིན་ཞིང་།
▁འབྲུག་ཆུ་རྫོང་
མཚོ་བོད་མཐོ་སྒང་
ལག་བསྟར་བྱེད་པར་
ལས་དོན་ཚོགས་འདུ་
▁ཡན་ཅིན་ཧའེ་ཡིས་
ཀེང་
ཐིས་
ཞོར།
ཤོམ་
དགུས་
བྱོས་
འཚོ་བ
སུ་ལ་
དེ་ཡིས་
དོར་ནས་
བག་ལེབ་
བར་ཡིན།
ཞིང་ཆེན
འདོན་པ་
ལག་པའི་
ཆགས་ཤིང་
ཚོས་ཀྱང་
རྒྱག་པར་
སྲིད་དམ།
སྲིད་པས་
▁པར་གཞི་
▁བཙན་ལྷ་
གསོ་དཔྱད་
དགྲ་བཅོམ་
མང་ཆེ་བས་
འབུམ་རམས་
རྗེས་གནང་
རྟག་བརྟན་
▁མཁས་པའི་
▁འོད་ཟེར་
འཇོག་པ་དང་
▁ཀྲའོ་ལིན་
▁ཉོ་སྒྲུབ་
གནང་བ་མ་ཟད་
གཤིས་རྒྱུད་
ལི་ཐང་རྫོང་
སྟོབས་ཆེའི་
སྦྲང་རྩིའི་
▁སྙན་སྒྲོན་
▁ཆུང་དུས་ནས་
ུའུ་དབྱིང་ཅེ་
ཚེས་བཅོ་བརྒྱད་
འཐབ་ས་དང་པོའི་
▁ཉིན་ཤས་བསྟུད་
བཀྲག་མདངས་འཚེར་
བར་གྱི་གཞུང་ལམ་
ཞི་ཅིན་ཕེན་གྱིས་
ཁངས་
ཀོའུ་
དྲེལ་
འབྱོར
ཨ་ནེ་
▁ཟིལ་
གཟིམས་
གཡོ་བ་
བུ་མོ།
མི་ཉན་
།།རྒྱལ་
འབད་པས་
རྒྱ་དང་
ལྷ་རྗེ་
སྔ་རོལ་
གསུམ་ཙམ་
དྲག་རྩལ་
▁གཙང་བོ་
▁གཡག་རྔ་
▁ཚེ་དབང་
▁རྒྱ་མཚོ
▁སྔོན་ལ་
ཐལ་སྤྱོད་
དབུལ་སེལ་
དེ་རང་གི་
འདུག་ཟེར།
རྒྱུན་མི་
སྐྱེས་ཏེ་
སྔོ་ཁེབས་
དང་ལག་རྩལ་
▁གྲོང་ཁྱེར
▁དུད་ཁྱིམ་
▁བསྒྱུར་བ་
▁འབྲི་གཡག་
▁སུམ་བརྒྱ་
▁སྤུ་རྒྱལ་
གནས་ཚུལ་དེ་
ཆ་འཕྲིན་ཅན་
ནང་ཞུགས་ནས་
བླང་བྱ་ལྟར་
ཞི་ཅིན་ཕིན་
རྒྱ་ཡིག་ཏུ་
གསར་པའི་ཐོག་
ཐབས་བྲལ་བའི་
སྨན་རྫས་ཀྱི་
▁ཁྲི་ཀ་རྫོང་
གསོལ་བ་འདེབས་
ཆེས་མཛེས་པའི་
ནས་ཕྱིར་འཐེན་
ཚེས་བཅུ་གཉིས་
འདོད་ཡོད་ཟེར།
འཕྲིན་ལས་ཀྱི་
ཡག་པོ་བསྒྲུབ་
ཤོར་བའི་ནད་པ་
གསུང་འབུམ་པོད་
ལག་བསྟར་བྱས་ནས།
▁བརྙན་འཕྲིན་ཁང་
གཞི་ཁྱོན་ཆེ་བའི་
མང་ཚོགས་ཀྱི་ཐོབ་
རྒྱལ་ཁབ་སོ་སོའི་
རྒྱལ་སྲིད་སྐྱོང་
་མ་
ཞིར་
འཚོལ
▁པན་
མང་ལ་
▁གསབ་
ལྐུགས་
སུ་དང་
▁ལྡོག་
ཁྱད་པར།
བཟའ་ཚང་
ལ་ལྟོས་
སྤེན་པ་
སྲུང་མ་
ཨུ་ལྷན།
གཙོ་རྐང་
ཉམས་པའི་
བརྙན་པར་
བྱ་རྩིས་
མགོན་པོ།
རང་སེམས་
སྒོ་ཆེན་
སྟོན་པས་
དམག་སྤྱི་
བྲིས་ཀྱི་
མཚན་རྟགས་
ཞབས་ཀྱིས་
ལེགས་ཤིང་
ཤུལ་འཛིན་
སྤྱོད་པར་
གྲོས་གཞིར་
པེ་ཅིང་ནས་
མེད་པ་བཟོ་
▁ཐེངས་རེར་
▁མགྲོན་པོ་
▁ཡོངས་ཁྱབ་
ཁྲིམས་བཀོད་
ཚད་གཞི་ལྟར་
སྤྱན་ལམ་དུ་
▁བཤམས་སྟོན་
གྲས་ཤིག་རེད།
བོད་སྨན་གྱི་
སུ་གྱུར་ཡོད།
ཕྱིར་སྡོད་རང་
ས་གནས་ཁག་གིས་
མདུན་ཕྱོགས་སུ་
འབྲེལ་བ་དམ་ཟབ་
སྤྱི་ཚོགས་སྐྲུན་
ཅུས
ཏིག
ཆ་ལ་
ལ་མོ་
ལོ་ནས
▁ཐོལ་
▁དཔར་
▁ཚོགས
དུད་ཚང
ནས་ཇེ་
འགྲུལ།
ལ་བསྒྲ
སྡིགས་
སྣ་ལྔ་
གཞི་རྩ་
ཐེབས་པ་
དད་གུས་
དྭངས་མ་
བྲམ་ཟེ་
མ་མཆིས།
ཞིག་ནི་
ཞུས་པར་
རིས་སུ་
རྙེད་པ།
ལག་དེབ་
ལྷ་ལུང་
སྟོང་བ་
སྲུང་བ་
▁རྨོངས་
གཏམ་བཟང་
གཙོ་བོ་བ
གཤམ་གསལ།
བཀའ་པོད་
མིང་དང་།
ཚངས་པའི་
འགྲུལ་བ་
སྡོང་པོ་
སྤྲོད་པ།
ཀུན་བཏུས་
པ་དག་གིས་
བདེ་མཆོག་
བོད་རྒྱལ་
རྩོམ་མཁན་
སྨན་འཐུང་
▁ནད་རིགས་
ཉེར་བཞིའི་
གཙོ་བོ་དང་།
བརྒྱབ་པ་དང་
འདྲུད་འཐེན་
འཛུགས་གཉེར་
སོ་ཏི་ཨ་རབ་
▁བདེ་སྒྲོལ།
▁མཛད་སྒོའི་
དམིགས་འཛུགས་
ལེགས་བསྒྱུར་
ལོའི་ཟླ་ཚེས་
ངང་འཕེལ་རྒྱས་
པ་ནས་ལོའི་ཟླ་
▁བསྐྱར་སྐྲུན་
▁རང་ཉིད་ཀྱིས་
གང་ལེགས་བྱས་ནས་
ནས་པར་བླངས་པའི་
མཛད་སྒོའི་སྟེང་
ཡོང་འབབ་སྒོར་ཁྲི
སློབ་གྲྭ་ཆེན་མོ།
འེ
རྩེ
རྫབ་
་དང་།
▁ལུད་
ཁག་པོ་
ཁྱབ་པ།
དང་རི་
ནས་ཆུ་
ཞལ་རས་
ཡོང་།།
བཟུང་བ་
བསྒོམས་
བསྒྲོན་
མེ་སྟག་
སེལ་བར་
སྙམ་དུ་
ནད་སོགས་
བཅད་པའི་
བཟོད་པར་
▁ཀྲང་ཏེ་
དུ་མ་ཞིག་
ཕྲན་ཚེགས་
འགོས་པའི་
ཧུའེ་ཡིས་
▁རྡོ་སོལ་
▁ལུས་ཕུང་
།།ཀྲུང་གོ་
ཇོ་བོ་རྗེ་
བར་སྣང་དུ་
ལོ་གཅིག་ལ་
▁པྲོག་གསར་
▁བསྟུད་མར་
དགུན་སྒྲོལ་
ནང་དོན་གྱི་
ཡུན་རིང་གི་
རང་སྟེང་གི་
▁ཉིང་ཁྲིའི་
▁རྒྱལ་ཚོགས་
▁རྗེ་ཙོང་ཁ་
གཏོང་བའི་ཐད་
ཏིང་ངེ་འཛིན་
མི་གཅིག་པའི་
འབད་འཐབ་ཀྱི་
ལ་བརྩོན་པའི་
གསོ་སྐྱོང་དང་
ཀྲུང་དབྱང་གིས་
ཆུའི་ཐོན་ཁུངས་
ཨོ
མྱེ་
▁བསྲ
ཀྲེམ་
བཤུག་
ཚིམས་
འགུལ།
ཅང་ཙེ་
ཐང་ཆད་
ངན་པའི་
དག་ཞིང་
རབས་དང་
ལོ་ཚོད་
▁བར་དུ་
གཏིང་ཚད་
དུས་ཀྱང་
འཁོད་དང་
འབྲིང་བ་
སྐྱིད་ལ་
ཨང་གྲངས།
▁རིང་ཚད་
▁ལམ་རིམ་
གྱི་བྱ་བ་
དགོད་སྒྲ་
བདག་འཛིན་
མཚོན་ཐབས་
མཚོན་ཐུབ།
འདུས་ཀྱི་
རེ་རེ་ནས་
▁ཁྱིམ་དུ་
▁དེ་དག་ལ་
▁ཞིང་པའི་
▁ཞུ་གཏུག་
ཆེན་མོ་དང་
ཐུབ་པ་ཡིན།
ཐུམ་སྒྲིལ་
དམའ་འབེབས་
བླངས་ཤིང་།
འཕྲོག་པའི་
རྟ་རྒྱུགས་
ལ་ཞུགས་ནས་
སྐྱོ་གདུང་
▁དཔྱད་གཞི་
▁སྙན་ངག་པ་
གཞན་དག་གིས་
དུ་འགྲོ་བར་
རྒྱལ་སྐྱོང་
སྒྱུ་རྩལ་ལ་
▁གྲངས་འབོར་
▁འགག་སྒྲོལ་
གནམ་གྲུ་ཞིག་
མཁྱེན་རྟོགས་
རང་ལྗོངས་སུ་
རྩེ་རྫོང་གི་
སྒོ་འགྲམ་དུ་
▁ཐུན་མོང་གི་
▁རྒྱང་སྒྲོག་
འཇིག་རྟེན་དུ་
▁ཟླ་བ་ཚེ་རིང་
སྐྱེ་ཁམས་མ་ལག་
གོང་མའི་ལོ་རབས་
སྒྱུར་བཅོས་ཀྱི་
ཆེན་པོ་བྱུང་ཡོད།
▁ཞི་བདེ་རྒྱ་མཚོ་
བབ།
ཀ་ལ་
གནམ་ལ
ཐུང་།
དྲོས་
བཅུད།
ཚན་ཁག
འཁོབ་
འཕྲོག
དག་པར་
མི་ཁྲི
འདྲེས།
ཧོ་པེ་
▁རྒོད་
▁ཤོར་བ
གོང་མས་
གླེང་བ་
ཆ་ལུགས་
ཞིམ་ཟས་
སྦི་རག་
▁བསྐྱལ་
▁འཁྲིད་
ངོ་བདུན་
ཅུས་ཀྱིས
ཐང་སྟོང་
བ་ཞིག་ལ་
མིང་དོན་
འཁྱོལ་བ་
སྐོར་ལམ་
ཆོས་འཕེལ།
ཐོལ་བྱུང་
▁ཉེན་བརྡ་
▁མཁན་ཆེན་
▁ལྷོ་ཁའི་
གཅེས་སྤྲས་
གནད་སྒྲོལ་
འབྲས་བུའི་
▁གྲོང་ཁུལ་
▁བདམས་ཐོན་
དེ་རྒྱལ་ཁབ་
འཛུགས་རྒྱུ་
ལ་བཟོ་བཅོས་
སྒུལ་བདེའི་
▁གདུགས་དཀར་
ཆོག་མཆན་ཐོབ་
ལྔ་དང་བྱེ་བ་
སྐབས་ལྔ་པའི་
གཙོ་འགན་བཞེས་
འབོར་ཆེན་ཞིག་
སྤྱི་ཚོགས་དང་
▁བརྩམས་སྒྲུང་
སློབ་གསོ་སྤེལ་
བསྟན་ཡོད་པ་རེད།
རིམ་བརྩིས་ཀྱིས་
གཏོང་བ་སོགས་ཀྱི་
ཡིད་ཆེས་བརྟན་པོ་
སློབ་ཆེན་སློབ་མ་
ཨཱ
▁བད་
ལ་ཉེ།
ཧོའུ་
།།བོད་
ད་ཡོད་
ཕག་མོ་
རྐང་བ་
སྒོ་ར་
▁མ་རྩ་
▁སྲོལ་
གཏོར་མ་
གསར་བུ་
པར་བཤད།
བསློགས་
མཚོན་པ་
མི་དོན་
ཟབ་མོ་བ
▁བང་སོ་
▁སྤོབས་
གསེང་གི་
ཆིང་ཏའོ་
དམར་གྱི་
དྲིལ་བུ་
མཁའ་དམག་
མཇལ་བའི་
འཇིགས་པ་
འཚོལ་བར་
ཡང་རྩེར་
▁ཅི་ཞིག་
▁ཆུ་ཤུར་
▁མཁན་པོ་
▁འདི་ནས་
སྡེ་དཔོན་
སྦྲང་རྩི་
སློབ་པའི་
▁མཚོ་དམག་
▁ཡི་གེའི་
ཀྲུའུ་རིན་
གདུག་རྩུབ་
ཐེངས་འདིར་
དགོངས་གཞི་
ཚེས་ཉི་ཤུ་
འགྲོ་མགོན་
རྒྱུད་རིམ་
སྐོང་ཚོགས་
▁གླེང་གཞི།
▁དབུས་གཙང་
▁དུས་གསུམ་
བྱས་ཡོད་པས་
ལ་གཞི་ཚུགས་
▁འགོ་བརྩམས་
དུ་གྱུར་ཡོད།
ཤིག་ཏུ་གྱུར་
ཤེས་རབ་ཀྱིས་
▁གནམ་གྲུ་ཐང་
▁མཇུག་སྒྲིལ་
དངུལ་སྒོར་ཁྲི་
བཅོས་སྐྱོང་དང་
མདུན་དུ་སྐྱོད་
རྒྱུན་མ་ཆད་པར་
གློག་འཕྲིན་བཏང་
མཐའ་འཁྱོངས་དང་།
བྱས་རྗེས་ཆེན་པོ་
བློ་བཟང་ཆོས་ཀྱི་
ཁུད་
ཟླ་བ
▁གྱི
▁ཕེ་
སྨིན།
▁བྲིས
བསྲེལ་
མཐོ་ལ་
འཁྲོལ་
ཡང་ནས་
ལི་སི་
ཁུར་བོ་
གྱུར་ན།
པ་རྫོང་
བྱས་ཚར་
ལ་བདེན་
ས་ཡ་ལྔ་
▁བརྩིས་
ཐུགས་རེ་
རི་རྩེར་
ལ་བསྐྱར་
ལིན་ཕིག་
ཤུགས་སུ་
▁ངེས་པར་
ཀུན་བཏགས་
གསར་སྦོལ་
ཉིན་འགའི་
དབྱར་ཁའི་
མི་ཉུང་བ་
▁ཆམ་རིམས་
▁དེ་གཉིས་
▁ཤོད་རེས་
གལ་ཆེན་པོ་
གསེར་བྲིས་
ཧྲེན་ཀྲེན་
▁དཔེ་མཚོན་
▁བརྩེ་བའི་
གསར་བསྐྲུན་
གསུངས་ཤིང་།
གྲ་ནང་རྫོང་
▁འགྱུར་མེད་
▁ལྷིང་འཇགས་
།།ཕྱི་འབྲེལ་
གསར་བ་ལྟར་ན།
ཐང་གྲོང་རྡལ་
མགྲོན་ཁང་གི་
མཐའ་མཚམས་སུ་
འབྱོར་བ་དང་།
སྣེ་ཁྲིད་དང་
▁སྔོན་གཤེགས་
པ་ཞིག་ཡིན་པས།
▁དུས་ཡུན་ཉིན་
གོ་ལ་ཧྲིལ་པོར་
པའི་དོན་རྐྱེན་
རྔ་བ་བོད་རིགས་
གློ་ཚད་རིམས་ནད་
ཞིང
ོ་མ་
▁བརྒ
འདུན།
ལ་བར་
སྐུང་
▁འཚམ་
ཆེ་ཙམ་
དཔྱིས་
ཡོལ་བ་
ལབ་ཙེ་
ཤག་ཤག་
ཤར་དུ་
▁གཡུལ་
▁གཤིན་
་རན་སེ་
གྱུར་པ་
དགྲ་བོ་
པ་དང་།།
▁ནང་མི་
▁རང་རང་
ཉམས་བཟོ་
དགོན་ནས་
བཞིན་རས་
བྱ་རྒོད་
▁གཞན་དག་
གསེར་ཁྲི་
ཆགས་པ་དང་
ཞེས་བྱ་བ།
འགོས་ཁྱབ་
སྐྱབས་སུ་
▁གཉིས་ཕན་
▁བསམ་པའི་
▁མེ་ཤུགས་
གསེར་ཕྲེང་
དང་སྔོ་ཚལ་
དབྱངས་གསལ་
སྒྲོག་པའི་
▁ཉིན་རེའི་
གཞོན་པ་ཀྲང་
དང་མི་དམངས་
སྤྱི་སྟེགས་
▁རང་འགུལ་ངང་
གོ་བ་གཏིང་ཟབ་
དངོས་སུ་སྤེལ་
ཞིབ་བཤེར་གྱི་
སྐོར་ཞིག་གིས་
སྨར་ཁམས་རྫོང་
གྲོང་ཁྱེར་གྱིས
ཡོད་ཅེས་གསུངས།
རྟེན་འབྲེལ་ཞུ།
ཤར་གཏོང་ཐུབ་པ་
ཤར་གཏོང་ཐུབ་པ།
▁ཕྱི་འབྲེལ་པུ་
▁སངས་རྒྱས་ཀྱི་
ཀྲེ་ཅང་ཞིང་ཆེན་
ཁྲིམས་ལུགས་ཀྱི་
གལ་ཆེན་རང་བཞིན་
ཞབས་ཞུ་ལྟེ་གནས་
དཔེ་སྐྲུན་ཁང་གིས
ལག་བསྟར་བྱ་རྒྱུ་
”()
ཐེལ་
སྟན་
སྒོག་
ཏི་སེ་
ཐོབ་ཆ་
བཟས་ན་
མཚེའུ།
ཚང་དང་
▁ཀྲིག་
གཉེར་བ་
ཆོག་གམ།
ཉོས་ནས་
ཕུལ་ཏེ་
བྱ་དགའ།
མུས་སུ་
སྨོས་མ་
གནང་འདུག
ཕྱིན་ཆད་
འགྱུར་བ།
ཡུང་གིས་
ལན་གྱིས་
སྐུ་དྲག་
སྐུ་འདྲ་
ངང་རྒྱུད་
ཆོས་གཞུང་
ཉིན་གཅིག་
དགོངས་ནས་
ཞེས་བཏགས་
འཛིན་མའི་
ལ་དགའ་པོ་
ལྟ་བ་དང་།
ལྡོག་པའི་
སྤྱོད་ངན་
སྤྲས་པའི་
▁བྱིས་པར་
▁རིག་པའི་
▁སྔ་གཞུག་
▁སྤྲོད་པ་
ཐ་སྙད་ཀྱི་
བཞུགས་ཡོད།
མཁྱེན་པའི་
ཚད་གཞི་དང་
རྣམ་དག་གི་
ཨུ་རུ་སུས་
▁ཕྱག་ཕྲེང་
▁འགྲོ་སོང་
▁ལན་ཀྲོའུ་
▁སྣེ་གདོང་
དངོས་འབྲེལ་
དུ་བཏང་ཡོད།
དུས་རབས་སུ་
རྒྱུན་སྲིང་
སླར་གསོ་དང་
▁མཛའ་གྲོགས་
▁སྤྱི་ལོའི་
བྱང་ཆུབ་ཀྱི་
ལས་ཁུངས་དང་།
བསྟན་གནང་ཡོད།
འཕྲུལ་ཆས་ཀྱི་
ནས་ཚེས་ཉིན་བར།
ཚོགས་འདུ་སྐབས་
སྡུག་བསྔལ་གྱི་
▁འཇིག་རྟེན་གྱི་
རྩོམ་རིག་བྱ་དགའ་
དགུ
ཐ་མ་
ཆ་ལག་
ཙུའོ་
རྩེད།
▁སོལ་
ཁེ་ལས།
མི་དེ་
ཤེས་པ།
ཀྱིས་མ་
ཁུག་གི་
ནགས་ཕག་
ཕྲ་བའི་
བཞི་པས་
བྱས་དང་
མཁས་པར་
ཤོག་ངོས
སི་ལིན་
སྙམ་མོ།
གུར་གྱི་
ཇེ་ལེགས་
བར་མཚམས་
བཤད་ཀྱང་
མཚོ་བྱང་
མཛུབ་མོ་
མེ་གླིང་
མེ་དྲོད་
ཞབས་ཀྱི་
འུ་གཉིས་
ལྡང་བའི་
ཆེད་རྩོམ་
ཕལ་མོ་ཆེ་
ཕྱག་ཕྲེང་
བཀོལ་བའི་
བཞུགས་སུ་
བཟང་བོའི་
འབྱུང་ཚད་
ཡུས་ཀྱིས་
ལ་བསྡོམས་
སླེབས་པར་
▁འཇོན་ཐང་
གནམ་ཐང་གི་
ནང་ཧུར་ཐག་
ཕྱི་ནང་དུ་
བཅས་ཕྱོགས་
བསྐྲུན་ཏེ་
མཛའ་འབྲེལ་
མི་ཐུབ་པར་
ཚད་ལྡན་ཅན་
རྫོང་ཨུའི་
གང་རུང་གིས་
གཡོས་སྦྱོར་
འགྲོ་བ་རེད།
རྡོ་རིང་གི་
སི་ཁྲོན་དུ་
▁དེ་དག་གིས་
▁འགྲོ་གྲོན་
ཐེངས་མང་པོར་
བཅོས་སྐྱོང་།
ཚེས་བཅུ་བཞི་
ཡོད་པ་དེ་ནི་
▁ཚོགས་ཐོག་ཏུ་
བློ་གཅིག་སེམས་
ལྗོངས་ཁུལ་གྱི་
བཀྲ་ཤིས་ལྷུན་པོ་
ཤུགས་རྐྱེན་ངན་པ་
སྤྱི་གཉེར་ཁང་གི་
▁ཕྱོགས་གཉིས་ཀྱི་
་ར་
ཁུ།
ཅིར་
བགམ་
མཚལ་
དགྱེ་
ཕིབས་
རིག་པ
སྤོས།
བདེ་འཇ
ཡར་མར་
སོང་ན།
▁མདོག་
གནའ་ནས་
ངོ་བཅར་
ཐུབ་ཚད་
ནི་ངའི་
འབྲི་བ་
ཡང་ཟེར།
རྙིང་མ་
ཕྱེད་ཙམ་
བཀོད་དེ།
སྐྱེལ་མ་
▁གྲངས་ཀ་
▁བདེན་པ་
▁མུ་ཏིག་
▁ལྟ་ཚུལ་
དྲ་འཕྲིན་
བདམས་པའི་
བྱ་བ་དང་།
ཙུའུ་ཀྲང་
ལ་བརྒྱུས་
▁ཡིན་ཡང་།
གང་ཞིག་གི་
ཏང་ནན་པོས་
བདེན་འཚོལ་
རིན་ཐང་གི་
སྤྲུལ་བའི་
▁སློབ་གཙོ་
དགོས་པ་སྟེ།
པ་རྣམས་ཀྱི་
▁སྤྲུལ་སྐུ་
མཐོ་རུ་ཕྱིན་
རྟོག་ཞིབ་དང་
རྩོམ་ཡིག་གི་
གཅིག་གྱུར་དང་
གསེར་མདོག་གི་
ལོ་རྒྱུས་དང་།
སྒྲིག་གཞི་དང་
གཞི་རྒྱ་ཆེ་བའི་
འགན་ལེན་ཏན་ཏིག་
འགོ་ཁྲིད་ཚན་ཆུང་
འདུ
རུང
གཅར་
མཇལ།
▁རེག་
▁སྤར་
གང་དེ་
ངེས་ལ།
པོ་ནི་
མར་ཆག་
▁གཞིར་
ཁེ་བཟང་
ཁྲི་ཡི་
གཡུལ་ས་
དྲི་མས་
བུ་མོར་
མིན་ཏེ།
རིས་དང་
རྒྱལ་ཁབ
ལས་ལྡབ་
དགོན་པས་
དྭགས་པོ་
བརྩིས་ན་
བྲག་ཡིབ་
འདྲ་སྟེ།
ལས་ཕྱོད་
སོ་དྲུག་
▁བོད་ཟླ་
གཅོད་ཀྱི་
གཏོང་ཐུབ།
གྱོད་དཔེ་
བརྒྱབ་ནས།
བོན་པོའི་
སྐབས་རེར་
▁ཁོ་བོའི་
▁གནས་སྤོ་
▁འདབ་ཆགས་
▁ལང་ཚོའི་
གསེར་མདོག་
བསྐུར་བའི་
▁ཡོང་རྒྱུ་
▁སེམས་ཁུར་
དམ་འཛིན་དང་
ཞེས་པ་སོགས་
ཡུལ་སྐོར་ལ་
ལོའི་ལོ་སར་
ཁག་གཉིས་པའི་
དར་སྤེལ་གྱི་
པ་དང་ཆབས་ཅིག
མི་འདྲ་བ་དང་
ལ་གཟིགས་ཞིབ་
▁དོན་ཚན་ཉེར་
▁ཡོངས་འགྲུབ་
བ་བཅས་བྱས་ཏེ།
མགོ་ཁྲིད་པའི་
ཡག་པོ་བྱས་ཏེ་
སྒོ་བྱང་འགེལ་
གནད་དོན་ཐད་ནས་
དཔྱིད་དུས་ཀྱི་
བློན་ཆེན་གྱིས་
སོགས་ཁྱབ་ཁོངས་
▁ཇོ་མོ་གླང་མའི་
ཧོ་ཧ
གྱའི་
ཞིའུ་
ཐང་ནས་
ཐེ་ལེ་
ཚད་གཞི
ཚད་དུ་
ཚེ་ཡི་
ལྷོ་མ་
ཐེམ་ཐོ་
དྲི་ངན་
མག་མོག་
མང་བོ་བ
མིན་པས་
མེ་འབར་
ལ་བོའི་
ལེབ་མོ་
▁ཁམ་ཕུ་
▁ཕོ་མོ་
ཀེན་ཐིན་
ཁྲི་འདུ་
གཞན་དབང་
དབུལ་བོ་
བྱས་མེད།
བྲག་རྡོ་
ཞིབ་བཟོ་
ཞིམ་མངར་
ཞེན་ཆགས་
འཇམ་གྱི་
རྡོ་མཁར་
སྒོ་རྩར་
▁ཀོས་ནན་
▁ལམ་གྱི་
དང་པོ་ནི་
དང་ལྡན་པ་
ཞེས་སོགས་
▁བྲག་འགོ་
གཅེན་གཅུང་
གཉིས་པ་ནི་
གྲགས་ཤིང་།
དུས་འགོའི་
འབུམ་དྲུག་
རྒྱབ་རྟེན་
▁བཅུ་བདུན་
▁ཚོགས་གཙོ་
▁འཐབ་རྩོད་
▁སྒོ་དབྱེ་
གྱི་ཚུལ་དུ་
དར་སྤེལ་དང་
བླ་ན་མེད་པ་
མུ་མཐུད་དེ་
ཡོད་པའི་ནང་
▁དེ་རིང་གི་
རྒྱུ་ཡིན་པས།
▁ཆོས་དབྱིངས་
▁འཆར་ལྡན་བུ་
གཉིས་སུ་དབྱེ་
བསོད་ནམས་ཀྱི་
ཡར་བརྩོན་གྱི་
རིམས་འགོག་གི་
▁བྲག་ཡིབ་ཆུས་
བཟོ་སྐྲུན་གྱི་
འཚམས་འདྲི་གནང་
དམ་འཛིན་བྱས་ནས་
བྱེད་མཚམས་འཇོག་
ལྡན་པའི་འཚོ་བར་
▁དེའི་ཁྲོད་ཀྱི་
ཡིག་འབུལ་ཞུ་བཅར་
རིག་གནས་སྣང་ཚུལ་
ཁོག
▁གི
གསར་བ
གླུད་
རིམ་པ
རྫིག་
ལྡོམ་
སྨྲས།
ཅིང་།།
ཆུང་ལ་
ཆེ་ཡང་
བསྒྲགས
▁དེ་ན་
ཕུལ་བར་
བཅས་ལས་
བཞག་པར་
བྱ་ཐབས།
བྲིན་ཁ་
ཤིས་ཨན་
སྐུ་བལྟ
▁དབུ་མ་
ཕེབས་ནས།
བུ་སྟོན་
བྲིས་ཏེ་
སོ་གཅིག་
སྐྱེད་ཀ་
གསུང་འབུམ
གྱིས་ཀྱང་
ནམ་ཞིག་ལ་
པ་བརྒྱུད་
མི་རྒྱུད་
འགྱངས་པར་
རྟོག་པའི་
ལས་སྒྲོལ་
ལི་སི་ཐན་
▁གསེར་ཐར་
▁རྫོང་དང་
གསུང་འབུམ།
དཔྱིད་དཔལ་
རང་ཡུལ་དུ་
▁བཅུ་གསུམ་
▁མར་ཁེ་སི་
▁སྤུ་ཧྲེང་
ཚགས་པར་གྱི་
རྣམ་པར་བཀྲ་
▁མཁའ་དབུགས་
▁འདེམས་ཤོག་
མགོ་ཁྲིད་པས་
འདི་ཉིད་ཀྱི་
འཚོ་གནས་ཀྱི་
▁ཁྲིམས་མཐུན་
ཁོང་དུ་ཆུད་པ་
གསར་སྤེལ་གྱི་
ནུབ་ཕྱོགས་སུ་
ལྗོངས་ཡོངས་སུ་
སྐབས་དྲུག་པའི་
▁ལོར་མཚོ་སྔོན་
གསུང་བཤད་གནང་བ།
སྨྱན་སྦྱོར་གྱི་
ཀྱེ་
ཚིགས
འཁྲི
ང་གོ་
ཉ་མོ་
བཅགས་
མོ་བྲ
རུའུ་
ལ་ཁད་
བསུའི་
ཚོགས་པ
རྩིབས་
ེབ་དང་
▁སེ་ར་
ཐེ་རོན་
བས་ཀྱང་
ཟློས་གར
སོང་གི་
གམ་ཡང་ན་
ཅིག་ཡིན་
ཆས་སོགས་
དགུང་དུ་
ནང་ཞུགས།
འོད་ཟེར།
སྔོན་མར་
▁ཆེ་གྲས་
དྲགས་པའི་
པ་ཡིན་པར་
བྱས་མྱོང་
མཚོ་མོའི་
མི་སྙོམས་
ལ་མ་དངུལ་
▁བར་བརྒལ་
▁མྱུར་དུ་
▁ཡིད་འོང་
▁ལོ་ཙཱ་བ།
▁སྤྲིན་པ་
གྲོས་དཔོན་
ཞེས་པ་ཞིག་
འཕྲོད་པའི་
འབྲིང་བའི་
▁ཁྱེད་ཉིད་
▁གནས་སྤོར་
དགའ་བསུ་ཞུ་
དང་ཐག་གཅོད་
དུས་དེབ་དང་
འཁྲུངས་ཡུལ་
འབྱོར་རྗེས།
ལག་ཏུ་བསྟར་
▁ཡང་དག་པའི་
▁རྗེས་འཇུག་
▁སྤྲོ་གསེང་
དང་བླངས་པའི་
ཕྱི་ཕྱོགས་ལ་
བཅུ་བཞི་བའི་
བྱམས་པ་གླིང་
▁རྩོམ་པ་པོས་
གུང་གསེང་རིང་
འགན་འཁུར་མཁན་
འཕུར་སྐྱོད་པ་
ལོའི་ལོ་མཇུག་
ལོ་ངོ་སྟོང་གི་
སྨྱན་བྱད་ཀྱིས་
ཏང་གི་བཀའ་དྲིན་
ཐུགས་རྗེ་ཆེ་ཞུ་
ཆོས་ཀྱི་འཁོར་ལོ་
མཁས་པ་རྣམས་ཀྱིས་
ཕུག
མེ།
སེལ
གཅད་
མགྱོ
རྒྱག
ེའར་
ཁྲོས་
སྐྱོར
བཞག་པ།
འཁྲིག་
སོ་ལྔ་
▁དྭགས་
ཕྱི་དར་
ཡབ་མེས་
ལྷ་མོར་
ཤིག་དང་
▁ས་བོན་
ཐུབ་ངེས་
དཀར་བའི་
ནས་སྡོད་
ཕྱི་མིག་
བླ་མ་དང་
མགྲིན་པ་
མཛད་སྒོ།
མིང་གཞི་
རིམ་སྤར་
རྒྱུ་ལས་
ལྷ་རྒྱལ་
ལྷང་ངེར་
སྟོང་ལྔ་
ཧོར་གྱི་
ཙེ་ཨོ་ཕི་
ཞེས་དྲིས།
ཡིད་བརྙན་
ལ་སྐུལ་མ་
ཧི་མ་ལ་ཡ་
གཞིས་ཁྱིམ་
དྲུག་ཅུའི་
བྱ་བ་དངོས་
མངོན་ཞིང་།
ཚན་ཁག་གིས་
འཛོམས་ཀྱི་
ཤིང་བརྐོས་
ཨེར་ཏེ་ནི་
▁བསམ་གཞིག་
▁བྱེད་ནུས་
ཉེ་འདབས་སུ་
▁དབྱི་ཐ་ལི་
གནས་ཚུལ་འོག་
ཉིན་ནས་བཟུང་
དབྱི་ཐ་ལིའི་
པའི་དུས་ཚོད་
མིའི་རིགས་ལ་
ཀྲུང་གོའི་བོད་
གཟའ་འཁོར་གཅིག་
ཐིང་གི་ཐིང་ཀྲང་
ཚད་གཞི་མཐོ་བའི་
ལེགས་སུ་གཏོང་བ།
ཁྱད་ཆོས་མངོན་པར་
གཏན་ཁེལ་བྱས་པའི་
འཛམ་གླིང་ཐོག་གི་
ལུ
བཙན
སར།
མྱེད་
ཚོ་བ་
ཧ་གོ་
་་་་་་
ོ་བསམ་
▁འདྲེ་
དར་དཀར་
འགོ་ནད་
གནད་བཏུས
ཉེ་འདབས་
བཏོན་ཏེ།
འཚོ་ཞིང་
ཡོད་དུས་
རྡོག་རྩ་
སྤྱན་སྔ་
ཚོགས་འདུ།
སྐྱིད་དང་
▁རང་སྲོག་
འདོན་དགོས།
སྒྱིད་ལུག་
▁གཙོ་གཉེར་
▁མཉམ་སྡེབ་
▁སྐབས་རེར་
བསྡུར་གྲངས་
མང་དུ་འགྲོ་
རྒྱས་སྐྲུན་
ཨུ་ལྷན་གཉིས
▁ད་ལྟའི་བར་
རིམ་པ་ཁག་དང་
རྒྱུན་ཨུ་དང་
ལ་གཏོར་བརླག་
▁ལི་ཐང་རྫོང་
▁སྤྱི་སྒྲོག་
ཟླབའི་ཚེསཉིན་
▁འདེམ་བསྐོའི་
ཆེད་ལེགས་སྐྱེས་
འཇིག་རྟེན་འདིར་
ཧྲུའུ་ཅི་དང་པོ་
▁འགན་འཁྲི་འཁུར་
▁ལིས་ཁི་ཆང་གིས་
ལོ་རྒྱུས་ཡིག་ཚང་
ྡྷ
ཁུག
འུད་
▁ཉང་
ཚ་ནན་
འགོར།
རྟ་ལ་
ལགས།།
མཆིམས་
ལུང་བ་
ཨར་ཏི་
▁འཚོགས
ཚུལ་དེ་
ལྷུ་ལག་
ཀུང་སིར་
ཐབས་བྲལ།
ལག་རྟགས་
▁བྲིས་པ་
ཕྲེང་བའི་
མཚོ་འགྲམ་
འཛིན་ཡིག་
ཡོན་གྱིས་
རོགས་རེས་
ལས་སྐྲུན་
ལྟ་བུའོ།།
སྒྲོན་མེ།
ེ་ལེ་པེན་
▁ཨའོ་མོན་
གསབ་སྦྱོང་
འགྲིམ་པའི་
རིགས་གཞུང་
ལས་བྱེད་པ།
དམ་འཛིན་བྱ་
འཚོལ་སྐྱོབ་
ཡོད་ཚད་ཀྱི་
ལས་ཀ་སྒྲུབ་
ཨུ་ཡོན་ཚོས་
▁ཕན་ཅི་བུན་
▁མེ་ཏོག་གི་
▁རྩིས་བཤེར་
བྱས་པ་ཡིན་ལ།
ཡན་ལག་རུ་ཁག་
རེར་ཆ་སྙོམས་
▁ཏོག་དབྱིབས་
▁དེའི་ནང་གི་
གླིང་ཕྲན་གྱི་
བརྟན་དུ་གཏོང་
འགོ་རྩོམ་པའི་
ཐུབ་ཡོད་པ་རེད།
ལག་བསྟར་ནན་ཏན་
ཏང་རྩ་འཛུགས་དང་
ཁོར་ཡུག་གཙང་སྦྲ་
ཉིང་ལག་རུ་ཁག་གི་
བྱེད་པའི་བྱ་བའི་
ཀོ
དང་ཤ་
རྔའི་
▁ལྗར་
ཉེ་སར་
དཔྱོད།
འདུའི་
ཐབས་སུ་
རང་ཡུལ་
རུ་མིས་
སྐྱུགས་
ཨ་པུའུ་
▁སྐྱུར་
ཕྱིར་མི་
བཅུག་ནས་
འཇོན་མི་
ཤམ་བྷ་ལ་
ཤེས་བྱར་
གཏེར་གྱི་
གྲུབ་ཀྱི་
ངོས་འཛིན།
ཐེངས་རེར།
དངུལ་སྨར་
དུ་སྐྱོད་
བཏིང་ཡོད།
རླབས་ཀྱི་
ཁྲིམས་ཀྱི་
ཆོས་མང་དུ་
དཀའ་ངལ་དང་
དཔུང་འཇུག་
བརྩེ་དུངས་
འཇུག་ངོགས་
འདེབས་གསོ་
སྐད་བརྡའི་
▁དུག་འགོག་
ཀྱི་ལས་དོན་
ཐག་རིང་བའི་
བསྐྱར་ཟློས་
བྱས་པའི་ནང་
ཞི་ཞིང་ཆེན་
སྐབས་བསྟུན་
སྐོར་བྲོའི་
▁ཚངས་དབྱངས་
ཀླུ་ཆུ་རྫོང་
དགོས་མཁོ་བསྐ
བསམ་གཞིག་གི་
བྱེད་དགོས་སམ།
ཞེས་བསྡུ་རྒྱུ
སྤྱི་གཉེར་ཁང་
སྤྲོད་རྒྱུའི་
གློག་བརྙན་གྱི་
ཆེན་པོ་བྱུང་བ།
སེམས་འགུལ་བའི་
ལོ་རྒྱུས་ཡིག་ཆ་
▁ཉུང་མཐར་ཡང་མི་
དང་རྒྱུ་ནོར་གྱི་
པོར
སེ།
་ནས་
རྡོ།
▁ཕམ་
▁ཞར་
གཡོར་
བཀུར།
བསྡུར
མཉེད་
མྱོས་
འཆོལ་
སྟེན་
▁མཁལ་
ཆམ་ཕབ་
ཞིབ་ཆ་
ཐོན་ཏེ་
དང་སྐར་
ཟམ་པའི་
འདོད་ན།
རྒྱ་སེ་
ས་སྲོད་
དར་སྤེལ།
དོན་མེད་
དོན་ལྡན་
པ་ཞིག་ལ།
སྙན་ཞིང་
སྤྲོ་བས་
▁དར་གོས་
▁བྱང་ཐང་
▁ལོ་ཏོག་
ཐུང་ངུའི་
དགའ་གཏོང་
དགོས་ཚུལ་
ཕུའུ་ཅིན་
མཉམ་མྱོང་
ཚོགས་དང་།
རྩིས་རིག་
ལྡུམ་རའི་
སྲིད་ཇུས།
ོགས་ཀྱིས་
གསོ་བསྐྱར་
དྲོད་རླངས་
མོའི་རྡེབ་
ཞེས་པ་འདི་
རྨི་ལམ་དུ་
སྤྱི་གསོག་
▁དཀའ་སྡུག་
▁ཚོང་རྟགས་
▁སེམས་ཁྲལ་
གོ་རིམ་ལྟར་
ཆོས་འབྱུང་།
སྡེབ་སྒྲིག་
▁འཇོལ་རྫོང་
ཁྲི་ལྔ་སྟོང་
ཤེས་ལྡན་པའི་
སྣ་ཚོགས་ཤིག་
ཉེར་གཅིག་པའི་
▁གོང་གསལ་གྱི་
▁དུས་ཚོད་ཀྱི་
དུས་རྒྱུན་གྱི་
བླ་མ་སྐུ་ཕྲེང་
རིགས་མི་འདྲ་བ་
རྒྱུན་མཐུད་དང་
བདག་ཉིད་ཆེན་པོ་
སྦྱོང་བརྡར་གྱི་
་པ།
བྲོ
ཟབ།
ང་མ་
ཁྲེས་
ག་དང་
གཏོར།
གཞོག་
ཏུའི་
བརྒལ།
ཡོངས།
▁འོང་
ཚེ་གང་
འདིའང་
ལས་གྲྭ
▁གྲགས་
▁འཕར་བ
▁ལྗོན་
གུ་ཡངས་
དུས་རབས
མོ་བདེ་
རིག་གནས
▁ཟེར་བ་
▁རབ་ཏུ་
གནམ་བདེ་
གཞན་དོན་
ཅེས་དང་།
ཐད་འཕུར་
ཐོབ་ཀྱི་
ནག་ཚོགས་
བསྒྲིབས་
བྱུང་ཡང་
མཛད་ཇུས་
ཞིབ་མཆན་
སྐད་གསང་
གཙང་སྦྲར་
གསོལ་བའི་
ནར་འགྱངས་
མཚམས་རེར་
རྗེས་རབས་
སྐབས་དོན་
ད་ཡོད་ཀྱི་
དངོས་སློབ་
བྱེ་འགྱུར་
ཕྱི་རོལ་ཏུ་
མཛད་སྒོ་དང་
རྙེད་པ་དང་།
ལས་གནས་ཐོག་
▁རྣམ་འགྱུར་
▁ལི་ཁེ་ཆང་།
དང་སྤེལ་རེས་
འགོ་བརྩམས་པ།
▁ཆེ་དགྲ་ལྷས་
ཁྲི་ཚོ་བརྒྱར་
དཔོན་དམག་ཚོས་
▁ཡུམ་ཚེ་རིང་།
ཕྱོགས་སོ་སོའི་
རྗེས་སུ་འབྲངས་
ཨུའི་ཀྲུའུ་ཞི་
བྱས་པ་དང་འབྲེལ།
རྒྱབ་སྐྱོར་འོག་
▁དཀར་མཛེས་རྫོང་
འབྲེལ་བ་ཡོད་པའི་
རང་བྱུང་ཤུལ་བཞག་
ེང་།
▁ཅན་
གླགས་
བསེར་
འཁུམ་
ལྷ་ལ་
ུས་པ་
གཅན་ཚ་
དེ་ཟླ་
འཕྱུར།
ནི་ལོར་
ལུས་དང་
སུར་པན་
སྔ་རབས་
▁འགྲེལ་
▁འཕྲེད་
གིས་ཀྱང་
གྲོང་ལྷན
ངོ་གནོང་
ཇི་བཞིན།
ཐེམ་སྐས་
བཟང་ཞིང་
བརྙན་ཕབ་
ཞིབ་མོར་
འགྱོད་པ་
འཆར་བའི་
སེམས་ནས་
སྣང་ངོར་
འོངས་པའི་
རྒྱུ་མེད་
▁།དེ་ལྟར་
བསྟན་འཛིན།
བྱས་བྱུང་།
འབུལ་དགོས།
རིན་ཐང་དང་
སླེབས་དུས།
▁འཕུར་མདའ་
ཁྱད་དུ་བསད་
དར་རྩེ་མདོ་
བཅར་འདྲིའི་
རྒྱལ་ཁ་ལེན་
ལོ་གོང་མའི་
▁གནོན་ཤུགས་
▁ཤེས་ལྡན་པ་
ཆེ་གེ་མོ་དང་
དུས་དེབ་ཐོག་
རྒྱུད་བཞིའི་
སླེབས་བྱུང་།
▁དགོན་སྡེའི་
▁བརྟན་བརླིང་
ཆེད་མཁས་པ་དང་
ལ་གྲོས་བསྡུར་
ལ་རྒྱལ་ཁ་ཐོབ་
སྔོག་འདོན་དང་
སྡེ་དགེ་རྫོང་
ོ་བཀོད་སྒྲིག་
ལ་དམ་འཛིན་ནན་པོ་
ལོའི་ལོ་སྟོད་དུ་
▁ཀན་ལྷོ་ཁུལ་གྱི་
གུ
ཏི
ཐྲ
ཁྲ།
ཚར།
ལྡེ
▁དྷ
ནུབ།
ེའུས་
▁གྱུར
▁ཟིང་
་ཧྲིང་
གཞས་མ་
དབྱང་།
མཁས་པ།
གྲྭ་ཤག་
ང་ཚོ་ལ་
ནང་སའི་
པ་དེ་ལ་
མཛད་པས།
ལྡུམ་ར་
ཕྱི་དོན་
བཏོད་ནས་
འབའ་ལུང་
འབྲི་བར་
འོས་ཤིང་
ཤེལ་དཀར་
▁གཞི་ནས་
དངོས་དོན་
བཞེངས་ནས་
བྲན་གཡོག་
རྭ་སྒྲེང་
▁བཟི་མེད།
▁མྱུར་ཚད་
▁རྒྱལ་བོ་
▁རྩེ་ཁོག་
ཁྲོན་བོད་ལ
ཆེ་མོ་བའི་
དངངས་སྐྲག་
དངོས་གཉེར་
ནས་ཚེསཉིན་
ནུས་པ་དང་།
པའི་རྣམ་པ་
བ་ཞིག་ཡིན་
ཚོང་ཁང་དུ་
སྔོན་འཇུག་
གྱི་རྒྱལ་ས་
ཆེན་པོ་དང་།
ཕ་ལེ་སི་ཐན་
སྐྱེས་བྱུང་།
ཇི་མ་ཇི་བཞིན་
ལ་བཀོད་སྒྲིག་
ཅོ་ནེ་རྫོང་གི་
ནན་གྱིས་བསྟན།།
བྱེད་པའི་ཁྲོད་
▁ཡུས་ཁྲིན་ཧུའེ་
དགའ
སྐད
ཀྱཱ་
ཞེད་
འཆོས་
▁རྩལ་
ན་བུན་
ཕྱག་ན་
བློ་ཁ་
མ་ཐོན་
རང་དང་
ལགས་ལ་
▁བྲིན་
གོང་ཞུ་
ཉན་ཐོས་
ཉི་ནུས་
དྲགས་ན་
ནད་དང་།
པ་མཐོང་
མི་ལ་རས་
འཐུ་བའི་
རྩེ་ཁོག་
ལ་སྐྱོན་
ལས་གྲྭར་
ལྐོག་ཏུ་
སྨྱུ་གུ་
ཧ་ཅང་ཆེ།
▁ཉི་ཧོང་
▁སྡེ་མི་
གནང་རོགས།
ཆ་ཚང་ཞིག་
དབང་འཛིན་
མི་ཆོག་པ་
རྒྱ་རིགས་
▁ཁུ་བྱུག་
▁གོང་རིམ་
▁གྲོས་མི་
▁མཇལ་མོལ་
▁མཚོ་འགག་
▁ཟི་ཁྲོན་
▁འབྱོར་བ་
གཟུགས་རིས་
དཀར་པོ་དང་
ནས་ཉིན་བར་
བསྟོད་གླུ་
མཉམ་སྦྲེལ་
ལ་ཕན་འབྲས་
སྟོང་དྲུག་
▁གཏན་སྡོད་
▁དར་མདོའི་
གྲུབ་པ་རེད།
གླུ་གར་གྱི་
འབུམ་བརྒྱད་
ཡུན་ནན་གྱི་
▁གྲོན་དངུལ་
▁གྲོས་དཔོན་
▁དོན་ཚན་ཞེ་
ཏང་ཨུད་ཀྱིས་
བབ་དང་བསྟུན་
མེད་པར་གྱུར།
ཚོང་འགུགས་མ་
རྣམ་གྲངས་དང་
རྣམ་པས་ཁེངས་
ལ་གཅེས་སྤྲས་
པའི་དུས་ཚིགས་
ཚབས་ཆེན་ཐེབས་
རྟོག་ཞིབ་ཀྱི་
སྤྱི་ཚེས་ཉིན་
▁ལི་ཀྲན་ཧྲུའུ།
མཉམ་འབྲེལ་གྱིས་
མི་དམངས་མང་ཚོགས་
རང་བྱུང་ཁོར་ཡུག་
སྐོར་གྱི་སྙན་ཞུ་
.(
▁འཐ
བཙན།
མཁར།
འདུ།
ཤཱི་
ཞན་པ།
▁བོང་
▁བཏོད་
▁སྨོན་
ཆགས་སུ་
ཐོག་ཡར་
ནན་པོར་
ཞུས་ཏེ།
ཡིད་མི་
ལ་དྭགས་
སྔ་ཤོས་
སྟག་ཚང་
ཨར་ཏའོ་
▁དམའ་བ་
▁ཕྱི་མ་
གཉིད་དུ་
གཞུང་ནས་
ཆགས་ཚུལ་
ཐུབ་སྟེ།
ཕེབས་ཏེ།
བུད་མེད།
མཚོ་ལྷོ་
མིག་ཤེལ་
ཚང་མ་ནི་
འགོད་པར་
ཡིན་ཚུལ་
རོགས་ཟླ་
སྲིད་ཏང་
▁ཆེད་དུ་
གཏན་སྡོད་
ཅེས་བྱ་བ་
བློ་བརྟན་
ལ་བྱ་དགའ་
སྟོད་གཞས་
▁གནད་འགག་
▁ནག་ཆུའི་
▁སྔ་རྗེས་
གོམས་གཤིས།
ནི་ང་ཚོའི་
པ་ཡིན་ནོ།།
ཕེབས་སྐབས་
ཚེ་རིང་དང་
ལ་མུ་མཐུད་
ཤུགས་རྒྱག་
སྤྱོད་སྒོ་
▁དེ་ལྟར་ན་
▁བཀའ་གདམས་
▁ལུས་སེམས་
པ་སངས་རྒྱས་
བརྒྱད་ཀྱིས་
བྱེད་མི་ཆོག
མངོན་བརྗོད་
འགའ་ཞིག་གི་
ཆེད་མཁས་པའི་
དགེ་འདུན་གྱི་
གྲུབ་འབྲས་ཀྱི་
མི་རིགས་རང་གི་
ཤེས་རབ་རལ་གྲི།
ས་གནས་སོ་སོའི་
▁སྐབས་དང་པོའི་
▁ཁོས་བཤད་རྒྱུར།
གཡས
ཙོ་
འགྲི
རྩི།
ལེམ་
ནུའུ་
ཧུའེ།
ེའོ།།
▁མྱང་
▁རྩམ་
མགོ་ན་
སི་ཐེ་
▁སྐུལ་
ནང་ཁུལ་
ཙམ་ཡིན།
ཚད་ཀྱང་
ཚད་ཐིག་
རྩ་མེད་
སྐྱོ་བ་
སྒྲོགས་
▁བསད་པ་
▁ལྷ་ཁོ།
ཁྲི་རབས་
གློ་བའི་
དྲིན་ཅན་
ནང་བཞིན།
ཕྱིར་ཏེ།
བྲོ་བའི་
བླངས་ཏེ།
ཟུར་གྱི་
འབྱེད་པ་
རིན་ཐང་།
རྣམ་རིག་
རྩིས་ཞུ་
ལ་སླེབས།
ལྔ་མཆོད་
▁ཉར་ཚགས་
▁སྲང་ལམ་
ཀྲུང་གོ་ལ
ཀྲོའུ་རུ་
བཞིན་ཡོད་
མངག་བཅོལ་
སླེབས་ནས་
▁ཚོང་རའི་
དཀྱིལ་གྱི་
པ་ཡིན་ཞེས་
བྱ་དགོས་པ་
རྫོགས་ཀྱི་
▁ཨོ་པཱ་མཱ་
ཁྲིམས་དཔོན་
མཆོག་སྤྲུལ་
རྟ་ནོར་ལུག་
ལས་བརྒལ་ནས་
▁གཙོ་སྒྲུབ་
▁བྱམས་བརྩེ་
ཆེན་པོ་གཉིས་
ནས་རྙེད་པའི་
འདྲ་མཉམ་གྱི་
▁རང་ཞིང་གིས་
ཁང་གིས་པར་དུ་
དེའི་རྗེས་སུ་
བྱས་པར་བརྟེན།
▁ཤུགས་སྣོན་པ་
གོང་འཕེལ་གཏོང་
མི་བྱེད་པ་དང་།
སྟེ་བསྡོམས་པས་
གང་ཞིག་ཡིན་རུང་
འགོ་བརྩམས་ཤིང་།
ལ་ཁྱོན་ཡོངས་ནས་
བཅས་གཞི་གཅིག་ཏུ་
ལས་ཞུགས་ལས་གཏོད་
སྲ་བརྟན་དུ་གཏོང་
ལ་ཧ
འཇབ་
ཨོང་
▁ལང་
གཟིགས
འུའི་
▁མེན་
ཀུ་རེ་
ནས་ཆང་
པ་སྣམ་
འགའ་ལ་
འདྲིར་
ལ་གནས་
ཀུན་དུ་
ཉམས་དང་
ཉིན་བར་
ཉུང་ངུ་
ཐད་ཀའི་
མཛེས་མ་
ཨན་ཅིན་
▁ནག་པོ་
▁རྫ་ཆུ་
དམིགས་པ་
ཚིག་མཛོད
འཁྲུལ་བ་
ལྷག་དང་།
▁རི་བོང་
གཤམ་སྤེལ་
ཉུང་གཏོང་
ཉེར་བདུན་
ཉེས་བསགས་
དབྱངས་སུ་
བརྩིས་ཏེ།
བཤད་པ་དང་
མང་པོ་དང་
ཟིལ་གྱིས་
འཁུར་བའི་
འབུམ་ཕྲག་
▁དབང་འདུས
▁དབུས་ཤར་
▁དྲན་པའི་
▁སྔ་ཕྱིར་
བརྗིད་ཆགས་
མཆོད་རྟེན།
▁གུང་གསེང་
▁ཐེར་འདོན་
▁དྲིལ་བསྒྲ
ཆེས་ཐོག་མར་
དུས་མཉམ་ལས་
ཡུལ་དེ་གའི་
ཡོད་པའི་མི་
▁ཆེད་སྤྱོད་
ཚེས་བཅུ་དགུ་
འགན་འཁྲི་དང་
རྒྱུ་ཡིན་པས་
ལས་དོན་ཁྲོད་
ལྷད་མེད་ཀྱི་
▁བོད་བརྒྱུད་
▁རྒྱལ་ཁབ་དང་
མཛུབ་ཁྲིད་དུ་
སྒྲིག་ཆས་ཀྱི་
ཁང་གིས་བསྐྲུན།
བསྐྲུན་རྒྱུའི་
འཇམ་དབྱངས་བཞད་
ཡིག་སྒྱུར་གྱི་
ནད་དུག་གསར་པའི་
བཀོད་སྒྲིག་ལྟར།
བྱམས་བརྩེའི་ངང་
ཡིན་པའི་ངོས་ནས་
ཡུལ་ལས་འདས་པའི་
རམ་འདེགས་བྱས་པ།
ཆབ་སྲིད་ཅུད་ཀྱི་
དེར
ཕབས་
བརླ་
རོས་
▁ཁབ་
▁འདི
▁བླངས
▁ལྷམ་
▁སྒར་
བཟང་བ།
▁ཐུབ་པ
ཀོས་ནན་
ཉོ་བའི་
དང་ནུབ་
དབང་དང་
རིག་ལམ་
རྐང་ལམ་
ལས་འདས།
སྣང་བས་
གསུངས་པ།
དཀར་པོར་
དམར་ལེབ་
བཀའ་སྩལ་
འཆི་བའི་
ཡིན་རུང་
ལ་བསུ་བ་
སྔ་གཞུག་
སྟོན་པར་
སྡེ་པའི་
▁དཔའ་ངར་
▁མྱོང་བ་
ཁྲིམས་ཆད་
གལ་ཆེ་བར་
དགོས་ཤིང་
དབང་རྒྱལ་
བཀོད་འདུག
མཉམ་ཤུགས་
▁གྱོན་ཆས་
▁ད་ལོ་ནི་
▁དུག་སེལ་
▁དུས་དེར་
མཚོན་བྱང་།
ལྷུང་ལྷུང་
▁གར་སྟེགས་
ཁག་ཐེག་བྱས།
གློག་ཁང་གི་
དུས་ཆེན་ནི་
བཅས་ཀྱི་ཐད་
བདམས་པ་རེད།
བསྒྲུབས་ཏེ།
སྤྱི་བདེའི་
▁གཟུགས་འདས་
▁སྟོབས་ལྡན་
དགོས་མཁོ་དང་
བྱས་པར་མ་ཟད་
▁དེང་རབས་ཅན་
▁རྒྱ་ཆེ་བའི་
མཚོན་གྱི་ཡོད།
མཛད་སྒོ་སྤེལ།
ཚེས་བཅུ་གཅིག་
ལྗོངས་རྒྱུའི་
▁སྡེ་ཁུལ་གྱི་
ཀྲུང་གོ་གསར་པ་
གཙུག་ལག་ཁང་དུ་
ཐོན་ཡོད་པ་རེད།
བྱེད་རྒྱུ་ཡིན།
མཉམ་ལས་ཁང་གིས་
ལམ་ཐག་སྤྱི་ལེ་
གྲོས་ཚོགས་འཚོགས་
ཏྤ
ཞན།
▁ཀྲ་
▁ངུ་
གཅེར་
གསོམ་
ཏུང་།
པའི་ལ
སྤྲོད
▁ཅོག་
▁ཚགས་
▁ལེའོ་
མིང་ཐོ།
▁ས་འོག་
▁སྤ་སེ་
ཀན་ལྷོར་
ཉོས་པའི་
དར་རྒུད་
དུ་སོང་།
དུས་ཐུང་
པར་བྱའོ།
བདག་པོར་
བདེན་པར་
བཞོན་ནས་
མཁར་ཤུལ་
▁ཁ་གྲངས་
▁ནེ་པ་ལ་
▁བྱང་ཚད་
ཉིན་བྱེད་
པར་འདེབས་
སྒལ་ཚིགས་
▁ཉིན་ལྟར་
▁དྲུང་ཆེ་
གྱི་ནང་དུ་
གློག་གསོག་
ཤིག་ཡིན་པ་
སྐྱབས་ཀྱི་
▁གྲོག་རོང་
གླིང་གེ་སར་
གླེང་ཕྱོགས་
དགོས་མཁོའི་
དང་ཐུན་མོང་
བྱམས་སྐྱོང་
འབྲི་བཞེངས་
ཡོད་པ་མཐོང་
ལས་རིགས་དང་
▁གཏོར་བརླག་
གཏོང་བ་སོགས་
བཞེངས་སྐྲུན་
ལ་དམིགས་པའི་
ལས་མངོན་གསལ།
སོགས་ཐད་ཀྱི་
སྤྱི་ཡོངས་ལ་
▁ཟླ་བཔའི་ཚེས
ནི་སྤྱི་ཚོགས་
མཛུབ་སྟོན་དང་
▁ཟླབའི་ཚེསཉིན།
▁ཤུགས་ཆེན་པོས་
རྣམ་བཤད་གལ་ཆེན་
ལས་བྱེད་མི་སྣས་
སྔ་ཉིན་ལས་འབུམ་
སློབ་འབྲིང་གིས་
ལ་མིང་རྟགས་བཀོད་
ཏིལ་
དགས་
▁ལགས
དང་ཞལ་
ུས་ནས་
▁ཁྲོན་
▁ས་ཁུལ
......”
ཁང་བཅས་
ཁང་བཟང་
གཞུང་ལམ
ཆོས་སུ་
ཉིན་ཞག་
དྲིན་གཟ
པ་དེའི་
ཕན་གྱི་
བཅུ་ཡི་
ཞལ་ལུང་
ལམ་དང་།
སྟོད་ལ་
སྦྱར་ན་
▁ཁོང་ལ་
▁ཕ་མའི་
▁ལོག་པ་
▁སྒྲོལ་
ནས་བལྟས་
པར་ཐེངས་
བཤད་ཀྱི་
བོད་ཤོག་
བྱས་ཟེར།
བྱུང་ཚེ།
མ་སྐྱེས་
ཞི་འཇགས་
ཡོན་ཧྲི་
རུས་མིང་
རྒན་གྱི་
རྩལ་གྱི་
ལྔ་གཅིག་
སྔ་ས་ནས་
▁ཅི་ལིན་
ད་དུང་ཡང་
ནི་ནམ་ཡང་
ཕྱག་རྗེས་
བཏང་རྗེས་
བྱུང་ངོ་།
མཐར་ཕྱིན།
ས་གནས་སུ་
▁བསམ་ཚུལ་
▁སྦྱོར་བ་
དམག་གཟིགས་
པའི་ནུས་པ་
བདམས་བཀོད།
ཡུལ་འདིའི་
སྐབས་སུའང་
▁ཐཱ་ལེ་པན་
གནོད་སྦྱིན་
བསྐྱངས་པའི་
ཡོད་པར་བཤད།
ལས་འགན་ཁུར་
▁གླུ་དབྱངས་
▁སྨོན་འདུན་
ཁྱབ་གདལ་གྱི་
མངའ་རིས་ཀྱི་
ཞིང་ཆེན་དང་།
ལོ་རྒྱུས་སུ་
▁གཅིག་སྒྲིལ་
▁སའི་གོ་ལའི་
བཏང་ནས་ལོ་ངོ་
སྤེལ་རེས་ཀྱི་
བརྟག་དཔྱད་ཀྱི་
ལོ་ནས་སྤྱི་ལོ་
སྒོ་འབྱེད་པའི་
▁བོད་རིགས་ཀྱི་
ཁྲི་བརྒྱད་སྟོང་
རོགས་སྐྱོབ་ཀྱི་
སྐྱེས་ཆེན་དམ་པ་
▁ཞི་ཅིན་ཕིང་དང་
དགུ་བའི་ཀྲུང་ཨུ་
པུའུ་ཀྲང་གཞོན་པ་
བཀོད་འདོམས་པུའུ་
མཆོང་རྒྱུག་འཕེན་
▁དམངས་དོན་ཁྲིམས་
ལག
ཧོ།
ཁ་མ་
མཚམས
རྨུ་
ེ་ཡ་
བས་ན་
མ་ཚད།
སྦངས་
▁ཡོད།
▁ལོང་
▁སླད་
བ་གླང་
མན་ཆད་
ལ་གསན་
ལས་ཚབ་
▁རྗོད་
ཁ་འབྲལ་
ཆག་སྒོ་
དང་འདྲ།
པར་གཞི།
ཕྱག་ཏུ་
མཁན་དེ་
ལས་ཚིག་
སྣ་དཀར་
▁དང་བོ་
▁ཕྱིན་པ
གསལ་ལེར་
ཅུས་དང་།
དྲུག་ཏུ་
མཁན་དང་།
ལག་བསྟར།
ལུང་ཅང་།
ཤོག་ལྷེ་
ཧྲན་གྱི་
ཀླུ་འབུམ་
ཁྲལ་བསྡུ་
བརྟེན་ནས།
མིང་འདོན་
མྱོང་མེད།
ཚོང་འགུག་
སློབ་མ་ལ་
▁ཨེ་ཤ་ཡཱ་
གྲྭ་ཚང་དུ་
ཅིག་ཅར་དུ་
བོད་སྐྱོད་
འཚོགས་ཚུན་
ལས་དོན་དང་
སྟོང་སྐོར་
▁གསོན་ཤུགས་
▁འོས་སྦྱོར་
མི་ཚོགས་ཀྱི་
ཞེས་པའི་ཚིག་
གཟུགས་དབྱིབས་
གྲུབ་འབྲས་དང་
དང་བཅའ་ཁྲིམས་
དེང་རབས་ཅན་ལ་
དོན་རྐྱེན་གྱི་
ཕུལ་དུ་བྱུང་བ་
གཅིག་གི་རྩ་དོན་
ནི་འཛམ་གླིང་གི་
ཞུགས་ཡོད་པ་རེད།
ཁང་གི་འབྲེལ་ཡོད་
དངོས་ཀྱི་ཐོག་ནས་
སྐད་གྲགས་ཆེ་བའི་
ཧྲུའུ་ཅི་གཞོན་པ།
ཁུས་
གྲོང
བདུན
གཉུག་
ཐོངས་
ཕུའི་
བསླས་
མཆིལ་
ལམ་ལྷ
སྨོད་
▁ཐཱན་
▁བསེ་
▁རེབ་
གོ་རེ་
ལ་སྣང་
▁ཁོ་ན་
▁འབུད་
གྱིས་མ་
དཔང་པོ་
དུས་དེབ
བྲོ་གར་
འོད་དུ་
ཡི་ཐོག་
ལས་ཐོག་
སྒམ་ནང་
སྔ་མོར་
སྨི་ཡི་
▁ཁྱབ་པ་
▁བརྒྱད།
གཏོང་ཚད་
ཆུ་འབྲས་
ནགས་བཟོ་
མ་ལེ་ཞི་
ཞུམ་མེད་
འགོ་བའི་
ཡོངས་ཀྱི
ཡོན་གྱི་
སྙིང་ཉེ་
ཁོར་སྲུང་
གིས་ཁེངས་
ཚེས་ལྔའི་
འདོད་མོས་
སྤྱི་དབང་
སྤྲད་ཡོད།
▁ཅུས་ཀྲང་
▁ཐབས་ཇུས་
▁སེ་རི་ཡ་
གསལ་འདེབས་
ཐུབ་པ་བཅས་
བྱུང་བ་ལས་
བྱེད་སྟངས།
མགུལ་རྒྱན་
འགྲོ་དགོས་
རབ་ཏུ་བཞད་
▁གཞུང་དྲང་
▁དགའ་སྤྲོ་
▁སྡེ་སྲིད་
▁སྲིད་དོན་
ཁང་གིས་ལོར་
གནད་དོན་དེ་
གྲོང་ཚོ་ནས་
སྒྲིག་ཨུའི་
▁རྙོག་འཛིང་
དང་སློབ་གསོ་
དེང་དུས་ཀྱི་
བོད་རྒྱ་ཡིག་
▁གསར་འགོད་པ།
བྱ་ཡུལ་ཡིན་པ།
རབ་དང་རིམ་པར་
▁ཁུལ་རིམ་པའི་
ལུགས་མཐུན་གྱི་
གྲོས་འཆམ་བྱུང་།
དབྱང་གྲོང་ཁྱེར་
དེང་རབས་ཞིང་ལས་
བོད་ཀྱི་ལོ་གསར་
ཡིད་ལ་བརྟན་པོར་
▁དཔལ་འབྱོར་གྱི་
▁ཤོག་ངོས་ན་གསལ།
▁.《
ཅོད་
རྟེན
ཧིན་
▁ངལ་
འགྱང་
འབར་བ་
རང་རེ་
▁གཅེན་
▁བསོད་
ཅི་ལིན་
མཚོ་ཤར་
ལ་བསྡུ་
ལུས་ངག་
ཤོང་ཚད་
▁དེ་རུ་
▁བསྒྱུར
མཉམ་པའི་
མཐུད་ནས་
ཞིང་ཆེན།
རྫ་ཆུའི་
རྫས་ལུད་
▁ཀྲུང་གོ
▁ཟིན་ཐོ་
དཔའ་རྟུལ་
བྱམས་ཆེན་
མཐོ་རླབས་
མི་ཚང་མས་
ཞུ་བ་དང་།
རིན་པ་མི་
▁ཆུ་གློག་
▁ཕྱིན་ཆད་
▁ཨའོ་པ་མ་
ཁྲུའུ་ཀྲང་
གཙང་པོ་དང་
གཡུ་སྒྲོན་
བར་མེད་དུ་
བསྟན་པ་དང་
བུད་མེད་ལ་
མེ་སྒྱོགས་
ཞུས་པ་ཡིན།
ཞོར་གཏོགས་
འགན་སྲུང་།
འཕྲེད་ཐིག་
རང་ཞིང་གི་
སྙན་ངག་དང་
སློབ་གསོས་
▁ཡུལ་དེའི་
ཉིན་གཅིག་ལ་
རྒྱབ་གཟུགས་
▁ལངས་ཕྱོགས་
▁ལུགས་མཐུན་
ཀྱིས་བསྒྱུར།
གལ་ཆེན་གནང་།
ལ་སྐུལ་སྤེལ་
ཁྱིམ་བདག་གིས་
བསྐྱོད་པ་དང་།
པ་དང་བསྟུན་ནས་
སློབ་གཉེར་གྱི་
▁ཐེམ་ཆེན་རྫོང་
ཁང་གི་སྤྱི་ཁྱབ་
གནམ་ལོ་གསར་ཚེས་
གྲུབ་འབྲས་ཀྱིས་
པའི་ཟླ་མཇུག་ཏུ་
ལག་ལེན་བསྟར་ནས་
སྒྲིག་བཀོད་ཀྱི་
བཤམས་སྟོན་ཁང་དུ་
གསས་
ཏུའུ
འདྲར་
ི་པོ་
▁ཏེན་
▁སྦས་
གྱི་ཁ་
བཞག་ན།
ལ་གཞས་
ལེན་ཁ་
ཤ་ཁྲག་
▁དར་ཆ་
▁ལྟོས་
པའི་ལྷ་
ཕྲ་ཞིང་
ལ་བཏགས་
▁ཁོ་ནི་
▁ལུས་ལ་
ནས་འཕུར་
པ་དེ་ཡང་
བེད་མེད་
བྱས་མོད།
འཇོག་གི་
རྩྭ་ཐང་།
ལ་བརྟགས་
སྐབས་དེ་
▁གང་ལགས་
ཁྲིད་པའི་
དཀའ་བ་དང་
མཇུག་མཐར་
▁ནོར་གནག་
▁ཧན་གོའི་
གཉེར་ཞིང་།
ཆུང་འབྲིང་
པ་ཡིན་ཟེར།
བརྒྱ་སྟོང་
མཁའ་སྤྱོད་
སྙིང་བཅུད་
སྟོང་བདུན་
▁དུས་འཁོར་
ཀྱི་ཚུལ་དུ་
གང་འདྲ་ཞིག་
དབྱངས་ཀྱིས་
ཞིག་ཡིན་ནམ།
ཡོང་རྒྱུའི་
ལ་བསྐོ་གཞག་
▁ཁྲོན་བོད་ལ
▁མཚོན་རྟགས་
དབུས་གཙང་གི་
▁གྲོང་སྡེའི་
▁སྐྱིད་གྲོང་
ལས་འཕྲོས་པའི་
▁མཐའ་གཅིག་ཏུ་
བྱུང་ཡོད་པ་དང་།
ཏང་ཀྲུང་དབྱང་དང་
ཡུལ་སྐོར་ལམ་ཐིག་
ཆེད
▁ཐེ
ལུམ་
ེར།།
གྱི།།
སྡོད།
སྦགས་
སླ་བ།
གཞུང་།
པ་ཞེས་
མ་གཞི་
རྩེ་གྲ
ལོ་ལས་
ལྷ་རི་
སོས་པ་
▁ཅིའི་
གྲོང་གས
དཀར་བོ་
དང་པོའི
རྒྱབ་ལ་
▁གོམ་པ་
▁ཤང་དང་
དེས་ཀྱང་
ན་འགྲིག་
འདོད་དེ།
རེ་ལྟོས་
རྟོག་གི་
སྟག་རྩེ་
▁གནའ་བོ་
▁ཇེ་དྲག་
▁དོན་དམ་
▁པར་ཙིར་
ཀྲུང་ཨའི་
གྱི་ལས་ཀ་
ཅི་ལ་མིན།
ཉིང་ཁྲིར་
མུ་སྟེགས་
ཚད་ལ་སྨི་
འཕྲུལ་རྟ་
ལྟ་བུ་ནི་
དུས་མཚུངས།
ཞེས་པ་ལྟར།
འགན་གཅིག་ལ
ལ་ཞུགས་པར་
ཤམ་བྷ་ལའི་
▁ཁྱབ་སྤེལ་
གཤིབ་བསྡུར་
བསྒྱུར་ཅིང་
▁ཚད་ལྡན་ཅན་
▁ལུས་རྩལ་པ་
གསར་སྤེལ་དང་
ཐོན་གྱི་ཡོད།
འདི་སྐད་ཅེས་
ཤིག་ཀྱང་ཡིན།
▁མཁའ་དབྱིངས་
དངུལ་བུན་གྱི་
▁བདེ་ཆེན་རྫོང་
▁སྤྱི་ལོ་ལོའི་
དམ་འཛིན་བྱས་ཏེ་
འཚོ་བའི་མཁོ་ཆས་
བཞུགས་མོལ་གནང་བ།
མངོན་པར་གཞིགས་ན།
རྱ་
ཁོན་
མཉམ།
▁ཧྲ་
▁ཁངས་
▁སྲིད
ང་ཡིས་
ཇེ་ཚང་
འཁོགས་
▁འཁོད་
ཕྱི་མར་
བླ་ལྷག་
རྩྭ་ཆུ་
ལྷ་ཡུལ་
སྦྲང་ཆར
▁སྦྱིན་
གནས་ཤིང་
གོས་ཀྱི་
ཐུག་པའི་
ཐོན་དབང་
དགའ་མོས་
དཔལ་ཡུལ་
བྱེ་མའི་
ཟླ་ཕོགས་
ལན་སློག་
སེང་ཆེན་
སྲས་ཀྱི་
ཨན་གྱིས་
▁བླ་མའི་
བྱེད་ཞོར་
འབྲུག་མོ་
▁གཡུ་ཐོག་
▁ད་ཕན་ལོ་
▁བུ་བཅོལ་
▁ལྟ་རྟོག་
ཀྲོའུ་ཡིས་
ཁུར་པོ་ཡང་
གཅེས་ཕྲུག་
བཏང་སྙོམས་
ཡིག་བསྐུར་
ལེགས་གཏོང་
སྡོམ་རྩིས་
▁གེགས་སེལ་
▁རྒྱ་རིགས།
▁རྒྱུན་པར་
▁སྲུང་སྐར་
ཁྲིམས་བཞིན་
བདག་དབང་དང་
བློ་འདྲིའི་
སྤྱི་གླིང་།
སྲིད་པ་དང་།
ཧ་ཅང་མང་པོ་
▁དབུ་བརྙེས་
▁དམའ་འབྲིང་
▁རང་ཞིང་གི་
▁རྒྱལ་པོའི་
བློ་བཟང་ཆོས་
འདེམས་སྒྲུག་
ཆེན་རྫོང་གིས་
མཚོན་བྱེད་དུ་
ཐུན་མོང་མ་ཡིན་
བཅས་ཡོད་པ་རེད།
བྱང་ཚད་མཐོ་རུ་
▁ད་ལྟའི་བར་དུ་
▁ཨུ་རུ་སི་ཡིས་
ཤ་དཀར་པོའི་དེབ་
ལམ་ལུགས་འཐུས་ཚང་
ཙི།
ཤུབ་
ཇ་ཁང་
ཨེ་མ་
▁ལོས་
ཏེ་མི་
ཟ་མ་ཟ་
འཁང་ར་
ཅོར་ཏན་
ཆེན་ཐང་
ཉམས་སད་
ཕལ་བའི་
བུད་མེད
ཚྭ་འདམ་
ལ་འཕྲད་
▁གསོ་བ་
▁འདྲེས་
▁སྔ་མོ་
གནམ་རིག་
དགའ་ཞིང་
པར་གྲགས།
མཁན་རབས་
མཛའ་གཞས་
ཞུ་དགོས།
རུ་འགྲོ་
ཤིག་དང་།
ཤུགས་ཆེ་
ཤོག་སྦག་
སང་ལོའི་
▁ནན་ཅིང་
གྲོང་གསར་
ཆུས་ཀྱིས་
དུད་ཚང་ལ་
མི་རུང་ལ།
ཞིན་གྱིས་
འདུག་མོད།
ཡོད་སྟབས་
སེར་པོའི་
དེ་དག་ཀྱང་
ནང་ཚུན་དུ་
པ་གྲགས་ཅན་
ཚོགས་སྐབས་
ཡིག་རྨོངས་
རྫོགས་ལྡན་
ལས་བརྒལ་བ་
སྔོན་པོའི་
▁སྲོག་ཤིང་
ཆེན་པོ་ཐོབ་
བདམས་པ་དང་།
བརྒྱད་ཅུའི་
མཛའ་བརྩེའི་
▁དཔལ་འབྱོར།
གཉིས་ཕན་ཚུན་
གྲོང་རྡལ་ནས་
ཆ་རྐྱེན་འོག་
ཆེ་རུ་བཏང་བ།
བྱ་བའི་ཁྲོད་
མི་འབོར་གྱི་
ཞལ་འདེབས་སུ་
འགོ་འཛུགས་ས་
ཤུགས་འགྲེམས་
ཁ་གསབ་མ་དངུལ་
གཏམ་བཤད་སྤེལ་
ཐལ་མོའི་རྡེབ་
མཛུབ་སྟོན་དུ་
རྣམ་པ་བཟང་པོ་
ཇེ་མང་དུ་འགྲོ་
བྱུང་དང་འབྱུང་
མཉམ་སྐྲུན་གྱི་
འགྲན་བསྡུར་དེ་
བཤམས་མཛོད་ཁང་གི་
ཁ་ཡ་
དྲས་
རྟར་
▁ལབ་
ཕྱོགས
མ་དག་
སྐྱེད
▁ལའེ་
དཀའ་བ།
ཞིང་ལ་
རང་སར་
རུང་།།
ལ་འབད་
▁ཁ་ཆེ་
▁ཉིའུ་
གོ་བའི་
པར་མའི་
བསྐྱིལ་
མཆོག་ལ་
མཐོ་སར་
ལས་སྐལ་
དང་དབྱང་
དབྱངས་ལ་
བཞི་ཡིས་
ཚོགས་མི།
འཇུག་པར་
འདུས་ནས་
ཡིག་རིས་
ལ་དོ་དམ་
▁བཞི་ནི་
▁རྒྱལ་པོ
▁རྔ་བའི་
གཅེས་ནོར་
གོང་མ་ལས་
དགོངས་དག་
བཀའ་བློན་
མང་པོ་ནས་
འཛིང་རགས་
ལོགས་ཀྱི་
སངས་རྒྱས།
སོགས་ཡིན།
སྲོལ་གྱི་
ེད་སྤྱོད་
▁ཆབས་ཅིག་
▁མཚོ་ཐོག་
▁འགན་ནུས་
▁འགྲུལ་བ་
▁སྒྲ་སྙན་
ཐག་བཅད་ནས་
དགོས་པ་ལས།
བཀོད་པ་དང་
མཉམ་སྒྲུབ་
ལས་འགན་ཁག་
▁གཡས་གཡོན་
▁འོད་སྟོང་
▁ལས་སྟེགས་
▁ཧན་ཀྲེང་།
བཟོ་ལས་ཀྱི་
བར་འབྲེལ་བ་
བོད་ཡུལ་དུ་
མི་གྲངས་དང་
ཚེས་སུམ་ཅུ་
འདེབས་ཁྱོན་
འདོན་པ་དང་།
རྒྱལ་ཁ་ཐོབ་
▁ཕྱིར་སྡོད་
▁འཐབ་འཁྲུག་
▁རིན་སྤུངས་
བསམ་བློ་བཏང་
ཡུལ་ཤུལ་གྱི་
ལ་ཞབས་འདེགས་
▁རྒྱ་ཡིག་གི་
▁ལོ་གཅིག་གི་
ཐབས་བརྒྱ་ཇུས་
ལག་ཐོགས་ཁ་པར་
ལོར་མཚོ་སྔོན་
▁ཡུལ་ཤུལ་ཁུལ་
སོགས་ཀྱི་ཐད་ལ་
སྒྲུང་གཏམ་གྱི་
སྣོད་བཅུད་ཀྱི་
འགན་ལེན་བྱ་ཆེད།
ལས་བྱེད་ལས་བཟོ་
▁ལྗོངས་ཡོངས་སུ་
དཀའ་ཚེགས་ཆེ་བའི་
འགྲན་བསྡུར་སྐབས་
▁ཕུན་སུམ་ཚོགས་པ་
ལུག
བཟུང
ལེགས
ཐུའོ་
▁ཁུང་
▁དྲ་བ
ཁྲེའི་
གནང་།།
གཤོངས་
གོང་ས་
དཔྱངས་
ཕོད་པ།
རང་ཅག་
སྤྱི་ཆ
ཀུང་ཟི་
གཏད་ནས་
ངོ་མའི་
ཆིང་ཧྭ་
ཉལ་བའི་
དང་ཐ་ན་
མགར་ཐར་
རི་བོར་
སྐུ་པར་
ཀྱང་ཡོད།
ཅོ་ནེའི་
དགོན་དང་
བསྟོད་པ།
ཞི་ཁོའི་
རོགས་ལས་
རྒྱ་བཟའ་
ཤིག་སྟེ།
ཀྲུང་གིས་
ཁུན་གྱིས་
དག་སྒྲིག་
དགོངས་པས་
ན་ད་གཟོད་
བསླབ་གནས་
འབར་མདེལ་
རྫོང་ཨུད་
▁ཀུན་དགའ་
▁ཞིབ་ཚགས་
▁ལོ་བརྒྱ་
▁ཤིང་ཏོག་
གྲུ་བཞིའི་
བརྐོས་པའི་
བརྒྱུད་ལམ་
མཉམ་ལས་དང་
མདོ་རྒྱུད་
འབྲི་སྟངས་
རྗེས་མཐུད་
སྒྲུང་ཐུང་
▁གསོན་ཉམས་
▁ཟབ་སྦྱོང་
གསོལ་བ་བཏབ་
དབུས་རྒྱུད་
བཞུགས་ཤིང་།
བྱས་པ་རེད།།
མཁའ་འགྲོའི་
མི་དམངས་དང་
རྒྱུད་སྐུད་
སྐྱིད་ཆུའི་
ཧྲང་ཧའེ་རུ་
▁ཏིང་ཡེ་ཤན་
▁སྔོན་བྱོན་
མཉམ་གཅིག་ཏུ་
ལུས་སྟེང་དུ་
▁དངོས་སྦྱོང་
གློག་གཏོང་ཚད་
སྨོན་འདུན་ཞུ་
▁ཞིང་ཆེན་གྱི་
གངས་ལྗོངས་ཀྱི་
བྱས་པར་བརྒྱུད།
འཚོ་བའི་ཆུ་ཚད་
རོལ་དབྱངས་ཀྱི་
▁དོན་དངོས་ཐོག་
▁འཛམ་གླིང་ཐོག་
▁སྡེ་དགེ་རྫོང་
ཚེ་ཏན་ཞབས་དྲུང་
ཨ་རིའི་ཙུང་ཐུང་
▁ནོར་སྲིད་པུའུ་
ཕྱར་བ་གྲུ་འདེགས་
འགན་ལེན་ནུས་ལྡན་
རྒྱ་བོད་ཤན་སྦྱར་
སོགས་ཀྱི་ལས་དོན་
▁བསྒྲགས་པ་ལྟར་ན།
▁ཨོ་སི་ཁྲུ་ལི་ཡ་
དཀར
▁།ས་
▁འོག
▁རམ་
གིའི་
བཅོ་བ
བདེན།
བྷོད་
ཞེས།།
འོ་ན་
ཡོད་པ
སྙུང་
▁བསད་
ཀིརྟི་
མལ་ལས་
མི་ནི་
ོག་གི་
▁བསྟར་
གཡང་གི་
གྲོ་མོ་
ཕབ་ལེན་
མི་གསལ།
རེ་ཟུང་
སྨན་དང་
▁གླུ་མ་
▁འགྲིག་
▁ཨ་ཕའི་
ཁྱུང་གི་
གནད་ཀྱི་
ཉི་མ་དང་
དངོས་དང་
བོར་བའི་
མང་ཞིང་།
ཚོང་ཁང་།
སྲིང་མོ་
ཁོངས་མིས་
གཉིས་པོས་
ཉེན་སྲུང་
བཅུད་ཀྱི་
བདེན་འཚོལ
བྱས་སོང་།
ཚུགས་ཀྱི་
▁གནའ་ཤུལ་
▁གཤམ་གྱི་
▁བློ་རིག་
▁མདོ་ཁམས་
▁ཟི་ལིང་།
▁ལྷ་མོའི་
གྱུར་ཅིང་།
ཆེ་ཤོས་དང་
ཐོན་རྒྱུར་
བརྡ་སྦྱོར་
བྱིལ་བྱིལ་
བྱུང་སོང་།
རྫོང་ཁོངས་
ལས་ལ་བྲེལ།
སྐུ་གཟུགས་
སྐོར་ཐེངས་
▁གནས་ལུགས་
ཐོན་རྫས་དང་
བསླེབས་ཡོད།
འགྲེམ་སྟོན།
པ་ཞིག་ཡིན་པ་
མང་ཚོགས་ཚོར་
མིང་ཐོ་བཀོད་
བཅུ་གསུམ་གྱི་
མི་སྣ་ཤི་རྨས་
ཞིང་ཕྱུགས་ལས་
▁ཞིབ་འཇུག་ཁང་
གཏོང་བཞིན་ཡོད།
གྲུབ་ཆ་གལ་ཆེན་
ཆགས་ཡོད་པ་རེད།
ཇེ་ཉུང་དུ་གཏོང་
དང་མཐུན་པའི་ངང་
འགྲན་ཚོགས་སྐབས་
ནགས་ཚལ་མེ་སྐྱོན་
ཞིང་ཆེན་བོད་ཡིག་
སྣེ་ཁྲིད་བྱས་ཏེ་
ཐི
ཤང
གངས
དབབ་
འགུ་
སླེ་
▁ས་པ
་པའི་
གཟེབ་
མྱངས།
▁ཕེང་
▁འགྲོ
བཀྲེས་
མོ་རང་
▁རྔུལ་
▁ལིའང་
ཐེབས་པ།
ཚད་གཞི།
ལ་བརྡས་
ས་ཚིགས།
སྣམ་བུ་
ཆུ་གསོག་
དུས་བཟང་
ཟླ་མཆོད་
རོལ་པའི་
རྒྱན་དང་
སྐབས་ནས་
སྔར་ལྟར་
སྲོག་རྩ་
▁གནམ་ཐང་
▁དོ་ནུབ་
▁ས་སྲོད་
གྲུབ་སྟེ།
བཀའ་ལ་ཉན་
བཏོད་པའི་
མ་ལག་ཅིག་
མེད་པ་ནི་
འགྲོ་དོན་
རུ་ཁག་དང་
ཤོག་བུའི་
སྟོང་བཞི་
▁ཉམས་གསོ་
▁འབབ་འཕར་
ཀྲེང་ཧྲེང་
ཉེན་བརྡའི་
མི་མཐུན་པ་
ལ་བསྡད་དེ་
▁མཁའ་རླུང་
གོམས་འདྲིས་
ཆོས་ལུགས་ལ་
བཀྲ་ཤིས་ཤོག
རྒྱུན་བཞིན་
རྨ་ལྷོ་ཁུལ་
ལྟད་མོ་བའི་
▁ཀློག་པ་པོ་
▁གསུང་རྩོམ་
བྱིན་གྱིས་རླ
རྒྱ་བོད་ཀྱི་
མཐོ་ཚད་ལ་སྨི་
ཧྲན་གྲོང་ཁྱེར་
▁དབྱང་ལུང་ཅང་།
གཅིག་ལ་ལམ་ལུགས་
རྩེ་གཅིག་སྒྲིམ་
▁མཛོད་དགེ་རྫོང་
བྱེད་སྒོ་སྤེལ་བ་
ཞེས་བརྗོད་པ་རེད།
ཱུ་
ལེནྡ
▁ཕོ།
་གྱི་
ཁྲིག་
ག་རེ་
གཡེམ་
དབུར་
བཅངས།
བརྗོད
མགོན།
▁པུར་
ནེ་ཡཱ་
བསྣོལ་
ཞུས་པ་
ཡོ་ལང་
རྒྱངས་
སྙེམས་
▁གོ་བ་
བོད་དང་
མི་གཞན་
རི་ཁུལ་
▁དང་དེ་
ཕྱིན་པར་
བཟང་གིས་
མཐོ་གྲང་
མཚོ་དམག་
ཞེ་གཉིས་
ཡོང་ཐབས་
རོལ་གྱི་
ཨ་རི་དང་
▁གྲོང་ཚོ
ངའི་སེམས་
དབྱེ་ཞིབ།
བསྡུས་ནས།
ཞིང་ཁྱིམ་
ཡིན་སྲིད།
རིག་པ་ནི་
སྟོན་ཁའི་
▁དུས་ལྟར་
▁ཧུའུ་ནན་
གདུལ་བྱའི་
དཔྱིད་དུས་
བརྟན་པོའི་
མང་ཆེ་བའི་
འཕར་བ་རེད།
རང་དབང་གི་
རྒྱག་སྐབས་
རྣམ་པ་དང་།
ལ་དགའ་བསུ་
སྐྱེ་བོའི་
ཀོང་པོ་རྒྱ་
གནོད་སྐྱོབ་
ངེས་མེད་དུ་
དེ་ཙམ་གྱིས་
འཚོ་བའི་ནང་
རི་པིན་གྱི་
རྒྱལ་རྒྱུད་
▁ཕྱིར་འཚོང་
ཆོས་ལུགས་དང་
ཐོན་ཁུངས་དང་
མཚམས་བཞག་ནས་
སྒྲིག་ཆས་དང་
ཞིག་གི་ནང་དུ་
ནང་ཞུགས་པ་རེད།
མཆོང་གྲོག་རོང་
ཟླ་བའི་གོ་ལའི་
དཔའ་བོ་གཙུག་ལག་
མཐོ་རྒྱུགས་ཀྱི་
ལས་མི་བསྡུ་བའི་
▁རྒྱུན་ལྡན་གྱི་
སྐབས་བཅོ་ལྔ་བའི་
ཤིས
ེའུ
འོ་བ
སྙན།
▁སན་
ཁུའེ་
བསྙད་
འཛོམས
ཡར་ལ་
ལག་ལ་
ཁ་སྐད་
དེ་ནི།
བཏུམས་
ཚོ་ནི་
ལ་གསལ།
སྤྱིལ་
▁ཆིངས་
▁སྤེན་
གྱོན་པ་
བོད་ནས་
མདའ་མོ་
ལས་བྲལ་
ལོ་འདབ་
སྒང་དུ་
གྲོས་མི་
ངམ་ཡང་ན་
དཔེ་ལྟར་
བྱས་ཡོད་
མུན་སེལ་
ཚོད་བགམ་
ཞབས་ཏོག་
རྙོག་དྲ་
སིལ་བུར་
▁ཕུག་ལམ་
▁ལྷག་ཏུ་
ང་ཅན་ཅུན་
བྱེད་ངེས་
ཟིན་རྗེས་
འཛེམས་པར་
▁གཙང་སྦྲ་
▁ཆེད་མཁས་
▁དབྱངས་ཅན
ཆགས་ཡོད་ལ།
རྗེས་སྣོན་
སྦྱངས་པའི་
▁ཕྱིར་ཚོང་
དུས་ཚོད་དང་
ཡོད་པ་དེའི་
▁འདི་འདྲའི་
▁སྤུས་རྟགས་
ཁྱིམ་དུ་ལོག་
མི་གྲངས་ཀྱི་
འགྱུར་བ་དང་།
ཡོད་པར་མ་ཟད་
གསོ་སྐྱོང་གི་
ཐོས་བསམ་སྒོམ་
པ་ཞིག་ཡིན་པས་
སྐབས་གསར་པའི་
▁དཔེ་མཛོད་ཁང་
བཀོད་སྒྲིག་གི་
འགྲན་བསྡུར་དང་
རིགས་གཉིས་ཀྱི་
པར་རྒྱག་བཞིན་པ།
འཕྲུལ་འཁོར་གྱི་
ཞིང་ཆེན་ལུས་རྩལ་
ནམ
མྱོང
ས་མ་
ིལ།།
གྲུར་
དཔྱང་
དྲེད་
▁པེད་
▁ལའང་
གོ་བར་
གོ་ལར་
ཅི་སི་
དང་མུ་
བཅུ་ཆ་
▁གྱེར་
▁ལོ་ངོ
▁ལོ་ཙཱ
ནང་བའི་
མེ་མདས་
མེད་དང་
རོགས་པ་
རོབ་ཙམ་
ལས་མེད།
▁ཁ་གསལ་
▁པ་ཆེན་
ཁ་བ་བབས་
གཞུང་ལམ།
ཏིག་ཏིག་
མེད་ཅིག་
མྱུར་བར་
ཡེ་ཤུའི་
རང་གྲོལ་
སྣུར་དུ་
▁ལེགས་ཆ་
▁ཨ་སྒོར་
ཁོ་རང་གི་
གུས་ལུགས་
བརྩམས་ཏེ་
བརྩིས་ཏེ་
འཁོལ་པོས་
ལ་དོ་ཁུར་
ལས་འདས་པ་
ས་ཡ་གཅིག་
སྡོད་ཁུལ་
སྣ་མང་གི་
ཧྲི་ཏུའུ་
▁དམར་དམག་
▁དྭ་ཕྲུག་
▁ཕྱུག་པོ་
གསུངས་འདུག
ཆུ་ཚོད་ནས་
རང་ངོས་ནས་
རིགས་རྣམས་
རྒྱན་གྱིས་
སྤྱི་འབོར་
སྨན་སྤྱོད་
▁འཐུས་སྒོ་
▁རྟེན་རྫས་
▁ལོ་བཅུའི་
ནས་ཡུན་རིང་
▁གཞུང་ཁོངས་
▁ཚོགས་འདུར་
▁ལོའི་ཟླཔར།
ཐོན་ལས་གླིང་
དྲིན་ལན་འཇལ་
བགྲང་གིས་མི་
བའི་གནས་ཚུལ་
འཚོལ་ཞིབ་དང་
ཨུ་ཡོན་གྱིས་
▁མདུན་སྐྱོད་
དཔོན་དམག་གིས་
ཚབས་ཆེན་བཟོས་
འཚམས་འདྲི་དང་
▁ཟླ་དང་པོ་ནས་
▁རིམས་ནད་ཀྱི་
པར་རྟེན་འབྲེལ་
མཐོང་དཀོན་པའི་
▁དཔེ་སྐྲུན་ཁང་
།།རང་རྒྱལ་གྱིས་
བྱ་རྒྱུ་དེ་ཡིན།
།།མཚོ་སྔོན་གྱིས་
གསོ་སྦྱོང་བྱས་པ།
སྨན་ཁབ་རྒྱག་པའི་
སློབ་གསོ་དང་ལེན་
ཐགས་
རིད་
སྤྲ་
ཏཱའི་
མང་ལ།
སྒྲུབ
▁ཉོན་
ང་ཡུང་
ཆུང་བ།
དྲན་པ།
མོ་སི་
རིམ་པ།
ལྔ་ནས་
ི་མུག་
▁རང་ལ་
▁ལྡོང་
ཅིང་ལི་
དཀར་དང་
དགེ་རྒན
ན་ལེགས་
བཟོ་པས་
བྱ་ཐུབ།
རིང་བོ་
ལོ་དེར་
▁ཉུང་བ་
▁རྟ་ལོ་
གར་སྟབས་
གུན་གསབ་
མཚན་གནས་
མི་ལེགས་
ཞིང་གིས་
ཟད་གྲོན་
ལོ་དེའི་
ཤེས་མཁན་
▁ཡུན་ནན།
▁ཨོ་རྩལ་
ཉིན་གསུམ་
པར་གཞིའི་
མཇལ་རྒྱུ་
འདུ་བྱེད་
ས་གནས་ཁག་
▁ལོ་གསུམ་
གྲོལ་རྗེས་
ཐོན་པ་རེད།
བྱང་ཐང་གི་
སྤྲད་པ་དང་
སྤྲོད་ཀྱི་
▁སྐབས་འདི་
▁དཔྱིད་དུས་
▁ལུགས་རྙིང་
ཚབས་ཆེན་གྱི་
སུམ་བརྒྱ་དང་
ཡོད་ཅེས་བསྟན།
རྡོའི་ཆུ་རུད་
ཤུགས་བསྣན་ནས།
སྐབས་གསར་བའི་
བྱ་བ་ལེགས་པོར་
▁དགེ་ལུགས་པའི་
བཅས་ཀྱི་རྩ་དོན་
བྱ་དགའ་ཐོབ་མཁན་
ཇེ་མང་དུ་སོང་ནས་
མིག་གི་དགའ་སྟོན་
▁མིག་སྔའི་བར་དུ་
ཤ།
དགྲ
ཟད།
ཡན།
འདུན
ཐིའུ་
དཀོན།
ནས་ལོ
ལ་བལྟ
ཤིའུ་
ས་དམ་
སླའི་
▁()()
ཁ་ཚོན་
ཁྲ་མོ་
ཆོག་པ།
མ་ཕྱི་
མངར་ཆ་
མིན་པ།
ཚེར་མ་
རི་བོ།
རྣམས།།
▁གྱེན་
▁བཅངས་
▁བློས་
གསེར་ཉ་
ཐུབ་བོ།
པད་དཀར་
མཆོད་པ།
མིང་དེ་
ལེན་དང་
▁བཞེངས་
▁སྐྱོབ་
ཀྱང་རེད།
ཆུ་ཁུངས་
ཆུ་ཐིགས་
ཇི་སྲིད་
ཕར་རྒོལ་
མཐིལ་དུ་
ཡི་རིང་།
རིམ་འཕར་
ལས་དྲངས།
▁གང་ལྟར།
▁ནག་ཉེས་
དགའ་རོགས་
དམར་ཁྲིད་
བཤད་ཅིང་།
རི་མོ་དང་
སྨན་གླིང་
དཔྱད་འདེམ་
བཅས་རིམ་པ་
མེད་པ་འདྲ།
འཕུར་མདེལ་
ལྟ་བཞིན་པ།
ས་ཡ་བརྒྱད་
སུན་འབྱིན་
▁དཀའ་ཚེགས་
▁ལས་བཟོ་བ་
ཅིའི་ཐད་ནས་
མི་ཐེངས་ཁྲི
ཡིད་འོང་གི་
སྤྲིངས་པའི་
སླེབས་ཤིང་།
▁ཡོངས་འཛིན་
ཆུང་དུ་གཏོང་
དཀའ་སྡུག་གི་
བ་རྣམས་ཀྱིས་
འགྲེམས་སྟོན།
ཡུལ་སྐད་ཀྱི་
ཡུལ་སྐོར་དུ་
ལྟེ་གནས་དང་།
▁གཞུང་ཚབ་ཁང་
རྒྱུན་ཨུ་དང་།
ལྷག་གི་རིང་ལ་
སྐད་གྲགས་ཆོད་
▁བསྒྱུར་བཀོད་
▁བསྡོམས་འབོར་
ཆོག་མཆན་ཐོབ་པ་
དར་ཁྱབ་ཆེ་བའི་
བརྡ་སྤྲོད་པའི་
བྱེད་པའམ་ཡང་ན་
བློ་མཐུན་གྱིས་
འཕྲིན་ལས་ཀྱིས་
སངས་རྒྱས་ཀྱིས་
སྤྱི་ཁྱབ་པུའུ་
▁ཟླབའི་ཚེསཉིན་
▁རྗེའི་རྣམ་ཐར་
གཙོ་བོ་ཡིན་པའི་
བཅས་དང་དེ་བཞིན་
ཚིག་མཛོད་ཆེན་མོ
འགྲན་སྡུར་ཁྲོད་
བོད་ཀྱི་དེང་རབས་
སྭ
དགེ
ཐལ།།
ཕའི་
▁ངར་
ཨ་ཡེ་
▁དགག་
▁སྲང་
ཆང་དང་
ནུ་བོ་
སྦྲེང་
ཨེ་ཙི་
▁རྣ་བ་
ཐར་བའི་
དབྱར་ཁ་
བཞི་ནས་
འབྲི་བ།
རང་སྣང་
རྟོག་པ་
▁སང་ལོ་
ཇི་ལྟ་བ་
དམར་པོར་
བརྒྱ་ཡི་
བསམས་ནས་
བྱེད་པས་
ཟས་སྐོམ་
ལས་བཟོས་
▁ལྷ་ཀླུ་
▁སྤེན་པ་
ཚན་ཁག་དང་
རང་སྦྱོང་
རིམ་གསུམ་
ལ་ལྟ་ཞིབ་
སྡོད་སའི་
▁རིག་ལྡན་
བསླབ་བྱའི་
རིག་པ་དང་།
སྨུག་པོའི་
▁འབྲི་གུང་
མི་ཡུལ་གྱི་
འབྲེལ་བ་དེ་
▁གཉིས་པ་ནི།
▁དང་བླངས་པ་
པའི་དབང་གིས་
རྣམ་གྲངས་དེ་
▁གཙུག་ལག་ཁང་
གྲོས་མོལ་གྱི་
ཟུང་དུ་འབྲེལ་
ཡོངས་གྲགས་སུ་
རི་རྒྱུད་ཀྱི་
རིན་ཆེན་གྱིས་
▁འཁྲབ་ཁྲིད་པ་
▁རྩོམ་པ་པོའི་
གཅིག་སྒྲིལ་དང་
བསྟན་བཅོས་ཀྱི་
ཞིང་པ་ལས་མིའི་
རྒྱ་ཁྱོན་མུའུ་
ལེགས་སྦྱར་གྱི་
བྱས་པ་དང་ཆབས་ཅིག
རྣམ་པར་རྒྱལ་བའི་
རྨ་འབྲི་རྫ་གསུམ་
ཀ་ཏ་
ཀའེ་
ན་ལ་
སྦང་
▁མོད
རུ་མ་
▁བཀོད
▁འདང་
▁ལིང་
ང་གིས་
མི་ཚང་
ཡང་དེ་
ཤར་ནས་
ཤིང་།།
▁ཆར་པ་
▁ནར་མ་
▁འབངས་
གོ་མིང་
བྱེད་ན།
ར་སྐོར་
ལྷ་བཟོ་
ས་སྐྱ་པ
སྣེ་མང་
སྤུ་ཙམ་
▁ཁ་བྱང་
གཟབ་གཟབ་
བཟོས་ཏེ།
བསྡུ་བར་
བོན་ཆོས་
མཁྱེན་པ་
ཡང་དག་པ་
རྒྱལ་སར་
རྗེན་དུ་
རྨ་སྟོད་
▁བརྡ་ཆད་
▁སྔར་བས་
གསུངས་པས་
ཉེན་ཁ་དང་
དཔའ་མཛངས་
མ་ཡིན་པས་
རྒན་པོའི་
རྨད་བྱུང་
སྙིང་ཁམས་
▁དཔྱ་ཁྲལ་
བླང་བྱ་དང་
མཐོང་སྨོན་
རྩ་བ་ཚུགས་
ལ་ལྟ་སྐུལ་
ཧེ་ལུང་ཅང་
▁ནང་སྦྱོང་
▁སྐྱེ་ལྡན་
གཉོར་སྐྱོང་
ཆེས་མང་བའི་
དང་བསྡུར་ན།
དངོས་པོ་དང་
བུ་བཅོལ་ཁང་
སྤེལ་རྒྱུར་
▁ཚེ་ལས་འདས་
▁རྡོ་བརྐོས་
ཐུགས་བསྐྱེད་
དེ་ནས་བཟུང་།
བ་སོགས་ཀྱིས་
ཚད་བརྒྱ་ཆའི་
ཁང་གསར་འགྱུར་
གཙོས་སུ་ཚོགས།
དབྱར་དུས་ཀྱི་
དུ་བཏང་བ་དང་།
དུས་ཚིགས་ཀྱི་
བཞིན་ཡོད་ཟེར།
ཞིབ་དཔྱོད་ཁང་
ཟླ་བརྒྱད་པའི་
ཏང་གི་མི་རིགས་
མཚམས་འཇོག་པའི་
▁ལས་བྱེད་པ་དང་
ཉི་ཤུ་ཚོགས་པའི་
དཔའ་ངར་ཆེན་པོས་
རང་བྱུང་ཚན་རིག་
རུ་ཁག་གི་རུ་མི་
▁ཀྲུང་གོ་གསར་པ་
དུང་དཀར་བློ་བཟང་
བཅས་ཀྱིས་མཉམ་དུ་
མིག་མཐོང་ལག་ཟིན་
ཤིན་ཏུ་དབུལ་བའི་
བཛ
ཅིག།
བཀྲ།
ུས།།
ཁེའོ་
བསངས་
མཐུད།
མདངས།
འཇིབ་
སྐྱོབ
ཆོ་ལོ་
ཐུག་པ་
ད་ཆའི་
ཟས་དང་
རྒྱ་ཚ་
དཀྲོགས་
པད་ཁའི་
བདག་ཏུ་
བཤད་ནས་
མཐོང་ན་
མོ་ལུང་
འཚམ་པོ་
རང་སོར་
རི་ཡའི་
རྗེས་ལ་
ལ་བཀོལ་
▁བབས་པ་
▁མ་མཐའ་
ཁག་གསུམ་
ཆགས་འདུག
བསྟེན་ན་
མཐོ་དམའ་
མནར་བའི་
མི་བྱེད།
ཞིག་རེད་
འདས་ཀྱི་
སོ་གཉིས་
སྐྱེས་མ་
སྦས་པའི་
▁གཟབ་ནན་
ཁྲིམས་ཁང་
ཐིག་ཕྲེང་
ཐེ་གཏོགས་
པའི་ཕྱིར་
ཕན་པ་ཡོད།
བསང་མཆོད་
བྱིན་པའི་
མ་ལུས་པར་
མཚུངས་པར་
ཚེས་གཅིག་
འཆར་གཞིར་
འཕྲོས་ཏེ་
འབུམ་དགུ་
▁ཐབས་ཤེས་
▁དྲོད་ཁང་
▁ཕྱི་ཉིན་
▁ཞིང་དུད་
▁ལྷག་དོན་
དང་བཅས་པར་
དམངས་སེམས་
ཡས་མས་ཀྱི་
རིག་སྟོབས་
རྒྱལ་བློན་
སྙན་སྒྲོན།
▁ཞིང་དཔོན་
▁ལི་པུ་ཡཱ་
བཏོད་པ་རེད།
སྲིད་འབྱོར་
▁གནམ་གྲུའི་
བདེ་ལེགས་ངང་
བྱེད་དུ་བཅུག
ལས་བརྒལ་ཡོད།
ས་གནས་ཁག་ཏུ་
ས་ཚིགས་ཀྱིས་
སྟག་རྩེ་ཆུས་
▁ཐོན་ལས་ཀྱི་
▁རྒྱུད་འཛིན་
གསོ་སྦྱོང་དང་
གི་ཡོད་པ་རེད།
▁ཀུའུ་ཐི་ལོས་
▁རྩོམ་རིག་གི་
གྲོང་ཁྱེར་དང་།
མགྲིན་གཅིག་ཏུ་
འབྲེལ་མཚམས་སུ་
སྒྲིག་སྲོལ་དང་
▁རྒྱུགས་སྤྲོད་
ཁ་ཚ་དགོས་གཏུགས་
གཞུང་དོན་ཁང་གི་
དང་མང་ཚོགས་ཀྱི་
མལ་གྲོ་གུང་དཀར་
ཚ་ཚ་འུར་འུར་ངང་
འབྱོར་འབྲིང་གི་
སྟོབས་ཤུགས་ཀྱི་
གསུངས་ཡོད་པ་རེད།
དུས་གཏན་གནམ་གྲུ་
དོན་འཁྱོལ་ནན་པོ་
ཞ།
ལྷོ།
ེ་བ་
▁ཕུལ
▁འཕྱ
▁སྲ་
བཅོལ།
བཟླས་
[...]
